#version: 0.2 - Trained by `huggingface/tokenizers`
Ġ t
h e
č Ċ
Ġ a
i n
Ġt he
Ġ s
Ġ w
Ġ o
r e
n d
h a
e r
Ġ b
o u
Ġ m
i t
i s
e d
Ġ f
Ġ c
e n
o n
Ġo f
Ġa nd
Ġt o
in g
o r
e s
Ġ d
Ġ p
Ġ Ġ
l l
Ġ h
a r
Ġ l
Ġ in
Ġ he
a n
a s
a t
Ġ n
Ġ ha
Ġ i
o m
Ġ g
ha t
Ġb e
l e
o t
i c
o w
u t
s t
v e
Ġ e
s e
Ġ y
l d
l y
Ġt h
Ġt hat
Ġ it
i d
g h
Ġw as
en t
i m
c e
i on
Ġo n
Ġy ou
a l
t he
Ġ re
v er
a y
it h
Ġ u
i r
Ġw h
Ġa s
ĠĠ ĠĠ
Ġh is
e t
Ġf or
u r
Ġw e
Ġw ith
a d
Ġ r
Ġs t
gh t
a c
Ġ is
Ġa n
Ġn ot
Ġha d
o o
ou ld
a nd
t er
a m
Ġa t
Ġhe r
- -
k e
i ll
a in
r i
r o
c h
Ġs e
' s
Ġb ut
c t
Ġm e
t h
Ġh im
Ġs a
es s
re d
Ġs u
Ġs he
i l
o re
Ġ "
Ġs o
g e
i ght
p e
Ġha ve
ic h
a ll
he r
Ġ k
Ġd e
Ġf r
om e
Ġb y
. "
q u
Ġm y
u l
Ġa ll
i f
Ġwh ich
Ġthe y
t o
Ġn e
Ġth is
Ġo r
Ġw he
u s
Ġu p
Ġs h
Ġ v
es t
a b
, "
Ġc on
Ġd o
Ġfr om
re s
ou r
Ġ j
an t
Ġsa id
p p
at ion
ou s
u st
u n
ar d
e m
Ġwe re
Ġm an
in d
Ġn o
Ġe x
er s
l f
Ġwh o
ver y
ĠĠĠĠ ĠĠĠĠ
Ġthe re
Ġa l
i e
r a
Ġon e
o s
ar t
ou t
on g
w e
is t
as t
Ġa re
Ġf e
on e
oo d
ha n
the r
u m
o l
Ġl i
Ġw ould
Ġthe m
Ġk n
at e
am e
ou nd
Ġg o
Ġa b
ou gh
Ġthe ir
Ġl e
' t
Ġbe en
p t
a k
Ġi f
Ġc om
i g
Ġw or
ow n
n t
Ġw ill
Ġo ut
oo k
Ġwhe n
it t
r y
i ve
v en
or t
Ġw hat
se lf
o st
a g
re at
c k
o se
f e
it y
u re
d e
ac k
Ġa r
Ġa m
Ġp ro
Ġp l
Ġ qu
a ce
Ġc an
t e
a ke
Ġu n
he d
Ġyou r
Ġs p
Ġt r
Ġ en
Ġm ore
b e
Ġa f
a re
a u
Ġan y
o f
Ġa g
Ġs ome
Ġb r
Ġm r
i es
? "
o nd
o p
Ġc ould
is h
as s
ab le
p er
Ġp r
in e
Ġc h
im e
id e
w ay
in k
p l
Ġc l
v ed
Ġin to
en ce
Ġthe n
Ġ very
e l
Ġn ow
it e
an ce
h ing
Ġs ha
ot her
Ġo ther
Ġr o
Ġt han
f ore
itt le
Ġu s
ur n
Ġkn ow
ic e
ou ght
m ent
w n
Ġ '
Ġha s
Ġli ke
c i
Ġd id
ad e
all y
e p
Ġt w
a ge
Ġg r
Ġb o
c c
b le
Ġb l
Ġse e
nd er
ing s
f or
Ġl ittle
Ġa d
Ġl ook
ĠĠ Ġ
Ġo ur
Ġt ime
o ve
Ġi m
Ġs ay
u ch
Ġab out
Ġup on
a p
Ġsh ould
ou nt
t hat
ic k
i re
n e
Ġt e
Ġp o
res s
Ġg reat
Ġ _
re e
Ġto o
Ġd is
at her
Ġag ain
er t
i le
Ġh ow
w h
Ġo ver
v es
v ing
ar s
Ġp er
i ous
Ġon ly
c l
Ġha nd
b l
ac t
Ġc ha
or d
Ġaf ter
if e
Ġd own
Ġf l
Ġd ay
ar y
ion s
u e
y ou
k ed
u d
Ġg ood
â Ģ
b ut
u ll
n ess
f ul
Ġs c
Ġth ink
Ġm ay
Ġm uch
n ot
Ġp e
Ġit s
w ard
! "
ad y
Ġm ust
p s
Ġtw o
m an
Ġsu ch
Ġp art
i ed
Ġbe fore
o d
at ed
Ġm ade
i ld
Ġof f
Ġo ld
ir st
Ġst r
Ġth r
re n
is e
Ġp re
o ll
Ġthe se
Ġo wn
Ġl ong
Ġwe ll
t y
Ġ 1
Ġw ay
Ġs m
Ġre m
s o
Ġm ar
y es
Ġbe t
Ġne ver
Ġc ome
Ġu nder
Ġhe re
Ġm en
Ġs pe
an s
Ġwhe re
Ġy e
ri e
or n
Ġe ven
b er
ĠĠĠĠĠĠĠĠ ĠĠĠĠĠĠĠĠ
Ġg l
is s
ac h
f t
Ġm ight
e ct
Ġf irst
l i
Ġl et
c on
Ġc ame
in t
Ġb ack
g l
an c
o ld
a ve
Ġe very
n g
Ġ (
os s
Ġd es
Ġse em
ri ed
Ġbe c
f f
Ġth ought
Ġf a
i ly
an g
Ġcon t
Ġhim self
Ġha r
at h
ou se
Ġre s
w ith
l ess
l ed
s h
n o
p le
w he
Ġj ust
Ġth ose
Ġc r
m e
Ġg et
ar k
Ġ ke
Ġsha ll
ig n
Ġm ost
Ġbe l
Ġm ake
Ġl ife
or y
pe ct
i p
Ġp ass
Ġd on
om et
au se
Ġc a
Ġl ast
Ġw r
i v
fe ct
rie nd
Ġthr ough
Ġcon s
. '
Ġs l
Ġp res
Ġa way
at er
Ġbe ing
Ġst ill
Ġne w
he s
it ion
Ġbe g
Ġw ent
Ġim p
Ġa p
Ġc our
ot h
e ver
Ġf ar
Ġj o
at ter
Ġy et
Ġt urn
en s
Ġyou ng
en ed
Ġc all
w hat
Ġwor d
a red
Ġa cc
t ed
Ġcom m
i gh
Ġo b
Ġhe ad
Ġc ar
as e
o ck
i an
on s
i ble
Ġman y
m y
Ġt ake
Ġl a
w as
Ġre t
Ġo p
s he
or s
Ġwith out
ert ain
Ġte ll
Ġth ough
op le
Ġwh ile
Ġf riend
al k
en er
Ġcha r
ul t
c om
Ġe yes
Ġe ar
Ġcom p
Ġwor k
Ġf ound
i z
o g
, '
Ġw ant
th ing
ak ing
Ġh ouse
Ġn at
re t
Ġs omet
Ġe ver
r u
Ġr ight
Ġe nd
Ġs er
Ġw om
m ed
Ġat t
in ce
Ġon ce
a v
Ġnot hing
ation s
' ll
Ġ ent
the re
Ġc ount
Ġp ut
h is
Ġe m
j ect
p r
Ġs ir
e x
t ing
om ent
Ġa pp
Ġf ace
ic al
we ll
Ġm ind
Ġs ame
u p
se l
Ġsu pp
b y
Ġpl ace
g ed
ic t
ow ed
Ġn or
ent ly
Ġin d
c ed
n ow
way s
s u
Ġpe ople
n er
Ġd ist
m ost
ow er
Ġmr s
is hed
an k
i a
l es
. .
o pe
ct ion
Ġa c
Ġf ather
Ġan s
Ġn ight
Ġkn e
ro s
Ġs et
d en
c ha
Ġan other
it her
Ġm oment
Ġg ot
m s
Ġsa w
Ġp a
Ġth ings
Ġhe art
ow s
Ġle ft
re st
Ġf ind
i x
l t
Ġre p
Ġp le
Ġwor ld
, --
Ġgo d
the y
Ġin st
ain ed
b r
Ġl ove
Ġc han
Ġse c
Ġg u
Ġin te
e red
Ġth ing
Ġfe el
Ġlook ed
ut h
Ġl ight
Ġd if
o y
Ġp ers
Ġw ar
Ġg i
a il
oo l
Ġap pe
' d
ir l
Ġth ree
ce pt
Ġc o
Ġl ady
im es
Ġsu b
v ent
Ġg ive
re w
u al
it s
Ġch ild
Ġbel ie
in ed
Ġs at
Ġseem ed
Ġm iss
Ġal ways
Ġf oll
âĢ Ļ
c ess
we en
Ġd one
Ġtoo k
in ess
Ġfe ll
n ing
au ght
c hed
u nd
Ġen gl
ros s
Ġas ked
th is
Ġha pp
Ġgo ing
is ed
f r
t en
Ġbet ter
Ġk ind
Ġg ener
Ġfe w
l and
Ġs ur
Ġm a
i al
Ġm o
Ġw a
Ġagain st
Ġs w
pp ed
a ir
Ġhar d
ver s
Ġre g
p h
Ġre l
Ġqu ite
Ġhe ard
Ġkne w
Ġs ide
Ġret urn
Ġc ertain
Ġbo y
Ġto ld
ul ar
ha d
Ġre ad
Ġl o
Ġd r
Ġp oss
d er
Ġl ord
ter s
ha ps
u ck
Ġex p
ge ther
Ġd ou
Ġsomet hing
o ot
Ġhand s
Ġha lf
m en
Ġc ol
i red
it ed
in s
wh ich
Ġc le
Ġb re
Ġw ind
Ġye ars
x t
Ġcour se
Ġre st
Ġso on
i b
Ġen ough
Ġm on
Ġst e
Ġs il
Ġro om
ull y
Ġse en
Ġam ong
Ġm in
Ġe ach
ak en
m er
i er
Ġ čĊ
b t
Ġr ound
u g
Ġre c
Ġbet ween
os ed
ri ght
Ġin de
ward s
Ġbec ause
Ġne ar
Ġg irl
sel ves
Ġm atter
' m
f l
Ġh ome
g r
Ġa ct
Ġc he
k s
Ġal so
Ġk ing
Ġm other
Ġo cc
i et
Ġwom an
o ice
c es
a ut
d u
Ġe l
Ġ 2
Ġh um
Ġh our
Ġwho le
Ġdo or
as on
Ġp ur
ra ve
s p
Ġb oth
a f
Ġc ur
u res
le t
Ġn ame
Ġs ou
an y
an ge
Ġwh om
Ġhe l
ent s
at ch
ain t
ow ing
s er
Ġsu re
Ġc are
y e
Ġme an
ut e
Ġad d
Ġpo int
d o
at t
Ġ ed
st and
orn ing
ent le
er n
Ġke ep
Ġt re
Ġpo or
Ġcon f
Ġb est
Ġas s
the n
ĠĠĠĠ Ġ
Ġd ra
Ġwh y
Ġha ving
h im
or r
Ġin ter
Ġple as
Ġal most
' ve
Ġh igh
Ġdo es
h ow
Ġt er
whe n
at ing
Ġde l
as ter
d ay
Ġb ro
ĠĠĠĠ ĠĠ
Ġst and
Ġl ess
er ing
o h
ha ve
ab ly
Ġca pt
re nt
Ġhow ever
en se
Ġsm all
Ġcount ry
nd ed
t on
en e
Ġb ar
Ġp h
Ġl and
un g
Ġs ince
Ġw ater
Ġs k
Ġf act
Ġpres ent
re am
ate ly
Ġmy self
Ġf am
o ver
k en
Ġp ar
l ing
Ġb us
al s
Ġt ill
f ort
Ġfe lt
Ġe v
ie f
t r
d y
Ġturn ed
Ġar t
Ġday s
Ġs ent
m r
Ġde ar
Ġl ar
Ġword s
Ġcall ed
Ġdis c
Ġd ark
p ro
Ġhe ar
Ġu nt
Ġr ather
Ġinde ed
ou d
a z
_ ,
at es
Ġper haps
whe re
Ġop en
Ġ [
Ġv is
Ġm orning
c y
one y
Ġf ore
Ġad v
am p
Ġt alk
k ing
we red
b od
Ġh ope
Ġg re
Ġbeg an
Ġqu est
Ġ es
ain s
Ġne xt
Ġwh ite
o ke
g er
i i
Ġg ave
Ġst ood
m on
Ġm et
f ic
Ġs im
Ġg entle
a le
u bl
f ully
Ġany thing
Ġh on
Ġdou bt
ir d
un t
Ġv oice
Ġre f
l s
a w
Ġbelie ve
Ġb u
ce i
ment s
w or
fr om
ot t
Ġw ond
Ġbr ought
Ġsu n
Ġcan not
us ed
Ġf all
Ġbe aut
Ġans wered
Ġla w
ie ld
Ġu se
Ġad m
Ġpers on
ou n
Ġne ed
bod y
Ġr u
Ġsp ir
Ġbe h
Ġg one
Ġf ull
Ġt aken
Ġp ower
? '
ant s
a h
g g
ress ed
it ies
Ġher self
Ġspe ak
id er
et s
Ġtr ue
Ġ1 8
-- --
Ġbl ack
it ing
d den
Ġh or
re ad
Ġin s
Ġt ri
Ġunt il
Ġinte rest
u red
Ġin c
as h
b ed
ac es
c le
r ist
ur ing
it u
Ġcont in
. _
Ġl ay
Ġc ond
Ġi de
anc es
ent ion
Ġr un
ce ed
Ġa w
os ition
w er
ar ing
Ġf our
Ġhel p
Ġa ir
Ġsu dden
Ġb ur
an e
n ed
ha r
Ġfor g
em pt
et er
Ġle ast
il ed
is on
Ġw ife
Ġstr ong
Ġs we
re ady
Ġto gether
Ġf ire
ag es
st r
Ġother s
wh o
li ke
i ver
ie w
Ġde ath
Ġl au
Ġdif fe
s c
is ter
Ġwho se
Ġal ong
ra ce
Ġs le
Ġse a
Ġpl ay
Ġth us
Ġex t
a im
ang er
Ġh old
Ġengl ish
Ġrem em
ac hed
th ough
Ġs ort
Ġm oney
Ġm er
u ally
Ġc ried
Ġnat ure
Ġcapt ain
Ġp ri
ve l
Ġin t
Ġser v
Ġb ook
Ġgi ven
ren ce
Ġd ire
y ing
id es
Ġs y
Ġf in
y s
ar r
Ġc ase
g th
Ġp ol
und red
pl ied
Ġfor m
Ġpro p
on t
Ġgener al
Ġm il
st er
Ġpass ed
if ic
Ġfe et
Ġlook ing
he n
Ġthem selves
w ould
Ġsh ort
Ġre al
Ġf ur
Ġsay s
w ill
Ġlar ge
ak es
c ome
Ġle ave
p art
Ġre ason
id ed
Ġbeh ind
Ġ 3
Ġde c
in es
Ġwhe ther
le y
Ġs ing
Ġw ish
Ġr a
Ġde ad
Ġi ll
f fect
Ġal one
Ġs on
Ġre d
le ct
Ġcl ose
Ġo pp
Ġquest ion
Ġc or
Ġfa ir
Ġre ally
Ġab ove
Ġto wn
Ġpr om
Ġbr other
c hes
Ġst art
' re
Ġth ou
b ert
Ġb ed
h n
cei ved
Ġi r
u ght
Ġ *
u se
Ġc ir
ac ed
he re
Ġs ound
at ive
a pp
ent y
v al
Ġst ate
ut ion
ard s
we re
ill ed
l ook
Ġde ep
Ġp at
Ġn um
c han
Ġunder stand
Ġb es
Ġlet ter
Ġof ten
Ġp ubl
Ġw ood
Ġt ry
Ġm is
Ġe as
Ġjo hn
! '
Ġch rist
the m
Ġex pect
s on
Ġsec ond
il ity
te red
ha m
Ġh undred
u ed
Ġs ign
al ked
for m
Ġgr ound
Ġl ad
Ġfe ar
Ġtr uth
the ir
Ġab s
Ġre plied
id ent
if ul
i ent
Ġs ch
Ġman ner
s ide
ur al
am es
Ġt en
Ġwith in
Ġst re
c r
ot e
-- "
Ġal ready
Ġkn own
e k
Ġchar ac
Ġm ad
Ġpro f
ious ly
Ġcom ing
Ġfor t
aught er
Ġc e
i ence
c ri
. ]
p ar
Ġme et
af ter
Ġor der
Ġfriend s
Ġsupp ose
c o
Ġw ild
c ul
u nder
Ġl ow
Ġm ount
Ġt imes
n or
Ġspir it
Ġto wards
c a
ver al
Ġ x
Ġde v
Ġd ri
Ġye ar
Ġex pl
Ġel se
g o
0 0
s ome
Ġsub ject
Ġit self
Ġsu ff
Ġle ar
Ġh ur
Ġw alk
Ġli ve
p o
et h
Ġob ser
Ġc ap
he ad
c um
ro om
Ġar m
Ġg e
. --
Ġw all
Ġin v
er ic
Ġb ad
is m
p ter
Ġj ud
a id
Ġme ans
Ġl ost
ove red
Ġd ro
Ġas k
itt ed
sh ip
) ,
Ġwond er
Ġbus iness
y our
Ġe ffect
it er
p re
Ġth y
âĢ ľ
Ġm id
ur ch
ous and
Ġne cess
at s
Ġcle ar
o b
as ion
Ġsu m
Ġs ix
Ġme re
u b
c an
Ġus ed
Ġhum an
Ġbr ing
Ġe ither
Ġtr ou
Ġreturn ed
a ven
Ġr ose
Ġe ye
Ġc ast
l ight
Ġpre t
Ġchild ren
Ġbo dy
id ence
Ġqu iet
d le
Ġthere fore
ci ous
Ġpr in
b it
Ġst ep
Ġgl ad
âĢ Ŀ
wh y
Ġv ar
Ġl ist
Ġear th
ne y
g in
Ġme m
Ġper fect
et y
ll ed
Ġob ject
Ġstr ange
ur y
Ġhe ld
Ġke pt
Ġs ense
ren ch
is ing
Ġcons ider
itt ing
d is
Ġhor se
Ġw on
b and
p ed
Ġans wer
Ġwom en
Ġex c
ress ion
Ġto m
Ġh us
Ġp ort
n y
Ġd ut
Ġd u
Ġs ight
if t
_ .
Ġs qu
Ġm aster
m ore
Ġin f
Ġfam ily
Ġcomm on
r ing
i ans
n ight
un e
iz ed
Ġgo ld
Ġc al
Ġf oot
orr ow
Ġengl and
Ġac ross
Ġse veral
Ġfell ow
Ġp ast
Ġt em
Ġsh ow
ct or
Ġres pect
Ġappe ar
te nd
ing ly
Ġv iew
con s
b o
Ġj e
Ġp ain
ou th
cc ess
Ġm aking
Ġgo ver
re m
Ġle ad
Ġy es
Ġcharac ter
Ġcon st
in ation
er y
Ġc ut
Ġde al
Ġposs ible
Ġro ad
Ġeven ing
Ġt ra
Ġst ory
Ġm ist
Ġ ut
Ġt ou
c he
ci al
Ġb ig
Ġdid n
Ġf ive
Ġseem s
Ġo ught
Ġf ree
on es
Ġab le
is f
Ġb it
i ar
ic es
Ġqu ick
for d
Ġex cept
Ġbl ood
Ġdif fic
Ġm ur
Ġh ill
Ġbec ome
Ġth ousand
Ġm ag
Ġpro per
us s
ag ed
Ġd uring
Ġro ck
Ġsl ow
Ġpro b
Ġde cl
Ġide a
ond on
Ġremem ber
y ond
in ct
e en
us h
ow ers
ant ly
z e
are nt
or ge
air s
Ġle a
Ġch urch
Ġc ross
c our
Ġt able
ic ular
Ġar ri
Ġh o
Ġacc ount
Ġf ig
Ġbeg in
t w
Ġc old
Ġre ady
ar ch
al th
ot s
Ġc ent
Ġen g
Ġsou l
Ġsur pr
Ġe le
Ġdiffe rent
Ġbec ame
Ġc oll
u ct
ir t
Ġ est
ut es
Ġsudden ly
Ġapp ro
s ha
Ġw atch
em ent
im ent
Ġex cl
Ġpubl ic
pe nd
Ġsp oke
Ġwor th
uth or
Ġcon c
Ġe qu
ter n
al ity
Ġar ound
Ġ .
Ġpart y
Ġp ay
Ġsomet imes
p ose
Ġr iver
Ġbre ak
Ġst o
Ġpro du
bl ed
Ġgentle man
itu de
i ves
Ġm od
e y
as ed
Ġ ve
Ġsle ep
m iss
Ġhe aven
Ġv i
r ic
g u
Ġdra w
Ġhe av
Ġpret ty
Ġpro v
Ġfa v
ĠĠĠĠĠĠĠĠĠĠĠĠĠĠĠĠ ĠĠĠĠĠĠĠĠ
Ġm us
Ġcour t
g es
Ġ 4
d on
Ġar ms
Ġmon th
Ġim ag
cha pter
Ġsc ar
Ġfoll owed
Ġtr ans
Ġd in
be en
Ġoff ic
Ġcomm and
Ġdire ct
e ad
re l
Ġsec ret
cha r
Ġr an
Ġc ity
Ġf ight
Ġfeel ing
Ġst ra
Ġsh ip
j ust
Ġst ri
oo f
Ġaf f
att le
c ould
in ter
h ouse
Ġso l
g y
ri age
Ġf ine
Ġthe e
Ġst ud
Ġhe n
Ġhus band
led ge
Ġbeaut iful
u c
Ġh ot
Ġd iv
Ġv al
g ing
Ġqu ar
Ġst ay
Ġf rench
Ġp en
Ġha st
Ġle g
ra id
Ġocc asion
Ġl ine
Ġc orn
at ure
Ġse lf
Ġfor ward
med i
Ġde m
Ġam eric
Ġd ream
Ġp al
Ġma j
t han
ess ion
Ġv ill
Ġch ief
im p
Ġcom ple
re ed
Ġappe ared
anc y
Ġn one
Ġde f
Ġl ondon
Ġ ver
u ff
Ġm ove
con t
Ġb right
Ġbe yond
Ġph il
Ġsu ccess
wh ile
am ent
Ġha ir
on y
Ġex am
) .
id ge
Ġadd ed
Ġs n
Ġcertain ly
Ġso ld
ist s
Ġhapp y
Ġdo ing
cum st
Ġevery thing
Ġar r
i or
ess ed
Ġl ed
Ġfa ith
Ġm or
Ġor d
ab out
m a
Ġex per
of f
Ġse nd
Ġcontin ued
Ġt aking
um p
res ent
ous ly
m p
in ary
Ġm ine
Ġgre en
ll y
m ar
ound ed
Ġl ate
res h
Ġfr ont
Ġgr and
aim ed
Ġv ol
ha nd
gg est
Ġhis t
Ġtw enty
o e
Ġb ene
ot ion
Ġre qu
to gether
Ġha t
g ood
Ġcom es
m in
Ġso ft
itt en
Ġaf fect
Ġcar ry
Ġfur ther
Ġsch ool
Ġlau gh
ap pe
ic s
Ġpl ain
Ġreg ard
ru pt
âĢ Ķ
Ġd anger
Ġan im
Ġboy s
il t
Ġchan ge
Ġchan ce
Ġpr ot
Ġhour s
if ied
ag ain
Ġop in
v ol
ain ing
Ġnat ural
Ġac qu
Ġvis it
ĠĠĠĠ ĠĠĠ
Ġa uthor
Ġstre et
th r
us hed
Ġd et
Ġen em
Ġdo g
us ion
fe red
Ġw at
g et
Ġb reat
i am
if f
Ġtr ust
or m
Ġimp ort
se t
Ġd aughter
s m
Ġs ad
Ġcomp any
oss ible
Ġpr ay
ound s
Ġc reat
Ġnum ber
en ing
c ent
Ġcar ried
ist ed
Ġwant ed
Ġa ge
Ġl en
ne ver
Ġyour self
sh ould
Ġp ie
Ġs al
anc ed
Ġwr ong
l er
c ount
Ġbe ar
Ġc ry
il ing
Ġp ict
Ġd a
b ers
ou red
Ġw it
Ġbo at
. ,
Ġd est
Ġl ater
se qu
our s
Ġnear ly
Ġsay ing
Ġlong er
iz e
Ġc ause
Ġsha d
Ġpart icular
it ions
ir m
c ol
l ittle
Ġsat isf
Ġset t
Ġdis p
qu e
Ġb ill
Ġear ly
Ġan x
Ġre ached
c ertain
Ġfor ce
i us
Ġcom fort
Ġis land
k es
Ġaf raid
up on
Ġwind ow
Ġdel ight
be fore
Ġt ried
Ġhard ly
Ġpri v
ol og
Ġre ceived
Ġf ool
o int
j oy
Ġcomp an
l ong
Ġg ard
Ġf if
Ġswe et
Ġe ff
Ġs ister
Ġwh is
Ġo h
Ġpr ince
ci ent
ce ive
as k
a ld
Ġha ll
s pe
Ġp osition
Ġli ving
ic ally
Ġsu per
Ġl ab
b et
c ies
d id
Ġatt empt
Ġne ither
Ġr om
Ġt rave
Ġsil ence
Ġrem ark
se e
re g
Ġw alked
Ġmil es
Ġmin utes
s aid
Ġg er
Ġan n
Ġcha ir
Ġtrou ble
Ġun cle
Ġfl o
fl u
Ġsl ight
ha s
w ise
f er
Ġsp o
Ġin qu
Ġag o
ust om
Ġpr act
in to
ri es
Ġop ened
Ġf ast
one l
Ġde p
h ood
d om
Ġb ird
e very
r on
Ġsu ggest
Ġfor th
en ces
Ġl ie
u es
ll ing
Ġdo ctor
Ġge orge
Ġpe ace
ri ble
ci ally
Ġg race
g reat
t ime
Ġr id
ac y
ag er
Ġprin ci
Ġbl ue
Ġsm ile
um e
igh b
d es
Ġme ant
Ġm outh
Ġp ost
pp ing
a x
Ġnecess ary
ick ed
ang u
c ar
m ing
Ġc amp
ne w
ol ute
Ġacc ord
mr s
Ġpur pose
oo se
p ly
Ġyou th
.. ..
Ġla id
f oot
Ġm ed
the se
Ġa v
Ġre pe
Ġst ren
Ġpo et
Ġto r
act ion
d ed
Ġscar ce
Ġcont r
ix ed
ĠĠĠĠĠĠĠĠĠĠĠĠĠĠĠĠ ĠĠĠĠĠĠĠĠĠĠĠĠĠĠĠĠ
Ġ 5
Ġc ra
Ġlen gth
Ġcir cumst
v i
Ġpleas ure
Ġnor th
Ġs ens
ive ly
g hed
on ly
Ġd en
Ġdut y
m ay
Ġprob ably
Ġg rave
n ment
Ġsa ve
Ġthink ing
Ġt reat
Ġslow ly
Ġd ie
Ġent ered
ors es
Ġdes p
il s
Ġcr ow
har d
b ar
f ace
Ġwe ek
st ood
be l
Ġ1 7
Ġal though
Ġdist ance
as es
og n
i ps
g an
Ġheav y
Ġent ire
Ġim medi
Ġs in
Ġr ich
k now
Ġg all
Ġget ting
se m
Ġsha r
Ġacc om
Ġw est
Ġbro ken
as ure
b s
com p
Ġdes cri
Ġmar k
Ġb ank
Ġf ield
i ers
Ġj ack
Ġstand ing
en cy
Ġwhat ever
Ġe ight
Ġo ri
Ġknow s
e ch
ust r
o es
b ur
Ġli ved
ll ow
Ġg un
Ġli ps
e ven
Ġl u
Ġtre es
Ġb urn
Ġj our
Ġh op
Ġto p
Ġex act
Ġstr uck
Ġpro ceed
fe rence
Ġexcl aimed
ch ing
g ar
eter m
Ġh ung
Ġeas y
Ġh ig
Ġcl ass
Ġhapp ened
ad ed
Ġbr own
Ġm akes
s omet
Ġsa fe
f ather
bl ing
ce ll
Ġm ary
be c
s ay
Ġpr ison
i vers
at he
in ing
Ġopin ion
Ġjo y
w ood
o c
Ġknow ledge
Ġbe ll
Ġdin ner
Ġo bl
Ġd rew
p it
Ġhon our
Ġd ick
ci ety
Ġc oun
Ġ er
Ġar my
Ġcon v
Ġd ress
Ġd ied
Ġwe ak
Ġwr itten
s pect
Ġpre p
Ġserv ice
is es
ci ence
i res
s uch
Ġqu een
Ġb ott
k n
ir ty
no on
Ġf it
Ġwr ite
Ġde g
Ġsto pped
Ġw is
Ġin cl
Ġsou th
Ġp ap
pl es
e ks
Ġbu ild
Ġn arr
Ġbo ard
Ġm ass
Ġm ill
Ġex ist
Ġrem ained
iv id
o om
Ġl im
am ed
Ġinst ead
s ed
Ġpa per
Ġbeaut y
n a
Ġac cept
Ġc re
or ies
pl ace
pe cially
Ġnot e
Ġg az
Ġbr it
ash ion
se c
Ġcon vers
Ġbel ow
Ġs itting
Ġu nd
en ess
Ġne ighb
not hing
d own
t s
Ġwa it
ha pp
Ġcom pl
Ġst one
Ġm ess
ul ty
Ġlau ghed
Ġs am
Ġt one
Ġf le
Ġhist ory
Ġsil ent
m ber
Ġm ention
Ġc ab
Ġro b
Ġinte ll
Ġfoll owing
f ast
y ed
Ġsh ore
z z
. )
Ġfig ure
Ġt y
in a
Ġres ult
Ġh orses
Ġg en
Ġstra ight
tw o
Ġb ound
Ġs ac
Ġt ree
Ġf ut
Ġsa v
Ġrel ig
i o
Ġd om
un ity
Ġsh out
; --
Ġs it
Ġl atter
rie f
Ġa unt
p ers
w r
Ġc aught
re qu
Ġfr ank
Ġthought s
Ġus ual
Ġsee ing
Ġcon cl
th ink
Ġf resh
Ġdiffic ult
Ġan g
m n
ve re
are r
p ass
ac hing
Ġv an
Ġpol it
Ġb en
Ġfoll ow
nd ing
Ġs now
Ġstren gth
Ġdes ire
he l
Ġlet ters
Ġlo ved
Ġnew s
z en
Ġforg ot
Ġgr ow
st on
Ġgo es
de red
e ll
Ġp op
o ved
in te
s y
c ap
Ġ 6
ib ly
th ought
Ġg rew
Ġwar m
iet y
Ġmo ved
Ġen joy
Ġori gin
pl oy
Ġw ide
Ġs or
Ġth ick
o red
u el
Ġbro ke
Ġdr ink
Ġgover nment
Ġe at
j o
Ġpl an
Ġsp ot
Ġenem y
Ġfor mer
Ġgl ass
Ġi i
Ġf ing
him self
Ġsa il
is ion
Ġv ict
be red
ish ing
Ġadm ir
ct ed
Ġdem and
b re
Ġforg et
Ġan t
Ġp ull
it ation
Ġd read
ous es
Ġin flu
os ing
Ġsing le
Ġocc ur
Ġsome what
n at
Ġmar ried
Ġto ward
ort ed
Ġmonth s
k ind
Ġsh owed
Ġcol onel
Ġatt ack
bl es
te en
Ġgreat er
Ġf al
Ġso ciety
m it
Ġ âĢľ
ro ad
Ġl angu
i od
ar m
ot hes
Ġf at
Ġocc up
ic ed
we l
Ġno ble
Ġpl aced
Ġn ation
est y
Ġf ro
h old
Ġbel ong
b ack
f irst
ock ed
Ġlad ies
Ġgu ard
Ġatt ention
Ġbes ides
d ing
n est
Ġpres ence
Ġsc ene
Ġr ap
ca pe
Ġc ou
Ġmere ly
Ġexpect ed
Ã ©
Ġe vent
Ġple ase
Ġimp ossible
cul iar
Ġd eterm
Ġstart ed
ish ment
Ġbro ad
er v
Ġcomple te
Ġsp r
Ġg ra
Ġwa iting
i pp
un k
Ġi d
Ġc at
Ġ z
Ġm al
Ġrem ain
wor th
Ġb ab
Ġoff ice
u ous
ab l
Ġappear ance
Ġpleas ant
Ġcl oud
Ġmar ch
Ġmar ry
Ġvi ol
b ly
Ġf ancy
per haps
re me
not e
Ġlike ly
Ġbreat h
Ġgard en
Ġfav our
ro du
Ġbe at
r or
a ff
Ġres ol
ic ate
Ġde part
thr ough
Ġst ream
Ġafter wards
m uch
Ġsim ple
Ġbes ide
h y
Ġs and
Ġeff ort
Ġc iv
Ġp eter
Ġne g
Ġso le
el s
c ceed
ro p
Ġbook s
Ġth ird
b es
Ġb attle
n ers
ur ope
m ight
with out
it ary
Ġpass ion
Ġpl aces
Ġfut ure
Ġwould n
or k
Ġarri ved
c il
Ġal together
Ġmo on
Ġtalk ing
Ġar ch
Ġcircumst ances
ent ed
Ġrec ogn
ĠĠĠĠĠĠĠĠ Ġ
Ġsk y
Ġut ter
Ġd im
Ġsuff ic
Ġst op
Ġsh ot
Ġvill age
Ġl iter
Ġexp ression
.. .
at ic
pe red
for med
g ener
Ġwor se
Ġis n
y al
Ġh un
Ġf ly
Ġsh ook
Ġexp ress
Ġme l
Ġspe aking
or ough
Ġra ised
Ġp ath
Ġobser ved
Ġmin ute
u ge
pt ion
Ġsp ring
id ing
Ġcon sequ
Ġb all
im ate
Ġafter noon
u ly
d ist
os es
Ġk iss
Ġha ng
Ġmy ster
Ġfore st
he art
re r
Ġ |
kn own
Ġgirl s
Ġturn ing
Ġm art
an ch
ay s
Ġf illed
Ġlea ving
Ġev il
Ġcon ne
Ġp et
Ġspe cies
Ġsurpr ise
Ġcould n
Ġpres ently
Ġd ry
Ġout side
g ress
Ġsor ry
Ġgi ving
Ġf un
Ġm ain
Ġbegin ning
Ġl ou
Ġthan k
Ġinc re
ag ue
Ġs ick
Ġi g
Ġte ars
ri but
m orrow
t ake
st ill
Ġpo ck
Ġstr ug
Ġcorn er
Ġfam il
te nded
est s
Ġbene ath
bec ause
ud ed
Ġr ic
âĢ ĺ
Ġli ves
look ing
Ġger man
Ġsh ut
Ġtr oo
Ġh y
m ade
Ġt all
Ġdu ke
ay ed
l ord
su pp
Ġm ut
Ġem ploy
Ġimmedi ately
ict ion
Ġsm o
Ġpre v
Ġlook s
Ġper iod
Ġconvers ation
um ed
Ġma id
Ġne ck
e nd
Ġb ow
Ġes pecially
Ġle an
Ġa ction
p ort
ast e
Ġun less
s l
ant age
Ġes cape
or a
Ġe t
Ġgener ally
al ed
Ġwr ote
in ite
Ġentire ly
Ġtry ing
Ġspe ech
Ġscarce ly
Ġapp arent
Ġsw ord
Ġvar ious
b ing
c all
m ust
d ra
Ġe ager
Ġdecl ared
Ġpers ons
Ġpa id
Ġf an
Ġmid dle
Ġ 8
ill e
Ġcond uct
Ġpe culiar
ch ief
Ġabs olute
ri f
Ġsa ke
Ġpa le
t is
Ġeas ily
l aw
Ġm ir
Ġsy mp
r act
Ġpriv ate
Ġent er
Ġ 7
in st
ur s
it al
Ġpie ce
c al
Ġc ost
Ġv es
Ġcond ition
Ġrep ly
Ġjour ney
Ġjud ge
Ġo d
Ġobl ig
Ġinst ant
Ġquick ly
Ġr ate
ret ched
th ose
Ġf aint
Ġlear ned
Ġm ort
Ġpart s
os op
Ġameric an
Ġtou ch
is to
Ġpre vent
Ġconc ern
Ġl ines
Ġcl er
Ġv ain
Ġst ar
Ġchar ge
Ġmaj or
Ġrap id
se em
Ġchrist ian
as hed
Ã ¦
Ġw ise
st em
Ġdire ction
l ady
it es
c her
Ġhon est
Ġf ood
ad es
Ġciv il
Ġw and
Ġsum mer
ind e
Ġs li
Ġsm iled
Ġperfect ly
Ġfr ance
1 8
Ġsu cceed
e ar
Ġcast le
Ġu r
Ġob t
Ġexact ly
ra ph
Ġrep resent
cl ock
Ġk ill
f riend
Ġv all
Ġe urope
wor k
fort un
o on
Ġr is
il es
ii i
ri g
ed s
Ġter rible
it able
Ġgentle men
Ġt ur
p ond
ide red
w om
Ġl ower
! --
Ġcompan ion
Ġflo or
Ġp ra
lect ed
v iew
ar ked
Ġem b
vel op
Ġmar riage
Ġchan ged
Ġf irm
Ġshad ow
id ently
Ġp un
Ġspo ken
r am
n s
Ġext ra
Ġd are
Ġsupp osed
as p
Ġsim ply
h um
Ġp it
anc ing
Ġrepe ated
Ġf er
e c
Ġf ashion
Ġrun ning
ic ation
Ġx x
Ġc ous
st one
Ġar g
Ġcal m
Ġtre m
le nd
Ġw ished
at or
an other
Ġl if
Ġfall en
Ġhe s
Ġear nest
um ent
Ġf right
Ġte nder
p or
Ġpur su
ect ion
i ently
Ġs itu
Ġpleas ed
Ġha m
al es
Ġex cell
Ġv irt
Ġg ate
st e
Ġr ain
f ield
Ġcur ious
Ġw in
Ġj ames
Ġv ent
somet hing
Ġpr oud
" '
Ġmatter s
os ite
Ġbit ter
ail s
it or
Ġse ven
y n
Ġunder stood
ant ed
Ġd i
Ġhe alth
Ġf ixed
Ġk illed
Ġnot ice
Ġves sel
Ġh ol
Ġe ars
Ġha th
ing u
Ġdiffic ulty
Ġche er
e v
ivid ual
Ġp ress
Ġshar p
Ġir on
Ġinflu ence
---- ----
Ġfeel ings
Ġmount ain
Ġlea ves
Ġcons cious
Ġs ong
Ġap art
Ġp ure
Ġp i
Ġg ro
Ġbur st
t urn
Ġwall s
o x
ha lf
u it
Ġf ier
Ġgr ass
r al
Ġb orn
c ing
Ġv en
Ġkn ight
Ġcrow d
Ġstep s
Ġmus ic
Ġl ot
c ise
Ġdraw ing
Ġh ost
ib ility
com m
Ġan cient
Ġimport ant
Ġlear n
Ġext reme
Ġpict ure
Ġtem per
Ġst at
Ġm at
Ġf ol
Ġdist inct
Ġph ys
Ġst ates
Ġanx ious
Ġl ying
w a
Ġall ow
Ġexper ience
p res
s ir
g ment
Ġde fe
ish op
Ġfl owers
Ġw inter
et t
Ġro yal
Ġopp ort
Ġre ach
Ġl oud
Ġall owed
w ing
c ur
Ġhar ry
Ġwork s
Ġe ast
Ġr ace
Ġtr ain
il ar
Ġat tend
Ġyour s
Ġsil ver
s ur
Ġse par
app oint
Ġbo x
Ġbec om
ot ed
i en
ant ic
v ation
Ġd am
. âĢĿ
Ġbelie ved
i ant
Ġg ar
Ġwe l
Ġfif ty
Ġfal se
Ġsu sp
be ing
Ġstr anger
Ġe re
Ġf urn
e e
o cc
be ll
Ġth rew
re y
it ive
Ġa in
Ġpass age
Ġwonder ful
Ġdark ness
Ġe ld
Ġcr it
d if
Ġmur m
e per
Ġcl aim
k in
Ġcons idered
r ound
ac her
ar ily
h us
Ġher o
are st
Ġrem arked
m other
Ġdes ert
Ġprom ise
Ġt ong
Ġjust ice
Ġsp an
Ġsw ift
Ġdeg ree
Ġst ro
Ġser ious
Ġm ot
Ġpass ing
Ġmod ern
: --
Ġdiffe rence
Ġlangu age
ie ve
um b
it ated
qu est
Ġl oss
Ġfort une
Ġy ork
Ġad vent
Ġoff er
Ġse at
Ġquiet ly
Ġf ond
Ġh ouses
Ġcl osed
Ġ ess
an n
Ġmem ory
Ġwat ched
y et
Ġwr iting
Ġaccord ing
Ġg ame
Ġwill iam
Ġgl ance
Ġway s
Ġno body
e av
sha ll
Ġf em
Ġcon ce
Ġv ast
Ġan ge
Ġbo ld
l ife
Ġgre y
Ġour selves
Ġre vol
er ve
Ġr ise
Ġbrit ish
ro se
Ġha bit
Ġdra wn
s ing
ter ing
foot note
Ġmet h
Ġr ough
Ġr ing
wel ve
Ġag ree
Ġbird s
su b
Ġd ue
ep ing
Ġgu ess
w ord
Ġc overed
Ġno d
re es
s at
Ġsp ite
en g
p et
Ġcr own
if y
Ġord ers
Ġf ate
cept ion
Ġj im
Ġfor med
ir ing
l ast
Ġb ull
Ġgr ou
f all
Ġt alked
Ġc ustom
est ed
or ne
b oy
Ġdeterm ined
Ġimp ro
Ġde ck
Ġapp l
Ġpr ide
Ġcomm un
Ġeng aged
Ġdec ided
Ġth in
us es
er able
Ġcreat ure
Ġc atch
Ġass ist
m ind
a way
Ġpock et
p ut
Ġc and
g od
Ġre ck
Ġhen ry
Ġso cial
Ġsymp ath
Ġsh r
Ġhead s
Ġof fered
w ar
b u
g i
Ġcl othes
Ġdro pped
Ġst ation
Ġnarr ow
appe ared
id den
iv al
Ġsure ly
Ġse arch
Ġsp ent
Ġbe ast
ic ated
th ree
k er
Ġaffect ion
Ġpar is
Ġsy stem
Ġind ian
Ġread ing
Ġth irty
Ġt it
Ġem pt
Ġfa il
Ġmag n
k y
ex p
Ġh oll
Ġw id
ond er
ak ed
Ġdev il
Ġcol our
a ly
ul ous
Ġfor ms
os ity
Ġl uck
Ġc ases
oun ced
Ġre ve
Ġr ail
Ġbl ow
ex pect
ree k
w ater
are t
Ġst ick
f it
Ġh orr
Ġsp read
Ġint rodu
pe l
Ġp ick
Ġproper ty
Ġdes ce
Ġbl ind
Ġcous in
pe ople
Ġr ank
Ġprodu ced
Ġphil osop
te ll
Ġknow ing
Ġquar ter
Ġbott om
Ġho ly
Ġde pend
Ġdisc overed
Ġfa ult
ou l
Ġbreak fast
Ġb and
ch ild
Ġperson al
m itted
Ġr ising
ur ally
Ġst ir
l o
form ation
Ġp ity
Ġw ine
v is
Ġshould er
m ond
Ġt im
Ġli ked
Ġvall ey
Ġang ry
ll en
j ud
Ġapp re
Ġ1 6
Ġmor al
Ġmeet ing
b ook
Ġim per
Ġest abl
Ġa ston
Ġwe ather
Ġopp osite
ater ial
l a
Ġlaw s
Ġf requ
Ġpo em
en gl
Ġd an
Ġprep ared
Ġon es
Ġgreat est
Ġn ice
Ġb rave
Ġsp lend
Ġth ro
i ke
t ic
on ed
Ġw al
le g
s es
ac ing
Ġd ust
Ġstud y
c ame
Ġp ounds
h or
con f
Ġb ra
Ġdo ll
Ġ -
Ġhig her
oo p
Ġhill s
Ġadv antage
cons cious
Ġaw are
Ġoffic er
p resent
Ġwa ited
p ri
Ġforgot ten
im ents
Ġig nor
Ġcour age
p al
Ġsqu are
Ġn ames
Ġin no
ther n
Ġev idence
Ġcr uel
Ġdisc uss
Ġthr own
Ġsold iers
ock s
Ġbre ast
ad ing
Ġind ividual
Ġde li
Ġsp ace
Ġc op
Ġsurpr ised
ac c
Ġb al
Ġdest ro
Ġwe ar
00 0
Ġb ir
w ind
Ġd er
Ġpa ir
us hing
ct ions
Ġ 9
cour se
Ġte a
ca pt
b ury
Ġ1 0
Ġro ll
Ġp ack
Ġhe ight
i um
Ġcab in
Ġsett led
Ġoffic ers
Ġspir its
Ġnat ive
you ng
a ves
Ġs an
Ġsha re
Ġc ow
Ġem p
le ep
Ġfin ished
it ution
Ġsm oke
g ot
er ved
f a
, âĢĿ
f our
Ġye llow
u de
o id
Ġfact s
h ib
Ġb are
Ġaccom p
Ġl ose
he st
Ġbre ad
Ġlist en
ut ed
l ar
? --
Ġter ms
Ġmount ains
l in
Ġsh own
Ġinter rupt
Ġf aces
Ġremem bered
f act
n al
Ġhur t
Ġinte nded
in y
ab les
Ġsole mn
Ġgreat ly
ill y
Ġaff airs
Ġord inary
Ġed uc
int ed
Ġwe eks
on ce
inde ed
Ġm otion
Ġc red
Ġide as
Ġopport unity
Ġval ue
Ġt aste
Ġwas n
f oll
ist ic
Ġchar les
Ġt welve
Ġcl im
Ġmaj esty
Ġb ag
em ber
ord inary
g le
le ction
Ġco ast
us ing
ac ious
Ġam ount
f ound
Ġmean ing
Ġoblig ed
ect ed
Ġwalk ing
Ġhold ing
man y
Ġl od
Ġhot el
is ters
Ġhar m
Ġsu nd
Ġtw ice
ang ed
Ġserv ant
Ġprof ess
Ġinst ance
Ġsusp ic
Ġgr ad
Ġequ al
ru ction
c ast
Ġrep ort
ail ed
Ġquest ions
d r
ific ation
Ġi v
pp er
Ġ1 5
Ġpro ved
Ġre ceive
Ġanim als
Ġwhis pered
Ġj er
Ġend eav
Ġread er
ul ation
athe red
Ġother wise
Ġsc ot
Ġt ired
Ġkeep ing
Ġadd ress
Ġwood s
Ġsitu ation
Ġtroo ps
i ally
ha ving
Ġintell ig
as ons
Ġpoint ed
Ġreg ular
Ġha ven
qu is
Ġo per
Ġev idently
Ġpro ve
Ġfor ced
th ings
Ġli es
Ġexist ence
Ġw il
Ġ &
age ment
Ġim m
Ġsha me
Ġgr at
Ġa ug
Ġin j
hen s
Ġle ap
Ġd ar
Ġf ill
Ġwe ight
Ġcross ed
or ious
Ġfl at
Ġcom b
Ġro de
Ġed ge
Ġshould ers
Ġsuggest ed
Ġrelig ion
ad d
Ġfamil iar
the less
sp ir
au d
Ġrock s
t oo
Ġd ign
Ġcle an
e as
Ġbo d
Ġl ake
_ _
Ġl am
Ġas ide
me nd
Ġc ook
Ġd av
Ġpa ul
h ost
Ġhapp iness
Ġdist ant
Ġanim al
ac le
Ġr oof
Ġaff air
ard on
Ġgr ay
m ake
Ġal ive
Ġapparent ly
ign ed
bert y
Ġpap ers
Ġtou ched
be y
Ġwor st
Ġgi ves
Ġ1 2
Ġspe ed
in c
stand ing
Ġexam ple
Ġdra g
en ance
Ġfing ers
Ġhe at
Ġca used
Ġleg s
Ġwill ing
Ġl og
th ur
Ġtell ing
g ive
Ġst ock
Ġt akes
Ġsh op
ain ted
happ y
Ġart ic
Ġprom ised
Ġgold en
Ġameric a
Ġt est
Ġwit ness
Ġst ern
ie ce
Ġste am
Ġpro cess
Ġtr ade
Ġb as
Ġexpl ained
Ġp or
as ant
Ġgl oom
Ġd ull
Ġbl ess
Ġco at
inte rest
Ġru le
Ġde velop
Ġco ver
Ġarr ange
Ġb ent
Ġmeth od
Ġfore ign
Ġfind ing
Ġtong ue
Ġb ay
st airs
Ġpal ace
Ġfor ty
Ġb le
Ġdist ur
ter day
Ġfar ther
f ar
Ġfin ally
Ġwatch ing
Ġs ides
Ġbu ilt
go ing
Ġha te
how ever
again st
Ġcar riage
Ġric hard
Ġp arent
Ġm ac
Ġdist ingu
f ive
Ġauthor ity
Ġst ore
Ġconsider able
Ġb an
fe rent
Ġc ool
Ġag reed
de l
Ġth reat
Ġin n
Ġsub st
re ck
Ġh ide
Ġevery body
Ġr ide
o ly
1 0
Ġhon or
Ġsu f
Ġsha pe
y le
Ġg a
Ġimag ine
Ġempt y
Ġmight y
st ep
Ġwe alth
ab ility
less ly
Ġposs ess
Ġstre ets
ke y
Ġhur ried
bet ween
m as
Ġconf idence
Ġsa ved
Ġh ither
Ġwork ing
Ġb ishop
Ġth om
gl ed
ord er
Ġr ow
qu ite
Ġf ish
Ġput ting
Ġpoint s
Ġa ud
Ġqu e
Ġexcell ent
Ġspe cial
Ġsuffic ient
ar ies
' ,
Ġposs ession
res pond
Ġs orrow
b us
č č
v ille
Ġinterest ing
1 7
Ġwant s
Ġfar m
Ġp ot
Ġno se
Ġun ivers
Ġdoes n
Ġb er
li ament
Ġup per
Ġinst inct
a per
al ous
Ġhapp en
miss ion
Ġdri ve
m aster
me an
ser v
Ġor gan
bo ard
Ġm am
Ġh om
Ġs aint
y er
our ing
Ġworth y
Ġod d
Ġ1 9
Ġpict ures
f in
Ġsav age
Ġmention ed
ad v
ha bit
Ġa ut
Ġfell ows
Ġv o
he ld
it ement
Ġp age
Ġopen ing
Ġacqu aint
Ġjud gment
po or
c ir
n es
Ġth orough
Ġt ale
al ways
Ġb rief
gener al
ust ed
os pit
Ġsupp ort
Ġm aterial
Ġmoment s
gr ound
Ġfa iled
Ġaf ford
Ġsim ilar
Ġhands ome
c ond
Ġst age
m o
Ġspe ct
Ġreg ret
olog y
Ġy ards
Ġf ully
Ġw icked
ac ity
Ġm as
Ġes cap
Ġp owers
wom an
Ġfier ce
s w
Ġgr own
Ġor dered
Ġpolit ical
Ġres p
Ġsold ier
Ġas su
Ġro bert
r ance
Ġfort un
Ġgl ory
w ild
t a
Ġst orm
Ġse x
Ġdo zen
og raph
Ġbuild ing
Ġbr idge
fe el
Ġheart s
Ġl at
Ġw ed
Ġsett le
se en
Ġwind ows
Ġne arer
i as
Ġsur face
Ġtr uly
Ġr are
Ġoccur red
Ġr ul
Ġapp oint
Ġw ore
Ġthr ow
Ġlist ened
Ġam b
Ġpro gress
es h
Ġd well
han t
Ġa h
s ure
Ġnot iced
Ġsatisf ied
Ġsuff er
Ġk it
Ġv ig
Ġcont ent
nd ered
ll s
Ġp os
un ch
Ġsh oot
Ġpr oof
Ġan ne
b its
b ro
Ġsm iling
p ur
er ous
Ġsu spect
Ġb ore
Ġmove ment
re c
um ber
o le
Ġb id
Ġabsolute ly
-- '
Ġrec ord
Ġdis appoint
ang ers
Ġb on
Ġdro ve
s il
Ġa id
ab s
Ġany body
bet ter
ul f
Ġadv anced
Ġh uge
wor ld
ubl ic
Ġf reed
k ins
ra p
ne cess
Ġshe l
or ous
Ġnat urally
Ġus ually
Ġrel ief
appe ar
en n
Ġd un
z y
at tered
Ġg le
Ġno ise
st ru
um n
Ġexpl ain
Ġbelie f
t le
est ic
i est
th us
Ġcou ple
look ed
expect ed
Ġs cience
ak er
Ġn ine
Ġte eth
d ou
Ġp u
Ġli berty
m ount
Ġhur ry
m al
Ġdemand ed
m et
Ġg host
Ġmer cy
Ġdes per
Ġb a
is c
Ġen er
Ġte nd
Ġequ ally
m ad
ie ved
" --
Ġdri ven
Ġadm itted
Ġmo ving
Ġact ually
count ry
Ġgr owing
Ġfav or
ab el
Ġmind s
Ġbus y
ustom ed
Ġg ift
1 5
Ġevent s
g en
r s
Ġins ide
Ġjo ined
as ped
Ġwor ked
in al
Ġw et
Ġsee k
Ġear l
Ġste ad
ent h
w in
th s
l ove
at ures
Ġsoon er
Ġexp ressed
Ġp ark
Ġp an
s ch
Ġlaugh ing
Ġpl ants
Ġex er
s ince
l ie
p oss
Ġfr anc
Ġdirect ly
Ġjo in
Ġpa used
Ġappe ars
g entle
it iz
Ġdis g
Ġpers u
Ġassu red
b ted
Ġgr im
Ġmad ame
Ġfool ish
ful ness
Ġex ec
Ġpr ice
Ġadv ance
c er
Ġt ail
Ġn ur
. [
Ġdo ct
c or
Ġcare fully
Ġb os
ing ing
Ġadv ice
c hen
Ġfight ing
Ġpie ces
Ġserv ants
Ġport ion
Ġg ather
Ġ ing
Ġm ile
Ġc up
r ay
Ġy ield
w ick
Ġcap ital
Ġent ertain
gl ing
Ġt empt
Ġhen ce
Ġke en
Ġsh ips
Ġlif ted
so ci
Ġdanger ous
Ġacc ident
Ġt um
Ġdisc over
Ġs igh
Ġsu it
am ong
Ġaw ful
f am
Ġse ized
m oment
Ġplay ed
Ġimport ance
Ġposs ibly
com fort
Ġce ased
Ġbeg un
Ġg ri
Ġsympath y
Ġmar ked
Ġlead ing
Ġconf ess
Ġmist ress
ustr ation
Ġt aught
as c
Ġme asure
Ġdread ful
h on
Ġpri est
Ġun ited
Ġpre fer
su ff
cont in
Ġw ounded
Ġadm it
Ġw ag
Ġinqu ir
ent al
Ġc ott
w ent
Ġv ir
Ġlou is
Ġ1 4
Ġd ressed
Ġaug ust
Ġbo b
Ġwel come
Ġfl ower
Ġcomp ar
Ġsuf fered
e yes
r ant
Ġdes ign
Ġremark able
ver se
Ġi ce
Ġg athered
Ġrem ind
Ġ âĢĺ
Ġn amed
Ġbir th
Ġha l
Ġatt ract
Ġoccup ied
ld om
Ġcl ub
Ġt ar
v ar
ic ious
ens ive
Ġgun s
Ġsupp er
ust ri
Ġr ome
Ġter ror
ha l
Ġser ve
Ġsuper ior
Ġorigin al
Ġmist ake
en ough
Ġthink s
Ġsing ular
Ġ1 3
ri l
Ġl one
Ġsucceed ed
Ġyes terday
tern al
Ġhear ing
w s
Ġam az
re mon
Ġdesp air
i osity
Ġse ason
Ġre sem
Ġhop es
gy pt
Ġ âĢĻ
Ġi ii
Ġun fortun
Ġp ier
Ġpop ular
is her
a ver
men se
Ġdou ble
seem ed
Ġp ause
Ġregard ed
Ġfr uit
pl ess
Ġbu y
Ġmid st
Ġda ily
Ġkne es
o pp
oll y
ret urn
m es
Ġbr ain
Ġru b
Ġpart ly
Ġcent ury
Ġimp at
Ġabs ence
Ġcont ro
um ph
he ard
am s
Ġshout ed
Ġconcern ed
m is
Ġpl ant
Ġg ay
Ġcha mber
b on
Ġpull ed
Ġa le
Ġe lect
Ġkind ly
Ġs ize
l ine
Ġking dom
pl ay
Ġcount enance
et ch
Ġinst antly
or ing
p ol
Ġind ign
Ġimp ression
Ġfall ing
m ist
Ġas sem
Ġsplend id
ive red
Ġmin ister
Ġun known
r ich
Ġw es
and er
Ġc art
chan ge
Ġbab y
Ġqu al
a e
Ġprin cess
Ġdro p
u ce
Ġse ated
Ġen cour
Ġstand s
j oh
Ġcond itions
Ġpar liament
Ġcall ing
Ġsc he
Ġimag ination
Ġproceed ed
Ġo w
Ġnecess ity
Ġt ask
Ġfl esh
Ġtem ple
Ġpro spect
Ġintell ect
Ġrequ ired
Ġlove ly
Ġse vere
any thing
al ing
Ġcompan ions
Ġv oy
ie ur
com ing
wh ite
Ġfair ly
ers on
Ġrem ains
Ġgl anced
Ġs ought
Ġgrou p
c ase
Ġc ro
Ġexc itement
i k
joh n
Ġar thur
al most
Ġref used
f ind
1 2
Ġre jo
cons ider
Ġstrug gle
Ġas soci
en ced
Ġst yle
Ġeld er
them selves
ve y
call ed
Ġv ague
Ġc am
Ġst ones
Ġprop ort
certain ly
Ġe p
Ġhop ed
Ġp ill
pl ic
do or
Ġsk in
Ġpower ful
ul s
Ġf ac
Ġst ars
1 6
Ġch oose
Ġser ved
ick s
pt ed
Ġh ut
Ġresol ved
nat ural
Ġl oose
Ġcur t
Ġparticular ly
Ġe li
ul ated
ig hed
Ġwe ary
Ġvo ices
Ġto t
Ġsatisf action
Ġs en
Ġl ion
Ġcor re
Ġl y
Ġsund ay
Ġf red
Ġcarry ing
Ġche ck
Ġbo ats
Ġwat ers
Ġroom s
Ġl in
Ġm ood
Ġbl ank
Ġrec oll
Ġthom as
Ġrom an
Ġwis dom
Ġcon qu
Ġas leep
p ret
Ġfreed om
ha med
Ġm ach
Ġcom r
re ason
m od
s a
Ġpol ic
r ate
Ġhig hest
Ġh ospit
li er
t ook
Ġc ult
Ġwho lly
Ġclear ly
Ġc hat
Ġdiv ine
Ġmur der
Ġr os
Ġres ist
Ġprinci ple
Ġru in
Ġtr ad
Ġexp ed
s ame
il st
whe ther
de ar
m atter
ink ing
ar a
Ġ ze
Ġam id
ons ieur
i qu
at ory
int s
s ent
Ġsa f
capt ain
ex t
ct ure
Ġcred it
Ġc ig
Ġle vel
Ġdist r
v a
Ġse vent
Ġd ying
Ġad o
Ġeduc ation
Ġbr ill
Ġin formation
Ġprison er
Ġposs essed
im s
Ġa ck
ac hes
n et
Ġinterest ed
Ġr um
Ġstri ke
Ġpoet ry
Ġhe ll
Ġsc ott
am ing
o very
Ġm ult
ch rist
Ġcont em
Ġrel ation
Ġet c
Ġsm ith
ud den
Ġpresent ed
Ġp ardon
Ġr ag
Ġenem ies
Ġsome how
i pped
; "
i ation
Ġcontr ary
Ġo x
Ġextra ordinary
t ow
as hing
Ġlo ver
Ġcor respond
Ġm ud
Ġext ent
Ġdoll ars
Ġb ree
Ġfr ag
Ġack now
Ġex ceed
be aut
n ce
Ġp il
ar se
Ġaccom pl
Ġcha pter
Ġret reat
ur d
Ġh orn
Ġtr ack
Ġas king
Ġp in
Ġdo ors
g re
Ġj an
Ġcons cience
Ġj es
Ġexc ited
Ġe ase
Ġcloud s
Ġmil itary
Ġh it
ce an
Ġsome body
Ġan ger
ad s
iss ion
Ġpl enty
vent ion
Ġdescri bed
Ġmurm ured
Ġgu ide
in ced
Ġclose ly
un ning
Ġc rew
br idge
os en
Ġvis ion
Ġvirt ue
com mon
Ġnod ded
Ġind ians
h ur
bl ack
fe e
Ġspr ang
Ġphil ip
Ġprodu ce
en a
Ġre asons
Ġacquaint ance
Ġsmo oth
Ġa head
Ġj ul
f ire
Ġkind ness
p at
pe lled
Ġdign ity
Ġprofess or
Ġprof ession
1 3
Ġda wn
Ġnever theless
s udden
res pect
Ġthr ust
do es
Ġgover nor
Ġwr it
an ied
i ance
ll er
Ġgod s
Ġcoll e
om s
Ġcent re
Ġass ert
Ġarri val
Ġconsequ ence
Ġc as
ill a
Ġwor n
Ġdog s
ast ic
Ġmess age
Ġuse ful
n on
v ious
Ġthe ory
Ġend ed
Ġfl ight
Ġfam ous
m orning
Ġexpl an
t aken
Ġcol or
Ġcle ver
Ġinqu ired
Ġfem ale
Ġbar on
p her
bre ak
quest ion
ul se
b orn
ous ed
iz ing
Ġcomfort able
Ġbod ies
Ġrapid ly
Ġint ention
Ġd or
Ġg rief
Ġm aint
1 4
Ġim mense
Ġgen ius
Ġvol ume
Ġburn ing
sat isf
char ac
Ġas h
l ow
c are
i able
Ġtreat ed
Ġcap able
qu ar
Ġf ought
Ġ2 0
Ġris k
Ġind if
ac les
Ġinterrupt ed
Ġpr im
Ġcare ful
Ġdel icate
ate ful
Ġsoft ly
Ġc itiz
Ġr if
Ġlar ger
Ġdeep ly
Ġp ressed
r is
r om
Ġ( _
Ġdes ired
own ed
Ġescap ed
Ġper form
Ġ vers
Ġcra w
Ġhorr or
d ire
Ġaccept ed
Ġisland s
Ġm ate
Ġcomplete ly
Ġsac red
Ġtra il
Ġse ldom
con st
at ors
us ual
as ing
Ġexc use
ud ing
Ġno vel
Ġmon t
Ġgrad ually
Ġmem bers
b oth
Ġyoung er
Ġpract ice
Ġl it
ac on
Ġst ories
b id
an im
ha ll
he t
ill ustration
Ġinno cent
Ġb uck
Ġwhis per
Ġsome where
i ven
Ġf are
Ġrelig ious
Ġcrit ic
Ġprinci ples
b our
s ol
Ġnation al
Ġr ig
Ġneed ed
Ġbeh old
Ġinst ru
Ġcur iosity
Ġr ushed
Ġsound s
re f
m ag
Ġconst ant
Ġfield s
p es
Ġobject s
of t
Ġjo e
Ġme as
Ġvis ible
Ġanx iety
s ue
Ġun able
t able
ch o
Ġfl ed
Ġg ained
Ġ[ _
Ġst uff
Ġsaf ety
Ġrec all
Ġcl iff
Ġst airs
st re
Ġm ild
Ġhad n
Ġc ord
ut en
Ġfe e
pers on
Ġev ident
n el
anch oly
Ġtell s
c oun
Ġf o
ur ity
c ut
ent ial
Ġlab our
Ġjo b
Ġh idden
Ġr ust
Ġg ently
Ġhelp ed
b ow
Ġspe c
g aret
r ounded
Ġinf inite
Ġhigh ly
Ġtri umph
id ay
Ġv ic
j e
n ame
Ġsp are
l ic
r ation
Ġe gypt
dis c
Ġprot est
h ip
ar med
Ġch oice
um es
Ġam use
Ġmis erable
Ġfig ures
Ġmyster y
Ġref er
Ġpi pe
Ġacc ustomed
m at
Ġex hib
Ġutter ly
Ġro lled
Ġfif teen
Ġthro at
al ian
Ġcur rent
Ġas hamed
ye ars
il ities
Ġm ars
um ents
Ġb ul
Ġfing er
Ġth under
d one
Ġsent iment
engl ish
Ġinv ol
ly ing
Ġbe aring
str ong
Ġun to
s im
Ġwhen ever
Ġre cei
Ġman if
con c
Ġca val
e ous
Ġst out
Ġlone ly
n ay
g one
Ġn av
Ġt ight
Ġshe ep
Ġab and
iz ation
Ġbr and
l ot
Ġcont empt
Ġf old
Ġfl ag
pr om
= =
l ist
Ġget s
ative ly
Ġsc orn
Ġfright ened
Ġdr am
Ġs ons
Ġplay ing
app ro
le ft
Ġste pped
r ather
d s
e f
Ġliter ature
Ġo cean
p ower
Ġr ush
Ġcir cle
v o
Ġnew sp
anc hes
Ġinde pend
Ġst iff
Ġresp ons
Ġarr anged
Ġneighb our
2 0
un ted
chan t
Ġpubl ished
Ġt ent
rif ice
Ġman ners
Ġke y
Ġsign s
ke ep
Ġbl ame
Ġl ing
g over
Ġadvent ure
Ġfaith ful
Ġcoun cil
Ġwe ap
Ġb ought
Ġgr ant
Ġru de
Ġrem oved
Ġent hus
g irl
Ġs our
Ġent rance
Ġir ish
Ġfly ing
Ġobt ained
Ġcr ack
Ġspe nd
Ġin habit
f le
Ġt al
ut ions
p he
w all
Ġfe atures
ill ing
Ġho le
Ġl est
Ġk ings
Ġcl o
Ġn ay
Ġwond ered
Ġprop osed
Ġsha de
Ġwas hing
sh ine
Ġobser ve
Ġn erv
other s
Ġnot es
Ġ18 6
ne ar
Ġpart ies
Ġme al
ri ved
h igh
p ir
Ġthorough ly
Ġsy m
Ġsh owing
Ġadd ressed
Ġs ar
Ġfriend ly
Ġbos om
Ġappro ached
ut ation
Ġgre et
1 9
so on
Ġbring ing
Ġman kind
Ġforg ive
Ġreck on
Ġmore over
Ġpap a
Ġextreme ly
ck s
Ġbur ied
ten se
o qu
ll a
bel ieve
Ġsubject s
s pr
Ġqu ality
Ġconsider ation
as ions
Ġc y
Ġsec ure
Ġg reek
ph il
i ge
Ġwis hes
Ġc ard
Ġref lect
Ġwhe el
Ġw o
Ġwas te
Ġtit le
ic ip
Ġh unt
Ġsh ock
Ġcott age
Ġun happy
t ar
r it
Ġw ound
Ġcr im
m os
Ġ {
Ġj ane
oun ce
Ġspan ish
Ġal arm
Ġje alous
bo at
Ġer r
a is
er ning
Ġthrough out
Ġswe pt
Ġplain ly
Ġproport ion
ac qu
Ġsp ort
v il
Ġg rie
bur g
er ves
iv ity
Ġch osen
Ġnum bers
Ġbecom es
Ġconcl usion
Ġbr ow
Ġun f
Ġr uss
m ark
Ġsu s
Ġre ward
Ġas pect
Ġ ...
Ġdav id
Ġm atch
t ill
Ġsc ream
ur ies
Ġch o
ple asant
ast ed
z a
ab eth
Ġdoct r
Ġbecom ing
ple x
cl es
Ġvoy age
th ou
Ġd ance
ag ger
Ġg ain
turn ed
Ġappro ach
Ġser ies
Ġlu cy
h ist
Ġslight ly
Ġh u
Ġmiss ion
s ix
ore s
Ġre du
e ach
Ġincl ined
d in
s us
Ġwh ilst
Ġfle et
Ġpray er
there fore
Ġcler gy
Ġbrother s
Ġre ven
g s
up id
Ġre ndered
Ġche eks
Ġpract ical
ix t
h ome
Ġreturn ing
ed ing
Ġse ll
le br
Ġsle pt
Ġsupp l
Ġdoubt less
Ġabs urd
Ġevery where
Ġun eas
Ġchar m
x x
ry ing
Ġnot ion
it ure
is hes
Ġag es
Ġfl ung
Ġkit chen
Ġav oid
Ġsp ark
Ġsuff ering
Ġconne cted
Ġre v
Ġr age
Ġpre cious
Ġcharac ters
at ched
Ġincre ased
a res
Ġed ward
re al
Ġrep ro
Ġche ek
Ġconf usion
Ġsol id
ll e
Ġthan ks
Ġp icked
Ġl aughter
Ġa ver
Ġab road
Ġold er
Ġde bt
s k
am b
Ġmart in
Ġsl ave
Ġgaz ed
g ate
Ġha bits
Ġchar ming
Ġimp ress
Ġher s
et te
Ġb rig
Ġm our
Ġprev ious
v y
re p
t em
Ġpl at
_ ;
Ġc attle
il ty
Ġdut ies
her self
Ġact ive
c amp
Ġty pe
Ġtri al
Ġp ushed
Ġfe ver
Ġadmir ation
Ġw ing
than k
in ate
Ġkiss ed
m ir
Ġkn ock
every thing
my self
Ġmyster ious
f ig
Ġl ately
Ġto wer
s al
Ġstr ict
Ġbl essed
uten ant
Ġw ings
somet imes
Ġa im
el ess
Ġte ach
Ġbre aking
Ġst ared
Ġsou ls
Ġl ock
e qu
Ġex ha
of fee
Ġarg ument
Ġphys ical
Ġma le
Ġmer ry
necess ary
Ġst an
s we
Ġcreat ures
Ġmem ber
Ġste ady
ak s
Ġr ad
Ġem otion
Ġlist ening
Ġwh ist
Ġqu ant
Ġin tense
Ġdelight ed
Ġpro ject
Ġdri ft
Ġtrave l
ud es
Ġe aster
ha st
ens ion
Ġbl az
n ature
Ġmo de
b urn
Ġhe ap
p en
br ought
Ġemploy ed
Ġconc erning
v an
Ġem er
es e
Ġas ce
en ger
po int
pl ain
Ġm ing
Ġprob able
Ġb ase
Ġpur cha
ac hel
Ġdream s
id s
ink s
u able
tw enty
is ions
Ġd ig
Ġi re
Ġaccomp anied
ur ance
ul ted
Ġthe at
Ġliter ary
Ġf ox
tr ans
d ri
l im
Ġstri king
Ġche st
ul ate
Ġbar bar
Ġmam ma
Ġholl ow
charac ter
Ġstrong ly
d uring
um s
en es
Ġl ack
Ġdis appeared
Ġa y
w ers
pr ise
pr in
Ġoccasion ally
nd s
ex per
Ġlu x
ag o
Ġa pt
Ġs om
Ġh ind
ot es
word s
Ġcl oth
Ġw ard
wh om
Ġend s
---- "
hand s
sec ond
Ġdisc overy
ic ted
Ġmagn ific
t aking
Ġm onsieur
ac he
Ġfe ared
ren ces
Ġsing ing
t om
Ġsp l
Ġprinci pal
Ġaf ric
Ġquar rel
Ġra ise
b ird
under stand
Ġsh ows
Ġrel ations
Ġlight s
Ġgaz e
m aid
Ġconst itution
Ġpra ise
Ġscot land
Ġhither to
Ġre ar
sm all
Ġprot ect
Ġrest r
h ill
Ġener gy
Ġcr ime
ret ch
Ġadd ition
Ġno ve
Ġpol ice
Ġfranc is
ri er
heart ed
Ġb owed
Ġpro s
Ġrid ing
s aw
Ġli ber
Ġdist ress
Ġdesper ate
Ġpl ans
Ġind ul
Ġwid ow
al ph
worth y
Ġb ol
Ġ2 5
e le
Ġdistingu ished
r id
Ġhun ting
Ġwhen ce
ons ense
Ġaw a
Ġt ro
Ġque er
Ġfore head
Ġimmedi ate
d ark
Ġnat ives
Ġph r
Ġte xt
Ġpu zz
Ġde ce
Ġind ia
ard ed
per fect
Ġa rose
Ġappre ci
ot he
Ġmel ancholy
Ġthr one
Ġn ations
ri ot
Ġun conscious
ex c
b ol
Ġpat ience
a ult
Ġl an
Ġbr ook
m aking
Ġneed s
Ġint im
, âĢĻ
Ġw retched
Ġfr ame
Ġm ic
Ġcha p
Ġhist or
ne xt
Ġfrequ ently
Ġsk ill
Ġpre par
Ġsuffic iently
by e
Ġor n
Ġnum erous
Ġfriend ship
Ġcon ven
Ġvir gin
Ġr ang
Ġinf er
Ġha w
wh ose
Ġcall s
c oll
d em
Ġprof ound
Ġeffect s
Ġste ep
Ġinf ant
pro b
p ast
Ġaffect ed
Ġter m
Ġr alph
Ġkn ife
Ġchief ly
u le
Ġman aged
Ġexplan ation
Ġinter view
Ġre nder
Ġcontin ue
dou bt
olog ical
Ġviol ent
Ġ Â
cient ific
Ġsh ining
Ġse es
Ġconv inced
Ġmis ery
Ġcons ent
Ġweak ness
Ġfin al
r ous
al so
se a
Ġar rest
Ġpat ient
Ġe gg
Ġsupp ly
Ġassist ance
Ġob st
who le
um ped
Ġcorre ct
pe are
Ġ3 0
n ation
Ġmad am
l iness
Ġsuspic ion
w est
w it
cl ose
Ġp ed
Ġdom estic
Ġparent s
i ot
ul gar
Ġdel ay
Ġmag ic
Ġmount ed
Ġa x
ar ms
Ġunfortun ate
con om
Ġper ceived
y ard
se y
Ġart ist
Ġill ustr
Ġwor ship
Ġut tered
ex cept
Ġpl ate
Ġgener ous
Ġs ank
Ġab rupt
Ġed ition
b b
Ġhel pless
unt il
Ġp red
ge on
ie l
Ġen orm
Ġlean ed
Ġview s
per or
Ġr ab
Ġl ap
Ġatt itude
Ġturn s
Ġs well
arr ass
spe ak
Ġro pe
Ġg est
Ġunderstand ing
Ġl amp
e ffect
cour t
3 0
p osition
Ġim age
Ġinterest s
Ġprom pt
ci ed
Ġpre tend
Ġg ent
Ġob sc
ĠĠĠĠĠĠĠĠ ĠĠĠ
Ġset ting
ct s
Ġprop os
Ġhast ily
Ġacc ur
p here
ir s
Ġsc r
to ld
Ġun ion
Ġin formed
Ġle af
sh ire
Ġwes tern
ur a
ot ted
ent er
Ġsha ke
Ġpre cise
Ġref use
Ġpre ced
l ay
f ur
Ġact ual
h ope
p ost
day s
child ren
u ced
Ġcoll ect
Ġk en
fort une
Ġar med
sudden ly
Ġhor rible
Ġre com
Ġreg iment
ed y
h ind
Ġm ental
Ġtrou bles
Ġrevol ution
Ġwr iter
Ġr am
-- -
Ġlaw yer
Ġprison ers
Ġlean ing
st ra
ag ree
Ġt u
Ġshel ter
Ġuse less
Ġeffort s
Ġb ones
Ġi dle
ant e
Ġ 't
id ering
in ent
Ġacqu ainted
Ġopin ions
Ġtrem bling
th y
oy al
for th
Ġtrans l
Ġignor ant
i que
ad a
Ġdescri ption
Ġres umed
Ġhang ing
Ġpros per
in ity
Ġa ven
Ġintellig ence
Ġun expected
v est
Ġst retched
Ġtre asure
op es
Ġann ounced
Ġv ac
Ġce remon
Ġange l
eng ers
Ġmut tered
Ġpain ted
o de
Ġamong st
Ġd iam
Ġsh ru
a pe
Ġeager ly
Ġwar ning
m oney
st ri
Ġr ange
Ġu g
Ġdisp osed
Ġhand ed
Ġaccord ingly
gl es
pro f
os ure
Ġgu est
Ġdelight ful
che ster
Ġcler k
Ġli br
su ccess
Ġfat al
Ġw ra
Ġfle w
Ġwal ter
Ġshad ows
Ġpo pe
t alk
for ce
pt ure
Ġsqu ire
Ġneg ro
Ġw reck
Ġcomp osed
j our
Ġwa ist
Ġrequ est
Ġst upid
co at
Ġfar mer
Ġlight ed
Ġcop y
l or
Ġsur rounded
act ed
Ġd ave
Ġdom in
Ġper pet
Ġright s
Ġexcept ion
Ġlike wise
Ġvent ure
Ġland s
v ity
Ġut most
al though
sm ith
Ġprov ided
l au
let ter
c ross
ac count
Ġjes us
id ly
Ġcomm ission
Ġbr anches
Ġour s
Ġwind s
Ġbe ach
fe ll
Ġgu ilty
Ġex ert
Ġappe al
o let
ob ser
Ġsche me
Ġbrill iant
Ġme at
Ġdisc our
Ġvict ory
Ġit alian
in ction
b an
Ġhes itated
Ġd ared
Ġw ave
land s
Ġf ired
with in
Ġbe ha
Ġg ates
fe llow
Ġch in
Ġgl orious
Ġres c
Ġlab or
Ġbott le
Ġhum ble
Ġb orne
Ġp ig
Ġexer cise
Ġc offee
gl ass
af fect
Ġint ent
Ġwar ri
dif fic
Ġcolle ge
ro ld
Ġfour th
Ġnur se
ag ing
Ġy ard
Ġc ries
Ġgu ests
Ġret ired
t ri
Ġhouse hold
Ġfe ather
Ġa ch
Ġspirit ual
bus iness
Ġest ate
Ġt ax
Ġe ve
Ġal ike
Ġe ternal
Ġit aly
Ġchan ges
Ġwa ves
l ive
Ġbo ots
Ġrequ ire
Ġshould n
ul a
Ġsli pped
Ġb ark
br other
om in
ri fic
Ġinst r
Ġappoint ed
Ġw i
k ward
t ree
Ġeli z
Ġ2 4
Ġce lebr
o cr
it ate
Ġfl ood
Ġinhabit ants
Ġden y
Ġar ab
Ġsort s
tr ue
Ġbank s
f ull
Ġdeli ber
ut ter
1 1
Ġdef ence
Ġcra ft
w alk
Ġrid ic
ĠĠĠĠĠĠĠĠĠĠĠĠĠĠĠĠ ĠĠĠĠĠĠĠĠĠĠĠĠĠĠĠĠĠĠĠĠĠĠĠĠ
Ġl ane
Ġany where
Ġne arest
Ġobt ain
hor se
m us
Ġn in
v in
Ġbr ide
g ard
if orm
Ġact ed
u ary
imp ort
Ġs ighed
Ġkind s
Ġo ct
b est
Ġfoll ows
cri pt
Ġgr asp
Ġco ach
re ally
Ġvar iety
Ġin tr
Ġma x
Ġrec overed
Ġs isters
Ġass ure
Ġcal cul
Ġp ow
Ġt ide
Ġeng ine
Ġestabl ished
l u
li est
k new
sh ips
Ġbr id
ac ob
Ġmark et
Ġan ch
Ġgi ant
Ġca uses
me re
a unt
Ġd ate
Ġp isto
Ġmar garet
Ġse as
rem ember
ath ol
ab led
Ġsha king
Ġsc attered
ol ation
Ġsuccess ful
Ġpain ful
h our
Ġtrou bled
s ign
Ġs ne
hum an
gr and
p a
Ġsac rifice
Ġinv est
Ġpoem s
Ġpart ic
Ġremark s
ond s
Ġincre ase
Ġcons ist
ker chief
Ġdiv ided
Ġpres ident
Ġmist aken
he m
Ġnerv ous
ing ton
Ġdesce nded
Ġdeg rees
e ight
ost on
of fic
ĠĠĠĠĠĠĠĠ ĠĠ
Ġsecret ary
Ġconcl uded
Ġsw all
op en
-------- --------
Ġo ak
ci p
at ives
Ġdev oted
Ġfl ame
Ġc ave
inte ll
Ġwood en
Ġal ice
Ġwond ering
Ġso vere
g age
w art
Ġvan ished
Ġc her
Ġgood s
Ġbus h
p iece
p ic
Ġfor ces
Ġb ert
de ath
y r
Ġre ference
s ight
Ġde b
Ġgro an
p oses
Ġcheer ful
Ġman s
2 5
the l
ex am
Ġsh one
Ġnor thern
Ġocc asions
Ġdifficult ies
Ġpart ed
step s
im ag
Ġconne ction
Ġsun shine
Ġsepar ate
) ;
m ary
reg ular
gr at
Ġfree ly
Ġthousand s
p osed
Ġdepart ure
Ġdr unk
Ġproper ly
d ro
Ġsail or
Ġat tended
aught ers
Ġbe held
Ġatt ached
Ġfol ks
Ġcond em
mos phere
for ward
b all
m outh
Ġimpro ve
acc ord
Ġbeg ged
lar ge
Ġt race
Ġlear ning
Ġpr on
Ġdet ails
Ġfan cied
if ying
em ed
a pped
Ġth ine
oth y
Ġmar ble
Ġs es
pro du
Ġide al
Ġca red
quis ite
Ġwo lf
ot hing
Ġid ent
Ġj u
d ig
Ġem peror
pass ed
Ġal as
Ġcomple x
sub ject
Ġins isted
Ġear lier
r un
Ġany one
Ġcult iv
Ġo be
Ġha ted
Ġsc ri
Ġlo ves
Ġpriv ile
Ġpo ison
cir cumst
Ġt ied
Ġre new
' .
Ġof fe
Ġper mitted
chan ged
Ġstep hen
Ġsleep ing
Ġcircumst ance
Ġst aring
Ġug ly
Ġmean while
Ġsens ible
] .
ke eper
Ġpr ud
ing er
Ġj une
Ġcl ay
w ant
ap h
let on
Ġj ones
Ġspe cul
Ġconscious ness
st art
Ġintrodu ced
Ġhast e
tow ards
Ġr ib
Ġp ir
ble m
Ġcry ing
h undred
can not
Ġlead er
Ġdirect ed
is ure
Ġn est
Ġcoun sel
sc ar
is ation
Ġin vent
ap ers
ien ced
appear ance
m id
Ġcount ries
Ġj un
Ġqual ities
em an
Ġn aked
Ġtr ick
Ġgrave ly
Ġshe ll
Ġcommand ed
Ġlo ving
Ġgrand father
Ġimag ined
Ġgall ant
bo x
Ġl ift
Ġp ages
Ġfoll y
t own
Ġde mon
su per
Ġappro aching
f ashion
Ġenjoy ed
Ġstead ily
Ġgr an
Ġrif le
Ġto ler
g est
is k
Ġsha kes
Ġcontem pl
Ġfl ore
d est
m or
it ch
Ġviol ence
Ġstrong er
Ġgr ateful
Ġhung ry
Ġstr uct
Ġkn ocked
Ġprot ection
Ġshar ply
Ġso il
Ġte ar
c ence
Ġrep ublic
Ġemp ire
* *
s um
pr ot
Ġsl aves
Ġe conom
h o
ipp er
ha el
per t
g ers
Ġser iously
Ġresult s
cl ass
Ġal oud
Ġsl ope
ver t
Ġo ath
hen om
Ġman age
os er
Ġadm ire
Ġw ake
Ġinc ident
Ġch im
su ed
Ġstat ement
Ġs ore
Ġy onder
Ġfe ars
Ġf re
Ġacknow led
Ġr ay
Ġcont ained
less ness
Ġele ven
g reg
Ġignor ance
Ġh id
ail ing
Ġtor n
Ġbree ze
Ġun usual
Ġ18 2
Ġmort al
Ġre ign
Ġartic le
Ġvis ited
supp ose
Ġdestro yed
al ready
Ġall e
Ġste el
Ġcre pt
Ġgaz ing
Ġb ath
Ġmove ments
Ġcan oe
com pl
Ġreal ity
Ġlibr ary
ge ant
Ġunivers al
Ġeliz abeth
Ġst amp
Ġf il
bl er
Ġgl o
Ġport ra
e re
Ġoffic ial
c est
Ġb ade
Ġf ame
r im
Ġwashing ton
plic ity
Ġin her
Ġsince re
gi ven
Ġlie utenant
iven ess
Ġe cho
r ick
Ġro ar
Ġnight s
Ġact s
Ġphilosop hy
Ġrest ed
Ġpursu ed
Ġthen ce
be hind
w onder
m el
Ġele ment
rer s
Ġcoun ter
Ġcomp re
Ġsw im
friend s
g ain
w ife
ci pl
at a
Ġthr owing
Ġf ix
Ġpur ple
Ġsmall er
Ġd ish
Ġagree able
__ __
Ġse pt
sh ort
oo s
Ġob ed
Ġsu pre
head ed
Ġp all
Ġsil k
Ġslight est
ias m
Ġv ulgar
be ar
Ġne at
Ġsent ence
Ġconv iction
b a
v als
Ġto s
Ġout er
Ġroll o
Ġire land
Ġse am
Ġenglish man
Ġfol k
Ġattempt ed
g ged
Ġ --
v oice
Ġby ron
Ġme ad
Ġim pl
ex pl
ĠĠĠĠĠĠĠĠĠĠĠĠĠĠĠĠ ĠĠĠĠĠ
Ġp ace
Ġheav ily
Ġcol on
Ġr ud
Ġfamil ies
Ġenorm ous
a ving
Ġfirm ly
d a
Ġpl un
b or
Ġvisit or
z ed
Ġdistr ict
c reat
Ġaw ake
Ġcomp ass
r an
Ġinquir y
Ġd us
Ġdefe nd
Ġcons ult
Ġrecogn ized
om ed
b al
Ġl un
Ġre n
Ġbelong ed
ain e
Ġrec over
Ġm ixed
ol en
cha ir
spir it
Ġchrist mas
Ġl uc
Ġtown s
Ġcrow ded
Ġwild er
Ġquant ity
Ġcare er
Ġ2 6
g ie
occ asion
Ġd ancing
Ġch ose
ribut ed
Ġob vious
Ġbet r
am eric
Ġobser v
Ġdel ivered
part icular
b ac
Ġdoctr ine
Ġ2 9
Ġwith dra
Ġresol ution
Ġre nt
Ġj ose
em s
Ġa st
id ents
Ġfall s
Ġimp ulse
Ġs ins
b ra
what ever
Ġmil k
Ġobser vation
Ġlo cal
Ġshe d
er al
Ġaw kward
dif ferent
por ary
Ġsm ell
Ġme chan
Ġfind s
Ġsix ty
with standing
Ġd ur
Ġgr in
qu iet
Ġp aint
Ġab und
Ġ2 3
Ġs cientific
o ber
Ġw ha
Ġexped ition
Ġdeli ver
, [
Ġval uable
Ġsou thern
m em
Ġswe ar
ask et
Ġsur round
Ã ¨
Ġc oo
and s
w on
Ġlad s
Ġno on
Ġbl oom
Ġmanif est
Ġfe ast
if ted
Ġleap ed
cl osed
j ack
Ġde arest
de c
Ġstr angers
ot hed
pr act
let s
Ġbut ter
Ġstart led
Ġrepresent ed
Ġcontro l
Ġdri ving
Ġ2 7
Ġin sp
Ġstay ed
Ġo wing
Ġbr anch
str ange
Ġso b
Ġaston ishment
ing ham
Ġland ed
Ġconst antly
p ossible
fe lt
Ġhum our
Ġp om
h ot
Ġf ulf
ag on
Ġfair y
Ġj ump
fr ont
Ġfare well
ried rich
tr ou
Ġdesert ed
Ġh int
Ġquar ters
m ill
se veral
. âĢĻ
iet ies
Ġapart ment
Ġe ating
engl and
Ġg os
Ġbe ard
Ġfavour ite
n ut
Ġg arr
Ġd oth
Ġin se
Ġad am
Ġself ish
c ra
le ave
man ner
Ġ2 8
wom en
Ġdut ch
Ġsa x
chan ce
Â ł
Ġsal t
Ġlord s
Ġeaster n
it z
ll ers
Ġale x
ches s
Ġcol ours
Ġcir c
pres ently
Ġa u
gentle man
Ġm ock
Ġspan i
Ġper plex
suff ic
Ġfl our
Ġaston ished
Ġpoint ing
beaut iful
Ġl oyal
Ġdisp osition
Ġo li
um bled
Ġgrat itude
v ii
ple asure
ress ing
f air
Ġconce al
Ġb i
Ġle e
gr am
t imes
Ġdis char
or se
Ġan no
Ġp oured
Ġright eous
Ġdes ir
Ġdrag ged
Ġdef inite
fl ict
Ġd ed
bl ood
Ġur ged
sch ool
Ġha n
Ġsign al
it ute
Ġclass es
Ġg al
Ġn on
Ġdis e
us ions
Ġwand ering
h un
Ġp ink
fe w
al ong
Ġappl ied
Ġmagnific ent
pt on
m ur
Ġst air
Ġsc ru
Ġmid night
Ġd il
Ġsens es
in o
Ġpre c
m ons
re ls
or able
Ġfl ash
Ġbeast s
Ġmaid en
Ġlord ship
ri bly
ic ian
Ġcha in
Ġash ore
Ġmeant ime
Ġv ivid
Ġearnest ly
v ous
Ġb ust
w ed
f av
pl aced
t ra
Ġemb arrass
Ġst ag
Ġobject ion
feel ing
Ġb un
Ġdestro y
om b
Ġsafe ly
Ġsovere ign
Ġdistur bed
gre en
le ar
Ġcount y
Ġfan ny
ou ch
Ġche ap
Ġce ll
ir k
Ġe h
Ġsum mon
Ġs ang
Ġte le
Ġc ock
Ġ2 2
Ġb at
Ġkne e
Ġlim bs
Ġbene fit
Ġre le
h ouses
Ġtor t
ro g
s id
Ġartic les
Ġcomm er
Ġground s
Ġf ed
Ġsp ain
Ġdec ision
ur day
Ġbill y
Ġant icip
d ie
Ġr out
Ġsuggest ion
Ġprop ri
l ad
just ice
ĠĠĠĠĠĠĠĠ ĠĠĠĠĠ
Ġdecl are
ars on
Ġper ceive
Ġsh oes
Ġj uly
Ġhor iz
Ġde eper
Ġswift ly
Ġb oston
er ate
z an
b ott
am ation
ick en
he ar
th ousand
Ġj acob
Ġte acher
n one
Ġun certain
Ġtre mend
f aced
Ġs ed
Ġsol itary
Ġo bey
Ġass umed
Ġun iform
Ġver se
Ġcomp ared
Ġ18 3
occ up
Ġsa iled
ge orge
Ġun like
Ġin ner
bro ken
Ġper il
com ple
Ġpo ets
5 0
her s
g ent
g old
Ġshort ly
ob ject
bu ild
us ive
gr im
Ġburn ed
act ory
Ġt ick
Ġwh it
Ġexam ined
Ġbus hes
un cle
Ġpolit ics
ĠĠĠĠĠĠĠĠĠĠĠĠĠĠĠĠ ĠĠĠ
Ġcomm itted
Ġst ated
Ġcaval ry
Ġc athol
s un
Ġref lection
Ġrem aining
Ġent ering
b ank
Ġle isure
ma j
Ġbur den
Ġfur y
bes ides
Ġsc enes
e ither
Ġbad ly
Ġl ocked
s ar
Ġpr inted
Ġwr ath
iver se
Ġsad dle
Ġad a
bur gh
Ġas certain
Ġex cess
Ġtou ching
Ġn a
as ked
Ġex tended
ha b
li x
Ġsmo king
Ġdest ruction
Ġdesce nd
Ġin ch
Ġcons idering
Ġj on
g ra
it ors
Ġan cest
Ġmar ched
Ġs illy
Ġc ot
Ġcontin ually
Ġfrequ ent
Ġp ool
Ġpre jud
Ġhuman ity
Ġlight ly
Ġn ap
ak ened
Ġc unning
Ġmis chief
ch urch
Ġb att
Ġbe ings
Ġcand le
Ġrel ieved
l ock
st ead
Ġr ot
Ġb ud
al one
comp an
Ġr uth
Ġat mosphere
Ġgest ure
Ġcomp et
Ġdr ank
Ġy er
Ġinc hes
Ġgard ens
Ġze al
Ġconf ident
ab or
um in
Ġrom ance
Ġwant ing
h ol
Ġarch ite
d aughter
is y
Ġsh rie
Ġg ree
ro ll
fa ith
t rees
Ġserv ices
le ast
qu ick
Ġg ig
Ġp up
Ġpursu it
Ġhe d
Ġmon arch
ab ove
Ġd aughters
v as
comfort able
Ġat e
Ġcom pelled
Ġmas ters
? âĢĿ
c orn
will ing
Ġarrange ment
Ġsh irt
be gan
Ġsav ages
a uthor
Ġj est
Ġspeak s
and y
Ġjo ke
Ġg ang
Ġstr ain
Ġb atter
ne ed
Ġsli p
Ġvessel s
Ġcow ard
Ġsch ol
Ġdin ing
Ġabs or
Ġsend ing
Ġcount ess
Ġexper iment
sc ri
Ġsm art
Ġel oqu
tend ing
Ġcle ared
Ġrail way
Ġrem ote
Ġex quisite
Ġo we
Ġelse where
Ġfail ure
Ġde ed
set t
Ġaud ience
Ġintellect ual
Ġcl am
Ġhar sh
ct ive
Ġed itor
ĠĠĠĠĠĠĠĠĠĠĠĠĠĠĠĠ Ġ
Ġro lling
de ep
f ight
Ġing en
e z
e ff
aw s
Ġcent ral
isto cr
Ġre ject
v iii
Ġsubst ance
Ġn onsense
Ġabs ent
Ġdepart ed
p ict
r ow
Ġpur poses
Ġless on
Ġpun ishment
Ġrun s
Ġgerman y
Ġpolic y
it ating
Ġinv ited
Ġwhere ver
Ġ1 1
Ġf ires
ot ions
Ġje an
ou ched
Ġjim my
Ġread ily
Ġca ut
Ġday light
Ġr us
ar i
Ġp ine
Ġab str
-- _
l est
ol a
Ġdistinct ly
res ist
Ġsw ung
Ġcontr ast
Ġc ad
ur red
Ġsc ore
Ġrespect able
Ġal ter
Ġgood ness
Ġins pect
hens ion
cast le
Ġsuspect ed
ar l
bac co
Ġcom ment
Ġmar ks
Ġrom antic
r ated
Ġde er
Ġp henom
agree able
Ġdis miss
if ully
Ġpop ulation
s qu
Ġd art
Ġconf used
pro v
Ġdevelop ment
Ġdrink ing
Ġpro cl
Ġb ri
Ġl es
Ġdel ic
Ġs ie
Ġindif ferent
Ġha rold
Ġve get
of ten
Ġown er
it self
Ġve x
f ol
Ġmiss ed
Ġtri be
ne ither
b ad
Ġrel ated
boy s
as per
Ġadmir al
Ġbe wild
w ering
og ue
Ġc ities
spr ing
b right
v ill
Ġsepar ated
ri ly
Ġd irty
Ġhar mon
d rew
Ġp ad
Ġrul es
in qu
ack s
of ty
ly n
Ġbeg ins
ey ed
Ġdistur b
Ġand rew
Ġgener ation
g un
o ise
Ġf ain
pl ayed
Ġdisappoint ed
Ġspec im
he red
Ġdec or
it a
Ġh ook
Ġess ential
ant ages
u ine
um ption
Ġw ives
Ġrecoll ect
Ġpl ot
er o
d og
Ġth ither
Ġex tr
Ġfro st
Ġcoll ected
Ġdis gu
Ġchar ged
ha w
Ġsur re
ic le
d iv
ap s
Ġrec ent
Ġsail ors
Ġcha mp
Ġt ones
ress es
Ġto il
im medi
Ġsh y
Ġ18 4
h in
con ven
Ġabrupt ly
Ġha z
Ġt in
de ad
ve yed
Ġn ed
Ġmod est
Ġhun ter
Ġheaven s
Ġne phe
Ġm ast
Ġsupre me
Ġphr ase
Ġgl ow
pro per
Ġflore nce
Ġse ed
Ġexp osed
Ġheart ily
Ġli qu
pl ed
Ġdisg race
Ġprof it
Ġsign ific
Ġk ate
Ġtra ged
g all
em y
um ps
app ing
Ġt ed
Ġje w
Ġtrust ed
Ġro ger
Ġcur se
w atch
Ġnot ed
Ġsound ed
Ġstra w
Ġshe et
Ġref uge
c at
t es
l ers
Ġlive ly
Ġhel en
s had
Ġref lected
Ġsun set
Ġexceed ingly
p ot
Ġbu ff
an a
ic a
, )
o v
un less
Ġgr anted
Ġdiscuss ion
Ġcl ock
con vers
Ġgloom y
Ġins ist
Ġu lt
Ġf etch
Ġha y
Ġstruct ure
Ġm use
Ġser geant
Ġsh ud
Ġm ul
ver ted
Ġopp osition
es pecially
Ġmer chant
Ġt our
Ġpar ad
Ġg ale
Ġso ber
Ġrep utation
st ate
ul ars
Ġsu st
Ġenthus iasm
t ies
Ġredu ced
Ġfurn ished
ye ar
b ru
Ġpray ers
i ated
Ġpr ime
Ġch uck
Ġend ure
Ġin ev
Ġexp ense
g ave
Ġact ing
Ġwed ding
Ġ18 7
gu ard
Ġfl ow
Ġcomr ades
Ġr ug
Ġ18 0
t rave
bl ance
a very
Ġvent ured
Ġming led
u v
Ġvi olet
b ound
Ġlay ing
Ġtheat re
Ġdif f
Ġpol ite
Ġafter ward
Ġent reat
Ġreg ion
Ġb ible
Ġmar quis
v ag
Ġtrave lling
u fact
m ine
Ġt id
Ġstart ing
l ondon
i pping
ĠĠĠĠĠĠĠĠ ĠĠĠĠĠĠ
vi our
Ġconsequ ences
and a
u ously
Ġsteam er
or ig
b en
p os
Ġadvent ures
oo ped
is l
Ġreason able
Ġaccomp any
Ġpar ish
Ġth read
Ġcr is
Ġbar n
Ġcross ing
Ġnewsp aper
Ġkeep s
even ing
Ġsun k
Ġdar ling
fe re
de f
f if
Ġtri ump
Ġst uck
Ġposs ibility
g race
me et
prob ably
Ġp ant
de cl
Ġdec ide
Ġf ount
rif ied
Ġf und
Ġimp r
Ġread ers
Ġland lord
Ġli kes
Ġarri ve
Ġmed ic
b ene
Ġbeat en
Ġpuzz led
Ġam used
Ġm ant
Ġsens ation
Ġag ony
he aven
x ic
Ġacqu ired
Ġeurope an
Ġj umped
Ġsil ently
Ġroad s
Ġindign ation
Ġgrow th
Ġexha usted
Ġsh ield
Ġfin ish
Ġse lection
Ġer ror
ear th
Ġst or
circumst ances
Ġmoon light
Ġd re
Ġneighb or
h u
Ġf isher
Ġbr ings
Ġper mit
s ac
y l
Ġf et
Ġr ival
" ;
Ġm os
Ġf asc
Ġg as
ather ine
contin ued
Ġru ined
um ing
Ġdes k
part y
Ġdirect ions
Ġra ising
l uck
Ġimm ort
Ġwand ered
ig ation
Ġfore ver
Ġap ril
fam ily
Ġamuse ment
tr uth
Ġname ly
Ġins ult
Ġprevent ed
be gin
Ġpor ter
t re
Ġcl oser
Ġdescri be
ha ir
Ġjose ph
st ud
ĠĠĠĠĠĠĠĠĠĠĠĠĠĠĠĠ ĠĠĠĠĠĠ
Ġfurn iture
Ġn iece
Ġble w
Ġw y
p op
Ġpass es
Ġhe els
Ġprop ose
Ġin form
Ġtri p
Ġmess enger
Ġpat ron
Ġadm in
Ġexec ution
se ll
Ġstrange ly
Ġcomm enced
ach ment
j ac
Ġeng agement
coun ter
Ġmill ion
cle ar
ult ies
hel p
ple ase
Ġtremend ous
ion ed
Ġt iny
e ve
so ld
Ġgl en
con tr
Ġwar n
itt ee
pr ay
Ġdoubt ful
Ġfee ble
Ġrespect s
Ġf ert
Ġf anc
Ġpri ze
g on
ou bted
Ġpos itive
Ġsuper st
Ġal tern
Ġsc ale
ĠĠĠĠĠĠĠĠĠĠĠĠĠĠĠĠ ĠĠĠĠĠĠĠ
Ġal tered
Ġgr acious
Ġfear ful
Ġris en
Ġvict or
Ġcar ol
comp any
p ent
a ign
Ġfeel s
sc ape
Ġte aching
in ations
Ġmach ine
Ġp ond
Ġhe ed
Ġ18 5
Ġafric a
i pe
Ġre view
de v
Ġact ions
w al
Ġinc red
Ġmer it
u its
Ġremind ed
Ġt ales
Ġu m
Ġl ofty
to p
cri bed
cr ow
Ġse m
Ġhu gh
Ġpro c
Ġamb ition
Ġknight s
Ġo t
il ight
Ġout ward
Ġart s
Ġp ains
Ġaccompl ished
in f
Ġf itted
Ġhold s
d am
e ys
Ġint imate
Ġper man
ĠĠĠĠĠĠĠĠĠĠĠĠĠĠĠĠ ĠĠĠĠ
Ġhapp ens
Ġl ust
Ġf og
Ġlo c
Ġrepe at
Ġdim in
did n
Ġhundred s
com es
Ġfather s
Ġmus k
con ce
Ġclo ak
in cl
Ġag ent
ian a
Ġfortun ate
Ġaut umn
fe ar
Ġland ing
Ġpen et
Ġwhere as
Ġn ut
Ġstud ied
Ġ17 9
Ġxx x
b orough
Ġcon ceive
Ġinte nd
f are
Ġnephe w
Ġj ar
Ġgall op
Ġdisappoint ment
Ġado pted
Ġmar ve
Ġw ars
Ġsour ce
Ġdist inction
Ġdep th
Ġconce aled
s ense
Ġ vel
in er
an qu
Ġj olly
Ġchar ity
s ens
Ġp ile
Ġup stairs
Ġcomr ade
fe et
Ġdiv ision
mind ed
Ġcut ting
Ġwilder ness
wr iting
Ġr av
Ġs way
Ġgo in
Ġconqu er
Ġco al
c as
Ġbr ut
e enth
ir med
itt y
Ġper formed
Ġorn ament
Ġobe yed
Ġelect ric
Ġr ivers
Ġfe ed
see ing
Ġa lf
Ġswe ep
re present
Ġd ashed
Ġp atter
Ġar d
Ġmer c
Ġgather ing
it ively
Ġattack ed
Ġmajor ity
Ġprecise ly
Ġp ip
Ġcr u
sl ow
pret ty
Ġru ff
Ġprop he
Ġprov isions
Ġanch or
Ġr hy
Ġso ph
d ick
f rench
Ġ :
as hes
Ġstir red
az z
Ġlat in
ad o
ins on
Ġcitiz en
Ġsc and
Ġplay s
Ġis sue
Ġreal ized
Ġatt ent
Ġtri fle
Ġbelong ing
m il
Ġneighbour hood
Ġpo ver
Ġe thel
Ġb und
Ġpri ests
Ġfl atter
Ġsc ra
gi ving
Ġpover ty
Ġr aces
qu et
con sequ
Ġn ic
Ġam y
2 4
Ġaccount s
Ġmot ive
Ġmay be
Ġm oss
Ġ" _
stre et
as y
comm and
Ġg il
Ġdevelop ed
Ġo il
Ġpl uck
think ing
r ical
ans wer
Ġdu chess
Ġvict im
Ġma h
mon t
Ġcalm ly
Ġsee king
Ġcl ara
whe l
Ġgen uine
Ġdet ect
Ġcreat ed
i ved
all el
Ġfl ashed
ang le
em ents
Ġex isted
.' "
Ġmass es
foll owed
Ġf oul
all ed
Ġinter vals
Ġdr um
ri an
Ġrest ing
ac ross
Ġbe ating
Ġbe ars
Ġle ather
Ġcharacter istic
Ġhand kerchief
imp se
l eness
Ġcommand er
Ġr at
ert ed
Ġtom my
oop ing
r ice
am ents
Ġbel oved
Ġf riedrich
Ġsad ly
Ġadmir able
Ġaband oned
Ġdo cum
sec ret
Ġbr ass
Ġclergy man
b ot
u ity
Ġjour nal
ne ighb
Ġhonour able
Ġs han
Ġegg s
Ġnor man
Ġth ir
Ġcon ception
Ġus ing
ust ace
n um
Ġeat en
Ġaver age
ex ist
ell a
Ġgrou ps
Ġindepend ent
l en
ĠĠĠĠĠĠĠĠĠĠĠĠĠĠĠĠ ĠĠ
off ice
Ġvan ity
er ation
it udes
Ġfort night
Ġeight een
Ġbet ray
Ġres ent
Ġest e
sp o
ber g
reg ard
Ġcha se
Ġbless ing
Ġinfer ior
Ġsl ain
Ġmin or
Ġexam ine
ert on
Ġto bacco
Ġen abled
Ġsim plicity
w is
reat h
Ġele g
hus band
Ġwas h
k a
Ġbed room
ex act
Ġf aded
con ne
Ġsat urday
Ġreven ge
Ġshakes peare
Ġsaint s
Ġoct ober
gover nment
Ġtom b
Ġd uck
Ġgrace ful
Ġtend ency
ra ge
Ġpres erved
Ġc rest
Ġh iding
ol ate
ic able
d et
Ġb ows
br own
Ġgu ards
Ġcur iously
Ġspe ll
pe nded
v iously
Ġtr ump
Ġpr int
Ġcont ents
Ġhe ir
Ġany way
Ġav o
g a
Ġch ur
Ġst aff
Ġdev otion
Ġtre as
Ġve il
Ġscot ch
Ġcent uries
el se
Ġmag az
Ġsto le
col oured
Â §
or us
Ġwh irl
ast on
Ġwr ought
Ġexam ination
ck ed
Ġdoor way
so le
Ġpro blem
Ġele ments
Ġla ura
am y
ge ance
i ency
Ġhope less
Ġprop osition
Ġrejo ined
col n
gr ad
Ġinqu ire
Ġceremon y
Ġsc ul
Ġrep ent
Ġmo or
Ġext rem
ĠĠĠĠĠĠĠĠ ĠĠĠĠ
ft s
Ġgarr ison
Ġd amp
Ġpart ing
ans wered
Ġcig ar
um bling
Ġconf essed
it an
Ġce ase
Ġk id
col onel
Ġthreat ened
prin ci
c overed
Ġdead ly
Ġridic ulous
Ġc el
gl as
Ġbrit ain
Ġpass ions
Ġarrange ments
Ġsept ember
Ġ18 8
Ġcor rupt
Ġox ford
er ies
know ledge
Ġt a
de light
Ġsuccess ion
in burgh
Ġst u
Ġpisto l
Ġv ii
ill ery
ess ie
de al
Ġrel uct
ul ations
Ġfl ushed
Ġclim b
i ences
intell ig
Ġr oused
Ġwr ites
Ġshe pher
Ġdet ail
Ġbuild ings
Ġleg al
Ġinstr ument
ild a
Ġexper ienced
nat ured
an x
Ġbitter ly
s le
Ġnecess arily
olute ly
Ġb ind
Ġn ick
Ġsec urity
Ġre aching
ro b
Ġsupp orted
ia h
ow l
ine as
Ġbl ows
Ġchan ces
Ġbed s
Ġm ould
Ġro ver
ber y
Ġcor p
Ġaffection ate
arr ow
Ġtrad ition
Ġrepro ach
Ġex change
Ġtender ness
imp ossible
Ġs its
it led
Ġr achel
ens ity
Ġdep os
an gled
Ġcol umn
sh ot
Ġbur nt
Ġmult itude
Ġconf ined
Ġclim bed
Ġsol ic
Ġret ire
ane ous
Ġcommun ication
Ġpart ner
m und
j ah
bl ue
Ġpay ing
t reat
Ġd umb
Ġgl it
Ġpo lly
Ġinter ior
iver ing
Ġcap acity
Ġpass ages
Ġmurm ur
Ġind uced
Ġsa lly
Ġin fl
he nd
rel ig
s n
ich ol
Ġch ina
Ġgu y
comm un
Ġcan non
Ġcompl iment
Ġhospit al
we lt
Ġtraged y
Ġt un
Ġs ink
ack ed
act s
g rave
Ġl unch
Ġn erves
2 3
ri ve
Ġcitiz ens
rem ark
c ause
Ġar istocr
Ġun pleasant
be yond
Ġcare less
ig s
Ġbl ock
Ġap olog
Ġdisg ust
m arch
Ġa we
Ġbe ck
Ġange ls
th ird
Ġem ily
Ġcomm unity
Ġsol itude
Ġsus an
Ġle ge
s ort
Ġth irst
p ain
b ill
pri v
Ġhoriz on
Ġweap ons
Ġinv itation
Ġpre m
Ġlet ting
Ġav ail
Ġres idence
Ġstro ke
Ġ" '
Ġcha m
Ġoff ence
it ations
us cript
oon er
return ed
g then
ve t
Ġdis cipl
Ġover come
Ġcathol ic
Ġbal ance
Ġun iverse
Ġnarr ative
Ġm ond
Ġsettle ment
Ġen able
Ġbetr ayed
oise lle
for ms
um m
Ġbr ush
Ġmeas ures
f rey
Ġclaim s
Ġliber al
Ġcontr ad
op in
Ġconsequ ently
Ġb asket
Ġven ice
Ġle on
f ree
Ġfat ig
Ġeas ier
Ġdepend s
off rey
Ġsub sequ
, _
Ġl osing
ru de
Ġw ot
Ġre con
pr ison
Ġm orr
Ġcomple ted
Ġmill ions
Ġca ution
Ġre ef
ra el
um ble
Ġrefer red
el t
Ġprov idence
Ġd ine
Ġtreat ment
o ard
ar ian
c ity
Ġformer ly
Ġa ust
2 7
d anger
f old
Ġneg lect
ic ing
Ġoli ver
es y
Ġca res
Ġcry st
Ġuneas y
Ġtw ilight
Ġs i
Ġal armed
it ious
Ġwa ved
Ġdoubt s
Ġlim ited
m ot
Ġpat riot
Ġr idge
su ggest
Ġde eds
l ou
r at
Ġdec ent
er a
Ġl ance
Ġan ton
hed ral
athe tic
cri ption
hist ory
l ines
ick ing
Ġput s
gg ing
fl o
Ġcapt ured
your self
Ġso fa
Ġv ice
Ġg own
pr ince
Ġrecei ving
Ġlear nt
Ġsec ured
Ġmar ia
br ing
p ublic
us ually
b ishop
Ġa ustri
Ġwe aring
Ġbe er
ord ers
Ġportra it
Ġwalk s
Ġrep orted
Ġanx iously
Ġdemon str
Ġst er
ribut ion
Ġexer c
Ġli ly
Ġrest ored
ps on
Ġenter prise
Ġluck y
Ġgall ery
Ġshoot ing
p eter
Ġbe half
d ut
Ġw ages
Ġwrit ers
Ġcont ented
Ġcl ut
Ġvirt ues
Ġinter fere
Ġoccasion al
Ġpass engers
Ġl ur
pro ceed
Ġscar let
Ġimper fect
Ġany how
Ġg ross
ĠĠĠĠĠĠĠĠĠĠĠĠĠĠĠĠĠĠĠĠĠĠĠĠ Ġ
Ġnot withstanding
f ish
Ġtr ot
Ġmis fortune
g ings
Ġsub tle
Ġstrug gling
_ --
ol ution
se ven
Ġs ke
fur ther
Ġsk ipper
Ġquestion ed
id ity
Ġdem ocr
Ġsu bl
Ġt ig
Ġpress ure
Ã ±
Ġqu it
Ġstand ard
Ġis abel
au g
comple te
pol it
Ġwar ned
Ġw ilt
Ġvisit ors
wr itten
Ġf ri
Ġre vel
Ġfast ened
sure ly
Ġtw ink
me ans
Ġpow der
Ġcl imate
Ġcomm ittee
Ġdwell ing
Ġf ishing
Ġid ol
Ġinter val
Ġfor b
l ost
m art
Ġgl impse
Ġr ushing
Ġpo le
Ġcha pel
Ġbur g
Ġsign ed
Ġwas hed
be come
t ry
ce l
con cl
Ġhast ings
Ġpersu aded
Ġplat form
Ġstr ing
Ġdis play
Ġdress ing
Ġsym bol
Ġgift s
p han
Ġsa ils
Ġweap on
Ġoper ation
' --
st ren
Ġresist ance
ough s
Ġph ot
ide l
Ġcritic ism
Ġbo ast
Ġc yn
Ġpl ed
Ġg orge
Ġcompar ison
Ġup right
Ġmour n
Ġes c
Ġa ld
ad mir
Ġlan tern
al og
con v
Ġinc ome
Ġapp le
d ale
Ġcl are
Ġgu ilt
Ġben ch
wa it
Ġf ant
let ters
ib ilities
Ġe ll
Ġcon vention
Ġman ufact
after wards
ill ings
Ġbar gain
Ġin ward
Ġcount ed
Ġl ament
fam il
m ort
Ġde w
Ġg am
en cies
Ġp ha
Ġcon ceived
fr ank
Ġcompl aint
Ġdise ase
Ġp p
id a
say s
Ġbr ute
on str
Ġregard ing
Ġ4 0
l k
ro l
Ġaf ore
Ġlo ad
Ġadm ired
Ġd iver
book s
he av
Ġchair s
Ġo s
Ġre bell
Ġjo an
Ġmo b
Ġresc ue
Ġth orn
Ġsevent y
Ġpro dig
mar ried
Ġpit ch
Ġf est
Ġgu essed
Ġfor bid
Ġtr am
import ant
Ġro ot
Ġcelebr ated
Ġadv ancing
Ġpar l
Ġspe ar
Ġestabl ishment
Ġcurt ain
Ġp ac
Ġh ug
gl ad
bru ary
Ġcont aining
Ġden ied
Ġd ivers
Ġtre acher
Ġtri bes
Ġcamp aign
quar ters
Ġspani ards
Ġfr own
em oiselle
Ġvers es
Ġdream ed
2 6
om ach
v ir
Ġimp ressed
Ġhes itation
Ġt ie
Ġsl avery
== ==
Ġt on
Ġw har
Ġch ron
Ġwit ch
Ġm orn
Ġinst ances
immedi ately
st ers
Ġinquir ies
d ream
pre p
char d
Ġp uff
Ġpock ets
st ock
pl aces
Ġapp et
s ound
in ence
Ġh ob
Ġde an
Ġh oney
cei ving
Ġhal ted
Ġbl oss
Ġal b
Ġf ul
lau gh
Ġobed ience
Ġsong s
Ġres our
Ġheart y
Ġcoll ection
Ġr aw
Ġlin coln
Ġpre y
Ġhum or
Ġshout ing
ole on
Ġfoot steps
il i
Ġtr unk
Ġbr isk
Ġr att
Ġtrem bled
Ġassem bled
Ġnove mber
Ġm un
wind ow
p an
r idge
Ġsa le
Ġla wn
Ġco arse
Ġopp osed
Ġele v
Ġintellig ent
Ġper mission
Ġsto pping
r ise
Ġlam b
Ġschool s
Ġdiscour se
im ony
Ġwh ither
Ġmost ly
Ġp y
Ġst olen
Ġgover n
Ġwand er
Ġw ont
Ġpassion ate
n ie
Ġflo ating
Ġreve aled
ank s
Ġtr amp
ri ages
convers ation
Ġrep ose
is ible
ol ent
Ġch ill
Ġret orted
Ġfaint ly
Ġrecom mend
z ing
Ġlight ning
Ġhorr id
Ġhide ous
en ote
Ġfe lix
Ġneighb ours
Ġprefer red
adv antage
a ur
Ġimpat ient
scar ce
sid enote
Ġland scape
do ing
Ġproceed ings
Ġwarm th
str ous
Ġv iv
Ġs id
4 0
Ġca pe
re ceived
Ġrel ative
get ting
car ried
p ros
Ġg oss
ent ered
Ġeld est
Ġinstru ctions
so ever
Ġv a
we ls
el ing
ber ry
Ġmon k
Ġlead s
Ġd welt
Ġsha w
Ġb order
ken ess
Ġfun ny
Ġmaint ain
od y
p arent
ar ound
Ġfif th
Ġsac rific
s kin
re ne
ale m
l iter
Ġse ats
or ation
Ġmy st
ĠĠĠĠĠĠĠĠĠĠĠĠĠĠĠĠĠĠĠĠĠĠĠĠ ĠĠ
Ã ¡
Ġbr ood
long ed
Ġbreat hing
Ġwra pped
st o
st ory
th ren
Ġj os
._ ]
Ġtrave ller
est abl
iqu ity
Ġf oe
b ag
Ġper sec
Ġof t
Ġgl im
Ġrank s
Ġres pond
d eterm
Ġconven ient
Ġemploy ment
Ġpen ny
Ġar ise
be at
att empt
ust ry
Ġart ific
Ġdor othy
p ath
al together
oubted ly
2 8
Ġa de
Ġrecogn ised
art s
Ġsum mit
Ġsha ken
orr id
Ġho arse
sh ow
for mer
e ye
Ġwor ry
inst ead
Ġir regular
Ġgos pel
Ġc u
Ġbold ly
Ġgle am
Ġb ern
Ġgr ows
Ġrail road
Ġplun ged
Ġcha llen
ific ations
Ġd aring
se x
Ġreve rence
s av
Ġf aced
Ġir r
Ġpropos al
Ġg asped
Ġadv antages
Ġacknowled ged
Ġsatisf y
Ġsub s
Ġprep are
o a
Ġsuppl ied
" _
Ġadmin ist
n umber
ro y
Ġla un
br ance
Ġre form
Ġperfect ion
Ġass ume
in flu
Ġal tar
c old
Ġha ul
Ġtot al
Ġgl ancing
pe ace
Ġfound ed
f ert
Ġcon vent
Ġattract ed
Ġhas n
m ove
Ġk in
Ġdis may
Ġblood y
.... ....
Ġr and
Ġexist ing
not es
Ġincl uding
fall en
Ġrest less
Ġprin ces
ĠĠĠĠĠĠĠĠĠĠĠĠĠĠĠĠĠĠĠĠĠĠĠĠ ĠĠĠ
Ġjer ry
Ġcot ton
Ġc ards
Ġenjoy ment
Ġoff ering
Ġfoll owers
ĠĠĠĠĠĠĠĠĠĠĠĠĠĠĠĠĠĠĠĠĠĠĠĠ ĠĠĠĠ
Ġm oo
Ġthought ful
nor th
ĠĠĠĠĠĠĠĠĠĠĠĠĠĠĠĠĠĠĠĠĠĠĠĠ ĠĠĠĠĠ
2 9
Ġsecond s
ro ck
ul ating
room s
Ġaband on
Ġpr uss
Ġleg isl
s am
Ġl ass
Ġr oses
Ġdep ths
Ġb ond
Ġp ound
Ġd ict
Ġse eds
Ġru ins
i ations
Ġpal m
Ġbelong s
rec ogn
Ġaw akened
Ġmot ives
Ġjust ified
Ġhat red
Ġhand le
Ġpre tended
bec ame
Ġstore s
Ġrab bit
Ġcon grat
Ġm ap
Ġcompar atively
conc ern
Ġcommon ly
Ġe cc
he rent
Ġven geance
Ġst am
Ġsu gar
au x
it utions
on a
never theless
Ġpress ing
Ġneg lected
dist ance
Ġgr ain
Ġdou bted
Ġp ul
Ġfur ious
Ġres erve
Ġobsc ure
ay ing
Ġst ub
ic ations
Ġcomm ons
Ġmethod s
Ġv est
Ġindividual s
ribut e
Ġwas ted
Ġem br
Ġfold ed
Ġyield ed
Ġpartic ulars
or al
Ġp ush
Ġsa ving
Ġind icated
Ġass urance
Ġ18 9
Ġje ws
t ur
Ġme xic
Ġdes ires
Ġind uce
Ġproceed ing
Ġconduct ed
Ġsa iling
,-- "
sil ence
Ġhung er
Ġindif ference
ap an
ring ton
cons ist
c re
Ġsle nder
Ġpract ically
Ġle cture
ict ions
Ġex agger
ci vil
Ġdri ver
sh op
Ġill ness
Ġown ed
Ġdes erve
Ġsub mit
app arent
ens es
cher s
ag le
Ġcrit ical
Ġhapp ily
Ġsh rew
Ġdr owned
stru ck
p ock
Ġ $
Ġun just
un ken
te enth
uth ors
Ġperform ance
po et
g al
Ġchan nel
Ġin k
Ġre in
Ġcan vas
Ġent itled
Ġtor ment
ret ion
Ġem otions
Ġfin est
Ġup ward
Ġap ost
Ġattempt s
Ġli p
ost er
Ġre fr
gr own
Ġr ash
am a
Ġconf ession
Ġparad ise
exp ression
Ġd ad
seem s
Ġmut ual
Ġsword s
Ġv ener
Ġcheck ed
stra ight
Ġt ables
Ġaw oke
p est
Ġjohn son
Ġincre asing
Ġthr ong
Ġres ign
s ister
s in
Ġmotion less
Ġr h
Ġthank ful
Ġextra vag
w ish
Ġdiffe rences
Ġb one
ie u
Ġmur dered
ce nd
p ow
ave ment
Ġman uscript
g ro
ichol as
Ġ ----
Ġprepar ations
is ms
ri ver
Ġrare ly
is n
Ġt ip
an ing
Ġsp ared
h ung
op ened
no body
Ġvis its
Ġw oe
Ġbr ick
exp ress
Ġover whel
Ġbut ler
Ġmic hael
Ġmond ay
Ġsu llen
d led
Ġgener ations
Ġc ant
Ġth ief
Ġcol oured
Ġmad ness
Ġp arson
Ġpl ains
Ġpain ter
Ġinc ap
Ġf ence
Ġcon vey
p age
Ġsur v
Ġrock y
Ġtriump hant
ver n
Ġtrave lled
Ġpra ir
cr it
Ġje ff
Ġmaint ained
Ġwarri ors
e ur
Ġis sued
Ġvar ieties
Ġpain ting
Ġvill ages
ple ased
ograph y
under stood
Ġstay ing
Ġse lected
foll owing
Ġinj ury
p ence
Ġpersu ade
ing e
ĠĠĠĠĠĠĠĠ ĠĠĠĠĠĠĠ
Ġlo vers
Ġinv isible
Ġger ald
Ġhol iday
c ry
att ention
Ġbelie ving
t was
Ġste al
Ġh ud
i ast
Ġm ol
Ġfrag ments
l ate
Ġhom es
f ool
Ġw ink
ri a
Ġsie ge
Ġfound ation
Ġstud ent
o bl
Ġl ug
Ġha ns
f al
near ly
Ġhy p
Ġcig aret
Ġtr im
Ġans wers
z es
Ġdis like
Ġruss ian
ke pt
serv ice
Ġsummon ed
az ed
Ġmur de
Ġm ail
Ġmin isters
Ġphilosop h
Ġc ure
Ġbel t
Ġra ven
g ue
Ġapp ly
Ġsix teen
spe aking
Ġcor ps
Ġprep aring
Ġchrist ians
Ġvol umes
m ac
s is
Ġviol ently
g il
Ġmag ist
Ġameric ans
vi ved
gentle men
Ġchild hood
l ab
Ġdif fer
st op
Ġcat hedral
Ġv iii
Ġbut t
e ches
Ġappro pri
Ġoccup ation
ract ed
Ġchim ney
o is
Ġtrave llers
fashion ed
ud ge
Ġv on
fer red
! _
or gan
Ġre be
Ġsk irt
che on
le ad
Ġcont act
off in
Ġpron ounced
exact ly
Ġsch ooner
Ġbell s
christ ian
Ġa ught
Ġa ustr
Ġthere by
Ġs inking
Ġher bert
Ġd at
Ġpres ents
Ġtra p
Ġb ald
p aper
is le
Ġend less
pur pose
Ġme ek
Ġconst ru
ext ra
Ġtheir s
Ġcertain ty
ear ly
Ġd ame
do ctor
Ġimp art
Ġas hes
Ġis a
ar ation
Ġtempt ed
ation al
Ġret ain
Ġst ret
n ant
app re
y m
in v
ian o
Ġpres ume
Ġlim its
ustri ous
Ġprompt ly
Ġvar ied
Ġyour selves
Ġshore s
ut tered
Ġinvol ved
il ised
Ġform al
Ġgar ments
Ġintrodu ction
Ġpos itively
cond ition
Ġdro ps
Ġoper ations
Ġse lect
Ġcrim son
Ġstud ies
ixt ure
Ġwa x
Ġarrest ed
Ġlong ing
Ġexpect ing
Ġcomp are
ung le
Ġglad stone
Ġtum ult
Ġpleas ures
Ġspeak er
Ġder ived
mount ed
ol ence
Ġab oard
Ġsha lt
Ġless ons
b ig
Ġcontin ent
Ġpictures que
Ġter rit
Ġwag on
ad vent
c ott
l aid
Ġse al
Ġact ivity
Ġba pt
a wn
h ole
Ġcl ung
Ġrec ently
Ġeng age
Ġn aught
c op
Ġcl ust
Ġbl own
Ġye a
Ġro d
s ail
Ġa pe
Ġcorrespond ence
dire ct
Ġst ately
un te
Ġassem bly
suffic ient
Ġb ars
ent ire
ie ves
Ġdis agreeable
Ġglass es
or ial
ap sed
ci pit
Ġw ip
Ġun common
Ġsolemn ly
cl oth
Ġpers ist
gg y
Ġn igh
me nded
Ġinj ured
Ġen vy
Ġdes cent
Ġform ing
m ers
Ġpeace ful
Ġpil grim
Ġ3 5
Ġr ises
Ġwhe els
Ġrighteous ness
d an
Ġk ent
Ġst retch
g ory
p ie
Ġtr anqu
Ġlarge ly
Ġpe asant
Ġrem orse
li ving
Ġass ault
Ġrespons ibility
Ġreg ions
Ġfour teen
Ġfortun es
Ġset s
Ġbon net
Ġb art
Ġhast ened
Ġro ots
l oc
ind a
Ġbl owing
Ġde ceived
Ġfl ames
Ġrem ove
cond uct
p ool
int rodu
sh ore
Ġjan uary
h orses
Ġwa ving
Ġreal ize
Ġchur ches
Ġhero ic
Ġpe ep
Ġtr aining
Ġgra vity
Ġlod ge
Ġco pper
b able
hard ly
res p
Ġtr ades
ap art
ick et
Ġprocess ion
Ġbl anc
ener y
com be
Ġchan ging
Ġhistor ical
Ġdro pping
es ar
Ġjohn ny
Ġspect acle
Ġdish on
americ an
Ġarr ow
Ġdece mber
Ġfount ain
c ro
s light
Ġmedic ine
' "
Ġprivile ge
Ġqu aint
du ed
Ġans wering
b by
r us
in i
Ġm s
ol ph
br ows
Ġamaz ement
Ġf id
Ġopen ly
Ġ2 1
Ġhealth y
swe et
br it
im ately
Ġpar allel
Ġab bey
Ġlady ship
Ġdefe at
Ġwe ep
Ġst omach
Ġte leg
Ġrob in
Ġere ct
sy mp
Ġp oo
Ġhar bour
Ġrecoll ection
Ġle nd
Ġsurre nder
Ġarg uments
Ġfit z
m un
Ġrom ans
Ġunivers ity
j ames
ight ed
Ġsax on
Ġpl um
Ġpl ac
Ġapp ar
Ġind is
trou ble
k ers
wh is
Ġwar rant
Ġlead ers
Ġfl ora
Ġdou glas
Ġstream s
for got
Ġhen ri
v ict
Ġdis played
d ess
Ġdiscipl ine
Ġm ason
Ġam using
Ġneed n
accord ing
u ated
th rop
Ġe ustace
Ġnewsp apers
Ġper cy
Ġmust n
s itting
Ġin ex
ous ers
Ġimper ial
in ated
an ed
Ġbe nd
ens ions
Ġacc ess
id able
us alem
Ġn et
Ġre ception
in ine
Ġcruel ty
i ary
Ġoff ices
Ġprop het
satisf ied
Ġjealous y
Ġbr ains
Ġthought fully
Ġmiss ing
Ġinsp ired
Ġel bow
Ġcorn ers
Ġsent iments
Ġinev itable
b ull
f an
Ġto re
Ġincl uded
Ġfault s
Ġfl ock
Ġcons isted
Ġam iable
Ġfool s
Ġperson ally
Ġdre ary
Ġwe eping
Ġpurcha se
or dered
Ġde af
ul us
Ġr ays
Ġright ly
Ġsk etch
pp ers
Ġpull ing
Ġstrug gled
exper ience
Ġsw ore
2 2
Ġlast ed
Ġtar zan
Ġinter course
Ġjud ged
Ġrecall ed
perfect ly
j im
Ġthe t
Ġglad ly
Ġrespons ible
Ġyouth ful
Ġc os
Ġg oth
se nd
ill es
Ġste ward
Ġstat ue
Ġfeather s
ke ys
Ġse ver
Ġex al
Ġback ward
Ġchan ced
ex cl
Ġmed ical
Ġa while
Ġmo del
Ġreg ards
Ġcre ation
Ġcapt ure
Ġphenom ena
no ble
Ġadv ise
Ġt ap
rem em
ur ious
turn ing
Ġbull et
Ġo ars
Ġto ol
Ġcon j
! âĢĿ
Ġshe r
Ġbre thren
say ing
Ġmans ion
Ġl ic
Ġwh ip
Ġpro se
or ter
Ġwill ingly
for ced
ot ing
Ġfrank ly
Ġd angers
Ġe y
Ġed inburgh
Ġdepart ment
Ġcliff s
a us
is a
Ġse ize
Ġcompl ain
Ġfierce ly
Ġtempt ation
Ġwhere fore
Ġeff ic
din ner
Ġcl osing
Ġperpet ual
opp ort
d al
Ġbo ot
Ġfl ies
f fe
Ġprov in
Ġafford ed
fig ure
m ess
Ġv ote
t im
Ġb orr
Ġdisc ern
Ġsatisf actory
Ġsa ith
Ġdram a
u zz
Ġag ed
Ġchar lie
Ġorigin ally
Ġstrict ly
Ġp ony
ĠÂ £
Ġl em
Ġscott ish
Ġprev iously
Ġwe pt
f red
Ġsh o
Ġsupp osing
Ġpur sue
Ġentertain ed
Ġconqu ered
Ġsh illings
Ġsk ull
p ubl
Ġear n
p hant
l it
Ġ3 3
Ġst able
inc re
Ġacc um
Ġsu itable
Ġaven ue
; '
Ġmon strous
Ġarm ies
Ġw ounds
Ġd ash
ines e
Ġcr ook
Ġacknow ledge
e ast
Ġc ove
i ate
ck er
Ġmet al
Ġlad der
Ġl ud
Ġhast y
u ing
Ġele ction
n old
re ement
Ġlow ered
Ġcabin et
f ine
Ġhard y
maj or
Ġind ustry
and ed
Ġlo aded
Ġsc ant
Ġvic ar
in ery
Ġcoll ar
Ġvill ain
Ġfier y
g us
ass ad
Ġa uthors
Ġguard ian
ste in
Ġappl ication
Ġdes erved
is er
ac cept
Ġhear th
Ġfun eral
Ġabsor bed
ci a
Ġax e
Ġtreat y
Ġinfant ry
obser ved
Ġ5 0
me ant
Ġdisp ute
Ġauthor ities
ed uc
Ġv ary
Ġp ic
Ġwhe at
Ġnot ions
h il
l antic
Ã ł
ad el
ind er
Ġcol umb
Ġearth ly
Ġin val
Ġup set
Ġcons pic
ord on
resh old
Ġc reed
Ġno bles
Ġrespect ing
Ġcand id
Ġwho les
Ġpres erve
Ġp our
Ġcon flict
read ing
Ġsurpr ising
y led
Ġ1 00
iz es
Ġel abor
v ial
w anted
Ġsu ited
ag ues
Ġsm iles
ll o
at us
Ġst are
b i
Ġfem ales
Ġinse cts
g ence
m oved
ge red
Ġcont ain
ha ble
Ġam ple
fl ing
cont ent
Ġresem blance
Ġimpat ience
ad ded
Ġli keness
Ġwish ing
f aces
it uted
Ġf ug
a ire
Ġinher it
Ġdiscuss ed
Ġmaterial s
Ġ `
Ġt ha
um ns
Ġspo il
Ġdra ught
cl oud
sel s
f ra
m ain
Ġi x
Ġvig orous
list en
al o
interest ed
lot te
Ġte am
Ġart illery
Ġmem ories
ri ff
wor ks
h ours
te nder
Ġfl or
Ġvirgin ia
Ġprov ince
Ġup wards
consider able
Ġw ol
Ġo z
Ġjud ges
as ants
gard en
ic ism
us al
4 5
Ġw oo
st ar
Ġsn ap
v oy
ant ial
Ġobser ving
Ġpray ed
se arch
Ġv ine
Ġprodu ction
min ster
Ġdeterm ination
Ġdistingu ish
Ġt une
Ġfl u
Ġparl our
w inter
Ġter race
Ġgra ham
Ġa str
Ġpur se
Ġsan ct
Ġc reek
Ġcon gress
Ġbr on
Ġcontr act
Ġbut ton
Ġloud ly
p in
or g
Ġdecl ined
Ġje wels
Ġbill s
Ġrem o
Ġro ared
Ġtid ings
Ġd ing
em ploy
port ion
f at
Ġex tend
Ġun willing
Ġwhere in
Ġrenew ed
' ;
Ġhigh ness
Ġge offrey
Ġimpro ved
Ġinno cence
p un
Ġthan ked
Ġwil son
Ġevery one
com b
Ġcheer fully
Ġman ly
Ġwith drew
ha ired
Ġkill ing
h ig
might y
Ġerr and
bird s
Ġc ens
Ġtr ained
Ġwild ly
Ġcomb at
f ly
s har
Ġd anced
Ġimmort al
Ġsal vation
Ġcatch ing
Ġjul ia
Ġha unted
Ġhop ing
Ġeduc ated
li ked
Ġchief s
ou st
Ġo mn
g ins
Ġt rop
Ġmorr is
Ġty r
Ġcourt esy
Ġendeav oured
phil osop
Ġde fect
Ġbre ed
er ity
ath y
Ġcar pet
Ġsmall est
g ic
Ġcou ch
ett a
Ġcondem ned
Ġto ps
Ġnin et
Ġc ic
Ġd ense
li ved
fr on
Ġprosper ity
ic ians
Ġl ent
Ġcre ep
Ġven et
i ents
an ne
fin ished
Ġport ug
Ġpolic eman
Ġcomp osition
Ġrag ged
Ġ3 6
ger y
Ġgro ve
Ġha lt
Ġj apan
Ġver d
s oft
Ġp ious
Ġs ack
com par
Ġest im
slow ly
r ust
Ġlow est
oof s
Ġl ang
Ġcont rived
Ġman ager
Ġsc out
2 1
Ġendeav our
ci ation
Ġacc used
ke eping
w es
p ier
Ġp atch
Ġl ink
Ġex ult
oe be
Ġchar ley
Ġeight y
st ream
Ġcl asped
Ġst im
w ixt
Ġoffe nded
Ġmagaz ine
Ġw oke
Ġd ined
Ġm ack
Ġdo d
Ġadv ised
Ġseem ing
Ġadv oc
Ġalf red
Ġsp y
Ġwhist le
Ġd ried
act ions
thought s
a ved
ic les
n ine
th irty
au de
tr ust
Ġfro zen
oo ps
l ater
re ve
Ġpe ar
Ġjan et
Ġp as
Ġsecret s
Ġalex ander
l angu
ac re
Ġencour aged
_ ."
Ġo st
Ġg ulf
Ġaf fl
spo ken
m ic
Ġwis er
Ġmal es
Ġdown stairs
Ġbr ows
Ġf iction
Ġsu l
Ġfavour able
Ġg ap
ut or
Ġde emed
poss ession
Ġw ire
Ġha ught
Ġreturn s
Ġsurround ing
Ġw its
Ġback s
Ġpropri et
Ġbewild ered
Ġf iring
ill s
Ġlong ed
Ġcr ushed
er ick
p ul
s ou
re ached
Ġh ired
ater nal
Ġpure ly
Ġbe nding
Ġper f
Ġear liest
Ġfortun ately
Ġb ax
Ġis rael
Ġbitter ness
Ġh ood
Ġper se
cha mber
Ġlux ury
Ġher oes
Ġdisgu ise
Ġconsider ably
Ġappet ite
Ġmar ian
po le
Ġcivil ization
Ġperman ent
Ġinfinite ly
Ġelder ly
s an
Ġnap oleon
Ġsc ent
Ġsn ake
Ġlim it
Ġgoss ip
Ġchild ish
Ġsun light
Ġsim pl
e h
Ġse ction
Ġfr uits
de part
Ġtem porary
Ġprofession al
Ġaffect ions
Ġarr ows
ro d
Ġadd ing
Ġbreat hed
Ġsevere ly
Ġo live
Ġspeed ily
Ġobserv ations
Ġprev ailed
Ġh og
len gth
em b
Ġgl owing
happ ened
Ġt ast
Ġwarri or
Ġad orn
Ġspe cially
begin ning
Ġcourt s
st ro
b orne
Ġen counter
Ġhapp ier
asp ing
n in
Ġpl anted
Ġtest imony
Ġread iness
v ia
ent ially
Ġdesir able
ort s
Ġbund le
he alth
ig ate
Ġin spir
ink led
Ġann ounce
Ġchristian ity
Ġis le
Ġw retch
Ġbl ast
ang ing
Ġtal ent
Ġcham bers
Ġth or
ut ing
Ġbar r
mean while
gener ally
sa fe
Ġsh ine
Ã ¢
Ġsex es
ul es
Ġmeas ured
Ġphot ograph
Ġjust ly
Ġbreat he
stren gth
Ġfe bruary
some what
Ġt am
pass ion
Ġc ub
Ġj en
Ġbl unt
Ġcon ject
Ġob viously
b uck
on ies
Ġgreet ed
resp ons
f illed
ha nded
Ġj ungle
Ġhard er
Ġmer its
Ġpret t
le aving
your s
Ġto wers
Ġang le
Ġavo ided
Ġout line
ach t
wr ong
Ġwha le
Ġrel ax
Ġdo st
s oul
Ġdis sol
Ġprot ested
Ġse ar
Ġemb race
Ġmir ror
fol k
mean ing
Ġphilosop her
a i
count ered
occup ied
Ġforest s
Ġe tern
Ġnow here
cl othes
me red
Ġsp in
Ġund oubtedly
long er
Ġor ange
Ġch ival
Ġter ribly
Ġn icholas
fav our
l ings
Ġan aly
Ġcons ented
Ġlar ry
gu ish
Ġrecogn ize
Ġcultiv ated
er ving
Ġb ou
ion e
Ġas ks
Ġwords worth
Ġshout s
p ing
Ġun c
s outh
Ġglit tering
Ġmon ot
rem ained
Ġmarve ll
Ġaddress ing
w are
Ġve ins
c ock
Ġin conven
Ġcont ains
Ġbrief ly
Ġbag gage
ane ously
min utes
Ġconcl ude
Ġpre acher
Ġwind ing
Ġter r
Ġdick ens
Ġha unt
if orn
Ġli ver
bl est
cept ible
could n
Ġm c
Ġpe nd
will iam
Ġtrans port
Ġscand al
Ġs orr
ol ved
Ġblaz e
Ġfr iday
Ġjust ify
cl er
ex cell
Ġconc ent
Ġlou ise
Ġreport s
would n
Ġtur k
] ,
Ġcon veyed
b ab
Ġme nd
Ġemp has
Ġlod gings
Ġb our
Ġguard ed
un ities
p ra
Ġam bit
Ġinto ler
m ate
Ġpor ch
every body
Ġser mon
Ġstern ly
Ġwa iter
f n
at ha
Ġwe igh
hon our
Ġbrand y
Ġv ap
ide a
opin ion
so ciety
pres ence
Ġg ab
Ġcomm ence
Ġleon ard
Ġf ab
Ġpleas ing
Ġhol es
har ry
Ġtim ber
a ired
Ġdel icious
all ow
pl om
side red
Ġly d
dire ction
Ġp ag
Ġnew ly
Ġamaz ed
Ġesc ort
Ġmon ster
Ġheaven ly
satisf action
m oon
u k
interest ing
Ġd ale
qu een
Ġv ital
Ġfe ature
af raid
Ġexpect ation
happ iness
Ġmir acle
famil iar
o bt
oc ation
Ġdes olate
Ġcons pir
Ġshud der
Ġbeg gar
Ġvol unte
Ġinn um
Ġlin en
Ġf ern
Ġdo om
Ġmad emoiselle
Ġmus ical
Ġcris is
3 5
p ress
s ad
al as
Ġintent ions
Ġtw isted
Ġag itation
Ġshe er
Ġcompass ion
Ġj ury
Ġprob ability
Ġtr ousers
f ford
Ġshrew d
Ġatt ain
pass ing
Ġstick s
bur st
wa iting
reason able
Ġpo ly
des p
Ġex ists
Ġye ll
Ġow en
ct ic
Ġbet ty
Ġmill er
Ġimprove ment
Ġd azz
Ġsat an
aw are
Ġlif ting
Ġado pt
my ster
dra wing
Ġb red
Ġburn s
Ġimpat iently
Ġp sy
y ers
en joy
im er
Ġstir ring
ur bed
head s
Ġpack ed
Ġamid st
din and
the w
Ġf aster
Ġsub dued
ĠĠĠĠĠĠĠĠĠĠĠĠĠĠĠĠĠĠĠĠĠĠĠĠ ĠĠĠĠĠĠ
last ing
Ġpreced ing
s leep
Ġsha ft
d ress
al ia
Ġaddition al
li a
in ating
ĠĠ čĊ
sc ene
Ġspr ings
p ay
Ġp ines
Ġhar t
Ġhorn s
Ġimpr ison
Ġinnum erable
s en
Ġprom ises
por al
Ġl ots
Ġdelic acy
x ter
int on
Ġcrim inal
g ments
Ġc ash
Ġthere of
affect ion
Ġprair ie
Ġshall ow
Ġcold ly
Ġarchite cture
_ .--
ern al
out side
ci le
Ġter min
Ġdemand s
em pl
Ġwide ly
Ġdest iny
Ġun worthy
Ġmar vel
Ġe z
Ġse rene
Ġal an
Ġab ility
ass o
ph ys
Ġaw fully
Ġpen n
Ġsens itive
Ġr as
Ġass ented
Ġdis mal
Ġsearch ing
Ġbod ily
3 6
ri pp
con sidered
Ġarm our
Ġcar l
Ġ3 7
d or
Ġunder take
Ġrecogn ition
Ġaccom mod
Ġoccup y
Ġd irt
Ġfavor ite
p ens
ver tis
p ha
un ks
Ġsh ocked
Ġno is
Ġhere after
Ġda res
Ġprec aut
in ement
Ġdram atic
Ġro aring
Ġtom orrow
Ġcustom s
Ġshepher d
c ab
Ġunfortun ately
ur able
c ular
r um
Ġmy th
Ġmil ton
Ġecho ed
hast ly
scarce ly
g reek
Ġare n
ne ath
Ġm ent
Ġappoint ment
Ġsc enery
i os
Ġprov ision
Ġremem brance
Ġprov ide
Ġrequ ires
s ave
Ġste ven
Ġenglish men
Ġun seen
Ġper ish
equ al
Ġju an
Ġdismiss ed
Ġhe t
Ġex ternal
Ġremain der
Ġfo am
h orn
Ġsur geon
bo ats
Ġfront ier
Ġpier re
Ġt act
Ġfle e
Ġm it
ne ys
Ġwonder fully
Ġnove ls
Ġvac ant
ic ating
mar riage
Ġsuppl ies
m ass
Ġmar ie
Ġd ru
Ġres erved
Ġcost ume
Ġc ed
Ġdam ned
Ġmother s
Ġform idable
m iles
Ġrem onstr
Ġsy l
Ġrob bed
Ġchar ms
Ġrob es
Ġsubl ime
Ġman agement
d ened
Ġneighbor hood
Ġ =
qu er
Ġass isted
Ġprotest ant
Ġm aud
Ġf ie
Ġsome one
Ġcover ing
Ġimag in
Ġshr ill
Ġc orrid
Ġgr asped
Ġtre ad
Ġflo ated
Ġch inese
Ġvel vet
Ġe c
ag u
Ġtra vers
n ib
ut tering
Ġcommand s
Ġcol umns
compan ion
Ġb its
Ġfl ush
Ġhelp ing
Ġcomb ined
Ġbeha ved
Ġlege nd
ting u
Ġbl ush
ag ers
Ġcur sed
Ġ3 8
l am
t or
ast y
Ġe agle
hen ry
Ġs ire
on se
Ġgreat ness
Ġdil ig
Ġeleg ant
Ġp avement
Ġn erve
Ġimpress ions
s ick
sm o
war f
he tic
lt on
Ġconf irmed
Ġdeal t
Ġth reshold
ir on
ic y
Ġfill ing
Ġsun ny
j an
chan ts
Ġlam ps
Ġf ist
Ġf acing
Ġsc re
cess ion
Ġm orrow
._ )
pock et
r ane
Ġm ull
j am
Ġp hant
nat urally
Ġmain ly
Ġtos sed
Ġseam an
Ġcons ists
Ġreck less
Ġancest ors
Ġn om
ric hard
Ġfac ulty
ur re
Ġret ained
Ġassoci ation
Ġsl umber
Ġrel ieve
iv able
Ġtim id
hab ited
t ru
Ġno b
foll ow
e at
en ched
Ġen camp
Ġstill ness
l og
Ġb ug
Ġshe lls
vers ion
fe rences
Ġmod erate
Ġsecret ly
Ġincap able
re et
Ġpill ow
Ġcle aring
Ġrebell ion
Ġhed ge
othes is
de ck
Ġmo ist
Ġdisp os
Ġun comfortable
Ġsha red
Ġall an
Ġang rily
b as
Ġm ak
Ġf ret
Ġeffect ed
Ġstri kes
Ġintrodu ce
Ġprim itive
Ġbar ren
Ġcomplex ion
Ġcol ony
Ġtra itor
f right
Ġlod ging
Ġdeliber ately
w ich
Ġworld ly
urs day
Ġp ang
Ġj am
Ġalong side
char les
Ġheat hen
Ġindign ant
Ġins ens
Ġdus k
st ones
Ġdr unken
el ed
Ġbox es
Ġindepend ence
diffic ulty
Ġr ings
Ġsick ness
Ġeconom y
e vent
Ġun necessary
Ġheight s
sum mer
r ad
arer s
Ġcap s
Ġestabl ish
Ġvague ly
f urn
Ġc Ã¦
Ġac ad
Ġgi b
ay e
Ġsc ram
Ġ3 4
Ġcra zy
Ġdis s
c art
Ġprepar ation
in j
vere nd
Ġcr ash
Ġappre hension
Ġbr u
se par
Ġfac ulties
Ġdiv ide
Ġcap it
Ġc atherine
Ġin justice
Ġhigh land
dist ingu
z el
Ġar oused
i age
Ġ3 9
prep ared
Ġhol mes
! )
Ġtem pest
Ġr ue
do zen
Ġw iz
Ġabstr act
Ġg ust
Ġmoment ary
sp oke
Ġfurn ish
Ġcalcul ated
Ġreason ing
Ġmead ow
Ġbell e
Ġl il
Ġab ode
Ġtroo p
Ġcommer cial
Ġrespond ed
e the
Ġcl othing
Ġsuspic ious
il ton
Ġed gar
Ġfright ful
Ġharmon y
Ġbe e
st ay
Ġgri p
Ġattract ive
Ġtr u
Ġsw am
Ġmin ist
Ġstrong est
re vol
Ġm uff
Ġeye brows
Ġpl acing
Ġach ieve
l orn
Ġover head
Ġd ora
Ġg y
Ġcord ial
Ġ19 0
Ã ª
Ġsand y
Ġw ist
Ġw ig
pe culiar
Ġim ages
Ġspe eches
Ġwarm ly
s itu
Ġeager ness
Ġjer usalem
Ġdischar ge
Ġcarol ine
at o
id ences
Ġwor sh
Ġghost s
s ie
ri el
Ġlar gest
Ġple aded
w orn
Ġran ch
serv ant
Ġrug ged
b read
Ġcar go
Ġch oo
Ġes mond
Ġhy po
Ġv ile
Ġpl ates
unt ary
Ġn ig
gr ow
Ġhurried ly
Ġm oses
Ġx i
eng aged
Ġr ou
Ġcomm od
Ġor g
b red
ke e
Ġcl ar
Ġm ix
Ġphys ician
c ong
qu es
Ġprud ence
Ġk ick
he ro
Ġann a
Ġbid ding
Ġru pert
Ġegypt ian
Ġruss ia
Ġcons olation
lad ies
influ ence
u ation
Ġrep air
Ġir resist
Ġpay ment
Ġcaut iously
Ġfanc ies
we alth
Ġg n
Ġbest owed
pre c
ett le
re pe
Ġmar ching
Ġartific ial
Ġwitness es
com pre
Ġpen cil
Ġlim b
i astic
Ġexam ples
apparent ly
Ġf oes
th ony
Ġstair case
Ġconspic uous
Ġf ir
Ġd ug
ic o
Ġhat s
Ġjack son
Ġso ci
Ġstren gthen
Ġmir th
Ġsc are
Ġcont est
Ġcam bridge
Ġlu ke
Ġr ans
Ġr ows
ind ividual
p ull
Ġthe od
Ġremember ing
Ġvig il
Ġgroan ed
Ġun natural
Ġbl iss
over ing
s or
Ġa then
Ġcl ad
Ġliter ally
Ġregular ly
Ġnav y
pa ul
ing le
qu al
after noon
Ġk ins
Ġsha m
Ġmar gin
Ġmarry ing
Ġcurt ains
Ġmag gie
great er
dist inct
ple nd
Ġcommand ing
Ġrest ore
Ġsc ared
Ġla zy
Ġan te
Ġbeaut ifully
Ġcigaret te
es c
Ġtr aces
er idge
Ġco in
Ġbul k
de vil
Ġcl othed
Ġpre cipit
Ġed mund
ern est
Ġexpress ions
Ġmead ows
st an
tem per
Ġpac ific
te xt
Ġdest ined
Ġtor rent
Ġring ing
Ġf itting
Ġw ool
Ġre bu
Ġhonest ly
Ġshru gged
Ġhe ars
spe cies
Ġenjoy ing
idel ity
st retched
Ġsha pes
Ġgl are
Ġsw orn
Ġcapt ive
3 7
Ġmed ium
Ġmoo re
Ġdream ing
Ġmach inery
j oice
Ġmouth s
Ġprud ent
an i
Ġk at
Ġt aver
erv ation
Ġspr ung
Ġsubsequ ent
b road
Ġb acon
Ġdo ings
gg s
Ġtot ally
m am
j er
Ġg or
Ġch orus
Ġce cil
hold ing
entire ly
Ġy awn
Ġqu oted
Ġquar re
dra wn
Ġl ace
Ġcir cul
sub st
Ġm ask
el ia
j ul
r ot
Ġjack et
Ġpun ish
Ġn u
Ġdust y
Ġcons ol
Ġcar p
Ġcor al
oo ke
pl ing
Ġpract ised
Ġhun ters
b rew
Ġling ered
t ried
he y
Ġp iano
om y
Ġjo int
Ġdocum ent
Ġen qu
Ġext ensive
in tend
Ġrecord ed
Ġpom p
f les
Ġcon greg
Ġsp ur
ou ching
Ġus es
Ġr ational
Ġst ake
sur pr
cl aim
Ġexcl amation
s it
beaut y
Ġto day
Ġvall eys
Ġhospit ality
Ġeste em
it imate
Ġm ixture
Ġal ar
Ġhang ed
nation al
Ġhun ted
t in
Ġfl owing
sha w
Ġtort ure
Ġsu lt
us ively
res ult
Ġexhib ited
forgot ten
Ġre nd
Ġfor d
Ġ17 8
talk ing
Ġtig er
Ġa z
Ġd ies
Ġrespect ed
me as
gr ateful
Ġinter pret
pro ve
Ġfrench man
quar ter
Ġow ed
Ġe llen
Ġan guish
wood s
Âł .
Ġgrow led
Ġess ay
Ġliqu or
Ġin vention
Ġcountry men
Ġdar win
Ġ 0
dis appoint
ues day
Ġli able
Ġmus cles
Ġfrancis co
Ġvener able
bro ke
Ġspecim en
t one
Ġn un
Ġr ous
Ġbre ach
de velop
Ġinst itution
Ġvig or
r ising
Ġv it
fic ial
____ ____
e g
Ġc ul
Ġass ent
uls ion
Ġan gl
ial s
h om
om on
cept ions
Ġbare ly
Ġdrag on
Ġb oughs
Ġfe lic
ĠĠĠĠĠĠĠĠĠĠĠĠĠĠĠĠĠĠĠĠĠĠĠĠ ĠĠĠĠĠĠĠ
inter rupt
st at
Ġteleg raph
Ġdev ils
Ġpen al
Ġdecided ly
Ġqu oth
Ġro be
wonder ful
Ġpart ial
Ġcour te
Ġatt ained
under standing
conf idence
Ġeloqu ence
Ġt ack
Ġsu ng
un ction
determ ined
g ree
y ne
as ide
Ġpleas antly
ls on
Ġtri fling
ass ured
Ġl ag
pl an
Ġdr own
6 0
b in
c ad
Ġar nold
ign ant
Ġdiam ond
qu ate
Ġfe ud
Ġback ground
Ġtender ly
Ġbeha viour
imp ly
Ġp ushing
Ġg inger
Ġsp ots
Ġshop s
Ġcommer ce
Ġrout e
Ġgoth ic
Ġcl aimed
Ġsqu e
Ġpers isted
Ġm ute
bl ess
n am
m ates
Ġpol ished
ric ult
Ġdesp ite
Ġbas is
in ch
Ġst ove
Ġne ll
e ves
ge ons
disc overed
Ġto d
Ġsuspic ions
Ġan alog
Ġbig ger
Ġla ure
oun cing
arr ange
Ġform ation
Ġasce nded
Ġisa ac
Ġm all
Ġsport s
Ġc ows
Ġassoci ated
Ġgu ided
acqu aint
Ġx ii
Ġple ad
Ġart istic
Ġfem inine
Ġmusk et
Ġbet wixt
Ġsweet ness
sus pect
Ġpl ague
Ġconf irm
Ġdeal ing
Ġmor ality
? âĢĻ
in th
Ġmort on
Ġcorp se
Ġf oster
Ġbe es
if ies
Ġsl ack
Ġcryst al
il a
Ġsk et
Ġros y
h i
op ing
Ġfun ction
Ġg hastly
," --
Ġprodu cing
Ġlat est
Ġswall owed
Ġb race
atch ing
Ġg ames
sw ift
Ġsu cc
Ġsymp athetic
Ġappreci ate
Ġfatig ue
Ġb other
is ons
Ġr ider
Ġhon esty
ra ised
Ġbene vol
ro bert
Ġcar ved
Ġham mer
Ġcard inal
pr oof
fl owers
Ġtri but
Ġaw aken
fortun es
Ġdiam onds
Ġcan ada
Ġcr us
Ġpath s
Ġdim ly
Ġrub bed
Ġinspir ation
Ġdu ly
Ġarch ie
Ġsitu ated
Ġglo ves
Ġstud ents
sil ver
Ġb ot
Ġcha ins
Ġha re
Ġfro g
Ġpeculiar ly
d av
Ġsol ution
Ġlaw rence
Ġbax ter
Ġinter pre
Ġtong ues
Ġgil bert
Ġassert ed
ol es
Ġex changed
Ġacc us
Ġoff ers
jo ined
Ġfant astic
d ar
y an
b attle
Ġd warf
Ġp add
f requ
o ch
Ġg ordon
Ġsh ift
Ġeng ra
d les
Ġamb assad
Ġgreet ing
Ġaff irm
Ġswall ow
Ġshe ets
Ġneighb ors
b ation
Ġat lantic
Ġgu id
Ġemer ged
Ġshadow y
unt arily
Ġher mit
ist ics
Ġen chan
Ġtw ist
Ġdis d
Ġsim on
Ġh ounds
ra h
Ġcous ins
Ġbatt les
pict ure
Ġprov o
im per
Ġsand s
Ġbern ard
remem bered
ound ing
break fast
Ġmir iam
ick er
Ġexper iments
Ġaccompl ish
p ine
w ond
it he
op ed
fortun ately
it ably
Ġinst itutions
k no
m aker
Ġo l
Ġglo be
Ġfor s
Ġabund ance
b ul
Ġscream ed
e urope
Ġacc ent
Ġhy mn
Ġgree ks
che t
Ġrepresent ative
Ġp ert
che er
opport unity
Ġm are
li ber
Ġdec ay
Ġholl and
Ġexpl os
m eth
Ġst ooped
Ġall ies
Ġexc urs
Ġsqu ee
abs olutely
c am
an or
le aves
ut ive
Ġyoung est
su cceed
Ġneighb ouring
lf are
Ġdign ified
Ġsevent een
is land
Ġrig id
Ġschol ar
cha l
Ġhes itate
Ġpsy ch
Ġy acht
gu es
Ġgrand mother
Ġcr imes
Ġbreath less
Ġw ad
Ġha il
ne g
Ġcare lessly
Ġf erv
Ġinter posed
Ġde pended
Ġen countered
ish ly
Ġscul pt
Ġle ve
Ġfaith fully
Ġwrit ings
Ġreject ed
c us
Ġre de
Ġun kind
ext reme
s ong
Ġown ers
mag n
itt ered
ament al
tow ard
Ġpatter n
c ous
atter ing
Ġinv ari
Ġcre eping
Ġsingular ly
Ġwitness ed
Ġcult ure
Ġanno y
we ather
Ġsp here
Ġm att
Ġp am
ud ent
Ġgig antic
heav y
Ġb ast
Ġj ail
Ġprot ected
wr ite
p ardon
Ġdis order
Ġtruth s
... ."
Ġthr ill
Ġcal iforn
d read
Ġm es
Ġhurry ing
b bing
Ġab use
jo ining
Ġillustr ated
Ġpup il
exist ence
ist le
Ġbo ers
po ch
nes day
luck y
Ġc ents
Ġsc ots
Ġinvent ed
Ġgod dess
Ġhost ile
Ġen light
bene ath
f ut
Ġx iv
dif ference
. ;
acc ustomed
Ġextrem ity
Ġm ouse
Ġpri or
Ġbreak s
uls ive
Ġwol ves
v all
ar rived
Ġinvari ably
Ġappe aring
Ġten n
Ġar ter
char ge
about s
u x
w alked
il ian
Ġdecl ine
Ġest ates
Ġb omb
ud ence
k iss
Ġha b
Ġle ague
Ġser pent
w reck
wel come
Ġdistr ust
Ġprejud ice
priv ate
Ġcomm it
r unning
Ġe jac
other wise
Ġdeep est
Ġchar lotte
Ġsw ed
Ġmarvell ous
t ie
Ġb ounds
we ed
Ġcomp rom
ige l
Ġher d
Ġpe er
Ġdoct ors
Ġrestr aint
mun ition
n ove
sur prise
Ġd um
Ġtalk s
pp y
Ġbr ad
Ġcha lk
Ġmuse um
f ixed
Ġf en
Ġwond ers
not iced
Ġstart ling
Ġbatter y
Ġspecim ens
Ġincred ible
t it
ci ences
supp osed
hur st
Ġre pl
Ġconst able
Ġsu spe
Ġ4 5
Ġdi plom
ass ist
Ġdef in
Ġrele ased
Ġs cept
ch ie
Ġmay or
Ġincl ination
ag raph
Ġbelie ves
Ġball s
r as
Ġsin ner
Ġbread th
un ting
Ġterrit ory
Ġpe op
Ġthy self
Ġdecl aration
Ġsw ing
Ġref resh
Ġfin er
Ġdrift ed
mere ly
Ġold est
Ġmon key
Ġve h
sto pped
fron ted
Ġbl ade
Ġleap ing
Ġlou der
Ġsuperior ity
! âĢĻ
Ġc ush
for get
Ġsentiment al
Ġall en
fert ilised
Ġat h
you th
Ġexec uted
j a
Ġl oo
Ġp aces
sm ile
Ġstamp ed
d i
d im
our selves
Ġtr aced
Ġmon ument
Ġsn uff
3 4
Ġca esar
Ġr iv
ct ing
Ġcon quest
r ons
Ġse l
Ġsa g
otes que
Ġsteven son
d ressed
z ie
Ġb aff
und ered
Ġdisc retion
vel ope
Ġencour agement
Ġg ild
Ġe poch
Ġv ind
Ġcolon ies
Ġfa ire
b ows
Ġfrag ment
t ail
know ing
Ġpir ate
if ice
Ġkn elt
vill age
Ġinc idents
Ġpat hetic
Ġexam ining
Ġcamp bell
in arily
Ġd ow
ues e
Ġforget ting
Ġasce nd
Ġperplex ed
Ġloyal ty
' -
Ġsw inging
Ġexp enses
build ing
Ġwho ever
l od
thr own
Ġmart ha
Ġattend ant
m its
Ġin cess
cra ft
Ġli king
Ġag itated
m ast
Ġt ents
Ġexpress ing
Ġpir ates
Ġcast ing
oe uv
mad ame
r and
ĠĠĠĠĠĠĠĠĠĠĠĠĠĠĠĠĠĠĠĠĠĠĠĠĠĠĠĠĠĠĠĠ Ġ
Ġwholes ome
Ġsym pt
Ġhel m
Ġdef iance
Ġpet ty
ran ny
Ġsin cer
Ġin it
Ġv iz
Ġwar ren
thr ow
c ou
Ġex h
c ru
bel ief
urre ction
Ġal ert
Ġan e
pers ons
Ġfalse hood
pir ation
en et
Ġto ken
Ġsur vey
Ġexc iting
Ġclim bing
Ġs ant
Ġle ct
Ġgr ind
Ġpre cip
sett led
Ġorg ans
d oll
r action
. _,
am ount
ci ble
gr ass
cour age
Ġd ub
Ġe pit
Ġdoll ar
Ġre ctor
Ġswe eping
ing ed
st ation
Ġqu er
Ġseam en
Ġf ow
Ġag reement
is en
Ġal oft
Ġfa iling
aug ust
ra il
Ġrough ly
Ġsuspe nded
Ġtrem ble
at han
Ġbl and
Ġsincer ity
Ġsh ower
car ry
Ġsc rew
Ġint ensity
Ġopp ress
Ġsoft ened
Ġgri ff
creat ure
Ġp ouring
ger ald
Ġfol iage
Ġgrim ly
Ġgree ce
Ġcaut ious
Ġforb idden
Ġbl ake
Ġev olution
Ġbur ke
Ġstri p
Ġspect acles
Ġcontin ual
Ġfulf il
Ġw an
Ġth umb
Ġir re
diffic ult
w arm
Ġtele gram
Ġresour ces
Ġb ite
Ġgerman s
Ġafric an
r ates
wor king
Ġarg ued
Ġm athe
Ġsum mons
Ġharm less
Ġassured ly
corn er
Ġsc old
Ġre ct
Ġkn ot
Ġtrump et
Ġopp on
bel ieved
Ġblaz ing
concern ed
Ġre verend
Ġess entially
Ġintim acy
w ide
Ġproof s
ĠĠĠĠĠĠĠĠĠĠĠĠĠĠĠĠĠĠĠĠĠĠĠĠĠĠĠĠĠĠĠĠ ĠĠ
Ġst alk
Ġcl inging
Ġmur ray
Ġad vers
Ġpo ll
Ġrem edy
Ġsend s
Ġfer dinand
Ġresent ment
Ġdis aster
Ġig n
if ting
Ġac ute
bit ter
f ing
Ġfl owed
Ġgen ial
c aught
Ġst ur
Ġvis iting
pop ular
d ling
Ġf res
Ġsc rap
Ġpun ished
Ġnegro es
s now
Ġper ception
Ġste er
Ġtra gic
Ġbrut al
Ġj ove
Ġart ists
u a
Ġb aker
Ġde gr
Ġreg iments
Ġexper iences
Ġce iling
le by
Ġe th
Ġcas ual
Ġre cess
Ġcons erv
Ġap ology
Ġpil ot
Ġcons ulted
Ġremark ably
Ġtrack s
Ġexha ust
Ġtast es
t rem
Ġbarbar a
ĠcÃ¦ sar
ar n
Ġr opes
ri ft
_ )
Ġd aw
Ġl ocks
the e
Ġtr icks
Ġoff spring
Ġport ions
Ġsmo ked
ear nest
Ġj asper
jour ney
ha ven
Ġcal am
Ġattempt ing
en cer
Ġv ow
Ġhand ful
Ġsc ound
sh ut
Ġthir teen
Ġ Ã¦
Ġhe ath
Ġpun ct
ter rible
Ġcomfort ably
com ed
y on
Ġk enn
Ġdesp ise
Ġdress es
Ġrif les
Ġreflect ions
Ġjon as
ul ously
Ġspe ars
ter ior
Ġsa ge
br ook
sp read
ev idently
re plied
Ġg it
Ġdesign s
Ġsear ched
l atter
Ġb in
fore st
e rer
Ġgl ances
Ġsqu ad
Ġdebt s
Ġident ity
at hed
Ġinst ruction
Ġdread ed
Ġshell ey
n ic
Ġref ined
Ġt ug
Ġr ipp
ro lled
Ġde ceive
Ġj aw
Ġingen ious
Ġhyp othesis
e es
Ġt an
bel ow
Ġoper a
ri v
Ġcan al
.-- _
Ġdam n
ment ioned
Ġbu b
Ġtur f
Ġarg ue
field s
ie ving
Ġmon ks
Ġter rified
f ru
l at
Ġs hat
Ġsh ove
ak ers
we ek
." --
Ġed ith
c ried
Ġcan oes
Ġshr ank
Ġp itt
Ġchar ges
Ġtemper ament
phil ip
we ak
Ġfashion able
Ġappl ause
Ġcand les
Ġum bre
Ġt ub
Ġneed ful
Ġcommun icated
i antly
Ġsk ies
ject ed
Ġwealth y
r ain
Ġhe el
Ġbe ef
Ġw aking
at ra
all owed
Ġcol ors
3 3
an o
Ġant agon
b one
Ġcar ries
Ġl ions
st orm
Ġapart ments
or ia
_ :
Ġp el
dark ness
Ġand y
Ġsl im
Ġmel ted
hon est
Ġtaver n
cc a
Ġcomb ination
Ġspl it
c ases
w il
Ġem inent
success ful
Ġvig our
Ġinstr uments
Ġrep rodu
Ġvis ions
at ches
Ġfr ail
Ġsepar ation
Ġaut om
Ġsorr ows
Ġg ene
Ġon ward
all ing
Ġpe asants
Ġfred erick
m ach
Ġb onds
feel ings
Ġsix th
mount ain
Ġborr owed
Ġall usion
Ġhard ing
Ġty rant
Ġband s
Ġde fic
Ġwise ly
Ġfarm ers
mon ths
d ust
Ġcir cum
pre vent
Ġall ied
Ġmyster ies
Ġthreat ening
---------------- ----------------
Ġmurde rer
Ġhar vest
Ġpar lor
Ġre joice
Ġsh illing
Ġman hood
Ġpick ing
Ġvol can
Ġere cted
Ġp ump
Ġdesp ised
or ney
Ġh ue
Ġpat iently
Ġperiod s
conscious ness
Ġpre ach
Ġobject ed
Ġallow ance
Ġg oose
Ġpur ity
Ġgra ves
if fe
Ġv in
Ġbl uff
Ġconst ruction
Ġcustom ary
affect ed
c and
id ious
._ --
Ġdeterm ine
Ġunconscious ly
Ġsincere ly
b ie
th ro
like ly
Ġpurcha sed
ar thur
Ġinstinct s
aver ing
Ġt uck
_ ).
Ġd ante
Ġ6 0
Ġn urs
Ġsuccess ive
Ġsl opes
Ġtem ples
Ġcrown ed
f inger
Ġsub scri
Ġillustr ations
Ġmax im
o ct
ce nded
ir a
uth bert
Ġst em
Ġpro sec
cont ents
bu ilt
rane an
[ _
Ġm oust
Ġgrave l
f resh
el iz
Ġfl ank
ain ty
proper ty
Ġsust ained
Ġd eter
Ġhe red
Ġvill a
Ġburst ing
us hes
ign or
Ġstr ained
than ks
ver ing
Ġun usually
ile t
Ġcr ab
eas y
Ġtreas ures
Ġstud ying
Ġga unt
Ġt ab
Ġfa wn
Ġdesir ous
lear ned
Ġh inted
Ġinherit ance
ro ar
Ġk irk
Ġpro longed
Ġch ic
Ġarri ving
Ġtransl ation
Ġs ly
ac ies
Ġrecord s
Ġattend ants
var ious
b reed
k i
l oved
sing le
Ġreck oned
Ġk er
Ġstag gered
ly s
Ġwh ir
Ġres olute
Ġsuffer ings
Ġec st
Ġim itation
Ġco inc
l an
Ġprospect s
nd ay
Ġwest ward
m akes
Ġpl under
Ġad just
Ġke ys
Ġconv ince
Ġeffect ive
Ġsqu ir
Ġemb ro
flo or
Ġr iot
li ps
c ow
Ġqu ad
particular ly
en ch
Ġele phant
Ġha e
Ġresol ve
b un
Ġm ig
Ġb unch
sh owed
look s
Ġcrit ics
Ġabund ant
Ġrele ase
r iment
en emy
Ġfor lorn
Ġse izing
Ġend ured
Ġwin ning
Ġf rig
Ġgre gory
car riage
Ġstro ve
Ġmer chants
Ġlog ic
Ġrevel ation
Ġhet ty
Ġbe am
per iod
pro ved
Ġmass ive
Ġid iot
z ar
Ġgod frey
person al
Ġknock ing
f ancy
Ġpropri ety
pict ures
rem ain
Ġanim ated
Ġshad es
t ong
Ġr ip
d ers
Ġde xter
um sy
Ġt ame
are n
Ġcic ero
d ry
Ġappe aled
girl s
Ġinher ited
Ġada pted
Ġhe m
Ġso othing
Ġpr ow
Ġbeat rice
Ġsub mitted
Ġcapt ains
. ),
p ap
Ġappro val
Ġdry den
Ġl id
le m
Ġever lasting
Ġconf ounded
Ġschol ars
Ġnob ility
Ġout rage
Ġspread ing
Ġy on
ch n
ib us
Ġneed le
supp ort
Ġall uded
wit ness
Ġste aling
it o
Ġele vation
Ġmod ified
id ers
Ġlight er
law s
Ġmo ves
prof ess
Ġwithdra w
Ġth ieves
Ġgover ness
bes ide
Ġarch bishop
Ġencour age
Ġthere in
bl ind
fin ally
Ġtre ason
Ġre ver
Ġal ien
Ġsuperst ition
de pend
Ġrecogn ise
Ġpick wick
Ġhaz ard
Ġdo ck
Ġdes igned
Ġma ur
Ġdark ened
Ġdefe ated
pie ces
w ine
we ight
Ġqu itted
be aring
Ġwicked ness
Ġintoler able
Ġg ill
des ire
father s
Ġdam age
f ro
Ġn ab
Ġser ving
Ġvirt uous
Ġhom er
prom ise
b reath
Ġre verse
th ia
Ġwor ried
man n
Ġsupp ressed
Ġess ence
Ġest imate
reg arded
Ġcraw ley
Ġelabor ate
Ġp iled
Ġfr aud
Ġlast ly
Ġdepend ent
h ush
m ars
Ġph oebe
Ġbright ness
Ġprev ail
Ġvex ed
Ġhe y
Ġanticip ated
relig ion
_ ,"
Ġcon verted
Ġco ven
ph one
Ġresp onse
Ġsom bre
Ġwiz ard
so cial
Ġexert ion
langu age
Ġbol t
Ġcol eridge
st ick
Ġsl ay
inte nded
Ġblank ets
Ġeloqu ent
Ġab bot
pt ions
bour ne
Ġtreacher y
Ġtool s
Ġattend ing
Ġener get
Ġgorge ous
k im
Ġl ung
cor respond
matter s
in ently
ign ific
dut y
Ġgener osity
Ġentertain ment
Ġare a
Ġfl av
Ġlab ours
Ġwe lfare
han ging
ble ms
ord inate
mount ains
in ous
Ġgr am
iet h
Ġsn atched
Ġher r
har t
har ine
Ġtum bled
umin ous
Ġtra ff
sold iers
7 0
s and
i ors
vis it
brit ish
cr im
Ġassist ant
ol ated
Ġcomp ens
Ġconf er
end eav
Ġc ats
Ġwe ighed
Ġst ool
should er
th or
( _
k ne
Ġan k
Ġpip es
Ġdown ward
g gling
Ġl imp
Ġv ag
Ġbo om
Ġconsider ations
Ġcoo lly
Ġm ike
gg le
ac it
Ġmot or
Ġlun cheon
Ġab ys
Ġye lled
Ġback wards
know s
Ġcorrid or
Ġhur led
Ġbow l
isher s
Ġblank et
st able
Ġpet ers
Ġexhib ition
Ġf ath
Ġad vertis
ar g
ser y
Ġinter nal
inst ant
sil ent
Ġpo llen
und ers
r ide
Ã ´
Ġg au
othe red
Ġw ider
Ġcons ul
Ġvic inity
Ġs ic
ed ed
offic ers
Ġal bert
Ġdesce nding
Ġbrave ly
Ġb ully
Ġrevol ver
Ġaccur ate
ph y
o bed
Ġwhat soever
Ġdist ressed
Ġbaron et
Ġg ird
Ġop ens
Ġref res
Ġhorse back
s plend
on ing
Ġbe have
ur ous
un ned
Ġstret ching
Ġswim ming
Ġh oofs
Ġty ranny
Ġanno yed
Ġb achel
Ġfl ashing
ps y
Ġqu ivering
Ġsw amp
Ġprom ising
sim ple
xt on
Ġrid den
Ġcon str
Ġpublic ation
Ġpoet ical
Ġsar ah
Ġgrie v
Ġmin es
m itting
ent ertain
un ivers
Ġassert ion
Ġmechan ical
ag ne
sh oot
Ġsusp ense
Ġv ane
Ġimp ass
Ġhost ess
d iss
Ġsen ior
Ġg ert
fr ance
fl ies
Ġerr ors
Ġcho ked
Ġm ule
Ġv ault
fr anc
Ġnin ety
Ġcompre hend
in no
se au
Ġshe riff
Ġcount ing
Ġse cl
Ġmission ary
Ġpret ence
Ġrot ten
Ġlaw yers
Ġscri pture
Ġtal ents
Ġawa iting
Ġcompl iments
Ġab ol
su it
d ism
l ies
ex ec
Ġult imate
Ġcir cles
Ġvol ta
Ġcompan ies
Ġra jah
Ġin fect
orig in
Ġearnest ness
Ġgrat ified
Ġt ough
Ġd ial
ic ide
was hing
Ġfore most
Ġcontro vers
Ġelev ated
Ġres igned
Ġdraw s
v irt
Ġc age
s hed
Ġtr unks
Ġwit hered
Ġwhisper ing
m ical
y ards
Ġimp et
Ġkeen ly
Ġawa ited
Ġappropri ate
ad ays
Ġint ently
Ġqu art
Ġsc al
Ġsleep y
ipp s
conne cted
ren ched
Ġhead ed
Ġatt achment
Ġforg iven
Ġstri fe
3 8
er set
ant ine
Ġag ents
Ġbes ie
cr own
Ġlog s
Ġrecom mended
Ġwaist coat
h ospit
Ġno isy
ass ed
ens ed
Ġdet ected
Ġcar riages
Ġtight ly
ab ol
fort y
Ġmor als
Ġchallen ge
Ġind icate
Ġappro ve
Ġpoet ic
Ġth ursday
Ġj ug
ol is
Ġacqu ies
Ġtransl ated
Ġperson age
Ġtou ches
s imply
Ġk icked
Ġobst inate
k it
Ġpar agraph
Ġcommun icate
Ġling ering
b old
Ġc ake
Ġch il
il ess
Ġland lady
rop he
Ġpack et
Ġrul ed
Ġetern ity
Ġpat rick
Ġaccount ed
inst inct
Ġco b
Ġspring ing
Ġin consist
Ġbe th
Ġover board
Ġstr ang
Ġround ed
Ġspr ay
accord ingly
Ġf uss
Ġhouse keeper
Ġhorse men
polit ical
Ġsn ug
Ġplan ned
Ġdan iel
Ġorn aments
Ġpart ners
Ġinter ven
sha ped
Ġtrave ls
Ġneg ot
Ġmart yr
situ ation
Ġl ain
Ġobject ions
Ġrel atives
b oot
es cape
th in
Ġdischar ged
Ġpled ge
Ġaf t
Ġconcern s
Ġdesper ately
Ġb ower
Ġhon oured
Ġneg ative
Ġembarrass ment
f inite
t rying
st ained
Ġprom inent
c ass
g rey
Ġl ind
fif ty
excell ent
he nded
Ġp ud
Ġha ck
ye llow
Ġbrig ade
Ġr on
ac iously
th ick
Ġste pping
Ġprof essed
extra ordinary
l ifted
ys on
Ġric hes
Ġcrook ed
Ġst if
ro yal
og rap
Ġsens ations
produ ced
em p
Ġmagn et
Ġfur iously
Ġr im
Ġsh ots
Ġthr ice
Ġpan ic
Ġuneas iness
Ġpant ing
m ens
he nt
sh out
du ke
cross ed
Ġdetect ive
Ġc ass
Ġsec re
Ġattend ance
Ġbuff alo
Ġmagist rate
n els
u ction
may be
Ġbu zz
Ġappear ances
kn ife
Ġadminist ration
Ġfe eding
quest ions
Ġcook ing
start ed
Ġpup ils
Ġgr ate
Ġhope ful
Ġl ark
Ġbl ushed
Ġfl int
Ġhum ility
Ġev ils
Ġexc ite
zz ie
ver b
jud ge
Ġl ump
br id
Ġmal ice
k night
an cient
Ġex tingu
yes terday
Ġunder neath
Ġback ed
Ġacqu ire
Ġras cal
at oes
Ġsh oe
Ġag ricult
Ġste alth
Ġcent er
quick ly
Ġey el
e ld
Ġpart ially
Ġke eper
Ġengine er
Ġpl ough
Ġhonor able
xx x
Ġdeliber ate
ru p
Ġopport unities
Ġbe et
Ġdisp ers
Ġ eric
Ġkne eling
Ġcor on
Ġspecul ation
Ġhum bly
Ġstro lled
disc uss
Ġb orrow
Ġf its
ple as
Ġadd s
Ġas ia
Ġprosper ous
m aterial
at ers
Ġr attle
Ġear ned
meet ing
Ġascertain ed
3 9
Ġphys i
Ġmour ning
Ġemphas is
Ġm ow
Ġc able
se vent
Ġsam uel
Ġsex ual
poss ibly
Ġjul ian
le igh
Ġu l
Ġann ie
Ġb rew
Ġp sal
Ġwe b
." --_
Ġambit ious
Ġber lin
Ġa ye
Ġse aled
fut ure
w o
un a
Ġsy ll
Ġgrand eur
Ġass igned
Ġty p
some body
fortun ate
l ower
Ġgrie ved
is ive
en on
Ġex ile
Ġpro str
Ġirresist ible
de fe
Ġx v
Ġdo l
pr im
cont ented
Ġrequ ested
Ġsplend our
Ġsignific ance
lou is
Ġwip ed
d ied
se at
Ġam munition
ty ard
Ġcivil ized
ar on
. /
Ġbe ams
Ġfulf illed
Ġw ales
Ġappro ved
Ġbott les
wor se
intell ect
Ġb oss
Ġbar rel
Ġbur y
Ġprinci p
Ġur ge
an throp
ad le
th om
Ġstr at
mon th
Ġen velope
Ġgr otesque
opp osite
mist ress
Ġcon verse
Ġ17 5
mod ern
th orough
Ġph ineas
Ġperson ality
Ġhus h
Ġmo ors
go es
Ġcraw led
Ġbr im
Ġca vern
b ir
e lect
obl ig
Ġen cl
publ ished
w yn
Ġnav al
Ġinter ference
Ġbloss om
spe ech
Ġsin ners
Ġsche mes
Ġl akes
Ġdo ve
iz z
Ġwhere upon
Ġl ame
Ġall owing
Ġac res
n ings
se pt
Ġst ab
Ġde mean
sh r
Ġsim ult
Ġstro de
r ud
man s
Ġcol ored
str anger
walk ing
Ġhut s
author ity
Ġhypo cr
w and
ack now
Ġjo ys
Ġconc ert
Ġcan e
od es
Ġimag inary
imag ination
t est
onel iness
Ġrecei pt
shad ow
Ġpain fully
poss essed
Ġro y
Ġwat son
Ġinflu ences
Ġoccur s
Ġsole ly
ill er
Ġx iii
Ġpig s
ch in
Ġhigh way
mid dle
Ġnois eless
b ug
Ġn igel
Ġard ent
Ġsignific ant
Ġdo omed
Ġwr ist
oc ity
Ġrob inson
nib al
e ager
Ġdecl aring
cur ious
l on
Ġt art
ent ric
Ġeven ings
Ġsk ins
min ute
s af
Ġd yn
Ġme als
Ġsad ness
aph ys
Ġhar bor
Ġt uesday
Ġswe at
Ġcre ate
Ġexerc ised
Ġag atha
Ġdev ote
Ġjoy ous
sim ilar
Ġportug uese
Ġeffect ually
Ġrepe ating
Ġconcl usions
n onsense
Ġh ire
Ġoccur rence
Ġco ats
to s
Ġun w
Ġher ald
Ġplun ge
Ġass ail
Ġday break
Ġrel ate
Ġdra gging
p aid
c ustom
Ġam end
Ġun ity
Ġsol omon
col m
Ġhes itating
Ġiv ory
Ġpill ars
Ġcr um
Ġroof s
Ġse Ã±
Ġsl id
Ġre placed
Ġab omin
Ġhar ness
Ġshaw l
Ġcl umsy
Ġant iqu
dr ink
c up
f un
Ġbrown ing
h oly
Ġw rest
Ġsal oon
" ,
at tend
Ġlad en
Ġsn apped
rec oll
Ġwithdra wn
Ġse asons
Ġal t
Ġpleas es
Ġde em
Ġem ma
Ġac id
Ġbar rier
Ġrich mond
Ġdis hes
Ġexpl aining
Ġvain ly
Ġp est
serv ants
creat ures
Ġall iance
Ġspe nding
Ġgl ac
import ance
bott om
acquaint ance
ribut es
Ġsh orter
Ġag in
Ġprodig ious
Ġsever ity
Ġe g
Ġdus ky
ir y
Ġr ack
bott le
Ġpra ised
b ent
Ġst ain
Ġkn ox
col our
Ġconfident ial
Ġf ren
op er
ev idence
m onsieur
it ative
pt uous
Ġpol es
Ġty pes
Ġach ieved
Ġw ither
Ġha gg
Ġch ick
Ġdefe nded
c ot
r isto
Ġt us
Ġspect ators
Ġadvoc ate
he ment
Ġa ided
Ġattack s
orig inal
m ock
ire ct
Ġcar r
Ġex tending
Ġresem ble
anx ious
Ġgl or
Ġpriv ately
Ġbert ram
c ook
Ġc offin
Ġnot hin
Ġobt aining
Ġscr ut
Ġto ast
g own
Ġan thony
Ġfoot ing
be long
appe ars
advent ure
Ġd itch
Ġcar n
) --
Ġembarrass ed
par liament
Ġm cc
Ġper ished
Ġdart ed
i hil
s li
we ar
Ġintense ly
n ets
v id
ab y
Ġbest ow
Ġcop ies
app l
Ġvers ion
Ġd agger
Ġdis appro
Ġmis er
ograph ical
Ġaustr alia
ac compl
Ġk itty
decl ared
Ġse z
Ġamaz ing
Ġdo lly
dra w
Ġacquaint ances
Ġspark ling
d ue
is hable
ne ck
fl ag
Ġc ripp
Ġcorrespond ing
Ġis su
tr ad
h oll
Ġc ough
Ġsuff ice
Ġvar iation
Ġexcell ency
Ġham ilton
Ġd ainty
cent ury
les iast
Ġhor ace
Ġult imately
Ġmod es
Ġimpress ive
Ġne lson
ev il
le ans
Ġend ing
Ġent ers
k illed
Ġar bit
Ġche ese
Ġutter ance
Ġlou ng
Ġinval id
Ġpet ition
Ġpro ves
li ves
Ġmod esty
offic er
Ġpit ched
Ġc ream
ar my
Ġv oc
el ine
Ġopp ressed
il iation
all s
hill s
3 1
id ays
inst antly
Ġbrid le
Ġan ec
th orne
op s
ish ness
Ġdes erves
Ġ3 1
Ġchance ll
Ġrejo iced
Ġclare nce
Ġatt orney
Ġsen ate
Ġwhar f
te lling
Ġlaw ful
Ġred dy
Ġvict ims
Ġrub b
or ic
ser ious
chan ging
bar ked
hun ting
Ġanec d
l ace
Ġt ink
Ġo min
Ġr ipe
comp osed
Ġcompl icated
Ġpisto ls
mar ked
Ġbal con
Ġregret ted
ter y
z o
ine a
Ġwork man
sy stem
Ġball ad
Ġb isc
Ġunt r
b are
Ġle o
Ġpost s
Ġ +
Ġinqu is
b eth
c ult
Ġgl ist
int ention
Ġspo iled
Ġspec ific
poss ess
u ke
Ġrag s
Ġl oos
pen ny
Ġchamp ion
7 5
Ġ ernest
Ġi l
Ġkind red
pro portion
Ġresem bled
Ġcan st
Ġappe nd
Ġc ars
Ġin habited
Ġre bel
Ġor phan
ft on
ces ter
Ġar abs
Ġsha bby
sc ot
Ġmeet ings
Ġdread fully
surpr ised
Ġl umber
Ġed ges
Ġter med
mar garet
Ġwear iness
Ġhence forth
Ġdeb ate
Ġperil ous
Ġcur ve
Ġban ner
Ġscre en
le v
omet er
Ġte aring
Ġinterrupt ion
eas ily
on ous
ut her
Ġcom edy
Ġreven ue
th reat
i ard
Ġn our
Ġthem e
Ġpost ed
Ġfrank lin
inde pend
Ġl ined
Ġsub mission
Ġdep rived
Ġadmir ing
Ġj aws
Ġatt ributed
Ġe b
Ġdr ows
pass age
Ġnur sery
f its
Ġmanufact ure
Ġrest aur
ham pton
rel ation
medi ate
Ġblanc he
Ġhaught y
Ġtribut e
Ġmeth inks
ra w
mer ing
Ġphr ases
Ġcaliforn ia
Ġn an
Ġshe w
Ġpat ri
Ġorgan ic
Ġmult i
cl im
fl ower
Ġann ual
Ġexpress ive
čč čč
Ġtail or
Ġembr aced
em en
Ġsw an
Ġshr ink
Ġt int
Ġwork men
Ġexcl aim
pend ing
Ġrepublic an
ve ying
ver ley
Ġwe ars
os a
az e
Ġinf irm
8 0
p ill
Ġobser ver
Ġcommon place
" .
Ġd al
Ġexp ensive
Ġrec overy
Ġsubst antial
Ġscant y
Ġopp ose
Ġbright ly
count enance
g ill
Ġsou p
Ġxx iii
Ġhered itary
Ġb ounded
Ġc ert
ra ham
Ġbright er
Ġpossess ions
Ġle wis
Ġinv ite
Ġnoble man
Ġaud ible
in ia
Ġcomp act
Ġtri vial
Ġwall ace
Ġarchite ct
Ġun a
Ġemp hat
Ġhe brew
ul u
pow der
Ġstur dy
b ri
g ency
Ġd ot
ve red
ned y
l ocked
Ġhar ris
Ġdear ly
Ġcivil isation
Ġcontempl ation
od ox
Ġill umin
Ġpier ced
Ġexal ted
3 2
re ct
Ġl oft
Ġaccord ance
Ġwel comed
ra ged
should ers
inst ru
find ing
y ll
Ġb ased
en zie
Ġag nes
Ġstat ues
Ġdares ay
pt ures
Ġfort ress
Ġsevent h
Ġproc ured
Ġpe ak
ign ity
isto l
Ġinvest igation
Ġchival ry
cous in
op atra
Ġpropriet or
c itiz
Ġto es
Ġtop ic
l ane
Ġpat ent
Ġwalk er
Ġpursu ing
Ġbas in
Ġenthus iastic
Ġminist ry
Ġrequ is
Ġstead fast
const itution
Ġsu its
Ġdepos ited
i ac
Ġaf ar
d un
mor al
Ġdoctr ines
a um
r ating
Ġdist ribution
Ġsk il
Ġbas il
st yled
to ps
Ġexpl o
Ġbre eding
Ġshrie k
Ġto oth
Ġme g
Ġca using
bar bar
Ġgle aming
Ġpin ch
Ġton ight
er on
Ġan on
Ġham let
Ġeast ward
Ġappre hens
e au
Ġpre lim
Ġwell s
uc er
Ġdet ached
b ob
Ġm im
ap se
Ġpe arl
pr inted
Ġaston ishing
ar ri
Ġres ort
ern ation
hand some
h ire
act ing
Ġpe b
Ġinstru cted
Ġal i
Ġfe aring
d ish
ic ting
ut t
." [
Ġambassad or
Ġme lt
wind ows
Ġhaw k
Ġprivile ges
Ġumbre lla
Ġrec o
ant on
Ġgener als
ub b
more over
Ġappreci ation
Ġrecover ing
Ġaltern ative
exc use
Ġhead long
rest r
Ġsle eve
par is
not ice
Ġapp les
Ġflo at
Ġt acit
ke red
she ll
pro gress
Ġdifferent ly
d ney
Ġx vi
Ġoccasion ed
mar ry
fight ing
Ġfert ile
Ġmerc iful
Ġdid st
sy l
pens able
expl ained
Ġrepent ance
Ġthick et
Ġrub bing
Ġfin an
Ġcivil ised
Ġin land
le e
Ġadm ission
great est
prof ession
Ġsem i
Ġsha res
Ġcond es
it ia
Ġd iana
ot to
Ġsa bb
Ġreal ised
Ġwest minster
Ġl anc
Ġcha u
Ġfav oured
Ġbe au
Ġcomp osure
itu ally
Ġlangu ages
watch ing
Ġexceed ing
squ are
Ġextravag ant
Ġla v
s ax
Ġfor bear
ast rophe
Ġdispos al
st ates
Ġbron ze
f em
af ford
mat ical
b ones
Ġc um
Ġrep et
Ġrans om
Ġbo red
Ġbo ards
Ġdel ayed
Ġref usal
Ġunder taking
zz a
Ġfal tered
Ġdiscuss ing
Ġa qu
in formation
." ]
Ġpe re
Ġjud ging
Ġresc ued
Ġdisd ain
Ġf idelity
Ġv ale
jam in
n igh
se ction
Ġen lar
Ġhind er
Ġsl aughter
Ġste wart
Ġcur led
Ġass ass
Ġthick ly
m atic
ul ed
Ġpen it
Ġpal aces
Ġrepresent ation
exp ressed
consider ation
Ġawa it
for give
gr ay
tr ain
Ġwed nesday
s word
Ġsp encer
Ġgen us
Ġor chard
Ġj a
Ġnor mal
Ġwond rous
Ġsecond ly
Ġver ge
Ġshat tered
Ġim plied
cont rol
Ġod ious
Ġodd s
ind if
aff airs
Ġsha ped
Ġseem ingly
Ġturn er
do ors
Ġven us
Ġ ll
Ġl ull
Ġshel tered
Ġem ig
Ġhum orous
Ġext inct
mam ma
de p
Ġdark er
light s
Ġrespect ful
Ġpray ing
Ġproc ure
Ġchancell or
Ġequ ality
sm oke
Ġobst in
Ġresign ation
b os
f ier
Ġbl ushing
Ġact or
Ġtick et
g ow
Ġb ail
Ġpre face
Ġpar cel
hen ce
spir its
fell ows
pl ant
av oid
Ġfro ck
inst ance
Ġpr ices
Ġpar aly
Ġhud son
Ġretreat ed
et ime
Ġreal ise
x ion
ci val
Ġpre aching
Ġent ry
eth ro
Ġvi br
Ġse lling
Ġstar ve
h ither
Ġread s
Ġsun rise
doubt less
Ġau ld
Ġbl under
Ġpos itions
Ġc uthbert
et e
pl ate
Ġgl ided
Ġsen ator
v ain
it ory
un ciation
Ġprocl aimed
Ġh ull
Ġnow adays
Ġacc idents
Ġmon te
Ġconven ience
dec ided
Ġt ren
Ġoff ensive
consequ ence
oll en
Ġrec ru
Ġhabit ual
Ġwal t
Ġre cl
ate ur
Ġcontin uous
Ġir rit
Ġje wel
Ġskirt s
: --"
Ġga ily
Ġindul ge
m otion
Ġb ass
off er
f o
am an
Ġtrans p
Ġhusband s
Ġbust le
Ġmoust ache
Ġst umbled
and ers
Ġsp urs
ens er
Ġtor ch
Ġmel od
Ġsour ces
c hat
Ġt asted
Ġh il
pe cial
Ġj ake
Ġur gent
Ġinstinct ively
Ġunexpected ly
Ġm um
Ġaccur acy
Ġprejud ices
Ġmaid s
anim als
Ġsne er
n iff
n amed
t all
Ġh ound
Ġas cent
Ġper chance
she l
Ġstri ving
Ġc rop
Ġexcept ing
Ġthe r
Ġthe ories
Ġcon form
Ġnew man
Ġhe nd
4 8
4 9
Ġp ots
mad uke
m ud
r ough
Ġr owed
happ ily
Ġcolumb us
Ġsu ms
ab ella
Ġchar med
Ġel apsed
Ġbu ying
Ġbeaut ies
Ġr amp
ind ian
Ġmem orable
4 6
Ġkn ives
Ġcons cient
Ġme ets
Ġcour tyard
Ġgo at
gr ims
exc itement
Ġpassion ately
Ġkiss ing
Ġfie nd
Ġl yn
al ice
Ġg aining
ly le
Ġsa hib
Ġlo af
Ġro gue
Ġent r
Ġsent ine
Ġbab e
Ġab ide
Ġt ay
al i
Ġcom mend
hand kerchief
Ġkiss es
Ġber th
Ġhar p
Ġhon ours
arch y
Ġlog ical
Ġsp ed
Ġsm e
ham es
Ġnod ding
Ġdemocr acy
Ġcourte ous
Ġtraff ic
c ost
Ġf ag
on ia
Ġcrack ed
Ġp ars
ch us
Ġair s
compan ions
Ġgab riel
Ġstan ley
Ġpa using
Ġco co
Ġtri es
part s
Ġwear ied
Ġsa ll
Ġwor m
Ġexert ions
w id
w ished
Ġtemper ature
Ġgl oss
Ġdisc reet
Ġfer gus
it ives
ri ers
ne ll
Ġlod ged
b ath
Ġh ints
Ġdis appear
Ġpre ference
Ġ( "
u ate
Ġha iled
le ading
Ġpam ph
Ġcoun c
ab and
ices ter
set tle
col ored
Ġgard ener
Ġted dy
Ġg ir
ic an
Ġinf ernal
Ġgall ey
occasion ally
sac rifice
c red
Ġw reath
Ġfright en
establ ished
Ġt as
ce lot
Ġpat ches
t ouch
ia lect
Ġworld s
Ġve in
Ġpropos itions
Ġmourn ful
Ġe lected
Ġbr ink
Ġbut cher
hens ible
wall s
om an
pect ive
leg s
grand father
Ġfelic ity
l as
Ġp onder
ad m
Ġsa viour
Ġsp ake
Ġref using
Ġoblig ation
Ġchat ter
l oo
t an
Ġhapp ening
Ġhor ribly
Ġrapid ity
Ġbag s
cond itions
Ġheap s
Ġoffe nd
Ġpear ls
f ed
Ġprophe cy
Ġd it
Ġy an
Ġquar rels
Ġdrift ing
Ġdocum ents
Ġcompar ative
Ġtrad itions
Ġattent ive
==== ====
fal se
v ice
Ġc it
Ġpre ached
Ġsl ug
ex er
Ġmot ions
ons on
val ent
Ġgar ment
Ġb or
ex ped
Ġcle ment
Ġcompl ained
Ġhaul ed
Ġdef ined
Ġsweet est
Ġrich ly
Ġrevol t
Ġsympath ies
Ġphilosop hers
ĠÂ §
dav id
j ar
re v
om well
Ġsett ling
Ġpreced ed
Ġverd ict
re sem
Ġforg iveness
Ġant iquity
Ġflat tered
Ġp iety
Ġre vived
Ġr ice
des per
care fully
Ġfold s
Ġsurround ings
Ġliqu id
Ġconspir acy
Ġp av
fore ign
Ġbur ton
g ars
se ar
Ġscul pture
Ġfr ances
Ġar isen
Ġtri als
new s
Ġcell ar
Ġbefore hand
ang s
ft ed
Ġpur itan
Ġsent ences
Ġproud ly
Ġshr oud
tru ly
Ġacad emy
Ġhy ster
put ting
Ġtoler ably
Ġnab ob
Ġbr ushed
Ġins ignific
po inted
Ġsabb ath
ic it
Ġe man
Ġfr owned
Ġinte nding
acc ident
Ġrav ine
Ġm u
Ġli zzie
Ġbeg ging
Ġwar fare
Ġw are
Ġle agues
Ġconf ed
eliz abeth
w right
Ġex asper
Ġar ches
Ġcongreg ation
Ġenerget ic
Ġhar r
be ast
Ġill ustrious
Ġsight s
Ġreve al
j une
t welve
Ġhome ward
Ġwel sh
Ġhorr ors
anim ity
Ġn asty
Ġad joining
Ġper v
Ġsan ction
Ġpot ent
Ġbirth day
Ġshud dered
Ġsacrific ed
chie vous
Ġhill side
Ġimper t
Ġejac ulated
Ġted ious
Ã ¼
pers u
Ġproport ions
sor ry
Ġbr ist
Ġhel met
Ġobl ige
s ky
Ġo mitted
Ġen sued
Ġten ants
Ġstub born
Ġg ul
Ġdes olation
str icken
laugh ing
s om
imp ression
cal m
Ġfin n
Ġele anor
Ġmir ac
name ly
Ġgrin ned
Ġanton y
Ġveh icle
Ġre ins
Ġwere n
att ack
Ġequ ip
Ġbishop s
Ġrobert s
Ġb ard
en na
Ġl ime
pe ls
Ġle v
ook s
co ast
Ġproper ties
Ġwit hal
Ġexhib it
Ġfet ched
of fered
Ġwhere of
Ġliver pool
Ġsult an
o be
Ġg room
Ġan gles
Ġwhis ky
l uc
Ġb ould
Ġse qu
de acon
Ġcl ient
Ġbl ocks
Ġsur f
cur t
Ġban quet
Ġgrie ve
cab in
Ġinspect or
Ġbachel or
Ġh ilda
Ġwrong s
comp et
Ġsouth ward
Ġnovel ty
Ġrust y
il ion
fe ather
Ġte rence
pre ced
Ġcontrad ict
is se
Ġcon fronted
Ġunder taken
Ġquer ied
s ides
Ġp ard
Ġcarp enter
ig ne
Ġox en
Ġsympt oms
old s
Ġatt raction
g am
g ies
Ġl oneliness
ac cur
ue lly
Ġvar iations
Ġrad iant
Ġdimin ished
Ġd ubl
Ġde pl
pr oud
Ġindul ged
Ġpruss ian
Ġconstru cted
Ġv ices
ice ly
Ġsuccess fully
Ġcrowd s
p ure
Ġg ur
Ġbu oy
min a
min ister
Ġpolit eness
Ġphilosoph ical
adel ph
th orn
Ġtrad er
Ġpretend ing
Ġsub ur
sus pic
Ġb owing
Ġm abel
ir o
tr ade
! ...
Ġfam ine
Ġled ge
Ġplan et
te ars
Ġcl enched
Ġte nded
Ġdist racted
Ġprof its
Ġsubject ed
Ġrul er
Ġneat ly
americ a
Ġveget ation
Ġne ut
Ġcon ference
Ġmind ed
Ġga it
Ġaustri an
Ġn as
Ġal mighty
Ġres ume
Ġposs ibilities
che st
Ġenchan ted
Ġc ust
Ġab hor
cl ed
cl iff
Ġsc or
Ġaffect ing
x im
Ġlung s
p ick
Ġmant le
in isc
ou ter
Ġle op
Ġshe lf
Ġhar vey
Ġmist akes
gu ess
Ġdom est
ais er
direct ly
Ġlect ures
Ġgr ub
Ġsucceed ing
quiet ly
) :
6 5
v ings
w ark
an na
Ġxx iv
p ale
Ġimp osed
Ġgu ar
Ġpol ish
itz er
e cess
l oss
Ġor th
be e
Ġble eding
Ġw ade
Ġre ass
Ġen closed
Ġve ter
rop ri
Ġrestr ain
Ġteacher s
Ġexagger ated
Ġstri pped
Ġval ued
Ġlab ou
Ġep is
ur t
Ġv icious
Ġcontin ues
Ġcirc us
Ġprovin ces
Ġdubl in
st ir
Ġ4 8
Ġsn iff
Ġnorth ward
Ġindul gence
Ġl ac
Ġsha ggy
Ġchic ago
re put
ha p
Ġk ettle
Ġtr uck
Ġinc or
Ġind ies
Ġve hement
Ġros am
Ġrust ic
Ġst ages
Ġun reasonable
cl ad
ste ady
Ġprofound ly
Ġid leness
Ġtur key
mist ak
Ġno stri
sp ot
Ġpit iful
Ġmars h
c os
f aint
ut able
Ġre ly
Ġexcell ence
Ġconvention al
Ġf oss
se ason
Ġfor fe
Ġad vert
Ġlight ing
Ġrest s
Ġhang s
leg ged
Ġassoci ations
acqu ainted
lu cy
Ġe ch
Ġfor k
Ġun lucky
Ġke nd
sur face
Ġfab ric
t ical
et ies
Ġv oid
Ġpot atoes
Ġaugust us
ent hus
gr owing
bre aking
Ġdefin ition
Ġbab ies
Ġtroubles ome
9 0
Ġfew er
arr anged
expl an
remark able
Ġow l
Ġconsist ing
Ġperplex ity
Ġall ey
Ġj em
Ġsat ire
Ġfire place
foot notes
friend ly
Ġhenri etta
Ġfr antic
Ġover fl
Ġpe pper
ru b
Ġgener a
cle an
Ġce lls
Ġtele phone
Ġd ated
st aff
Ġcons umed
Ġinv asion
Ġgover ned
Ġpost p
Ġcompet ition
sent iment
Ġrag ing
Ġg asp
Ġstock ings
Ġcler ks
Ġmaur ice
4 7
e lf
Ġm and
Ġst ained
Ġsp ont
Ġfl ing
Ġsal ary
Ġdep ut
Ġstop s
ival ent
Ġsom erset
princi ples
Ġt ib
ra oh
Ġap ron
Ġview ed
vis ible
pap a
Ġre igned
Ġun broken
Ġcame ls
Ġill ustration
cri be
Ġphenom enon
Ġstor ms
Ġrebe ls
Ġjo ining
Ġbatter ies
Ġcyn thia
Ġturk ish
p ipe
Ġn ails
Ġske leton
ig an
Ġam en
any body
lim ited
Ġada pt
g ering
Ġst ump
Ġcl aude
Ġwhist ling
shar p
Ġinde finite
Ġass umption
Ġdiss ip
t akes
Ġf ishes
was hed
Ġscream ing
danger ous
pier re
e gypt
Ġhow ling
Ġur s
Ġess ays
Ġcirc uit
Ġh od
.. ."
Ġval ent
relig ious
k ill
o ons
br ay
Ġadv is
Ġspani ard
sold ier
whe never
mo ving
Ġstor my
Ġg ains
Ġsuper intend
Ġendeav ouring
Ġlug gage
p ack
on ic
Ġst ooping
iv ities
Ġhome ly
Ġarr ay
l ass
Ġst a
am en
Ġsur m
Ġbarbar ous
Ġdev out
Â ·
Ġd ome
Ġst ony
Ġes qu
Ġreal m
spe cial
Ġstream ing
Ġstrug gles
Ġconsist ent
Ġrus hes
p ound
Ġbl asp
act ually
Ġpar as
Ġair y
Ġbig gest
Ġdet est
Ġcha plain
Ġpass enger
Ġadmir ably
Ġsob bing
Ġveget able
Ġt enth
Ġcontem porary
Ġt ony
Ġb essie
Ġgr aces
Ġprodu ces
cal cul
mus ic
e nded
Ġcl avering
br and
Ġpay s
Ġvan ish
m are
im a
Ġas p
Ġno blest
ment ed
ile y
Ġcur ate
some where
Ġ17 7
suff ering
Ġrib s
suggest ed
Ġno ises
Ġun fit
ret t
Ġgrad ual
Ġtrop ical
distingu ished
Ġtr act
wor ked
Ġlea pt
Ġprecaut ion
as sem
Ġcl ive
Ġinqu iring
Ġmat thew
o irs
we nd
Ġwat ches
Ġsuper natural
dist ant
lie utenant
Ġnostri ls
c un
the st
ub en
r ome
in n
Ġsu ck
Ġap oll
Ġla unch
Ġcompl ac
step hen
Ġrous seau
Ġind irect
Ġorder ly
Ġdiv isions
imp at
Ġe yed
Ġmis fortunes
cons cience
Ġmal colm
Ġimmense ly
g or
Ġb ount
Ġst ing
com mission
Ġrepresent ing
g rew
r ange
Ġf ile
Ġreward ed
be hold
was n
Ġtranqu il
ou lt
Ġcont ribut
Ã© e
Ġninet een
is ance
Ġd iet
Ġwe eds
Ġen velop
Ġbr ooke
pr it
Ġpun ch
Ġbatt al
Ġconject ure
Ġinflu enced
gover nor
Ġken nedy
ĠseÃ± or
Ġhe ctor
se cr
Ġnew come
Ġcur ls
Ġbull ets
Ġyield ing
Ġcoven ant
s cience
ist inct
Ġshr ine
Ġindign antly
Ġdomin ion
Ġjump ing
grad ually
Ġcalam ity
_ {
Ġv oll
Ġtr ains
og ene
ger man
Ġins in
Ġtrust ing
Ġgrasp ing
ic he
Ġr ouse
cl ing
cap able
v ig
Ġm ug
Ġsm ote
Ġleg itimate
jud gment
Ġdescend ants
Ġvolta ire
de gree
Ġmir acles
Ġinvest ig
super ior
Ġprecip ice
Ġo ar
ri et
Ġpe ac
Ġchurch yard
Ġaccept ing
Ġjon athan
he ight
Ġe ug
ul ses
Ġsh ivered
Ġno bler
Ġte chn
su nday
Ġboy hood
Ġaccept ance
Ġhero ine
Ġsore ly
Ġfisher man
Ġcorrupt ion
Ġvary ing
g room
Ġr ural
Ġstar ving
Ġannounce ment
Ġg iles
Ġre action
Ġar c
Ġpl ank
Ġdra wer
Ġmars hal
ar ia
Ġpain ters
Ġtrans ferred
prom ised
Ġdece it
dro pped
Ġsob bed
Ġreve rent
Ġimagin ative
Ġm oll
Ġp ulse
op ening
Ġsm ug
my th
Ġsweet ly
Ġstat ements
Ġcan ad
Ġcha ff
Ġcor poral
Ġmud dy
Ġbl ot
Ġsw ar
Ġcy ril
Ġm au
Ġf ib
ot ent
al tern
Ġwe ird
m ult
wr ote
Ġmul es
Ġapp rent
if er
g ently
Ġg ull
Ġbes e
Ġexcl usively
Ġid a
Ġhom age
ill ustr
Ġso f
Ġcl ue
Ġes pecial
Ġneed less
cont empt
Ġforth with
Ġot ter
he aring
Ġm erton
Ġhow ard
Ġ17 0
Ġfavor able
mark et
Ġrestr ained
Ġpag an
Ġsant a
Ġde y
Ġtw it
not withstanding
irl ing
Ġste ed
Ġresem bling
adelph ia
Ġboy ish
Ġrec ur
great ly
gra v
lesiast ical
f ail
v ision
ab ilities
be coming
Ġric her
anim al
m ut
!" --
od d
Ġm used
Ġap es
Ġbre eds
Ġmet aphys
Ġperpet ually
r d
sc ott
Ġra ft
ĠĠĠĠĠĠĠĠĠĠĠĠĠĠĠĠĠĠĠĠĠĠĠĠĠĠĠĠĠĠĠĠ ĠĠĠ
Ġspect ator
in habit
Ġpl ent
Ġlay s
tw ice
Ġdiv or
b ree
Ġche ered
Ġdelight s
Ġcirc ular
an ter
Ġdis sent
Ġearth qu
Ġtrans parent
au ld
Ġpar ade
Ġxx v
Ġsolemn ity
Ġd ashing
and ah
through out
Ġguid ance
b reat
ot ic
Ġproceed s
Ġthreat s
n arrow
Ġb orders
Ġst ables
Ġres isted
Ġass uming
Ġrob ber
Ġalex and
s op
Ġb ash
Ġpro verb
Ġx vii
Ġmag dal
Ġpeculiar ities
Ġexp osure
po ints
Ġcomprom ise
Ġbed side
iter ated
Ġboard ing
liter ature
Ġscound rel
s aint
to e
cl are
Ġhe ster
Ġsh uff
Ġpe aks
ste am
risto pher
f irm
as much
Ġthr ows
Ġend urance
neighb our
Ġecc entric
Ġadorn ed
ce remon
fall s
hur t
Ġbrisk ly
Ġexcurs ion
Ġg ow
av a
irt s
Ġheav ier
Ġchamp agne
Ġsoph y
educ ation
ci an
Ġrel ating
Ġed itions
Ġjud ic
Ġbank er
Ġjun ior
Ġth o
Ġpal ms
Ġmaj estic
Ġsal ute
Ġlit ter
Ġtax es
Ġdazz ling
h ide
Ġmood s
mem ory
uzz le
Ġwhir led
thom as
Ġr anc
Ġsh ir
Ġpublic ly
every where
Ġlif etime
necess ity
suffic iently
Ġtwink le
Ġbaff led
Ġhagg ard
Ġb ly
Ġto w
res ents
Ġcr ush
exam ple
Ġpul pit
fing ers
gr ou
Ġpat sy
Ġjen ny
f ood
v or
Ġcr ust
br ill
Ġbell a
Ġcott ages
s me
re port
Ġtr out
Ġbl amed
Ġrhy me
in ers
Ġdou bled
Ġmill s
satisf actory
Ġpartic les
Ġtw ain
Ġjo kes
Ġeng ines
w atched
em er
Ġru by
Ġobsc urity
Ġexplos ion
Ġj essie
Ġthreat en
Ġva let
Ġup roar
Ġcle arer
bre ast
Ġarbit r
ol o
Ġfee bly
Ġfund amental
Ġp ension
Ġsh iver
Ġem inence
do ct
cer ning
r ants
u ctor
Ġdis pleasure
pend icular
Ġ7 0
Ġkins man
v oc
og a
ony m
Ġaffection ately
umber land
Ġlaun celot
Ġqu ot
Ġlong est
Ġrespect ive
power ful
Ġnerv ously
Ġmack enzie
Ġgert rude
Ġn im
stre ets
ex ceed
Ġrep resents
Ġhate ful
Ġr asc
Ġus ur
hum our
Ġuncertain ty
Ġna ples
Ġt ails
Ġcr an
Ġdu el
Ġclass ical
Ġrubb ish
Ġomin ous
Ġab raham
Ġind ustri
Ġinde bted
Ġvenet ian
Ġurs ula
Ġb unk
Ġten ant
Ġmans oul
b ting
Ġo pt
Ġgu ides
Ġdiscover ies
Ġaugust a
--- |
Ġident ical
Ġportra its
ro pe
Ġfa ils
Ġinter mediate
4 4
Ġdis liked
av al
Ġadv ances
Ġdirect ors
Ġyouth s
l op
Ġm aker
Ġdis ci
complete ly
_ .]
on na
Ġg in
Ġpres um
bod ied
washing ton
Ġli bert
Ġgl aring
Ġwis est
Ġhol idays
Ġmonot onous
j ane
Ġher ds
no red
Ġstud io
Ġund ist
is co
Ġar k
Ġcomfort ed
Ġep ic
Ġpill ar
Ġt ies
Ġrender ing
Ġcu ps
v ie
Ġd ud
Ġpl ung
Ġaccident al
Ġis olated
Ġtr ist
Ġper ceiving
cur rent
exper ienced
b ore
Ġst ature
Ġaristocr acy
g rie
Ġch icken
Ġsound ing
or th
ord id
hum oured
conc iled
y ork
Ġa aron
Ġd ates
Ġha ze
Ġre vers
Ġx ix
Ġtreas ury
Ġs ession
Ġpl aint
Ġbo iling
Ġstra it
cap ital
Ġcool ness
Ġfair ies
pract ical
Ġech oes
mark s
Ġmyst ic
p ounds
Ġsin ister
d well
re pro
Ġcapt ivity
sc he
Ġinf all
Ġstri ve
foot ed
Ġcommun ion
interrupt ed
o cious
ac comp
Ġde ference
Ġhapp iest
sm iling
Ġdiscover ing
repe ated
k ens
Ġag ency
Ġatt ire
Ġt il
Ġcom ic
Ġbo iled
Ġcher ished
Ġinse ct
r ows
Ġe lf
Ġsa fer
call ing
Ġ8 0
lau ghed
Ġrib bon
b ush
g ons
-- [
un conscious
be ck
ci us
Ġhand y
Î ±
Ġcr ude
concl usion
accomp anied
wn y
Ġcha st
Ġmount ing
Ġcoach man
en cour
cl iffe
Ġhard ened
rem arked
Ġtit les
Ġfamiliar ity
Ġpad dle
Ġchil tern
ro cks
Ġche ering
four th
symp athy
v able
Ġmar ches
Ġwil kins
Ġinstinct ive
Ġingen uity
Ġs angu
le b
Ġan at
li berty
Ġmor bid
Ġannoy ance
part ies
Ġcondem n
Ġgran ite
vall ey
Ġrestaur ant
d ur
p il
in formed
Ġfell er
Ġsy dney
Ġuneas ily
m ile
t ically
Ġt hames
Ġex pend
Ġstar ved
does n
hol es
Ġprem ises
Ġpilgrim age
w y
Ġwill ie
Ġless er
az ing
Ġbalcon y
Ġy o
Ġsuf fe
Ġga iety
Ġcame l
Ġpresent ing
Ġsuperst itious
Ġterr ors
w ig
Ġse ct
Ġcont ributed
Ġsal uted
ind ul
Ġfl uttering
Ġdest ination
Ġsnow y
Ġant i
Ġwhis kers
f ac
in her
es cap
Ġn ought
ic ent
Ġfr amed
pp ery
Ġchar ter
und y
Ġfun ctions
Ġk il
Ġun grateful
Ġla z
Ġopp ression
Ġalle ged
n ah
re ceive
de ce
Ġcr ouched
Ġatt ribute
Ġed ifice
Ġtreat ing
Ġdisturb ance
sole mn
profess or
Ġpl ump
gl ance
Ġobl iv
Ġimpro bable
Ġcher ry
Ġoverwhel med
Ġd ialect
Ġsm oot
Ġx viii
Ġpolite ly
Ġratt ling
Ġescap ing
return ing
Ġpil grims
i ating
r able
Ġd y
Ġsupp osition
wor ship
Ġshru b
d ens
k ings
con qu
Ġcr uc
Ġpass ive
Ġconst ernation
Ġmaid ens
anim ous
Ġal oof
Ġve iled
c u
Ġover looked
Ġdep ression
Ġmechan ically
Ġpossess ing
magn ific
ange l
Ġdecl ares
sha kes
Ġencour aging
g ather
Ġp ia
an ity
Ġr ains
Ġstr icken
Ġser mons
Ġrep aired
Ġgle amed
Ġwheel ed
Ġasce nding
n ames
Ġg ren
Ġbe ech
Ġcl apped
Ġdesp ond
pri est
Ġconsult ation
g n
Ġdri pping
Ġthick ness
Ġintellig ible
const ant
succeed ed
cha m
Ġpa wn
Ġcomfort s
Ġ5 5
Ġutter ing
Ġsecre cy
Ġg ud
Ġre ared
Ġsl ide
Ġco x
Ġbur ial
Ġori ental
Ġobed ient
pul ch
Ġde ity
Ġor leans
rel ief
Ġstates man
Ġunf old
Ġtr ading
Ġes q
Ġver ily
Ġcost ly
Ġinspect ion
mart in
move ment
Ġcommence ment
Ġtenn yson
Ġover heard
Ġpe ered
maj esty
g om
ed ge
oth s
Ġtos sing
Ġdistrict s
Ġr i
Ġimp osing
Ġend owed
Ġsy n
Ġspo on
Ġstick ing
Â °
Ġst ress
Ġcl ing
vi ving
Ġdescri bing
Ġdom bey
Ġaustri a
es cri
Ġn ail
Ġc ate
or ph
Ġpe g
con cerning
Ġcar lyle
Ġsund ry
e ars
Ġexpl ore
Ġlux ur
Ġc ore
Ġp ork
Ġben jamin
Ġgle e
Ġappar atus
meth od
Ġprelim inary
id dy
Ġr ats
th rew
Ġfl aming
ens on
Ġaust in
Ġp ent
Ġsecond ary
Ġconquer or
Ġj ethro
Ġcan on
Ġstr ay
ign ation
Ġwar med
Ġwil hel
Ġtest ament
Ġclub s
Ġplant ation
k erson
t empt
Ġj et
Ġcat astrophe
Ġpair s
gold en
Ġvictor ia
c is
Ġp ione
Ġexp ose
Ġdev on
prov ided
Ġmexic an
_ "
se ated
if ford
Ġ2 00
Ġir ony
Ġcross es
Ġbrook s
Ġmant el
' ."
Î ½
Ġs ite
Ġth orne
ant ing
Ġdece ased
s kins
let cher
Ġhast en
Ġsplend or
hig her
Ġp ite
Ġman or
bl ank
Ġrud dy
qu ant
ap ril
Ġdr ooping
Ġblack ness
Ġstart s
Ġplac id
Ġad ieu
Ġdist ances
mer cy
car rying
Ġprec ision
Ġsuper flu
Ġsupport ing
j uly
Ġt ak
Ġal ight
Ġbes et
Ġwhis pers
sav age
t ouched
grad ation
Ġbutt ons
re nder
ul ity
Ġworth less
Ġsli pping
Ġentertain ing
suff er
Ġgest ures
intellig ible
Ġbr un
Ġpe ering
Ġdesp atched
Ġprocl aim
Ġsp acious
adv ance
Ġdun can
nt y
Ġpro blems
Ġter rific
Ġmem orial
Ġweak er
fright ened
Ġwh ites
Ġfact ory
Ġlouis a
Ġaffl icted
Ġced ar
itzer land
Ġro ast
Ġhow l
Ġcongrat ulate
fru it
Ġsquir rel
t ot
Ġe f
Ġgu inea
amp ed
abl eness
re ign
ci o
ber ries
Ġcr uelly
Ġvict orious
Ġinfl icted
Ġresour ce
Ġinsens ible
Ġcontrovers y
al a
Ġper cival
Ġco vers
Ġpost ure
Ġexped ient
Ġs ings
Ġs ane
Ġdon key
kind ness
equ ally
Ġto y
ps es
Ġdu c
Ġincl ude
Ġmel ody
Ġobst acle
prot est
s ake
Ġcr omwell
Ġmor gan
account able
Ġfasc inating
Ġpatriot ism
Ġpeop les
Ġsp aces
Ġendeav or
Ġbless ings
Ġbrood ing
Ġt angled
co ach
Ġappreci ated
Ġmock ing
Ġad ult
Ġhair s
var iant
Ġrepet ition
p red
he ars
Ġall y
ist ered
Ġcha os
treat ed
Ġtreacher ous
Ġm ature
Ġdis pose
some how
rec ord
Ġindis pensable
ver ance
w icked
Ġdep ressed
Ġdesp atch
wr it
jac ent
wes tern
. --"
Ġn ym
Ġdra go
ref lect
Ġmanif ested
f arm
g ian
Ġdis comfort
Ġsk irm
rid ges
Ġmexic o
p able
Ġo y
Ġto ilet
Ġn ae
Ġre aches
Ġlove liness
appe aring
revol ution
b at
per form
ater n
Ġins ulted
iter ranean
Ġdet ained
Ġrecei ves
Ġwhist led
Ġfug itive
g ame
right eous
Ġstation ed
Ġflatter ing
Ġald er
Ġoverwhel ming
Ġr he
Ġse ren
Ġcon vert
br ush
Ġins ane
pre par
hem ia
Ġattent ions
c aut
e aster
ul ent
Ġfound ations
Ġexper t
far ther
Ã¨ re
Ġstam mered
Ġst oop
Ġimp ost
Ġsub t
est one
Ġle icester
Ġwilliam s
Ġsorrow ful
Ġpark er
in ald
Ġhe ated
Ġke ith
Ġcons umm
Ġdog ged
Ġpossess es
Ġswell ing
fare well
Ġtrans action
Ġrelax ed
b age
Ġnot able
own ess
Ġfl ocks
Ġbur gl
Ġfresh ness
princi ple
Ġh ir
ond a
Ġim itate
Ġche que
Ġprof itable
Ġfever ish
Ġcultiv ation
n ett
Ġcontin uing
Ġfug itives
p apers
re ach
Ġsa e
Ġbar red
Ġdisc ord
Ġfer ry
Ġremo ving
Ġgre ed
cul es
Ġdin ners
lear n
intellig ence
emb arrass
Ġtyp ical
y ield
Ġs ate
oy d
sp an
Ġda isy
ipp i
Ġt utor
Ġp au
Ġwhere by
Ġunivers ally
Ġorgan ization
Ġquant ities
Ġclut ched
Ġecst asy
n ap
Ġb ang
Ġam ateur
Ġoh io
plic it
Ġt ips
ig o
oss ibility
Ġsqu at
iment ary
Ġhat ch
Ġar ising
Ġhand led
Ġble ak
nut s
mil itary
ut s
ard y
Ġpi ke
Ġcoward ly
Ġsway ed
Ġpast ure
Ġcel est
Ġreluct ance
Ġmuff led
Ġbl ink
Ġfund s
v ic
all ied
Ġunder took
Ġant ique
Ġlangu id
an se
Ġbe in
Ġcan ter
Ġcontempl ated
Ġvin cent
est ead
Ġab st
Ġmin er
o ak
Ġsh ivering
han k
Ġoath s
Ġrecollect ions
Ġg ilt
Ġpro hib
Ġbay on
Ġt ire
or ily
bl ow
Ġcha riot
âĢ Ĳ
Ġhar k
me asure
Ġca leb
Ġins cription
des cribed
Ġceremon ies
Ġins olent
oblig ed
b il
g athered
Ġfor cing
ul sed
Ġret iring
Ġcle mens
co al
Ġrob bers
Ġban ished
Ġselfish ness
Ġnut s
Ġdis appearance
Ġgate way
present ed
Ġroll s
Ġremind s
Ġrum our
imag ine
Ġexcess ive
Ġp aced
Ġth wart
the d
Ġstr ings
gr acious
Ġvis ibly
Ġill um
Ġ4 9
Ġtro d
Ġabomin able
f il
Ġmet rop
Ġdeck s
Ġcraw l
Ġaim ed
Ġcr am
Ġcig ars
Ġ182 9
Ġdial ogue
Ġnym ph
Ġres ident
Ġnew ton
Ġste lla
Ġdel usion
i ress
Ġact ors
Ġmess ages
Ġswell ed
Ġsubsequ ently
Ġbe ads
Ġcr icket
was h
Ġsign ify
Ġbuck et
Ġeste emed
Ġrh ine
d rop
phan ts
. (
t ired
u gh
ass y
ale x
l oud
Ġt ons
Ġre pt
Ġcha ps
su f
Ġjapan ese
i ably
Ġsl um
com er
Ġmess rs
lo ving
Ġcurrent s
b ons
Ġcom te
diffic ulties
Ġshrie ked
Ġbar ber
dis appeared
Ġrejo icing
Ġot to
t aste
Ġl is
st uff
Ġst ations
Ġser ves
Ġray mond
stud y
Ġavail able
Ġsid ney
cru el
ed ward
Ġk han
Ġatt ributes
Ġcreat or
nd e
nd y
Ġp he
Ġl ave
Ġbo er
Ġbo il
pre cise
cur iosity
Ġphant om
Ġso ames
Ġal c
Ġrel ish
Ġc ured
ad ers
te a
Ġinev itably
Ġpy ram
b rave
Ġout fit
Ġqu iver
per ing
Ġche mist
Ġexpect ations
sha me
Ġdav is
mas ters
Ġvir gil
Ġcl an
bl eness
man if
Ġsur veyed
Ġmo le
Ġche ster
Ġanaly sis
r ade
Ġc od
Ġris ks
Ġad mon
Ġkind led
Ġaccur sed
w ot
Ġcon ver
Ġun question
Ġmis chievous
po ems
Ġarr anging
Ġhall s
Ġpier cing
Ġqual ified
eff ort
Ġprincip ally
it ar
Ġwh ig
Ġrepeated ly
occ urred
dest ro
Ġpluck ed
Ġron ald
Ġsp ies
Ġcharacter istics
Ġdescri bes
Ġdrink s
aff air
Î ¿
Ġdis mounted
val ier
Ġmax well
Ġdecor ated
am our
Ġchar t
Ġric hest
Ġsust ain
Ġappar ition
Ġhand writing
Ġsuggest ions
Ġgent leness
Ġe up
act ive
Ġra pture
stru ggle
Ġstu art
Ġster ling
Ġpeep ed
res olved
gr an
Ġevent ually
Ġcup board
Ġfre ight
Ġelectric ity
Ġcr adle
Ġneck s
Ġemb ark
Ġbar ney
Ġbese ech
e cr
p ity
Ġto by
pl ants
sing ular
Ġling er
jim my
Ġscare crow
Ġt ires
Ġd ip
Ġn ug
Ġk aiser
ret ches
Ġsyl via
Ġe cl
Ġgood ly
Ġreg ent
ks peare
Ġinter fered
Ġrob bery
comm od
Ġhospit able
Ġjul ius
Ġstan za
Ġple a
oy s
Ġmer rily
val ue
d ull
am ations
Ġpre text
Ġrest oration
Ġvis age
Ġsle w
Ġnaught y
Ġar cher
Ġnight fall
Ġgu ineas
Ġprom pted
Ġprodu ct
Ġjoy ful
hun ter
Ġles lie
Ġgallop ed
Ġpenet rated
Ġrefr ain
Ġwill ow
Ġam iss
Ġlast ing
play ing
Ġs ciences
ot y
Ġcount less
Ġschool master
Ġur ging
ort ing
Ġthr illing
spe c
Ġdig est
h orr
j on
t u
Ġt res
Ġwr ung
Ġfrank ness
Ġgrass y
Ġcompet ent
Ġprovin cial
acknow led
r oof
Ġli ar
Ġun ite
Ġfoot man
Ġinno c
Ġrad ical
Ġenlar ged
Ġre ed
Ġspe ck
conf ess
Ġpha raoh
Ġcl aws
ci ly
Ġver anda
Ġeld ers
c od
Ġand erson
Ġj enn
Ġfar ms
Ġfirm ness
Ġval iant
requ ired
Ġemploy er
Ġcook ed
pros pect
imp ress
Ġbright ened
Ġexplan ations
Ġpoison ed
Ġre li
Ġwar like
aw a
prin cess
Ġstrengthen ed
ment ion
pr on
Ġsw iss
Ġreason ably
cons idering
Ġlap se
Ġflu id
n ur
at on
Ġsupp le
co very
Ġhot els
Ġsam my
road s
Ġcorrespond ent
Ġcollect ing
admir ation
Ġbloss oms
Ġexult ation
Ġsimpl est
he llo
Ġb ung
ill on
be ha
olog ist
Ġconstitution al
jour n
Ġleisure ly
e rest
i ability
n ative
Ġdra per
necess arily
Ġdeliver ance
6 6
te le
Ġsal mon
hot el
Ġpersec ution
b ast
h ull
m ah
Ġf ading
Ġv ot
Ġsl oop
Ġ4 7
Ġsin ful
Ġlet s
gr ounds
Ġdest itute
ask ets
p ark
Ġm ound
Ġca ves
Ġref inement
Ġpha se
Ġeyel ids
n is
Ġwas ting
un ion
wh ilst
Ġdry ly
jour nal
Ġduck s
or ms
Ġi cy
ill ity
Ġple ading
Ġgro ves
Ġfond ly
Ġdestro ying
Ġproject ing
Ġsimult aneously
c ote
l oe
em ing
vel in
Ġrab bits
Ġdemocr atic
Ġinterpre ter
p owers
Ã §
Ġa the
Ġd iction
Ġclose t
reg ret
Ġpath os
Ġreluct antly
Ġr anged
ex it
Ġsuggest ive
Ġwhirl ing
thorough ly
4 1
Ġn ile
Ġcha sed
sha re
Ġ15 0
c ard
se ek
ol itan
Ġchoo sing
Ġgr uff
Ġel bows
tr oops
Ġmort als
Ġpi geons
charac ters
Ġirr itated
whe el
Ġhat es
dou ble
Ġlion el
; [
j oe
t alked
Ġam elia
Ġequ ivalent
Ġrust ling
Ġconcent rated
Ġaccus ation
Ġto ry
Ġad ams
Ġsc our
hur ried
Ġworsh ipped
br inging
Ġcur ved
fa ult
Ġp iles
Ġdet achment
Ġrein force
Ġninet eenth
Ġper ched
Ġset h
Ġes p
coll ect
faith ful
Ġapost le
Ġwe arily
Ġmut ton
Ġendeav ored
suspect ed
at re
Ġno bly
al ians
Ġre ap
Ġsh ifted
Ġche at
Ġhum iliation
ham med
Ġexc uses
Ġeight eenth
h r
Ġb ess
Ġc akes
be ard
Ġmar iner
Ġwreck ed
Ġconceal ment
Ġpenal ty
on ial
ac cess
res a
Ġcapt ives
Ġbar ry
Ġship wreck
cks niff
Ġmock ery
Ġsket ches
Ġw ren
Ġshad ed
Ġtum bling
Ġc uff
-- (
king dom
Ġquestion ing
Ġsuccess or
adv anced
** *
Ġdispers ed
s her
Ġab er
rest ed
Ġmon aster
Ġprocess es
Ġaccur ately
frequ ently
Ġl ore
Ġgo nd
pr ide
Ġra pt
Ġenlight ened
Ġs ordid
Ġal ps
ci bly
Ġgl ove
Ġma is
pro p
gu er
Ġmat rim
Ġpred ecess
Ġfasc ination
c ope
Ġdiam eter
m aint
u ber
v ina
Ġ zen
Ġqu ote
per ceived
Ġdis conc
rem pt
Ġmus cle
Ġrepresent atives
Ġscr atch
Ġlo ath
Ġdou bly
Ġtrave ling
Ġsacrific es
4 2
Ġd au
st ern
Ġcast les
Ġscra pe
Ġl as
Ġbir ch
Ġsubst itute
Ġchap ters
. =
ad am
Ġout law
Ġput nam
Ġgold smith
Ġdomin ions
Ġentreat ed
Ġlyd ia
Ġfow ls
a ul
n arr
re ll
ord inarily
Ġimp ly
Ġ3 2
gu ing
Ġspecul ations
Ġskil ful
in vol
Ġk ra
Ġk arl
Ġhum ming
Ġathen s
Ġrefresh ment
Ġlo ch
Ġdi pped
plic able
c ly
Ã «
Ġsa un
Ġv otes
Ġthere upon
Ġsm ashed
Ġpers ian
Ġfut ile
Ġmut tering
Ġdav y
Ġreflect ing
Ġdelic ately
Ġsha dy
Ġacc use
empt ion
Ġsense less
Ġtoler able
s cientific
gh ost
Ġst unned
Ġqu i
Ġnat ures
ex ception
Ġnor m
Ġdec isive
j u
Ġed dy
Ġconst ituted
Ġaristocr atic
Ġdis regard
Ġcont riv
br ow
Ġins ight
splend id
m our
u en
ia e
light ed
Ġbrid ges
Ġr oss
ag reed
Ġtheat rical
Ġextr act
Ġorth odox
Ġg ifted
Ġde acon
un ited
Ġcour ses
Ġed en
Ġfine ly
Ġtrem ulous
Ġding y
? )
Ġweek ly
Ġbun yan
Ġtun nel
Ġg ad
Ġme ag
Ġdist aste
Ġrel ics
will ingly
Ġge ological
Ġmart y
Ġsubs ist
suf fered
l ake
Ã ¶
Ġso ap
Ġlab ore
Ġmirac ulous
5 5
pr int
Ġmon keys
Ġval our
Ġdi abol
Ġd azed
Ġun speak
Ġun mistak
sha pe
Ġver andah
Ġcustom ers
Ġlaun ched
Ġsurv ive
Ġgram mar
á ½
Ġa er
part ly
supp er
Ġpit ied
Ġempt ied
Ġrepl ies
s orrow
Ġso bs
Ġmar maduke
att ract
Ġrain bow
Ġflag s
Ġridic ule
Ġaffl iction
_ !
ha rold
le ap
est ine
Ġgo ats
Ġwag gon
Ġdemonstr ation
Ġsu icide
Ġstr and
Ġlat itude
maid s
employ ed
a pt
ru ctive
Ġquick er
Ġcompanions hip
le af
Ġno ses
Ġarm or
Ġdef y
Ġvigor ously
Ġinsignific ant
Ġk ens
Ġcle opatra
ug n
new sp
Ġalar ming
z as
ic rous
Ġpro ving
obed ience
Ġpro gen
ide as
Ġsn ar
Ġbene fic
ĠĠĠĠĠĠĠĠĠĠĠĠĠĠĠĠĠĠĠĠĠĠĠĠĠĠĠĠĠĠĠĠ ĠĠĠĠĠĠĠ
Ġrude ly
Ġadvertis ement
ile e
Ġfl utter
iss ippi
Ġcomp ose
dri ven
Ġbert ha
Ġexerc ises
Ġprovo ked
Ġincess ant
out s
ert ion
Ġcar bon
Ġem barked
Ġconf idently
Ġpubl ish
Ġrhy th
Ġis les
Ġcl atter
Ġatt ach
Ġgild ed
Ġbr us
Ġdis content
Ġtrad ers
Ġzeal and
dog s
proceed ed
Ġastr on
respons ible
Ġla ird
Ġcomp ound
Ġcontr acted
Ġparliament ary
Ġchron icle
Ġde prec
Ġimp ulses
Ġruss ians
Ġwinds or
Ġofficial s
t ha
Ġwatch ful
olog ists
spe ed
Ġfer ocious
tem pered
Ġhaunt s
Ġwh ims
em ies
Ġdis cl
iss ue
Ġmin i
Ġflour ish
prison er
Ġirr itation
Ġhe ather
Ġfe at
Ġcl ark
Ġmar ine
Ġill usion
ca used
Ġnice ly
Ġf owl
le x
mis erable
exam ination
Ġtos s
da ily
ins ide
Ġshut ting
Ġheap ed
ro be
Ġsc ores
co ats
Ġcut s
Ġdeg ener
Ġhol iness
ter a
Ġsp ru
Ġarab ella
b ach
c ery
Ġc ros
Ġre ced
Ġsc ope
Ġind istinct
Ġrep ay
Ġmurm uring
va ise
dri ver
Ġprocl amation
myster ious
g ives
b ay
aw ed
Ġ4 6
Ġmess engers
f ond
t ower
v ane
Ġc oy
Ġas pir
Ġade quate
Ġeffic ient
as er
Ġche mical
wr iter
Ġdi ary
Ġproject ed
Ġl uminous
Ġv owed
Ġwr inkled
Ġholl y
Ġdistur bing
tong ue
z ag
Ġs ine
re ndered
pe y
Ġv ows
li hood
Ġmad eline
char ged
Ġfrag rant
admir al
g ression
om a
th under
ol and
Ġpract ise
eng ine
Ġane w
t i
Ġj ill
uck le
sp ace
read er
cont empl
enn is
Ġtay lor
Ġcelest ial
n ice
om er
Ġlo an
Ġiv y
asso ci
sax on
f reed
Ġr ally
Ġr ides
cl ay
gl er
gener ous
Ġmart ial
fact s
Ġcon secr
self ish
Ġinf ancy
Ġaut hent
Ġpersu asion
Ġgent ry
Ġto ad
ang es
Ġblack s
Ġge or
Ġeconom ic
Ġcomplaint s
Ġwant on
Ġbar ge
pro c
des cription
wend olen
al ive
Ġtur ks
cker ay
u pper
Ġ Ãł
in vest
Ġch ie
Ġhope lessly
Ġmat ches
cut ta
mur der
hu a
represent ed
beat en
g iv
m ixed
hat e
Ġdown wards
Ġpe w
ool og
Ġnot icing
Ġsign or
Ġtr ay
Ġsent ry
Ġinv ested
min ent
ĠĠĠĠĠĠĠĠĠĠĠĠĠĠĠĠĠĠĠĠĠĠĠĠĠĠĠĠĠĠĠĠ ĠĠĠĠ
Ġped ro
pract ice
k o
it ous
Ġlord ships
Ġdel ir
Ġcond uctor
Ġsigh s
z ard
Ġprim ary
Ġpled ged
w ounded
Ġsur vived
Ġ18 00
Ġsign ature
Ġtrist ram
j or
ves sel
Ġcar av
ru le
Ġkn ots
Ġsw ollen
Ġlower ing
ral ph
Ġp ens
Ġbe re
Ġsil enced
Ġmin ing
Ġpopular ity
conce ivable
incl ined
s pl
Ġrem inisc
pal ace
j ob
o ir
Ġsub ordinate
sp ent
Ġpursu its
Ġspl ash
fif teen
Ġman oeuv
ex plain
Ġdeep ened
Ġexcept ions
Ġener gies
Ġwag ons
r ab
Ġem inently
Ġdri ves
Ġdur ation
Ġthe ology
Ġs led
Ġcon tend
Ġdef ense
Ġcorre cted
Ġimprison ed
e er
Ġbl est
av in
az a
Ġtwink ling
Ġsquad ron
w ain
Ġhar riet
Ġconf ided
Ġprodu ctions
Ġcrown s
Ġkingdom s
Ġcro ps
gun s
inf inite
Ġloc ality
i pel
Ġand re
Ġtrans fer
Ġh ove
Ġbr ack
Ġloss es
Ġbul wark
Ġviv ian
Ġepis ode
Ġc icely
Ġp oop
ll i
Ġkn ave
Ġhel ena
Ġstuff ed
grow th
t ale
ine x
Ġarch deacon
Ġassoci ate
Ġunf air
Ġmast s
cult iv
Ġat ro
Ġdist ributed
Ġprop ag
Ġsix pence
Ġblaz ed
!_ "
b arr
ist a
Ġsat in
gr aced
Ġconst itu
liter ary
han g
.] ]
gi ance
Ġforeign ers
Ġreluct ant
Ġratt led
fat ig
w en
Ġt ull
an es
Ġex terior
Ġ( '
ye a
ell e
Ġlust re
Ġa ching
Ġb oul
Ġre uben
Ġnor a
Ġmod ification
Ġrus sell
Ġin iquity
Ġbeg gars
Ġmist y
Ġfri vol
Ġdis advantage
empt y
Ġcoo per
g ift
ha y
Ġb attered
ong ru
Ġclear ness
Ġthro b
del icate
Ġemer ald
Ġbenevol ent
Ġl oses
li o
Ġdef er
Ġassem bl
extreme ly
Ġb ret
Ġg em
Ġse pulch
de liber
Ġwa its
Ġunderstand s
Ġben ches
Ġextingu ished
Ġsett lers
Ġbree ches
Ã ¤
Ġre conciled
Ġfor wards
Ġab used
air n
Ġfl ows
Ġpres umed
vi olet
Ġsocial ism
Ġay l
Ġprophe ts
Ġconserv ative
Ġhe ave
no ck
Ġred ou
Ġarbitr ary
Ġor ator
Ġnat han
Ġsil as
Ġmus ing
fall ing
dri ve
dread ful
is bury
bl essed
Ġjust ification
ret reat
Ġfast en
Ġpi geon
Ġshock ing
haw k
fan ny
desp air
Ġfrig ate
Ġmagdal en
Ġf letcher
ast rous
ang ry
Ġinv iting
Ġdi ag
Ġfinan cial
Ġg res
un known
bod ies
Ġsn akes
mad am
Ġsh ines
Ġtr otted
Ġgot ten
Ġdec ree
cul ine
Ġsuper ficial
Ġexception al
Ġfren zy
f led
l ined
st ore
Ġwhere on
Ġwork ers
Ġsleep s
coll e
Ġsway ing
Ġin ve
Ġen v
anc he
by ter
ump ing
ipp ers
Ġrefer ring
Ġharr ison
Ġbe aver
ink le
Ġsee ks
Ġmem or
m ant
Ġp ane
Ġca ld
Ġgloom ily
ce nding
ul k
Ġlux urious
def ence
voy age
assist ance
. -
at ically
sur rounded
: '
Ġc res
est im
Ġsha fts
Ġbo on
Ġsc ow
og ne
Ġhon ora
comp osition
Ġpra ises
hens ive
sk irts
fier ce
re ply
er ment
Ġar ctic
Ġwell ington
ex hib
Ġmention ing
Ġfill s
event s
compre hensible
b ah
he ll
Ġcom in
Ġrid ges
Ġabsurd ity
Ġlege nds
g ets
Ï Ħ
Ġw ins
un fortunate
Ġass ign
Ġgrat ification
Ġdisg usted
commun ication
mot te
Ġle igh
te l
Ġcr ushing
friend ship
Ġinconven ience
Ġlag oon
in us
Ġje well
Ġcop ied
Ġmach ines
appro aching
Ġirish man
Ġalter ation
Ġchie ft
v ast
Ġgl owed
Ġwar rington
Ġco als
Ġco ax
sy m
mist ake
list ened
Ġfeud al
Ġr ung
Ġnot orious
ings by
Ġdefinite ly
Ġprint ing
_ ),
in als
Ġtum ble
Ġcaval ier
Ġdig ging
Ġprostr ate
Ġbe ats
Ġbe fallen
ill o
der ick
Ġund one
bank s
f lying
Ġab b
Ġgr umbled
Ġport s
Ġhabit ation
Ġpron ounce
Ġanton io
g ger
rel ations
Ġpeculiar ity
Ġapoll o
i Ã¦
Ġm ates
se vere
Ġne ther
ol ine
Ġspir ited
Ġdad dy
Ġd anc
Ġfear fully
Ġpost erity
Ġgrin ning
won ted
educ ated
Ġremo val
b ud
Ġper pendicular
Ġsubst ances
Ġgrie vous
Ġredu ce
Ġveget ables
Ġfasc inated
he im
op eration
Ġres olutely
Ġname less
Ġchair man
Ġer a
Ġtim idly
Î µ
Ġch ristopher
Ġpres ervation
cha mp
Ġins olence
w ald
cont ained
Ġsoft ness
moment s
appro ached
Ġplat o
Ġlur king
Ġtravers ed
tit le
m att
Ġd ances
pp le
Ġhead quarters
up iter
Ġmin ers
Ġann ihil
t ts
Ġd orm
ri al
Ġexcl usive
re com
Ġend uring
Ġext ension
disc over
Ġhoarse ly
g ay
Ġf ainted
Ġeight h
Ġfert ility
Ġscram bled
Ġdemean our
Ġk im
un ce
Ġus age
Ġfl uttered
Ġsk im
Ġspeech less
Ġcost s
Ġhost ility
Ġfisher men
Ġgovern ments
Ġcandid ate
p id
Ġr az
ant ry
Ġpr one
Ġsli ppers
ev ident
Ġchuck led
contr ary
cloud s
j es
r uth
Ġw ail
Ġsp ike
Ġper for
iss a
Ġexpress ly
Ġpet t
Ġblind ed
Ġpatriot ic
Ġinterpret ation
Ġyan kee
Ġwe el
Ġattack ing
Ġenter pr
Ġangl o
Ġto e
Ġre eds
Ġ' _
ne arer
Ġgu ise
Ġswe aring
Ġconv ictions
Ġnurs ing
adv antages
Ġsimilar ly
Ġgri zz
exc ited
Ġped est
Ġcl ump
Ġcur tis
Ġdev ice
Ġcastle wood
prob able
Ġ9 0
Ġhom estead
Ġprotect or
Ġinconsist ent
f ires
m ity
Ġde uce
Ġwould st
Ġpar ap
Ġcens ure
fles h
hat h
ke l
Ġfort ified
c ord
d iff
Ġsat ir
Ġfin ishing
âĢĶ âĢĶ
Ġimpro per
conf ident
Ġorgan ized
love ly
Ġdisgu ised
incre ased
Ġb ac
st age
Ġar rog
Ġinte gr
Ġbar rels
chan ges
Ġsens ibility
Ġnell ie
Ġhe iress
Ġpenet rate
Ġoppon ent
re ast
Ġn i
un expected
pl enty
---- ,
Ġvast ly
Ġlam bert
cir cle
i ancy
Ġrespect fully
excl aimed
intellect ual
d ram
Ġar ist
Ġad rian
Ġmer riment
Ġmad man
Ġvi enna
Ġaddress es
burn ing
Ġrand om
explan ation
en burg
id y
Ġres ented
b uff
d il
p ainted
it utes
Ġpe eping
Ġdou bting
Ġstro kes
est e
Ġj ay
Ġthr illed
Ġmon op
thr ust
Ġexec ute
Ġcord ially
Ġpruss ia
os itions
art ic
sp ite
rig ue
lo at
wh oles
cha nd
Ġdraw ings
Ġplum age
Ġhab itually
Ġconscient ious
Ġpia zza
Ġout stretched
Ġke ats
Ġcomm iss
Ġbra very
abs ence
Ġbeck oned
inhabit ants
t ro
w et
Ġf i
Ġhe v
happ en
Ġghost ly
d leton
Ġt ant
Ġbe ware
ce ls
Ġgo al
Ġrem ot
ex ha
Ġfig ured
Ġconne xion
conf usion
hist or
Ġimprison ment
aum ont
Ġal ighted
ag ged
Ġsl oping
Ġcor k
Ġconce ivable
Ġfix ing
Ġst all
Ġsc an
har m
Ġfur t
Ġcheer fulness
Ġshr inking
Ġ182 8
boot s
e el
ur g
ter ms
pe re
Ġpack ing
Ġbark er
Ġsovereign s
' ?"
Ġs ow
Ġex empl
Ġcom pel
let t
Ġrecon cile
Ġm olly
it ud
iss ance
Ġgre edy
Ġ6 5
Ġgallant ry
Ġscru ples
Ġimmort ality
Ġprem ature
Ġecc lesiastical
hither to
f ailed
Ġch ip
Ġgl ands
Ġkind er
Ġ17 6
pur cha
crit ical
t ight
Ġb icy
Ġche ery
comp ass
Ġ7 5
Ġxx i
Ġaspect s
Ġsubs ided
Ġad j
Ġdec re
Ġdream y
Ġneighb oring
Ġmat ron
Ġjun ction
c atch
Ġte x
Ġfull er
Ġconvers ion
Ġmam m
trans l
Ġillumin ated
4 3
s i
Ġt ut
Ġp ont
Ġpe cksniff
Ġsl ate
he at
al ter
Ġgl as
Ġhead ache
keep ers
Ġpuzz le
ac r
el ope
Ġfl irt
Ġche ers
pres ident
add ress
Ġforeign er
Ġpin n
acqu es
Ġhistor ian
Ġvex ation
ig ated
Ġaccompany ing
Ġclar ke
f itting
Ġp int
uls ively
Ġwing ed
Ġemer gency
v iv
Ġp ly
Ġgr udge
Ġcur ses
Ġquarre lled
Ġpars ons
Ġt ense
Ġbe ak
id ated
Ġst ating
Ġpl aus
me al
br others
Ġdr ill
Ġdoubt fully
Ġmagnific ence
in str
ic ates
glass es
ab und
Ġfl ick
Ġdark ly
Ġphil adelphia
ming led
Ġmed itation
Ġbra z
Ġcraw ling
Ġadvers ary
Ġh ort
Ġk or
Ġbr icks
gu ards
Ġanim ation
add ressed
wal ter
c ade
g ained
Ġli b
Ġgi ants
fl ore
abs olute
Ġscr atched
Ġtriumphant ly
shakes peare
r iding
Ġbe ren
Ġwe ed
Ġj ur
gl ig
Ġcont ing
Ġsw itzerland
Ġwood ed
ĠĠĠĠĠĠĠĠĠĠĠĠĠĠĠĠĠĠĠĠĠĠĠĠĠĠĠĠĠĠĠĠ ĠĠĠĠĠ
Ġdam sel
Ġful kerson
Ġchoo ses
n ished
t ax
Ġlack ed
spirit ual
Ġcl asp
Ġpa w
Ġpier ce
crow d
we eks
Ġhard est
Ġdr ums
ob ile
Ġpav ilion
, âĢĶ
en emies
Ġv ines
gl oom
pro pri
Ġretreat ing
Ġrust le
clear ly
appre ci
Ġcush ions
Ġbr uce
Ġrel ent
Ġswe ethe
Ġconsequ ent
appoint ed
Ġbutter fly
Ġclust er
inno cent
cun iary
escri bable
Ġc ly
ren cy
Ġgod ly
Ġph ill
Ġexc used
sec ure
Ġaccomp an
Ġtro y
Ġvivid ly
cler k
Ġsu e
Ġfr ay
Ġqu ay
Ġen vir
uct ive
Ġsuper b
Ġdun geon
Ġspark s
Ġeve lyn
Ġbapt ism
Ġb amb
ant es
Ġind o
Ġtor ches
Ġcolour ing
Ġsettle ments
Ġuncommon ly
Ġf os
am use
Ġbr utes
ib ald
gr in
Ġhus hed
bur ied
heart s
Ġgrat ify
Ġbid s
t aught
nd on
Ġr ites
Ġk icking
Ġche valier
Ġide als
Ġele phants
introdu ction
Ġindustri al
re te
Ġb ough
im mense
ul ace
Ġsh ifting
Ġreg inald
Ġmagist rates
acr ity
m ol
s ought
s ons
ing es
Ġout break
Ġmar co
ins p
Ġaccum ulated
Ġoz ma
c over
am ous
Ġsl iding
Ġmo an
ann i
Ġreckon ing
c ool
Ġc ocked
ad mitted
Ġcar ter
Ġxx ii
Ġmull er
sept ember
u y
ed e
Ġto iled
Ġgl ared
ach use
Ġimprove ments
Ġestim ation
Ġtheod ora
f ate
Ġw ulf
Ġv ass
Ġvol untary
Ġjer sey
Ġinvol untarily
d are
Ġpre cept
spir ited
Ġsurre ndered
a fr
n i
Ġa del
ic us
get t
Ġc ree
ade quate
Ġcare y
gen ial
u ating
Ġhair y
Ġsmooth ly
subject s
poet ry
sear ches
Î ¹
Ġf ists
Ġsle eves
vol ume
Ġsuggest s
Ġwid th
Ġcru ise
v ior
en cing
ri ving
Ġcan yon
Ġunder gone
Ġconf inement
Ġmus cular
Ġdiv inity
Ġhe aved
Ġbe acon
et ed
Ġappe aling
Ġreg ister
Ġmagaz ines
Ġsa ul
Ġsw ine
col or
Ġspeed y
Ġep istle
l ion
Ġf ade
Ġbr am
Ġgri pped
_ '
Ġsil very
Ġcho ir
Ġbru ised
Ġabys s
Ġar ched
Ġapp alling
Ġexp anse
Ġhorse man
Ġtim othy
cript ions
Ġcolon ial
Ġsurv iv
Ġun equal
Ġstr ata
Ġquick ened
Ġcart s
sa ved
mel ancholy
meant ime
l ain
v re
Ġ 's
Ġrem nant
Ġclass ic
wa ited
accept ed
Ġperf ume
gl ers
sh oes
Ġcontin u
Ġappro bation
produ ce
f riedrich
p icious
Ġb aw
ter ror
Ġtri fles
Ġprof ane
rem ains
Ġamount ed
Ġwip ing
l oyal
Ġt ipp
ou ri
Ġus hered
bl ers
br al
Ġmot to
Ġsar cast
cra w
um per
ob st
Ġeng aging
Ġtrans actions
Ġluck ily
Ġow es
Ġdiffe red
Ġig nored
lu x
Ġp aternal
Ġn ests
Ġsec uring
cross ing
Ġsof ter
Ġearthqu ake
achuse tts
_ ]
n ard
or ters
Ġre ci
Ġmy ri
em per
Ġpl anks
Ġtw in
Ġeffect ual
Ġthrust ing
s ized
Ġt har
min ing
vis ions
prom ising
doll ars
Ġin express
le ge
Ġy oke
Ġwor ms
Ġsc ales
li p
Ġadm itting
dis posed
Ġpond ered
Ġavo iding
Ġst ol
Ġj ed
Ġpl ane
Ġpe ll
den ing
Ġdrows y
Ġto wering
ter min
Ġfore fathers
pow ered
im prove
Ġr ive
Ġdis pleased
antic ip
Ġau ction
Ġrebu ke
f s
o bel
Ġwh im
Ġr oland
Ġbra w
sight ed
Ġfil thy
Ġtort ured
disappoint ment
Ġp on
Ġin eff
ob serv
r uss
Ġg iddy
Ġst ung
Ġcar b
ru ff
house hold
Ġtop ics
Ġsund ays
Ġthirst y
m ith
Ġ /
Ġpr ick
Ġim ple
Ġpres umption
Ġbeg u
Ġire ne
Ġconsult ing
Ġmonarch y
delight ful
on ment
Ġp ans
Ġhe aving
mer c
char ming
Ġgrace fully
Ġgra pes
Ġrevolution ary
circumst ance
Ġattent ively
Ġaccommod ation
Ġundist urbed
Ġo u
mo or
ograp her
Ġobstin acy
Ġc ors
Ġst ig
sh owing
Ġdisc ours
pre jud
Ġplung ing
gl ory
Ġfort s
des ign
Ġintim ated
Ġnoiseless ly
arri val
in or
ind ia
Ġar ises
Ġper ils
rem ind
Ġbra zen
Ġthom pson
Ġamb rose
pros per
bir th
n ose
Ġout burst
Ġchan nels
Ġcal f
spe cul
Ġmill y
Ġtall er
stri ke
Ġf able
Ġsh ipping
Ġsp ider
wa ite
Ġpeb bles
Ġlibert ies
gom ery
8 5
Ġr it
pe lling
Ġinter rog
Ġfore castle
Ġdescri ptions
Ġmagn itude
Ġcoinc idence
t al
ing en
Ġd ul
Ġciv ility
Ġcontempt uous
prot ection
Ġgam bling
Ġprecaut ions
Ġdet ain
Ġtroo per
Ġbeast ly
Ġcontem por
prison ers
Ġsculpt or
Ġre formation
Ġse als
Ġman e
Ġac re
wor st
Ġeng ross
jo in
Ġsick ly
Ġsavage ly
Ġaccident ally
l amp
am id
fe atures
pro pos
Ġplay ers
pat ience
Ġscru ple
Ġglim pses
Ġcan op
pro cess
Ġlegisl ature
Ġpest il
precise ly
giv ings
ind ians
Ġwill s
cha p
Ġstri ped
sl ave
fam ous
conv inced
Ġencl osure
Ġf uel
Ġd ag
Ġwe e
Ġover take
Ġadm its
Ġstiff ly
Ġmanifest ly
Ġveter an
c ig
d ignity
it i
Ġd ane
Ġins erted
Ġpal mer
Ġprofess ors
Ġstout ly
Ġhistor ic
Ġdown right
Ġla va
Ġhel ps
arr ant
Ġtrans formed
Ġdan es
Ġtrades man
b ald
Ġsp ars
Ġpe rempt
Ġind isc
ner y
Ġcol oss
Ġorder ing
Ġtrans mitted
Ġenthus iast
fle et
obser vation
Ġwist fully
Ġtechn ical
v ine
Ġsu pers
Ġgrand son
w aters
Ġth ur
Ġsc atter
Ġrul ing
Ġscri ptures
Ġso othe
com plex
Ġfold ing
whis pered
Ġlem on
Ġdyn am
Ġeff ingham
Ġoblig ations
Ġmusk ets
p oo
Ġglad ness
des ired
Ġh oot
Ġhe li
et ic
Ġde gradation
Ġhand ling
Ġbound less
ann el
list ening
Ġlan es
delight ed
Ġwhar ton
l aughter
Ġt we
Ġg um
Ġgl iding
Ġfear less
Ġtur ret
Ġmow bray
Ġc ary
Ġsa bin
min ist
Ġgrow l
g os
ha bits
Ġin asmuch
at tended
ve ly
Ġdo le
ten ance
Ġphil anthrop
Ġconce it
Ġshame ful
othe a
Ġad jacent
Ġdisc red
Ġid ly
Ġdesert s
Ġas under
Ġall ude
Ġchar itable
Ġhot ly
Ġconv ict
le on
Ġfr inge
Ġimp udence
Ġtom bs
Ġmed iterranean
Ġtroo pers
Ġcart ha
Ġc es
cl ub
Ġconf ine
arch ite
Ġscra ps
Ġextravag ance
phys ical
enet rable
de li
Ġcr ouching
Ġste ering
Ġfight s
freed om
l oose
Ġr owing
Ġab ject
Ġaf loat
Ġsle igh
Ġcold ness
Ġawaken ing
Ġdegr aded
Ġassail ants
Ġneut ral
Ġw int
j os
s up
Ġreg ained
ref used
Ġscri b
Ġwest on
Ġ16 0
8 8
: "
d ies
in cing
at ible
Ġaf resh
Ġte nding
Ġimp ossibility
Ġac he
br on
Ġ3 00
Ġneck lace
Ġard our
r ament
ou g
as ters
Ġch ris
Ġfl ashes
any where
Ġdeput y
Ġl or
fl at
Ġmood y
Ġast ern
Ġimpart ial
oct ober
Ġsuperflu ous
ipel ago
ing ling
st ool
Ġgar land
point ing
Ġbride groom
Ġb il
ol i
Ġnecess ities
Ġmod er
bur nt
dest ruction
Ġfrown ing
Ġexal t
Ġencamp ment
Ġchick ens
Ġlow ell
sing ing
pop ulation
fool ish
Ġcompens ation
Ġcanad ian
c ora
c aval
ri x
sh own
Ġlist s
18 0
Ġperform ing
yl um
Ġsolic itude
Ġa il
Ġs no
Ġag greg
Ġtw ins
Ġdeal ings
thr owing
Ġgall ows
Ġange lic
Ġsystem s
Ġtu be
hem ence
th irst
Ġen chant
Ġcar roll
Ġcur ly
dis covery
Ġthro ats
Ġbe lly
ur st
and o
had n
Ġcal cutta
Ġwhis key
fig ures
Ġtranqu illity
Ġbar rington
Ġmass acre
interest s
Ġcathol ics
Ġbind ing
Ġwh ipped
Ġst al
Ġam ph
Ġinstru ct
Ġcontrad iction
Ġlud icrous
Ġkn oll
per pet
Ġben gal
Ġgar b
Ġze alous
Ġimpl ored
Ġbot an
d ance
Ġrid ers
adv ice
Ġm ice
ure r
inter view
Ġjer k
prot ect
Ġcompre hension
Ġsecl usion
and rew
Ġout lines
are th
Ġstr aining
Ġround s
Ġmed dle
Ġange la
Ġ12 0
Ġvoll ey
is lands
as leep
Ġg ros
ir ies
Ġag gress
Ġcl ap
Ġim minent
Ġexp ans
Ġmil itia
mat ics
if red
Ġno el
be it
Ġappe als
Ġpat ted
Ġdev oured
syl van
l ap
ling ton
ah n
Ġappro aches
contin ue
Ġtick ets
Ġjew ish
Ġbesie ged
ent ious
gr ine
Ġfellow ship
Ġsam pson
kind ly
fact or
hull o
b ub
re aching
ent rance
bl in
Ġmiss issippi
Ġresol utions
Ġobst acles
close ly
Ġdiff ers
Ġsolic itor
Ġwander ings
Ġb iting
Ġm ong
Ġto ys
pr ice
Ġel m
Ġcor por
Ġjud gments
Ġgar ret
lo ad
gen ius
Ġfaire st
Ġm ater
no ver
Ġco de
Ġprop hes
Ġx l
Ġcorn wall
Ġund o
Ġoccup ations
Ġlog an
Ġsul ph
Ġdilig ence
Ġnig ger
the tic
Ġqu ivered
Ġexpect s
Ġstre ak
Ġho isted
Ġsli ppery
a an
Ġha mp
Ġth igh
Ġis abella
Ġne lly
Ġsp as
Ġrain y
Ġrefres hed
Ġun b
Ġun sc
but ter
man ces
Ġmon uments
Ġyear ning
ĠĠĠĠĠĠĠĠĠĠĠĠĠĠĠĠĠĠĠĠĠĠĠĠĠĠĠĠĠĠĠĠ ĠĠĠĠĠĠ
dire cted
Ġtrump ets
h ook
Ġh oss
Ġcle ve
Ġstraight way
Ġque ens
Ġsym met
Ġcommission er
Ġimpl ies
p as
Ġw right
as hamed
Ġlo b
Ġencamp ed
z er
when ce
Ġward en
Ġshru bs
d ict
Ġfor cibly
Ġmar ion
Ġtre nt
Ġpolit icians
rid ic
occup ation
stead ily
Ġfest ival
. âĢĶ
Ġo o
re ality
Ġn oo
Ġarri ves
ma x
Ġdet ailed
Ġhoriz ont
Ġrecess es
Ġw er
Ġr ails
un fortunately
ine v
av as
Ġregard less
Ġdesp ot
bur ton
Ġank le
Ġby e
Ġsha kspeare
Ġind ustrious
Ġnight mare
add ition
Ġscorn ful
Ġreef s
Ġafore said
Ġfath oms
Ġrequis ite
Ġf ou
Ġpre st
Ġjud icious
cil ess
Ġrelation ship
Ġancest or
tre asure
obt ained
arrange ment
Ġha nover
Ġr aged
if erous
Ġim plicit
Ġwind y
Ġpower less
yal a
Ġunlike ly
Ġpatron age
Ġa yala
Ġh overing
st ories
em otion
Ġpe ers
Ġcar ing
,' "
Ġlo om
Ġcoll ins
je alous
Ġgrate fully
Ġapprehens ions
Ġper ch
Ġund e
s ove
Ġo aks
Ġpursu ers
Ġmas culine
Ġcho king
mem bers
roll o
d ave
Ġun accountable
me chan
Ġdest ructive
Ġgall eries
soon er
magnific ent
w ag
Ġab reast
Ġpr ints
Ġmad onna
Ġalle giance
develop ment
r att
Ġan ci
ough by
Ġsuff iced
Ġpet tic
Ġrul ers
Ġmagic ian
utter ly
Ġpersist ent
. :
on ian
hel en
Ġrecoll ected
Ġspark led
fair ly
wis dom
anx iety
Ġengage ments
Ġpamph let
Ġguar ant
s ize
Ġh ides
per se
Ġdis astrous
Ġacc ents
Ġmo hammed
Ġsw ind
Ġrad iance
Ġcorrect ly
Ġkat harine
Ġp acing
ce lebr
Ġk i
sh ook
ru g
cle ver
Ġshr unk
citiz ens
re asons
pl ays
Ġdis contented
iz zy
Ġill eg
par ad
Ġphil ipp
ly on
Ġv oted
Ġhol t
ball s
fav or
qu ality
Ġbri be
Ġthorn s
w retched
as eless
el ius
establ ishment
Ġsangu ine
ha ra
ve ll
stri king
vir gin
w ants
ou cester
Ġf ust
ro bor
Ġli very
str ict
Ġmist s
Ġger vaise
conce aled
Ġrecon cil
Ġjos hua
Ġenqu ired
Ġpettic o
ou dy
Ġcon sole
Ġro chester
Ġtrans ition
Ġrow land
Ġdeliber ation
Ġtha ckeray
Ġdivor ce
u f
Ġl x
qu it
te eth
of fe
Ġhand ing
Ġstr ide
Ġinter national
Ġnum bered
Ġconst itute
trou bles
Ġbat hed
Ġfanc iful
secret ary
Ġc er
man ners
Ġgl ories
Ġcur ves
Ġprom otion
Ġdefend ers
re ven
Ġb ened
Ġu lys
ro de
Ġen mity
pl at
Ġcalm ness
Ġjer ked
Ġp ose
Ġp anted
Ġpe el
Ġye lls
ug al
Ġel astic
Ġmer rick
Ġpret ensions
Ġmel ting
Ġadvent urous
Ġale c
contr ad
Ġvap our
we ary
Ġfoll ies
Ġsil ken
Ġcur ling
app ropri
Ġlaugh s
Ġguard ians
Ġhandsome ly
Ġwi pe
Ġt ank
Ġp smith
Ġl ashed
set ting
Ġinj ure
obser ve
parent s
Ġstro ll
Ġbold ness
Ġdawn ed
Ġrang es
conne ction
Ġvag ab
in ople
ith met
ps a
com mer
Ġsto red
Ġbank rupt
Ġhost s
Ġbelief s
Ġexpend iture
escap ed
Ġcl os
Ġdis closed
Ġres urrection
Ġfore going
cr ack
Ġball oon
Ġdefe nding
vo ices
Ġdepos it
wo lf
Ġse wing
Ġfurn ace
Ġnur sed
l ocks
Ġdec ency
Ġmad ly
Ġwild est
Ġmel motte
Ġfranc s
Ġexquisite ly
Ġinex plicable
Ġscrut iny
_ !"
r ank
Ġa ims
Ġb offin
Ġst umbling
Ġpers pective
Ġlab oured
wr ought
Ġdishon our
Ġcircul ation
onym ous
Ġauthent ic
Ġw retches
Ġmar l
Ġcomp aring
stand s
Ġdeath s
Ġver te
Ġintr icate
Ġexhaust ion
t ion
Ġl inda
Ġexpl icit
Ġmor sel
dist ur
rif le
Ġmort imer
Ġaver ted
Ġpall iser
Ġpool s
Ġfri ar
doct r
Ġglas gow
Ġn ar
Ġcha l
Ġdown s
Ġimp udent
Ġrel inqu
pro posed
Ġtem por
dom estic
Ġtempt ations
hon or
fig ured
ure au
Ġinter cept
Ġmis cell
ub a
Ġsn atch
Ġaccept able
Ġbound ary
sur round
a illes
es to
Ġg ems
Ġsp it
Ġdes iring
Ġperson ages
Ġ4 2
Ġpict ured
Ġcontro lled
j oint
un s
ud ged
Ġanch ored
Ġjean ne
introdu ced
Ġvolcan ic
repro ach
e cc
l one
Ġh rs
be am
Ġsm othered
Ġhon ored
Ġlaw less
Ġmult itudes
Ġhelpless ly
Ġbloom ing
Ġflour ishing
immedi ate
Ġglit ter
Ġaustr alian
Ġbrad ley
scot land
p ressed
Ġw ield
Ġb oo
Ġr andy
res olution
Ġman chester
Ġfur s
Ġpat ients
Ġweak ened
Ġconcl uding
Ġorgan isation
cond em
respect able
rom an
Ġrebe cca
Ġt ang
Ġf is
le vel
ic ative
ment al
air y
aw ares
Ġswe eter
Ġstay s
Ġaud acity
remon t
tem ple
Ġdiscour aged
div ine
Ġshield s
Ġforb ade
vely an
n od
Ġb orough
Ġin forms
ve x
Ġpl ut
Ġch ir
Ġdis interested
Ġtemper ate
Ġfrag rance
Ġacknowled gment
Ġtri bun
Ġillustr ate
Ġalb any
Ġdefect s
Ġrhe um
âĢĲ âĢĲ
Ġtires ome
Ġr y
Ġst ocks
um a
Ġpubl isher
Ġcoun sell
Ġodd ly
mo il
Ġanne x
Ġluc illa
Ġinward ly
Ġt el
Ġto ll
oo led
Ġj ab
Ġgaz ette
Ġball ads
Ġwin chester
f re
h idden
Ġt ints
ro lling
Ġstren uous
Ġrig ging
Ġsar cas
Ġgallop ing
j ose
Ġin effect
ay ne
ke ley
ep h
Ġ_ (
pre vious
Ġfaint est
Ġinsp ire
Ġexcess ively
Ġretire ment
Ġhil ary
wholes ome
em ic
Ġshut ters
Ġhed ges
Ġade la
Ġhard ships
Ġbar nes
Ġinc ur
Ġtend s
appro ach
span ish
p ad
Ġa ur
Ġo ly
Ġgr aciously
br ain
Ġmild red
super st
Ġdur st
Ġdissol ved
Ġoppon ents
Ġglist ening
guer ite
w ra
Ġf ash
Ġh ues
Ġpe ck
Ġamy as
Ġanalog ous
en stein
Ġar chers
pl us
Ġim pending
av o
Ġdro ll
coun cil
Ġamuse ments
character istic
Ġabstr acted
philosop h
f ering
p om
Ġpar ch
Ġexcl uded
Ġjour n
Ġos borne
Ġrend ers
kit chen
suspic ion
al ogue
ie re
Ġrec re
Ġdirect ing
min able
Ġexpress es
Ġmat ilda
Ġemp ress
Ġtest ify
Ġbert ie
Ġchau velin
. ).
Ġin ference
ent ieth
Ġdo se
un to
Ġun moved
Ġun wonted
Ġside ways
Ġthick er
Ġcover t
Ġcam ps
Ġharsh ly
Ġruff ian
Ġvigil ance
exped ition
Ġg asping
Ġj ess
Ġgr ains
sha king
Ġdim ensions
........ ........
Ġtyr ann
Ġdrago ons
g ri
Ġn ancy
Ġshe p
os is
Ġcalcul ation
Ġmodest ly
_ ?
Ġro oted
Ġfl inging
Ġdev ices
Ġstream ed
Ġtur tle
Ġcommun ications
Ġdram at
Ġpropos als
Ġoft ener
' ,"
m ou
s man
Ġa ure
Ġk ipps
Ġhow ell
Ġcontin ental
Ġarr ayed
Ġponder ous
Ġshir ley
Ġre search
ord an
Ġchat tering
Ġdecor ation
Ġwist ful
ignor ant
b rig
d ler
Ġp har
ent ering
Ġmy r
men ced
Ġmal ay
Ġupper most
princi pal
_.-- [
Ġembro idered
Ġloos ened
Ġbo asted
Ġgod win
Ġsal isbury
Ġsigh ing
ration al
aston ishment
b rief
ir able
fl ight
supp orted
bell s
Ġapost les
Ġanalog y
nd or
Ġno ah
Ġcar cass
Ġsnow s
Ġantagon ist
Ġbol ted
Ġpoo rer
ri um
un happy
Ġass ailed
Ġpri zes
Ġstates men
Ġscorn fully
Ġpred omin
Ġflatter y
on ica
Ġpart ake
Ġind ication
Ġlab orious
Ġbaron ess
Ġexert ed
Ġadvis able
Ġt apped
Ġw ires
Ġen su
Ġen cir
Ġdra ft
Ġbus ily
Ġblack ened
Ġund es
Ġber ries
dro ps
earth ly
Ġglim mer
Ġsentine l
ch oose
Ġthere after
Ġen large
Ġsm ash
Ġjo ck
Ġwind ward
Ġrand olph
Ġspin ning
Ġoly mp
x ley
Ġa ub
Ġv ouch
Ġlook out
Ġkne el
dis position
end s
Ġones elf
Ġbreast s
Ġrent s
Ġanticip ation
Ġhud dled
g ish
Ġ }
own er
Ġma ir
Ġexpl od
Ġwand erer
Ġmorn ings
Ġraven s
pleas antly
Ġm aternal
Ġcon ceptions
Ġar gy
con vention
ject ion
end om
smo oth
Ġwh igs
Ġst ems
um az
Ġover taken
Ġnight ing
Ġming le
Ġtram pled
e ating
ill ot
to fore
Ġcon ced
Ġun ique
Ġres ulted
Ġfore ster
Ġexpl ains
pass engers
Ġz oolog
Ġlif eless
Ġba it
effect s
object s
________ ________
ha ms
Ġl ash
Ġim pelled
Ġinc ongru
Ġint ri
Ġpol ar
Ġfer ocity
consequ ences
hig hest
Ġblasp he
o bey
Ġb ry
ch osen
Ġli ed
Ġfl anders
Ġpe cuniary
Ġdecl ining
Ġlab ouring
Ġhal ting
Ġfac ility
Ġc ater
Ġp ensive
Ġcons umption
Ġfond ness
Ġgran ny
philosop hy
9 5
v at
Ġw itty
Ġk itten
Ġwar wick
pre cious
Ġprev ailing
Ġintr ud
recogn ized
health y
b out
Ġme ll
Ġpro gram
con ception
orr it
Ġinf amous
bel ieving
Ġgro ans
Ġshel ves
Ġeman cip
t ide
Ġtw igs
Ġover coat
Ġstan bury
slight ly
Ġw ick
Ġsc ur
Ġpart icip
Ġcont rive
Ġste ele
Ġ5 6
christ mas
Ġrus kin
Ġmurde rers
Ġimpert inent
Ġs inks
le ys
ld on
ac res
Ġpar rot
Ġimpro ving
Ġt app
re ward
Ġsp ar
Ġtr uce
ren a
Ġcur l
Ġfact ion
nor mal
Ġder by
Ġinvol untary
Ġbenevol ence
g gled
u z
Ġd erv
ric ious
Ġphys ically
exper iment
ĠÂ ·
mess age
Ġgriff ith
ut eness
Ġre appeared
Ġro gers
ser ved
sc attered
Ġjud ith
Ġstra its
Ġstra ggling
lu ke
d ad
Ġfl own
Ġdu ane
Ġdemand ing
Ġbewild erment
Ġdrown ing
thro at
easter n
um ley
Ġsp ade
pr ints
att ent
think s
Ġnovel ist
Ġthread s
Ġpenet rating
Ġnorm andy
Ġn ett
lf th
Ġmean est
Ġling ard
Ġagricult ural
v ass
Ġt i
Ġst ow
be ams
Ġcha ucer
con sp
gr ant
Ġge org
Ġconst ancy
Ġinj uries
post s
Ġrib bons
d iction
Ġg ould
Ġal acrity
Ġqu aker
Ġpr att
cei ves
Ġsing er
Ġrock ing
Ġlu fton
sat urday
hur ry
Ġinvol ve
Ġbr istol
use ful
Ġspot ted
Ġidol at
Ġprett iest
cler gy
h oe
bed s
Ġchrist ie
Ġmid dleton
Ġdef ine
Ġrid dle
Ġant ip
Ġthom son
exer cise
c ure
c rew
d iam
r ou
r ors
Ġc hes
le en
Ġdo ver
de arest
Ġen cum
par allel
Ġge ese
vis ited
Ġbol ton
thousand s
Ġlil ies
Ġoppress ive
Ġbe arer
al us
Ġdis graced
Ġem erson
gu y
Ġbene fits
Ġbutter flies
Ġsoci eties
: âĢĶ
ra re
Ġdraw ers
Ġden ial
Ġperiod ical
Ġod our
lar ry
abs or
Ġjeff erson
Ġmonot ony
Ġsyll able
Ġcoco a
Ġkens ington
Ġb idden
ar ab
Ġso othed
Ġup lifted
Ġdis com
Ġhead ing
Ġbuild er
stru cted
ce ased
Ġsu ite
il ated
Ġv ous
ond e
Ġheart less
Ġappre hend
uck y
cons ol
Ġvol s
Ġsens ual
Ġcommission ers
fif th
mach ine
Ġrasc als
Ġinto x
od a
Ġsw arm
Ġbar ons
Ġstar vation
Ġdepend ence
dr inking
Ġintim ately
cop y
Ġscout s
Ġtermin ated
neighbour hood
e an
Ġsupp ress
Ġhum ane
english man
imag in
Ġburg undy
Ġtorment ed
nove mber
Ġulys ses
on er
se ized
man aged
tr ick
pro found
Ġbright est
Ġpolit ician
Ġbal anced
Ġsax ons
m aud
Ġh i
Ġin flict
Ġpro long
Ġvis count
col umn
Ġden ying
Ġwhit eness
consequ ently
num bers
Ġment ally
Ġvit ality
Ġout cast
ans as
Ġdream t
Ġhan nibal
Ġanticip ate
Ġell iot
mort al
brill iant
Ġmini ature
Ġa us
er ness
Ġquar ry
des ert
hel pless
swe pt
Ġemotion al
Ġsuffe rer
Ġmonaster y
h opes
Ġdo in
Ġfruit less
disappoint ed
Ġappend ix
l ose
Ġsp un
ser iously
che ll
chief ly
lay er
Ġseren ity
h ound
Ġc ogn
man kind
Ġsl am
bus hes
Ġdwell ings
const antly
Ġperman ently
Ġc zar
Ġab d
Ġsc ut
reg iment
Ġ5 7
Ġpop ulace
back ed
rap idly
Ġdespair ing
Ġegypt ians
Ġnav igation
Ġcontempl ate
Ġcecil ia
e thel
Ġh ust
Ġnor folk
Ġsqu ares
Ġstupid ity
cro ft
Ġbisc uit
Ġr ac
Ġpl aster
Ġsub ter
Ġinn ate
Ġvoy ages
Ġmild ly
Ġvenet ia
arg ument
p ip
Ġtr ance
Ġte ut
wh it
Ġhard ship
Ġsk illed
pre v
hor rible
sign ific
Ġaltern ately
Ġalexand ria
r ings
ad er
Ġun finished
Ġcl own
Ġcl ifford
Ġwar mer
Ġten or
Ġmut iny
rep ublic
box es
Ġenv ied
Ġl inks
Ġbe fall
Ġag grav
Ġmust er
Ġcome ly
Ġwed ded
Ġwag gons
iqu ette
Ġphotograph s
virt ue
c attle
Ġa es
Ġst y
Ġde re
Ġen forced
rest rial
gu arded
Ġlab ors
Ġdepart ing
Ġconfer red
Ġf ried
on i
Ġn ook
ge ar
Ġ1 10
Ġsur faces
where ver
Ġblack smith
Ġger m
Ġchat eau
Ġchest nut
Ġriv als
j ones
Ġdon t
Ġpast or
grace ful
Ġincess antly
desper ate
Ġt ension
Ġin herent
Ġde ception
Ġble nded
Ġdesper ation
Ġmetrop olis
Ġmeag re
Ġsweethe art
g ust
Ġto l
ad ier
Ġconstr ained
horr or
Ġthe ore
Ġpl od
Ġgall antly
Ġgrind ing
sylvan ia
Ġa version
pp ings
Ġmo aned
Ġwa verley
Ġav owed
Ġincl ine
Ġban ners
Ġdwell s
qual ities
Ġdisci ples
g as
Ġmar illa
Ġwa ld
Ġdisp uted
contin ually
ili ating
Ġne glig
any how
ser ve
Ġconne ct
Ġsitu ations
Ġdrum mond
Ġtod d
cou ple
weak ness
int im
no x
Ġapp lying
Ġpur port
sm iled
apart ment
Ġp onies
as king
Ġfor sy
if iable
Ġcl aret
Ġhero ism
tri umph
Ġpeac ock
dece mber
b illy
h unt
Ġb ide
at hing
Ġbe fell
Ġcr ashing
Ġcur sing
aw ful
Ġcow boy
develop ed
Ġc umberland
Ġd Ã©
Ġcl asping
Ġ' m
ins pect
Ġacqu is
Ġcloud ed
short ly
Ġb askets
Ġper ceptible
Ġpre f
br anches
Ġmon sters
Ġcare lessness
cent re
Ġmaint aining
Ġthunder ing
Ġcoward ice
priv ile
Ġmeek ly
he res
Ġo val
Ġad ore
Ġprof ile
Ġyork shire
Ġsanct uary
h ut
st iff
Ġso da
Ġne ale
Ġout look
Ġpart is
Ġconsider ate
Ġmission aries
num erous
j acob
ro it
Ġpu pp
respons ibility
Ġtack le
recoll ect
Ġmiser ably
Ġanecd ote
Ġprom en
Ġcra ig
Ġdistinct ions
young er
Ġsen or
Ġbeha vior
Ġstrang est
Ġunspeak able
f us
g ates
re th
Ġd and
all ic
Ġfr ae
Ġrem ed
Ġimm ov
Ġcraw ford
Ġsecure ly
Ġunf av
lab our
at i
ch ron
Ġknow est
Ġjo king
Ġinj urious
Ġing rat
offic ial
need ed
Ġterrit ories
Ġemphat ically
5 9
Ġn ull
Ġe un
ri b
ap hor
Ġlead en
Ġadventure r
it ic
Ġh ipp
ent at
Ġch ol
Ġover took
ram s
sac red
Ġadminist ered
Ġhir am
manif est
p ige
Ġd otted
Ġpres byter
sc r
Ġform ally
Ġve hemence
Ġassoci ates
Ġlic ense
Ġnu isance
Ġbe aming
ist on
Ġcl ause
Ġad ored
Ġkind est
Ġdisc rim
Ġfrench men
Ġav ar
aff old
Ġeurope ans
Ġpure st
Ġmotion ed
prot ected
Ġstag gering
Ġdisgrace ful
Ġsag acity
Ġfoss il
Ġimp erson
Ġaff irmed
Ġconvers ing
Ġod or
Ġadventure rs
1 00
Ġp and
Ġr oo
Ġconst ance
comp are
Ġdom ine
ĠĠĠĠĠĠĠĠĠĠĠĠĠĠĠĠĠĠĠĠĠĠĠĠĠĠĠĠĠĠĠĠĠĠĠĠĠĠĠĠ ĠĠĠĠ
Ġhan nah
Ġobliv ion
it re
Ġit alians
ter m
Ġv il
han s
Ġab ilities
de ll
Ġgr antly
Ġsun ken
Ġfount ains
5 00
at ics
Ġkn itting
Ġag on
ull en
cha in
Ġord inarily
ann ounced
Ġblind ly
Ġproject s
Ġlack ing
Ġpend ennis
Ġshove l
Ġbould ers
n an
p y
Ġre place
Ġr acing
all e
Ġcl oudy
Ġro derick
aw ing
!' "
ĠĠĠĠĠĠĠĠĠĠĠĠĠĠĠĠĠĠĠĠĠĠĠĠĠĠĠĠĠĠĠĠ ĠĠĠĠĠĠĠĠĠĠĠĠĠĠĠĠĠ
among st
Ġmast ered
Ġchron ic
Ġopt im
8 7
a qu
Ġs ledge
at ism
wh olly
ope z
Ġinc o
advent ures
st yle
Ġe ust
pe f
Ġj upiter
Ġun noticed
ric ane
Ġaffect ation
Ġbaby lon
Ġexceed ed
Ġshirt s
Ġtransp orted
Ġj ol
par able
Ġpract icable
Ġsquee ze
) .]
Ġas ylum
et hing
if ix
Ġad verse
Ġmo aning
Ġ18 15
Ġinv aded
Ġfer r
Ġflour ished
Ġinconven ient
furn ished
Ġrever ie
cly ffe
Ġcarav an
m ember
Ġt ert
en orm
Ġbe wit
ve get
Ġle ant
bl oom
me ad
Ġind icating
Ġdev ised
Ġge ar
bar on
Ġpaul a
Ġjourn als
ac o
ab str
Ġfl og
Ġmar qu
rel ated
Ġsin ned
Ġmode ls
Ġfors aken
Ġstif led
Ġa kin
Ġd ent
ens ible
oy ne
Ġsign ified
Ġsuggest ing
Ġmont fort
Ġtriumph s
Ġequ ipped
Ġpal er
Ġrequ iring
Ġsal ut
des cended
Ġthro bbing
depart ure
Ġtheod ore
Ġpunct ual
is abel
at um
me at
she et
Ġhum bug
Ġbar ley
Ġlist ener
Ġconc ur
Ġrevol ving
ext ent
const ruction
Ġbeet le
v ague
x y
Ġhe arers
ber ing
att itude
Ġplay ful
cr ates
Ġpriv acy
john ny
Ġachieve ment
Ġplent iful
exceed ingly
e pless
s ore
Ġj acques
ind ers
fe ver
Ġsl o
Ġ18 20
Ġstre wn
Ġimper ious
Ġerr one
Ġkenn eth
independ ent
be comes
man age
Ġwhere with
Ġcont ribute
Ġcontr asted
Ġren own
Ġdise ases
Ġj ude
Ġwell er
Ġlo com
Ġgre asy
Ġdem ure
mind s
Ġshrie ks
Ġther m
Ġaspir ations
6 2
in vent
Ġl omb
Ġhe ter
Ġbo ar
du chess
Ġsepar ately
Ġbon ny
Ġabstr action
ke en
Ġgirl ish
Ġhon ors
po ison
Ġstri pes
Ġord in
Ġrev ive
Ġawkward ly
Ġfid dle
Ġrosam ond
access ible
artic ulate
Ġcoloss al
Ġo le
er oy
Ġc ud
Ġin mates
ot le
Ġcon cession
Ġun covered
ton ed
bag s
u ition
v on
Ġqu ack
Ġfl ask
Ġshow ers
supp osing
Ġt ier
Ġt aper
the ory
to ler
she ep
Ġprov iding
opin ions
. *
w ha
Ġh oo
Ġg wendolen
Ġth ud
ict ive
Ġpers piration
Ġfore noon
Ġmod ifications
Ġcourt iers
Ġconv incing
Ġming ling
Ġportug al
f ought
p all
Ġmy ths
Ġgr ange
Ġflo ors
Ġspo ils
care ful
Ġintim ation
Ġornament ed
Ġalb inia
indif ferent
n ost
in fer
Ġcount s
br ass
Ġche ated
Ġref ers
Ġint rigue
Ġx li
Ġz ulu
comfort ably
Ġros a
Ġgroan ing
Ġchim neys
stro de
accompl ished
oga as
Ġintegr ity
Ġa ri
Ġl oth
se ct
am orph
Ġsa p
Ġno v
dy ing
Ġson net
Ġarch ipelago
Ġcredit ors
Ġeleg ance
Ġmoist ure
o vers
er ot
Ġme nded
ort ment
Ġro vers
Ġgr ab
wh ither
Ġunt ouched
val uable
nat ives
Ġoccup ying
Ġclim ax
Ġtent acles
Ġadmire rs
Ġbund les
Ġshepher ds
sle eping
Ġcove t
b itt
n able
t um
Ġin human
Ġshe ik
Ġmount joy
Ġwrong ed
Ġ13 0
strong ly
Ġpall id
r ations
at ical
Ġconf ound
Ġnatural ist
Ġbound ing
cor rect
Ġdivers ion
flore nce
mou thed
t ons
-- ?"
Ġen force
fore head
Ġsw oon
Ġpit iless
Ġc ope
ar re
Ġha ld
Ġind ig
Ġchan t
mer chant
Ġoblig ing
isc op
Ġmont ague
oqu y
Ġornament al
b ark
t reme
Ġse ctions
Ġsqu al
Ġappro ving
Ġextend s
Ġsquee zed
Ġdaw son
Ġunmistak able
p air
im itable
Ġhere ward
Ġnat al
Ġhum ph
ob sc
Ġintrodu cing
Ġspru ce
9 8
Ġs own
Ġor acle
Ġqu itting
Ġch illed
Ġcons iders
Ġind escribable
Ġreason ed
Ġcorn elia
Ġresem bles
lear ning
Ġissu es
Ġ ,
ir ish
Ġpl ots
per mitted
ick le
Ġcomp ly
Ġmaster y
na issance
Ġfashion ed
Ġdod ge
m akers
Ġm ien
Ġst ip
ol ently
Ġunder go
Ġtrust y
Ġclean ed
Ġtreasure r
Ġthrong ed
f ill
f ax
Ġsa u
Ġreg ain
Ġbro om
like wise
Ġce aseless
rem oved
ones ome
count ries
ĠĠĠĠĠĠĠĠĠĠĠĠĠĠĠĠĠĠĠĠĠĠĠĠĠĠĠĠĠĠĠĠ ĠĠĠĠĠĠĠĠĠĠĠĠĠĠĠĠĠĠĠĠĠĠ
Ġtreat ise
dist r
Ġder onda
Ġregret s
Ġrum ours
Ġsport ing
Ġax es
Ġvolunte ers
wond ered
Ġtren ches
li ly
Ġmag ical
Ġparad ox
gthen ed
pt ive
Ġdes mond
att ached
tr ack
dis cipl
Ġcommon wealth
back s
rop ing
occ asions
Ġbob by
Ġpoison ous
conv iction
Ġtrades men
Ġd izzy
ce lyn
ab sur
where fore
Ġprodu cts
Ġrob ust
Ġcat ar
Ġcler ical
Ġemb ry
stru cture
mad emoiselle
Ġpolic emen
Ġclut ching
dream s
wond ering
Ġmais ie
5 8
b ought
o en
v ary
Ġd orrit
ce t
Ġwho pper
Ġter rif
Ġfort itude
Ġhist ories
car ious
Ġtur moil
Ġsilver bridge
Ġcustom er
sch ol
Ġconfirm ation
Ġplaus ible
Ġkn ob
ps hire
Ġins anity
Ġwood land
Ġtempt ing
Ġtum bler
cott age
Ġb ale
Ġher cules
Ġcan to
Ġmar riages
Ġed ited
aw ake
Ġmer ciless
Ġfav ored
Ġlave nder
a ha
Ġthe ft
te rer
Ġun limited
Ġpres erving
Ġbu cc
Ġhor rified
Ġge omet
vi olence
occ ur
Ġfruit ful
Ġ186 2
high ly
Ġp ry
Ġk al
Ġpre l
gener ation
bour g
Ġcher ish
Ġfain ting
Ġwy nd
Ġweigh ing
ed inburgh
ar istocr
be wild
Ġmor ally
Ġenvelop ed
treme nd
Ġt ess
av ier
Ġexp anded
---- -
Ġshru g
m ong
Ġre searches
Ġun successful
Ġtri b
Ġopp osing
Ġdev oid
wr ath
div ided
rup ulous
Ġuntr ue
Ġsmoot hed
Ġcres cent
o k
Ġde leg
Ġwill oughby
ink ling
Ġsm elt
Ġca ress
Ġmin nie
sp ark
Ġint ens
Ġtur bul
ino is
Ġcyn ical
Ġinterven ing
l sea
be arer
Ġfar thing
Ġmil an
Ġpast oral
Ġstraight ened
Ġbat hing
Ġswed en
Ġparap et
f isher
Ġw ailing
Ġbe thought
Ġgo ethe
ak in
Ġmen ace
Ġdes erving
Ġreal ities
Ġsound ly
Ġsol ve
Ġvill agers
see king
Ġpract ices
Ġund is
Ġtrem or
Ġafford s
Ġbrill iancy
Ġprovo king
' ?
Ġbe arded
Ġbl u
Ġfore bod
Ġsal ad
poss ibility
jul ia
saf ety
it arian
le ather
se ldom
Ġunder ground
Ġwood man
Ġmid ship
Ġsac rament
Ġwo ven
Ġcalcul ations
squ ire
Ġremonstr ance
Ġindo ors
jose ph
absur d
m atch
n av
Ġs ik
ul um
Ġar guing
form ing
Ġder ive
Ġ186 3
Ġbark ing
Ġlee ward
6 9
u ble
Ġk a
out ing
Ġsp raw
Ġcha sm
anc ies
Ġco ins
Ġcou rier
soft ly
destro yed
ic eless
al tered
Ġst ark
int ense
she lls
Ġmiss ouri
Ġsent ries
ister ous
Ġred emption
Ġbrother hood
Ġtrave led
Ġspo ilt
Ġcad ets
Ġsarcas m
6 7
f et
Ġc og
Ġne b
ig uous
be nd
con ceived
right ly
Ġbur then
Ġbook se
Ġdin ah
wa ist
Ġmont gomery
Ġrebell ious
Ġman aging
ind ignation
Ġgo lf
Ġexp and
Ġfore man
Ġcut ter
Ġcultiv ate
Ġastr ay
at mosphere
ple asing
Ġind uction
arr ows
Ġba iley
proper ly
Ġtap est
w ake
Ġb ump
as certain
ich t
un able
ang ular
Ġhum e
Ġmis eries
lar ger
Ġclam our
Ġshrub bery
Ġhe res
Ġre hears
ig nty
te acher
Ġag hast
Ġimp enetrable
Ġdistress ing
Ġvac ation
Ġspont aneous
Ġd ens
Ġh overed
bl oss
Ġconvers ations
Ġmurder ous
Ġcontempt uously
ignor ance
Ġinnoc ently
f ri
Ġf ay
Ġn ie
Ġun real
cri es
Ġport ent
Ġprodu ctive
Ġsli ps
Ġaven ge
Ġrefres hing
k ate
w itted
Ġg ut
Ġr het
Ġim b
Ġjo ints
ser geant
cons ult
Ġz ulus
plain ly
Ġcompre hensive
Ġfitz gerald
Ġtuck ed
ol in
int ent
no ise
Ġcomp art
Ġem bers
Ġref uses
ask a
Ġmal icious
Ġtend encies
Ġruin ous
build ings
Ġextr acted
inj ured
re ference
Ġth undered
ge offrey
ab rupt
Ġare na
ort ion
Ġtr inity
Ġdist orted
Ġgun powder
dr um
Ġlat ent
Ġbree zes
Ġmah omet
Ġful ness
h ou
Ġw ager
Ġre yn
Ġun intelligible
ung a
Ġbus ied
comm itted
Ġunc outh
fem ale
m and
n ations
Ġdid erot
Ġte aches
Ġcha nd
cha irs
Ġtra iling
Ġ4 1
Ġmyster iously
port ra
move ments
Ġperse verance
Ġguarant ee
Ġe bb
ri ls
cr utable
Ġburst s
dem and
ym ion
Ġo re
om ination
ion ess
ge e
." '
Ġen um
be gun
Ġoccup ants
Ġfern s
Ġind ications
Ġdec ayed
Ġ5 8
Ġeli za
Ġsul ky
sove reign
on gh
Ġin comprehensible
Ġle w
Ġcra g
Ġjour neys
Ġvan qu
Ġbra ke
je an
e conom
nd ers
Ġl ut
ur ances
Ġsh oved
ab b
Ġab el
Ġpl umes
Ġsub miss
Ġlow ly
go in
eng agement
Ġfulfil ment
jor ie
consp ic
Ġgr unted
Ġfar ming
ser ies
myster y
ard o
Ġch illy
Ġstr ains
har k
eter y
str angers
Ġexcited ly
Ġcy cl
Ġaust en
Ġphilosoph ic
Ġimpet uous
Ġt inge
Ġm uzzle
Ġhe aling
Ġca iro
pass es
Ġholl ows
Ġrub ber
Ġeug ene
Ġd wind
Ġis obel
Ġinv in
Ġsocial ist
sign s
Ġgill ian
e ck
Ġc ited
Ġj ub
Ġun utter
Ġover powered
Ġtre velyan
Ġmass achusetts
Ġmurm urs
Ġconce aling
prom pt
Ġgent eel
shad ows
Ġvolunte er
Ġdiplom atic
Ġpud ding
k h
Ġm og
our se
Ġfore seen
5 7
Ġf ont
Ġg out
we ap
Ġgl ut
Ġem blem
Ġarm ad
Ġbreak ers
Ġve re
Ġsn ub
Ġfast idious
rom antic
intellig ent
Ġnick leby
Ġsimpl er
nur se
s our
er d
ge l
Ġover look
Ġpa ved
Ġhard ness
where as
Ġwit ches
Ġappre hended
Ġcontempt ible
Ġtheat res
Ġabund antly
arrange ments
f ishing
l ish
Ġout set
cc o
bl ock
dom in
bol t
imag ined
incl uding
Ġidol s
Ġdiver ted
Ġ, ,
6 3
_ ?"
ess ential
Ġreg ulations
Ġbro ck
Ġcounsel s
ha me
Ġwill ows
Ġconc rete
Ġintr usion
Ġcris p
Ġexagger ation
Ġflav our
univers al
y gen
Ġ Ã©
Ġin sufficient
ur cis
Ġsha ck
Ġfar thest
Ġsum mary
Ġsoft en
Ġterm ination
sac rific
sou thern
Ġdefic ient
Ġcontinu ance
i om
j ug
Ġo ven
Ġn ag
Ġal vina
be ach
Ġro ds
Ġbar b
inc ident
van ished
Ġplate au
n as
Ġc em
ct ory
Ġam ply
Ġmon mouth
Ġloung ing
Ġhowell s
t ent
Ġwor rying
ne red
Ġhigh lands
bed ded
Ġought n
Ġconne ctions
Ġdevil ish
c ities
sh ining
fl our
Ġcam eron
Ġaccess ible
Ġgap ing
Ġrect ory
6 4
s well
Ġb ureau
Ġn ort
Ġover throw
Ġcr ows
Ġrec ourse
Ġscream s
neighb or
Ġhug o
Ġgovern ors
distinct ly
eld er
Ġmarty rs
Ġt weed
le aning
ch im
ust ible
Ġplay er
sha ke
Ġ4 3
Ġgra v
Ġmain tenance
Ġcomb ine
enn am
Ġmoor ish
bab y
e rers
Ġk aff
de cor
com ers
Ġcount en
har mon
Ġext inction
Ġpen ins
vi olent
Ġfal con
Ġprevent ing
Ġgri zel
pen et
Ġnin th
Ġbi ography
jan uary
Ġissu ing
a ust
Ġhe ark
Ġe ats
Ġse p
Ġdr ain
Ġsk ip
Ġmis givings
Ġgen oa
Ġaunt s
hum ph
Ġaust ere
Ġcryst all
l un
or ously
Ġl ill
Ġe got
ord in
Ġmar iners
Ġthought less
Ġrep ud
Ġrom ances
Ġobl ique
mag gie
yr inth
gall ant
Ġglen cora
elect ric
o ked
Ġthe ological
Ġn ina
Ġwe aken
Ġst akes
Ġfr inged
Ġmin im
Ġins cribed
Ġmal ignant
ez vous
Ġhe al
Ġcr ut
Ġnor way
Ġsol ace
Ġ5 1
Ġgra pe
Ġmort ification
Ġrhy mes
Ġautom obile
Ġgene va
Ġdevon shire
c atherine
Ġm ister
ent e
Ġso d
Ġfr an
Ġgl ittered
Ġhur ts
bel ie
bel oved
dem ocr
Ġclam bered
Ġminor ity
Ġpuff ed
Ġaccum ulation
enthus iasm
Ġperfor mances
" ?
h ounds
Ġbl ight
Ġfl ax
Ġfore finger
Ġut ility
Ġtrust worthy
Ġmed itated
Ġfle ur
Ġemb assy
Ġlun atic
Ġclust ered
Ġexh ilar
Ġfath om
righteous ness
Ġcanter bury
Ġs ig
de er
Ġwr ists
Ġrep ress
Ġel sp
Ġprom ont
Ġcompl aining
Ġinfer red
Ġpic nic
Ġchival rous
Ġcounc ils
Ġtas ks
g ab
Ġsp art
Ġev idences
Ġmid day
Ġcreat ive
dem onstr
Ġju ven
Ġrecon no
Ġmun icip
vict ory
bast ian
Ġbicy cle
p ause
an no
Ġre wards
Ġun aware
are l
Ġhar v
ob i
grou p
l over
Ġo m
per plex
Ġper verse
Ġget tin
Ġent angled
br is
Ġwoman ly
ash ore
Ġaw ed
Ġarm strong
Ġver non
Ġann ouncing
Ġservice able
fast ened
Ġcy l
stat ement
Ġentr usted
Ġan arch
Ġall ah
ert ing
Ġmar ston
Ġprop osing
Ġpet ul
Ġendeav ours
Ġmult ip
Ġsar ac
cong rat
Ġgird le
Ġa pert
it ans
Ġf enn
Ġan ts
ab ul
Ġar ithmet
ex quisite
Ġmo hun
don ald
Ġsus ceptible
exam ined
Ġbart on
Ġol af
Ġbount y
f itted
p ope
se ed
Ġste ered
Ġdom ain
tom my
Ġpsal m
p his
s ounds
x es
um bed
Ġout skirts
Ġover power
Ġfl ound
Ġmen acing
Ġco qu
att ened
Ġpar r
Ġdire ctor
Ġheight ened
Ġmac umaz
Ġflore nt
deep ly
Ġentreat ies
Ġwink ed
pull ed
Ġyawn ing
Ġhypocr isy
Ġkra al
Ġfrivol ous
w ilt
Ġstr ayed
Ġcr ater
mo de
cut ting
ĠĠĠĠĠĠĠĠĠĠĠĠĠĠĠĠĠĠĠĠĠĠĠĠĠĠĠĠĠĠĠĠĠĠĠĠĠĠĠĠ Ġ
blood ed
Ġcomment ed
oult ry
p ore
Ġc ort
ch t
ant i
ought on
Ġim itated
by ron
Ġmiss es
Ġremem bers
Ġsol ved
Ġjoy fully
Ġ8 5
rec overed
Ġprotest ants
dro ve
sun shine
trem bling
v ac
om en
Ġall ows
Ġjo vial
ix on
Ġed win
Ġsea ward
Ġprin ter
cons ent
Ġgrat ifying
object ion
Ġw ary
Ġo sw
ed itor
as ive
fe ared
fe bruary
ens ation
Ġcar rie
ph r
Ġwater y
Ġev a
Ġcou ghed
Ġpom pey
Ġscru b
Ġquarre lling
the us
be lt
Ġown s
any way
Ġprotect ing
Ġgriev ance
a ic
Ġt ul
Ġso journ
Ġro gues
Ġcount ies
Ġtri gger
Ġda is
col ate
Ġwil ful
grat itude
a we
Ġt rench
Ġh ubb
Ġdist ract
right s
pre face
rel ieved
Ġdisp utes
Ġcro cod
quar rel
burn ed
proceed ings
Ġbarr acks
Ġstealth ily
Ġpenit ent
Ġb ick
Ġall usions
Ġun wise
Ġover hanging
Ġco vent
Ġbur dens
Ġdiv iding
umb ent
concl uded
i ol
Ġbe ans
em ily
ig er
sp are
Ġless ened
po ly
Ġje lly
hold ers
Ġfan atic
18 7
Ġbas al
crow ded
Ġstret ches
Ġpere grine
c offee
h uge
the ning
Ġun s
Ġimp ose
Ġber ry
Ġdor othea
class es
attempt ed
e a
m ild
Ġn omin
ir ted
Ġj ac
Ġover t
Ġchar ging
Ġbre nt
Ġche aper
bo ards
Ġord ained
Ġcas ually
incre asing
mic hael
correspond ence
Ġsecl uded
distr ict
Ġst yled
res olute
itt ance
ci er
sm outh
Ġserious ness
Ġexec utive
pat ient
Ġflood s
Ġfrost y
Ġmathe matics
b asket
c athol
r ayed
en ham
Ġhe irs
Ġhis sing
Ġfor ster
Ġcon ingsby
Ġch ord
Ġtw ig
Ġye lling
Ġres ided
Ġass uring
Ġsign als
Ġtro dden
Ġtwist ing
kno ck
reput ation
b oston
m ood
he b
Ġwith stand
Ġbl ades
li br
Ġscar f
Ġextra ordinarily
Ġregular ity
Ġsne ered
w an
Ġd ab
Ġway side
Ġrep ast
sp ur
yond er
sec urity
Ġlot hair
Ġimm ers
var iety
Ġsubl im
Ġapple by
famil ies
m ante
r ush
Ġh ose
Ġside walk
Ġadd ison
sha de
Ġmouth ful
Ġcra gs
Ġroyal ty
dem anded
cip ient
Ġlament ed
Ġwilhel m
colle ge
Ġchieft ain
d aughters
f ounded
o cean
Ġp ained
im pl
ith ing
Ġme llow
Ġthere on
Ġun happily
Ġmar king
Ġrep ented
Ġbra vest
fol ks
Ġfert ilised
Ġdimin ish
feather s
Ġf als
ac hable
Ġun changed
Ġun avoid
gl iness
Ġcomm otion
Ġret aining
mar ine
Ġassist ing
Ġmars hes
Ġlux uries
Ġesc orted
pra ise
Ġl atch
Ġjo c
ex tr
Ġmod eration
Ġprot r
Ġgloss y
j un
t ouching
Ġs ill
Ġw oes
pe ll
Ġhere tofore
av ia
may er
Ġven om
tra il
suggest ion
Ġrecommend ation
Ġdexter ity
iche ver
Ġpyram id
6 1
Ġa verse
Ġl illy
Ġor deal
Ġsc am
gl orious
vent h
ph ic
Ġes kim
sc ore
Ġcor robor
Ġce cily
Ġdev our
into sh
Ġhy de
Ġstan zas
Ġhistor ians
Ġspecul ative
Ġbetray ing
else where
Ġhart ley
Ġl opez
Ġpo y
Ġcar rier
Ġac hed
Ġfull est
Ġpubl ishers
jo an
supp ly
far mer
Ġwh itt
Ġv avas
res c
Ġam ber
li kes
luck ily
Ġdisgust ing
Ġsymbol s
incre ase
h oped
Ġcon genial
Ġcl apping
pro ject
ste pped
Ġfires ide
Ġvolunte ered
Ġcrum pled
9 7
Ġr io
oun ces
Ġpen elope
ital ian
Ġstamp ing
kne es
Ġp em
art ist
man ufact
Ġke el
ign y
Ġfound er
Ġcur rency
Ġfav ours
Ġver bal
good ness
sl aves
n aked
Ġo de
Ġd ir
Ġha le
ra ise
Ġab ound
Ġwhere abouts
Ġcor inth
Ġquick ness
Ġprov oke
hel ped
reck on
Ġadmire r
Ġadmin ister
Ġenlight en
Ġlabou rers
Ġm ord
Ġch um
Ġgl oucester
Ġvar iable
Ġweak ly
isc illa
Ġnav ig
rid an
Ġcontempor aries
Ġ q
Ġ4 4
Ġanx ieties
Ã© s
Ġnarrow ly
Ġfrequ ented
Ġspark le
Ġach illes
Ġchuck le
trave lling
doll ar
i atic
Ġcon n
ra ising
Ġsc y
Ġfar ce
Ġvict ories
Ġblind ness
hall o
Ġpersec uted
Ġshudder ing
Ġdru g
Ġfaire r
Ġnegot iations
Ġmarl borough
Ġw ert
on ent
Ġon y
all an
Ġj ordan
Ġcom plied
Ġen han
br ids
pend ous
Ġcra ving
Ġgrass es
Ġboats wain
Ġmax ims
Ġsem blance
Ġosw ald
Ġo mit
Ġin conceivable
st upid
ount ed
Ġfl annel
Ġins urrection
Ġinc ense
Ġhymn s
Ġex pended
---- ---
Ġsor ce
Ġelement ary
Ġbetr othed
pract ically
Ġcapit als
Ġinterpre ted
wand ering
) _
a head
d ise
i kes
p aint
Ġo scar
Ġh ier
am m
Ġchrist endom
col umb
Ġpin ched
bree ze
o il
Ġn ero
out ed
Ġdis par
Ġcha ined
anc est
Ġel sie
Ġgover ning
Ġ5 00
Ġappl au
lo aded
Ġindifferent ly
Ġbond age
Ġsullen ly
Ġpoo le
Ġdisconc erted
f oos
Ġmoment ous
Ġfore see
dist urbed
Ġendeav oring
gard ens
Ġhook ed
Ġclut ch
Ġtel esc
d ais
f est
on ge
Ġj ason
ves sels
Ġinde c
Ġprom ote
Ġhen s
Ġimport ed
Ġer ased
Ġxx vi
Ġimpart ed
Ġign ore
Ġthere with
ost erous
sh ock
Ġtra pper
Ġtra itors
Ġbear ings
ax e
Ġprep osterous
Ġmat tered
Ġtext ure
Ġdeb au
Ġren owned
build er
pray er
Ġimperfect ly
cheer ful
Ġcush ion
Ġath let
6 8
a vers
Ġt ides
Ġb ordered
Ġr other
Ġsp enser
Ġen coun
be au
Ġover came
Ġgu ild
ear l
Ġfer vent
Ġham pton
franc is
Ġnug ent
Ġm d
op o
ner vous
Ġma ze
Ġstand ards
Ġdeal er
Ġange lo
Ġdeli very
Ġcoast s
shoot ing
Ġcust ody
Ġgres ham
f ited
g arr
Ġa isle
er ated
un certain
ap le
li ven
Ġmet e
bus y
spr ang
Ġshy ness
Ġbug gy
Ġmamm als
Ġflick ering
the t
de eds
ph oebe
Ġstro lling
Ġsevent eenth
Ġdomin ant
Ġprosec ution
Ġexplod ed
Ġgr unt
Ġdis quiet
comm ander
war ning
Ġinform ing
Ġparch ment
is ome
Ġp ep
ink les
Ġco ars
nor thern
Ġav ow
Ġbrid al
Ġomn ibus
separ ate
Ġfen wick
acknowled ged
Ġw ench
ha ul
Ġth im
Ġde ers
com pelled
Ġdep rive
del ic
pur poses
d at
i ator
Ġm ocked
Ġe ton
Ġan om
Ġunder wood
Ġwoman hood
Ġbur r
Ġstar ry
Ġrout ine
Ġbart ley
compar atively
Ġdazz led
Ġmusket ry
ogene ous
i ving
es on
ch oice
Ġsa uce
Ġpl us
Ġun heard
Ġsl ung
Ġcar ic
Ġwater loo
Ġbed ford
Ġcast e
Ġdict ated
Ġfash ions
Ġd aint
Ġh ott
Ġl ick
Ġha unting
im us
Ġr aim
Ġv ult
Ġbo g
Ġsc affold
med ic
Ġexcl ude
ric ted
Ġcord s
maid en
Ġded icated
resist ance
Ġrevers ed
Ġcanop y
Ġso oth
Ġpo ker
gu ide
Ġexplo its
Ġayl mer
h it
s isters
er ie
Ġp uss
Ġgo ble
Ġpe ach
br ide
Ġpal try
Ġfleet ing
Ġlaure l
} [
st aring
Ġst rew
est ate
Ġcom ments
Ġce ases
uc ing
Ġstar board
Ġsplendid ly
Ġcondem nation
Ġscal p
9 2
f asc
ri ots
Ġschool boy
Ġcrew s
Ġprophe tic
Ġripp le
Ġlaz ily
Ġimmov able
e ze
Ġfl anks
Ġsm itten
Ġmo at
Ġmean ness
Ġdri ly
Ġbill ows
Ġig noble
Ġpit cher
Ġcontent ment
Ġmic ros
Ġlap ham
Ġprivile ged
sens ible
Ġeffic iency
stro ke
Ġemphat ic
cred it
" âĢĻ
5 2
k ine
l ately
ve lled
Ġle vity
me nding
Ġrel ates
Ġyear ly
sha ken
des erted
Ġconvers ed
war ri
Ġga ol
Ġexh ort
Ġexclaim ing
c rying
n ants
Ġcont ribution
Ġcand our
tri ump
Ġdiff ering
Ġtrim med
Ġcripp led
Ġcros bie
ad mit
Ġde jected
Ġtw entieth
Ġbl ocked
Ġdown cast
Ġever ard
mer ged
uc id
Ġliter al
Ġpan ther
slight est
Ġtwe lfth
Ġw icket
om o
Ġg aw
ph in
Ġsk unk
sc ream
Ġaffect s
Ġprince ly
Ġpin ned
dut ies
poet ical
lead er
Ġesqu ire
Ġpite ous
Ġu ms
ag enet
Ġke l
Ġmet als
sc orn
Ġarm ine
Ġobsc ured
Ġforbid ding
Ġanecd otes
Â º
ve lt
Ġshe fford
ab road
Ġj ib
Ġlo omed
Ġmet allic
Ġsle epless
Ġcrow ding
va al
Ġmerc en
Ġmorn in
b be
Ġb ays
Ġto ils
Ġin adequate
Ġg lend
Ġst ale
Ġcon tending
ol ve
cc as
Ġlight foot
Ġconf id
Ġph on
Ġes sex
Ġlau d
Ġtra ps
che ek
Ġcommand ant
Ġcomfort ing
Ġpurpose ly
Ġadjust ed
Ġcert ific
Ġa e
Ġk ay
Ġde als
Ġsc off
Ġsim pson
Ġsteam ers
Ġjun cture
trou bled
Ġante ced
Ġhyster ical
Ġy el
Ġde arer
res erved
ag reement
Ġbo oth
sp ani
Ġes ther
Ġhur ricane
pre fer
dis p
Ġtem pered
Ġsteam boat
Ġnurs es
Ġc ain
Ġl xx
st all
iv a
Ġpriv y
Ġorigin ated
pres ents
Ġinterrupt ing
Ġgle ams
Ġengine ers
Ġtwink led
Ġhamp stead
Ġ Î
Ġt angle
Ġh ilt
ot a
Ġgu er
fr ame
Ġsur ly
Ġhy dro
Ġris ked
Ġbud d
Ġlabore rs
ay son
br anch
Ġmus lin
Ġweight y
Ġconstant inople
Ġsom ers
start ing
Ġster ile
Ġlegisl ation
Ġll oyd
Ġf ences
Ġl os
Ġl onesome
ol k
ord ination
Ġnight ly
Ġdr ooped
aw ber
Ġmed itating
Ġpartic le
shel ter
Ġbulwark s
Ġtex as
Ġbamb oo
d ressing
Ġl isle
Ġwas t
im med
Ġsur veying
Ġwater ing
Ġtrou bling
pun ishment
Ġestim ated
Ġcaps ules
quant ity
5 1
he w
Ġc ement
Ġso ck
Ġfl am
Ġpa il
vent ure
str ing
dist inction
Ġxx vii
jud ged
Ġindepend ently
command ed
Ġdub ious
5 3
? ...
j i
it ates
ir r
Ġv ase
Ġim meas
Ġco le
Ġir ons
des cend
Ġferv ently
Ġt ud
Ġun affected
Ġen voy
Ġsix teenth
Ġroad side
Ġcourt ship
count ess
Ġgall eys
athe tically
atern ity
Ġwint ry
f ty
n u
st alk
Ġspe lling
Ġpet e
Ġcounc ill
Ġhorizont al
parad ise
Ġreconcil iation
p henom
s ust
Ġshe ridan
Ġlast s
Ġmin eral
Ġhur l
Ġdiv ined
god s
Ġattract ions
Ġ186 1
Ġshrie king
Ġcigaret tes
Ġtyr ants
k not
Ġm ose
se lection
Ġat om
Ġun armed
?" --
Ġdis satisfied
Ġtra its
Ġver onica
ding ton
Ġet iquette
Ġescap es
ref lection
Ġexhib iting
Ġruff led
dism iss
iae val
r h
z i
Ġf itt
Ġun he
Ġye oman
Ġgl ade
there al
Ġgi ov
Ġexp ost
Ġcap rice
Ġamount s
Ġber keley
gro ve
europe an
Ġgriff in
Ġacquies cence
Ġsuperintend ent
Ġcruc ifix
! !
Ġto kens
Ġp ins
Ġsu itor
Ġcle ft
Ġprof use
Ġut op
gu ided
Ġann abel
Ġpot ter
Ġba as
Ġclergy men
Ġcolon ists
conven ient
t am
he ap
Ġis olation
ty pe
Ġsle eper
Ġden ounced
Ġmut ter
Ġmillion aire
Ġstu pef
favour ite
Ġloo sed
Ġstab bed
en za
Ġde ll
ap es
Ġsm ack
cept ibly
Ġter restrial
Ġ18 17
Ġvill ains
Ġbene ficial
hu gh
aston ished
Ġcon rad
art ific
ish ments
old er
Ġdon ald
Ġground ed
Ġham mock
Ġbehold ing
Ġrev ival
prof itable
regard ing
appre hension
reve rent
discuss ion
writ ers
p ud
it aly
or i
Ġex it
Ġtr acts
Ġch oke
cha llen
Ġpower fully
pol ice
Ġconqu ering
Ġpang s
Ġindirect ly
Ġreinforce ments
Ġimple ments
9 6
il ation
be arded
Ġcomm itting
Ġcold er
inter pret
Ġav ailed
Ġ5 3
Ġexped itions
Ġreflect ively
hast ily
eff orts
Ġandrew s
apart e
Ġyawn ed
pictures que
indif ference
Ġt apping
Ġr ained
res den
Ġun locked
Ġcha ise
cont em
Ġsn are
should n
Ġlie ge
Ġbrit ann
Ġaccompl ishment
Ġbol ts
Ġ180 7
Ġwhirl wind
separ ated
Ġdistaste ful
l abor
ist ical
Ġpl a
con cil
Ġend ow
Ġmis understood
che eks
Ġcre aking
Ġsam oa
Ġblind s
Ġ14 0
Ġident ified
dev oted
Ġdol ores
Ġums lop
m ail
Ġs ans
as pect
Ġsh un
art icles
Ġcl ash
Ġsl ower
Ġdra ke
Ġdef ensive
Ġbill iard
Ġclass ification
Ġincl udes
Ġscrut in
Ġconfed er
s ally
Ġl att
Ġl uther
Ġg roping
al c
Ġsu p
Ġinter minable
after ward
Ġinf at
Ġfit ness
Ġchamber lain
Ġweakness es
Ġchallen ged
symp athetic
Ġdiscern ed
Ġomn ip
smo king
Ġank les
Ġumslop ogaas
g rief
p ots
t rey
w ives
Ġb eric
it iveness
ut ors
Ġdem ons
Ġcop ious
opp osition
Ġlink ed
w ore
op h
Ġca us
Ġsomet hin
den ial
Ġgu de
ual s
ider y
Ġdem ol
Ġsystem atic
polit ics
Ġambit ions
sad dle
Ġquart z
Ġa right
re ar
Ġcom eth
Ġger ard
Ġplan ning
Ġobe ying
fold ed
5 4
it atively
et ernal
Ġr anger
ch i
Ġman ned
ip se
col ours
ett es
del ivered
Ġpatter ns
Ġburg ess
g ical
l ift
r ushed
w ound
w ishes
ir ting
Ġr ams
Ġass id
Ġneed les
Ġund en
dire ctions
mur m
Ġf alk
Ġro che
Ġpa ws
Ġeas iest
Ġ16 7
Ġfo aming
Ġ187 0
ama ica
Ġboot y
Ġphar ise
Ġinvin cible
Ġraim ent
ol iver
pt ic
for ces
Ġsl ice
Ġexcl amations
Ġcou ples
pat riot
alex ander
s ne
Ġal ison
Ġwa vering
Ġprof usion
Ġmonth ly
Ġbroad er
treat ment
Ġcommod ore
Ġpeop led
Ġkend al
Ġconsecr ated
b att
d ancing
Ġfor ged
ro ot
ind is
Ġjo lyon
Ġshort est
cor rupt
Ġassem ble
Ġsoph ia
Ġinfect ed
id Ã¦
ac ities
Ġal ban
let te
Ġra ff
Ġvol untarily
Ġflight s
Ġrecall ing
Ġscorn ed
Ġ186 4
Ġclay ton
Ġvalent ine
qu in
Ġun important
Ġmay hap
mer ry
requ ire
mid st
Ġmulti plied
Ġcate ch
g thening
Ġp ug
Ġde ars
Ġdo ge
Ġab ack
Ġhow led
su ck
iff s
Ġloose ly
Ġinstru ctive
m ale
Ġo men
ha us
as se
ot ty
st ag
st air
Ġre eled
un ty
inc red
Ġhu bert
Ġrab ble
Ġmantel piece
Ġdiction ary
Ġinco herent
tremend ous
im o
Ġher bs
Ġor me
Ġal ms
Ġcountry man
Ġforg ets
Ġpat ric
Ġdef iant
Ġfro gs
Ġbid dy
Ġmim ic
al ay
Ġar du
Ġpl ight
ick land
Ġcar bury
Ġatt ic
Ġrel ied
Ġpen ance
Ġdam aged
Ġprogress ive
dev otion
Ġsarcast ic
l isted
Ġb ats
Ġd andy
st out
Ġfe ats
Ġhar assed
Ġsl ap
Ġsl aught
Ġbar ric
Ġnecess aries
add les
Ġwes ter
strong er
conce al
Ġbattal ions
p ulous
t ails
ac ular
pe es
Ġcon way
Ġpro l
Ġqu int
Ġca lend
Ġimp ract
ru ped
Ġapp alled
Ġinte nds
Ġpeter kin
Ġreply ing
Ġdi ved
Ġphys icians
Ġtro ll
Ġprett ily
Ġsham eless
appl ied
] --
Ġat oll
urn al
Ġgr umbling
act ivity
Ġra id
Ġsum mits
char m
Ġcaval iers
dri ving
Ġhaw thorne
Ġcontempl ating
Ġhaz el
Ġmourn fully
Ġdiver t
Ġo vid
im mer
Ġwith held
un pleasant
Ġcl ick
Ġpre carious
Ġconf ide
pro visions
Ġglim mering
oug ham
Ġcem etery
r ised
Ġv and
ers kine
Ġcom ed
Ġfl ute
Ġfl itting
Ġprom oted
Ġmem oirs
Ġrail ing
Ġcher ub
Ġment ions
furn iture
Ġaz ure
Ġagricult ure
gather ing
prepar ations
p se
if orms
be g
Ġknow ed
act ual
then ce
Ġ18 30
Ġprofess ions
Ġreven ues
rep ress
Ġabsor bing
Ġlance lot
Ġkent ucky
spec im
Ġstal wart
Ġcl od
Ġbeat on
Ġreve aling
Ġimper ative
pain ting
Ġlur id
Ġcommod ities
h ob
i oc
Ġto iling
Ġit em
ant ically
Ġfl itted
Ġsou they
Ġson nets
Ġblood shed
Ġprov ocation
Ġstri ps
Ġsal utation
Ġbrill iantly
shop s
Ġmanuscript s
Ġh oop
ac ia
Ġare as
Ġtr ow
Ġmal ady
Ġiron ical
Ġdiscuss ions
scri pt
Ġblunt ly
dim in
Ġbattal ion
m ason
t ales
et on
de g
Ġad herent
Ġpart ition
Ġchar le
Ġinter l
Ġge ology
Ġbull s
Ġjur is
d ate
p icked
s igh
w aste
st ars
Ġe aves
sh ows
Ġwar r
Ġgener ously
Ġform ula
can ny
Ġsam o
Ġfer ment
pat ron
human ity
Ġtact ics
lone ly
c ore
Ġr allied
Ġsh ipped
act orily
Ġatt ired
Ġtem poral
Ġjoy ce
Ġsav our
Ġincre ases
end en
Ġmort ality
stru ct
Ġalar ic
Ġanci ents
Ġshe en
Ġen raged
Ġge ographical
Ġda un
Ġfit ful
Ġkill s
sub sequ
Ġancest ral
Ġcad urcis
e ase
Ġ ~
Ġin ability
be longed
Ġaf front
Ġcl ennam
Ġhar per
Ġacc ost
day light
Ġreal ization
Ġward robe
coll ected
Ġentreat y
Ġrede em
ac company
Ġso c
Ġall otted
Ġbr an
Ġma im
Ġemploy ers
Ġjourney ed
Ġsteam ing
reason ing
Ġbapt ized
Ġt ress
Ġr ale
Ġen ig
Ġpal pable
Ġflood ed
Ġpow ell
Ġembarrass ing
Ġtid y
Ġfatig ued
Ġexcurs ions
n ab
t les
Ġb itt
Ġb enson
Ġcl aw
Ġsc attering
Ġgl ide
Ġboard ed
Ġbow els
Ġadvance ment
Ġm ire
Ġl ank
st rel
Ġfr aser
Ġkn it
Ġper ry
Ġdisp atched
fit z
Ġsubst ant
mag ist
Ġfox es
Ġsupre m
Ġdilig ent
Ġnighting ale
f owl
w ax
Â Ĺ
Ġo str
Ġc uck
et ing
Ġbo isterous
Ġdown ing
Ġsl ang
Ġste ve
Ġev olved
Ġmet aphor
sha ven
Ġtrans cend
Ġinvest igate
Ġjos ie
breed ing
enorm ous
t ables
al arm
Ġsp aring
gl anced
Ġret ic
tr ained
app le
Ġarch ibald
Ġmeas uring
Ġbarbar ians
Ġbud s
Ġsque ers
barbar a
Ġcontriv ance
l ied
u h
Ġp ott
ire land
iv oc
Ġgu iding
Ġdec ently
Ġdef ied
bar red
Ġappl ies
Ġthor pe
Ġtru er
Ġvolcan o
Ġstealth y
g azing
s pend
t our
Ġd ive
Ġp has
Ġun married
Ġnat ur
aw kward
Ġpol and
good s
Ġsuperst itions
subst ance
9 3
Ġw ines
Ġg on
Ġe ul
Ġre proof
il isation
Ġgr ating
Ġhar ley
su bs
Ġwind er
Ġact ress
att ain
Ġuncle an
Ġrap hael
Ġmathe matical
tele gram
Ġreminisc ences
amuse ment
im age
al oud
Ġk itt
ag a
og any
rest ing
Ġlove l
Ġconf isc
Ġfin ance
Ġdem i
Ġtim bers
Ġscru pulous
lad en
Ġhug uen
9 1
in habited
ou ches
Ġk h
Ġsh red
Ġle ase
ak a
Ġdis mount
Ġstr ides
str ained
Ġho ist
Ġann ually
Ġrevol utions
Ġdar ius
Ġtax ation
Ġharmon ious
Ġdishon est
Ġpenn sylvania
Ġengra ved
: -
s ars
s bury
Ġpubl ishing
Ġmist rust
Ġhast ening
Ġresist ing
Ġarab ian
ĠĠĠĠĠĠĠĠĠĠĠĠĠĠĠĠĠĠĠĠĠĠĠĠĠĠĠĠĠĠĠĠĠĠĠĠĠĠĠĠ ĠĠĠĠĠĠ
Ġpreacher s
Ġsall ied
c en
Ġb ony
Ġl ute
Ġan archy
ra e
Ġun familiar
Ġpe as
Ġev ans
Ġcat alogue
Ġconne cting
aud ible
Ġsmell s
Ġlegisl ative
Ġgerald ine
an us
gl o
hes itating
ener gy
Ġear ning
Ġfair fax
Ġcal vin
Ġconcl usive
mill ion
Ãª te
exec ution
Ġoy ster
Ġs ich
Ġc orr
Ġd ess
Ġbe amed
Ġmy les
Ġal pine
Ġsc ud
Ġsur mounted
Ġtri pped
gu ilty
char lie
Ġ6 7
Ġlift s
strange ly
Ġbenefic ent
the ast
Ġne ared
Ġout right
fe it
Ġun accustomed
Ġro am
ord ering
Ġrespect ability
Ġleg ion
Ġcat ches
hum or
Ġcro ck
Ġox ygen
Ġgreet ings
tar zan
div ision
Ġloc ated
Ġgy mn
m orr
Ġt att
Ġha g
Ġg us
ic ott
Ġop ium
Ġrep aid
ph ot
Ġed itors
Ġdel uge
Ġbur ying
char ds
pur su
exha usted
Ġsulph ur
Ġnot ing
cl ara
Ġnew castle
Ġlove liest
hand le
Ġdispos itions
pe ar
Ġbur ly
Ġmanner ing
rem aining
Ġtra it
Ġbright on
Ġmyst ical
instru ctions
Ġcit adel
Ġgow rie
Ġtribun al
ch ur
atter s
Ġhen ley
Ġgro cer
Ġcrim inals
Ġvac ancy
Ġstruct ures
tes se
Ġlud low
Ġs izes
Ġst alked
Ġsa llow
Ġli vid
Ġcomp osing
Ġhelp ful
che cked
Ġ4 00
Ġconce ited
mist aken
Ġreign s
Ġau x
Ġviv acity
pock ets
Ġdissol ution
result s
Ġvehement ly
Ġtempor arily
l ore
p ig
Ġp es
Ġab ated
per man
Ġlear ns
Ġstan hope
ele ment
sche me
Ġrhyth m
e nding
in ities
and um
Ġpre valent
Ġsec ular
Ġless en
Ġport al
Ġdisp atch
Ġtor to
Ġmarch ioness
ste ep
Ġjer ome
Ġchin aman
remark s
Ġparson age
tender ness
Ġvigil ant
Ġcrus oe
profession al
Ġsaun tered
9 4
e ared
y ton
Ġf irs
Ġse well
ra g
Ġout come
Ġimp reg
und oubtedly
Ġsubject ion
Ġvan stone
Ġleap s
Ġapolog ies
Ġath wart
conspic uous
i bles
n ep
ing o
al ow
Ġre e
ate red
ag s
po x
Ġpal is
Ġsick ening
Ġwin ifred
Ġfoolish ness
Ġpreced ent
bal ance
Ġobserv ant
Ġsweep s
trad ition
holl ow
Ġburgl ar
g li
m ish
Ġm ains
Ġl ances
Ġre naissance
Ġthan king
Ġad rift
Ġorigin ality
Ġdistinct ive
tell s
hur rah
def inite
Ġtorrent s
Ġamend s
8 4
Ġh ip
Ġse bastian
Ġstr ung
su itable
Ġdark est
Ġir is
gu est
Ġhop kins
person ally
crit icism
inv ited
Ġabst ain
Ġsepulch re
Ġardu ous
t ort
un ci
Ġoff ences
Ġdr ained
oc us
Ġ6 3
Ġrail ways
mis ery
Ġcurt ly
Ġimpl ore
Ġrud imentary
eager ly
Ġdetest able
f ant
p ane
is les
as ia
un iform
Ġpa uses
Ġrep airs
Ġsur viving
fl icting
Ġins crutable
Ġmid winter
Ġdu ches
gu ests
Ġ5 2
Ġgay ly
ĠĠĠĠĠĠĠĠĠĠĠĠĠĠĠĠĠĠĠĠĠĠĠĠĠĠĠĠĠĠĠĠĠĠĠĠĠĠĠĠ ĠĠĠ
Ġwitch craft
nap oleon
r icks
ur ation
ood le
Ġpe al
Ġlong fellow
Ġsm il
Ġreg ulated
cy n
set s
Ġlab yrinth
Ġindividual ity
Ġfred eric
Ġcalcul ate
Ġfain ter
Ġrobes pierre
k at
l ac
r ades
is ers
en ne
Ġch ums
Ġwar ming
Ġinc urred
Ġplan ets
law ful
Ġ7 2
Ġep ig
mil k
esc ension
frequ ent
Ġcrab tree
bos om
Ġbrus sels
" `
he nding
Ġm aps
Ġbe que
ur us
ag les
ap olog
li us
Ġfact or
che stra
sim plicity
Ġsovere ignty
jack et
beat rice
Ġacquis ition
ce lled
Ġfor ge
Ġk an
fe lix
bl own
iz ations
Ġhus k
Ġhat chet
Ġ7 7
hor iz
Ġdiff used
symp ath
Ġfors ake
im m
Ġne ct
em peror
Ġpl ume
Ġturn bull
Ġacc ession
Ġimag ining
Ġcourage ous
Ġplant ations
Ġemer ging
pa used
** ***
Ġinsp iring
Ġpad dy
pain ful
Ġepit aph
Ġforbear ance
Ġces are
Ġwynd ham
Ġc ess
Ġab ashed
Ġqu o
so oth
Ġsw armed
Ġcap ricious
off ering
Ġcab ins
Ġstraight forward
Ġpath way
Ġfixed ly
Ġsong bird
Ġlam bs
find er
respect ing
Ġbust ling
Ġsher man
aul ay
5 6
8 9
Ġd all
Ġh oof
il ine
Ġli v
Ġpr icked
Ġmight ily
Ġapp arel
cept ive
af a
tr ot
use less
Ġtruth ful
Ġsqu all
Ġcourt ier
Ġisland ers
Ġlength s
acqu ired
Ġremonstr ated
Ġferv our
Ġeb ony
Ġleop ard
Ġmater ially
Ġturbul ent
Ġreyn olds
h ild
m ack
p ushed
Ġt issue
Ġbe lf
Ġst umps
Ġman n
ast ing
land o
Ġinter fering
sc and
Ġsle ek
cont aining
Ġrich ness
Ġbrit ling
nes see
start led
Ġ182 4
Ġast ounded
Ġaustri ans
Ġconsol ed
Ġrept iles
Ġavar ice
in ies
es is
to k
man ly
Ġexp ired
Ġsy bil
Ġwatch man
Ġval ues
Ġleg acy
Ġsal es
Ġbroad way
foll ows
Ġjul iet
six ty
Ġviolet s
Ġjudic ial
Ġerrone ous
Ġt aunt
Ġb athe
ic ia
se ver
her bert
Ġbl ithe
anc red
Ġsn apping
Ġcommun icating
Ġspl ashed
Ġwretched ness
Ġpatri arch
restr ained
Ġg estic
Ġfr itz
Ġv ocation
bl ame
Ġcont ention
Ġap iece
Ġge ography
dis gu
Ġfront iers
Ġsens ibly
Ġconv oy
Ġmain land
Ġconduct ing
Ġaston ish
cad illy
Ġvagab ond
c ke
o z
re le
Ġb aked
Ġk ite
to le
ig ree
Ġlay er
Ġforth coming
Ġtur ban
Ġtemper ance
Ġpossess or
je ant
Ġrend ezvous
Ġreass uring
Ġarmad ale
d ining
ic kered
ace ous
Ġopen ings
Ġnorth west
comp ared
Ġbreath lessly
Ġteleg rap
dor othy
Ġabol ition
Ġinquis itive
m ul
it age
Ġn ets
Ġbe aumont
Ġen ables
ile m
oh ol
str ings
Ġsy nd
Ġfoot step
Ġlim itations
Ġblind ing
Ġly ric
anim ously
Ġsober ly
reve rence
Ġ ."
re in
Ġe ames
Ġde ane
Ġfa red
let ons
tr ump
Ġgrow ling
Ġpot ato
ele ven
Ġinvent ions
Ġprec inct
prov idence
Ġmerc ury
Ġmacumaz ahn
e leg
g ib
Ġs ard
Ġi bid
Ġmar row
com rades
Ġco il
Ġins urance
arr ing
Ġwall ed
car p
Ġcompl iance
call s
Ġfarm house
Ġcro cker
perfect ion
Ġhook er
Ġmos que
Ġdilig ently
Ġswar ming
Ġa ve
ur ie
ad vert
Ġr ations
Ġnot or
Ġso iled
cl air
Ġmade ira
Ġyoung ster
wor m
Ġep iscop
determ ination
Ġkent on
Ġsher ry
Ġepit het
recoll ection
g son
k ila
Ġas cribed
Ġmar cus
fl ung
Ġdec reed
rel uct
Ġfif teenth
Ġjean ie
Ġextrem es
Ġretain ers
Ġcondes cend
compet ent
instr ument
n om
om uch
Ġst owed
Ġadd itions
Ġart ful
Ġconc ord
Ġmill icent
Ġspread s
Ġlisten ers
mag az
Ġheed less
Ġscand alous
Ġlug ger
Ġcordial ity
bread th
Ġsports man
inher it
o ed
Ġen vious
anc a
Ġcre we
ribut ing
god ly
Ġaccomplish ments
grie ved
Ġdelir ium
v ulgar
Ġb itten
ot us
Ġbr aced
Ġcl ang
Ġsha ring
Ġfl aw
Ġsc ree
Ġpoor ly
Ġnatural ists
Ġann als
gener ations
Ġsuspic iously
whis per
Ġlanc aster
settle ment
Ġnas myth
Ġswar thy
se th
Ġfor ks
ess im
per mit
Ġsub due
uck les
Ġsuff ers
Ġfoolish ly
Ġcy rus
Ġwy ll
Ġlyd gate
nove l
Ġdefic iency
ridic ulous
dais y
l ang
w ings
out hampton
Ġgr um
no ons
Ġrep ulsed
Ġthick ets
view s
Ġvirt ually
Ġshoot s
Ġbarr ister
Ġimagin able
Ġgib son
Ġrou g
Ġenvir onment
Ġpestil ence
m itt
Ġd airy
st al
Ġr ick
Ġim pe
Ġsc uff
ex tended
cy cl
._ âĢĶ
zz le
ien ne
serv ices
second ly
Ġswell s
extra vag
Ġhe w
ur ian
Ġpro fl
Ġun cont
Ġret ort
part ed
Ġcoll apse
Ġ5 4
Ġbrown e
Ġcand y
Ġchat ting
Ġ183 9
Ġrede emed
Ġpostp oned
w i
Ġt out
Ġe ther
Ġre formed
Ġfe igned
Ġch is
Ġmar guerite
Ġele venth
Ġwait ers
Ġcab man
Ġdan ny
rep ent
tri al
Ġbi bl
Ġscold ing
Ġquot ation
re new
ur ated
ous ness
Ġsp ire
Ġche t
Ġpost er
Ġviol in
Ġestabl ishing
sus picious
dro pping
Ġinsult s
ver ns
ros es
,-- '
Ġport smouth
Ġxx viii
gi um
sum mon
Ġpall or
Ġinsult ing
Ġsic ily
Ġweb ster
Ġberen ger
ag ara
el oqu
Ġstr ongh
ign ified
ens is
Ġwild s
Ġgar th
mond ay
enter prise
tre acher
Ġjos iah
Ġtumult uous
earnest ly
bral tar
distur b
) ._
Ġp ore
Ġn ash
ir ation
Ġst aid
pp led
ust er
Ġdark ening
Ġfin ch
Ġcir cling
ca uses
Ġx avier
Ġfle x
Ġadvantage ous
success ion
Ġquad r
Ġmartyr dom
Ġperv aded
Ġsequ el
Ġapprent ices
Ġinfall ible
Ġches s
Ġsuprem acy
9 9
Ġp iet
oo ch
Ġout cry
Ġper d
Ġway ne
Ġspect re
equ ality
Ġmic awber
da wn
trave llers
Ġstu pendous
Ġsteadfast ly
Ġprogram me
Ġw age
Ġp ouch
om i
ind ale
ost il
Ġcl oses
cl aimed
mis chief
Ġchamp ions
Ġdew y
threat ened
Ġsurm ise
Ġlocom ot
) .--
on ement
Ġe ph
se er
se es
Ġu gliness
Ġen sign
Ġel sa
entle y
Ġden is
Ġdan ish
Ġoper ate
rom ance
Ġindul ging
lay ing
trave ller
admir able
Ġdismay ed
Ġprett ier
libr ary
Ġout raged
ens ively
ten ess
Ġquiet ness
_. )
Ġgreen wood
dr unk
Ġpill ows
Ġvers ailles
Ġcritic isms
Ġvic om
dri ft
Ġram bling
Ġgiov anni
8 1
m abel
Ġw ailed
Ġc ac
Ġso crates
Ġab uses
Ġcol t
Ġdan gling
Ġpor ters
Ġinfect ion
Ġparas ol
deg rees
p ike
re li
ou x
Ġy arn
Ġsa unders
aken ey
mar ie
Ġhall uc
Ġmort ar
Ġmort gage
Ġimm oral
since re
sent ence
Ġbuck ingham
hundred s
Ġdepos its
Ġcourte ously
Ġtenn is
Ġpredecess ors
he rence
Ġb ards
or um
il ia
Ġlook in
Ġsupp oses
Ġcow boys
Ġrow ley
Ġtext s
stra w
Ġintr ins
Ġju ice
Ġgran ada
origin ally
j en
Ġg aston
te aching
Ġpass port
mar ble
Ġcrown ing
Ġban ish
Ġtransl ate
ĠĠĠĠĠĠĠĠĠĠĠĠĠĠĠĠĠĠĠĠĠĠĠĠĠĠĠĠĠĠĠĠĠĠĠĠĠĠĠĠ ĠĠ
Ġlil ac
Ġarist otle
Ġheli um
8 2
h og
Ġup side
Ġex eter
Ġal ton
Ġsay ings
Ġsc ented
Ġmet amorph
leg isl
Ġlock er
third s
Ġbug le
Ġstrang eness
Ġchemist ry
chand ise
" )
t ub
in ning
Ġs acks
ent in
ad minist
am az
Ġcons p
ex agger
Ġfore ground
Ġdef ile
que er
Ġcheer ily
Ġwal pole
Ġder ision
yl on
affection ate
fro st
' !
] :
ab et
Ġbl otted
Ġexp osing
Ġbar chester
Ġsk iff
gg otty
appe al
requ est
Ġhy brids
dec ision
Ġirre lev
restr aint
obe yed
Ġher od
ri ans
Ġun observed
Ġcl over
urn ed
ret ired
Ġacqu iring
Ġsac ri
dist ress
Ġdry foos
Ġcho colate
Ġsteep le
Ġprime val
Ġmix ing
Ġoutrage ous
attract ive
p ink
r achel
Ġg ales
Ġdis abled
Ġsm ould
Ġcr umbling
Ġright ful
Ġlight house
Ġrel ic
Ġaff inity
irm ingham
yn es
Ġiv an
pos itive
doctr ine
Ġelsp eth
w at
x i
Ġg aff
Ġk urt
Ġcom ical
not ion
Ġap othe
ced es
Ġra ises
Ġpop ulous
Ġz ig
port ions
fit ure
Ġbal four
Ġwilling ness
Ġstock ade
sal t
det ails
employ ment
Ġsubur bs
breat hing
Ġsubsist ence
Ġunutter able
p our
ce ler
co e
Ġver b
Ġsatisf ying
Ġmed itations
Ġfro lic
Ġfail ures
stru ggling
exist ing
Ġembr acing
kiss ed
mante au
Ġre assured
Ġunder t
ex cess
ik a
Ġcelebr ate
Ġinval uable
citiz en
Ġwhims ical
Ġs nor
Ġl ashes
th ither
Ġal g
Ġun selfish
Ġsl ab
Ġcomp ressed
Ġfell ers
Ġsuccess es
Ġclass ics
Ġz est
Ġprim rose
Ġspl ashing
heaven s
Ġextrem ities
Ġprodig al
conduct ed
fan cied
Ġeth ical
Ġwilkins on
Ġmatrim ony
jes us
b ble
h ma
Ï ģ
Ï ĥ
Ġs ara
Ġf u
or ated
Ġin let
Ġcon veying
ide al
pl ans
Ġmoment arily
Ġass urances
oun ge
who ever
Ġmer well
Ġbegin nings
Ġtrans ient
Ġshar k
Ġlangu idly
Ġz ane
Ġswift ness
la ura
Ġpuzz ling
Ġmoss y
Ġscram ble
Ġintrud er
d art
Ġo wer
es ley
Ġn iver
Ġher m
Ġar ouse
Ġsch iller
Ġmat urity
Ġdistingu ishing
sens ation
Ġglac ier
Ġpard oned
th ood
ath om
Ġlo ads
az i
Ġcoll ision
Ġcommand ers
Ġnation ality
Ġguess ing
bu y
Ġwear isome
Ġclever ness
Ġconven iently
Ġwithdra wing
olph in
Ġcos m
Ġskull s
Ġprecipit ous
Ġengross ed
Ġt ah
Ġn ib
Ġimp otent
Ġappe ll
Ġill usions
Ġcal ais
rel ative
Ġshar per
Ġ6 6
Ġnotice able
eight een
Ġmechan ism
individual s
Ġdraper y
Ġtud or
Ã Ń
Ġt ested
Ġw rench
Ġf ans
Ġinf idel
Ġtrans formation
Ġdesp atches
Ġbattle ments
por ter
Ġagree ably
Ġado ption
Ġmars hall
Ġrepro aches
Ġreproach fully
wear ied
Ġreco iled
Ġpenins ula
re bell
as ies
ic hes
Ġv ul
per sec
Ġpr iscilla
ne arest
Ġchar coal
br ances
Ġed ged
Ġdu kes
Ġpeace fully
ox ys
Ġlabor atory
inqu iry
Ġdisplay ing
Ġbucc ane
Ġhe mis
Ġcha d
Ġmar jorie
Ġev inced
part ic
Ġremark ing
common ly
Ġbewild ering
p enn
Ġw rig
Ġp oultry
ut ting
Ġy ore
Ġme nding
Ġrem nants
Ġmar se
whe els
tr am
Ġtrans vaal
Ġmed iaeval
hold er
Ġspr inkled
Ġsuspect ing
Ġunf requ
incl ination
Ġlem uel
passion ate
Ġpsych ology
belong ing
Ġmetaphys ical
a unted
Ġd int
Ġwe gg
Ġso aked
Ġde ft
Ġab be
Ġbl urred
gl en
Ġca f
pro position
Ġgre cian
ger many
par l
cent ral
Ġdep ot
sl avery
Ġque bec
Ġcarol ina
Ġleather n
Ġcombat ants
Ġtru est
Ġprecip ices
' _
o or
s ab
Ġd ice
Ġh ilar
Ġin experienced
ver ick
Ġnot ices
ass es
og y
ru in
Ġmis led
Ġmus es
Ġproud ie
Ġ186 8
Ġren ounce
Ġgau dy
discipl ine
Ġpromont ory
g ert
Ġt attered
Ġc rave
Ġin most
the a
Ġme rest
Ġj ost
Ġout let
Ġpro ven
Ġwa res
over whel
Ġchrist ina
Ġobser ves
Ġeye ing
Ġ6 4
pur ple
Ġbapt ist
Ġlabou rer
art icle
Ġsp ied
Ġnew comer
Ġdev ise
cap acity
Ġguard ing
Ġthin ner
Ġcelebr ity
creat ed
Ġpant om
free ly
dut ch
Ġsho als
Ġmarvel ous
qual ified
sevent y
wid ow
Ġcalend ar
Ġf us
ke ll
Ġper usal
Ġsil ks
Ġmil t
Ġbene factor
Ġrelig ions
Ġtim idity
conf used
Ġcollect or
Ġsignific antly
Ġeg remont
perform ance
histor ical
Ġrale igh
Ġin ert
Ġk ir
to bacco
Ġv ista
ros pect
Ġleaf y
Ġprejud iced
Ġsanct ity
enjoy ed
t rap
Ġs ash
ha ustible
Ġin compar
Ġen ric
Ġthink in
Ġput ney
Ġste eds
fl ood
Ġins ists
Ġprof fered
Ġve nd
Ġxx ix
Ġaud acious
Ġthanks giving
Ġbath s
Ġtram pling
Ġtrop ics
Ġmyth ology
Ġvind ictive
Ġpione er
Ġclos est
g ang
j ill
t ied
Ġun satisfactory
Ġen list
Ġday time
Ġpre tender
Ġcont ag
br ick
Ġtal bot
dam n
subst antial
Ġdepl orable
Ġbly th
Ġpione ers
er ring
Ġn ailed
Ġan throp
per formed
Ġfl ushing
aut ical
Ġfour teenth
Ġpast ures
lo ch
Ġdar n
Ġcolle agues
Ġenorm ously
Ġswam ps
Ġrous ing
prevent ed
Ġidolat ry
Ġvanqu ished
c unning
Ġl oop
Ġthere to
de en
Ġmon y
Ġtre vor
Ġpet als
Ġ7 6
Ġsaf est
Ġhelpless ness
xim ity
Ġphill ips
Ġw rap
Ġj amaica
ne gro
Ġcha ste
Ġwr ithing
Ġma un
Ġel ms
Ġhum iliating
Ġtit o
Ġster ility
Ġclust ers
eat en
d ora
Ġd resden
Ġsp lin
pl ot
Ġ18 19
anch o
comm unity
Ġcomb inations
Ġcrack ling
amb ition
gall ery
sick ness
poo h
d uck
f und
k ar
n osed
p uzz
Ġe u
to ver
Ġcan vass
for given
Ġdis agree
Ġdis ordered
Ġpres cott
Ġhalf way
sc ul
Ġrob arts
Ġ7 8
Ġcow ards
Ġcolle ague
je ff
Ġclo aks
Ġpartners hip
Ġvoc al
2 00
t ask
Ġw ry
ro ger
Ġcomm em
Ġgu ile
Ġdev ouring
Ġdep ra
sole te
hung ry
Ġmoder ately
Ġtelesc ope
b atter
in ches
ou ghed
ac commod
ass umed
Ġco er
fl owing
des k
Ġbrit ons
Ġgra ver
Ġwes sex
sol ic
small er
Ġtrot ting
Ġconspir ators
Ġbomb ay
Ġmiscell aneous
it ter
Ġnot ting
us age
Ġmar gery
Ġlight ness
mar ia
Ġdoll s
Ġtax ed
produ ction
Ġva ulted
Ġmum my
Ġcontribut ions
fail ure
thirst y
, (
f ox
j ou
Ġm oth
is ively
Ġf ates
ig ible
Ġen liven
pl anted
Ġ1 15
Ġinf ants
Ġprov ost
Ġsad dled
Ġrejo in
Ġ186 5
sli pped
======== ========
Ġunquestion ably
b owed
b und
e ers
er os
Ġg amb
Ġbe an
Ġre ferences
Ġsudden ness
Ġpast e
inter vals
Ġorgan ised
Ġsimilar ity
tre as
Ġcongrat ulated
meas ures
Ġbor de
Ġingrat itude
Ġn am
Ġan onymous
ch uck
ther s
de b
Ġtr acing
Ġatt itudes
Ġel k
iter ate
Ġdu cal
uct ions
oose velt
Ġtreat s
erv a
Ġdepend ing
hem ian
Ġdeliver ing
Ġgang way
Ġpond ering
Ġimpost or
st or
Ġsp arrow
Ġbl ur
cha pel
fr iday
pro phe
Ġrun away
hy p
Ġsurviv ors
l ack
an imate
oo ed
wh ist
con nor
Ġgu illot
ph on
Ġexcept ed
Ġequ ator
Ġvan ishing
Ġrenew al
newsp aper
b art
s han
an gling
Ġha zy
Ġfr ames
ong s
Ġbl inking
sh irt
Ġke w
Ġglass y
heav ily
skin ned
obt ain
Ġpenn iless
Ġply mouth
p acked
s ails
u pp
ar th
ard ly
Ġever more
Ġnor ris
Ġmiss is
Ġel inor
Ġcur b
Ġed ie
sol itary
Ġruff ians
ffe ur
Ġced ars
Ġhighland ers
Ġsel ina
Ġhypocr ite
Ġanat omy
Ġmord aunt
c rist
n ick
s ided
Ġst ave
Ġch op
Ġdis respect
Ġnor se
Ġill inois
Ġwild ness
Ġarch way
Ġhospit als
Ġfil th
honour able
Ġcarl isle
ios ities
Ġsoci able
Ġleve lled
Ġdissip ated
Ġfib re
Ġapprent ice
Ġexalt ation
Ġg if
Ġe lla
itt in
Ġcha sing
Ġrest lessness
fl ow
Ġpleas anter
Ġpar ched
Ġcomple tion
Ġmed iÃ¦
Ġ7 3
turn s
occasion al
Ġhook s
recogn ised
civil ization
compar ison
Ġaffirm ative
Ġwreath s
observ ations
c ary
Ġhe aled
Ġre comp
Ġfl apping
.' [
Ġla x
sp ain
wor sh
Ġdesert ion
Ġpity ing
ium s
Ġpor phy
Ġaltern ate
nin et
Ġeth ics
g ast
p ages
Ġ erskine
ot ence
Ġe thereal
Ġhis sed
um bs
Ġpe a
Ġcapt iv
Ġpat ting
Ġsurpr ises
Ġsav oy
ear lier
hum ored
Ġassert ing
Ġwheel ing
Ġingen uous
Ġinsist ing
moon light
Ġforfe ited
Ġphas es
p ents
Ġl icked
Ġex ecr
ra ps
Ġun iforms
Ġcr amped
Ġca ressing
Ġvar ies
Ġfresh ly
Ġ6 2
law yer
hum ble
Ġwin ced
Ġpure r
Ġappl icable
aud ience
Ġmont real
Ġinvol ves
Ġmanufact ures
Ġnom inal
mars h
Ġreverent ly
abrupt ly
g ia
in tending
Ġre iterated
Ġat oms
Ġsa ble
Ġkn aves
Ġun awares
no v
night s
cent uries
Ġpeace able
sl aught
Ġfamiliar ly
Ġeducation al
Ġ25 0
Ġsne ak
Ġpaint ings
Ġstair way
Ġtig ers
Ġnig gers
Ġengra ving
Ġscept re
Ġprow ess
Ġpau per
Ġd ans
os ures
Ġpo ised
Ġpres cribed
up stairs
where upon
hen ri
Ġbound aries
comm ence
wild erness
Ġremind ing
Ġdart ing
aband oned
Ġineffect ual
Ġsqual id
p ac
Ġb othered
ou ver
Ġhar court
any one
rif ield
Ġrum or
Ġbul strode
Ġdavid son
Ġindul gent
wit ch
Ġvel ocity
Ġlantern s
Ġetern ally
on to
Ġd ata
ir regular
ous ing
Ġex pelled
Ġbr ougham
pr udence
Ġrep ulsive
._ "
Ġinf amy
Ġexact ing
Ġutter most
Ġsmo ky
Ġze us
christ ians
Ġ183 4
Ġpadd led
Ġdow ager
Ġcounten ances
in fl
Ġar cha
Ġaf flict
Ġcar vel
Ġcar ley
Ġrep ubl
Ġsuccess ively
Ġnod s
Ġclean ing
sil ently
Ġvision ary
Ġfed eral
Ġjam ie
Ġwig w
Ġinterven ed
Ġsentine ls
Ġclement ina
Ġimpract icable
Ġd aven
Ġbe friend
Ġag rees
ip h
Ġcar ving
Ġcar nal
Ġlit he
exer c
narr ative
re vel
Ġb ases
Ġha f
un usual
Ġbr ushing
Ġch lor
Ġper j
Ġsc ull
Ġsl one
Ġimp ulsive
Ġind olent
Ġdep ortment
Ġrepro ached
Ġalt ars
en berg
Ġn ave
ke ith
de bt
Ġsha ved
Ġdis close
iv an
Ġmin strel
Ġreal izing
Ġwon ted
Ġcourt ly
Ġcreat ing
Ġlu cius
Ġhit ch
kno cked
Ġarchitect ural
ilem ma
Ġp is
ut ant
Ġj unk
em br
Ġman ual
Ġar but
ins isted
Ġcast s
oes e
Ġemb ank
Ġconscious ly
cur iously
Ġgar n
Ġmanif old
Ġcrack s
Ġbarbar ic
Ġmason ry
depart ed
bas il
Ġalder man
n ar
s que
Ġt et
re a
Ġc ip
at lantic
Ġint rude
Ġfoot men
Ġund oubted
Ġ6 1
Ġshape less
sle pt
Ġsniff ed
Ġfurt ive
v yn
Ġb ates
ur ities
Ġsp ine
Ġad du
cr ime
Ġvar iability
Ġfoot ball
Ġacqu itted
Ġda ly
na e
Ġcost umes
bon net
Ġtremend ously
pos itively
Ġmos lem
Ġconquer ors
neighb ours
Ġbisc uits
l ance
l ud
to es
own ers
Ġag onies
less on
Ġreg ulation
Ġlist less
gin a
uss ed
Ġaccord ed
Ġsam ple
eng age
country men
stre ls
Ġscr atching
Ġslug gish
preced ented
Ġluxur iant
Ġskirm ish
s s
Ġa ther
Ġb av
Ġp yr
Ġhe p
ad t
ac cum
res idence
Ġqu il
Ġen sure
Ġgr is
Ġpar ley
Ġbes ought
Ġmass a
Ġforget fulness
Ġmas ked
camp bell
ele ments
trave l
Ġtradition al
Ġgown s
Ġstim ulus
Ġpenal ties
Ġwalt z
Ġf ang
Ġh os
um ov
Ġle ver
de an
Ġad oration
ud ging
Ġspe lls
iss ors
Ġem bodied
Ġtrans gress
Ġver tical
Ġmat ched
Ġclo ister
crit ic
inv itation
chet t
Ġbub ble
Ġbeet les
Ġplaint ive
Ġreli ance
8 3
e unt
Ġto ries
Ġr ake
Ġher b
Ġj agged
te ach
Ġres uming
og enes
ict itious
stand ard
Ġmid way
ub ber
off ensive
Ġcou pled
Ġplant ing
Ġtot tering
town s
Ġmap le
loc al
Ġhend erson
f u
f ount
the od
Ġun rest
Ġgr ade
Ġsign ifies
Ġinv itations
Ġrock ed
pol ic
Ġhan k
Ġdescend ant
Ġalter ations
Ġstor med
Ġstim ulated
Ġexplo it
Ġexasper ated
itud inous
c ake
p uff
r aces
s ley
Ġs cient
Ġd irk
ag atha
Ġdis regarded
Ġpe ev
Ġsl ing
og ues
Ġmother ly
Ġdef ences
Ġstro ked
Ġ9 5
Ġlod ger
Ġsupport s
Ġcel ia
sav ages
Ġverd ure
archite cture
d ivers
g ig
h oo
v iz
Ġs ut
Ġo ats
ll an
Ġcl og
Ġpo ke
Ġper th
Ġrapid s
Ġven ison
Ġange red
Ġprepar atory
8 6
e vol
Ġt ying
Ġb au
Ġm ott
Ġshe ds
be ings
Ġtw a
man agement
con cent
Ġsur plus
Ġph yll
Ġran ked
Ġ183 2
Ġgam bler
ili ad
Ġsag acious
s ic
Ġh ive
an thony
Ġg our
Ġsu lk
Ġam os
Ġun welcome
Ġimp ed
Ġinde x
Ġ[ "
Ġsett les
cur se
fin able
Ġmars ha
Ġident ify
Ġfil ial
Ġimpl oring
Ġawkward ness
cand le
Ġrosam und
Ġeup hemia
mol ested
d ia
i op
v ices
Ġp att
-- .
Ġsa h
Ġsa pp
Ġun even
Ġun earthly
Ġsp ires
Ġover looking
cl ar
Ġhar ass
land ers
app er
Ġmis understanding
ca esar
Ġcommon est
che ap
Ġgentleman ly
Ġfurn ival
Ġ186 0
Ġhind ered
Ġwha les
Ġdre ar
Ġnun s
Ġconform ity
Ġbayon et
Ġw akes
en able
Ġwh ichever
Ġle ak
de pos
Ġend ymion
Ġsur passed
Ġcir cled
Ġmusic ian
pres erved
Ġemer ge
zan ne
Ġ---- ,
adm ire
Ġunfold ed
Ġdanc ers
Ġf oy
Ġf angs
th read
ag ent
Ġun happiness
Ġpre occupied
Ġwork er
land ing
Ġred dish
Ġinv aders
Ġprov ident
Ġrud eness
Ġbrush wood
Ġtart ar
Ġapert ure
Ġt ad
Ġl ids
Ġun canny
Ġhar b
ib id
Ġforward ed
Ġ5 9
Ġincl inations
var ieties
sol id
tra ged
Ġcongrat ulations
Ġtip toe
Ġdiag ram
abul ary
Ġapplau ded
ĠmediÃ¦ val
r idden
om bs
om itable
Ġex changing
Ġsp urred
be ars
be gg
Ġthese us
Ġuse fulness
Ġra is
cr owned
po em
Ġobser vers
Ġignor ing
Ġorgan ism
Ġecho ing
Ġdutch man
Ġkat ie
Ġfres co
- '
g ressed
i em
Ġfor bes
Ġshe lton
qu ed
nt on
orn ament
ign on
she ets
Ġsun s
Ġmain e
Ġ7 4
wa ves
Ġpuff ing
former ly
Ġconvey ance
Ġcub a
conqu ered
Ġdefer red
f og
st icks
Ġste in
val es
Ġdeep ening
Ġstre ther
Ġequ als
thr one
Ġstation ary
Ġ179 8
represent ative
Ġre el
Ġbr itt
Ġfl ap
Ġgi psy
Ġimag inations
Ġ7 1
occ o
Ġextr acts
Ġwink le
Ġlind say
beha ved
Ġgrizz led
insp ired
triump hant
h m
r ue
Ġp iers
et c
Ġsa ves
Ġdo b
Ġun willingly
be er
fl ora
Ġass umes
Ġclaim ing
Ġplant agenet
Ġassert s
Ġmah ogany
Ġcolumb ia
f ired
Ġha in
im an
Ġse ating
Ġgr as
land ed
sc enes
Ġform ations
Ġsqu ires
Ġdet ection
Ġdisp ense
Ġresult ing
Ġstead iness
Ġhaw kins
comple ted
Ġthir teenth
Ġrebu ked
Ġleop old
Ġintri gues
ed gar
ld en
ent reat
ver il
pp a
Ġpro ced
Ġqu id
Ġun animous
ass ure
gr ind
aw akened
Ġsand wich
Ġham pshire
m ally
v ously
Ġo sm
Ġex empt
de ed
com menced
Ġexp osition
Ġut il
Ġpal at
Ġbold er
lin en
adv ancing
Ġcheck ing
anx iously
Ġdemonstr ated
Ġdict ate
emp ire
g han
ha ste
Ġh itting
Ġon wards
Ġas iatic
Ġr ates
ab ling
per ceive
Ġover grown
Ġla ir
bert a
Ġdev ast
Ġdet ested
Ġbeat rix
Ġgrou ped
Ġcheck s
Ġcas hel
sk ill
Ġmour ned
Ġcollect ive
Ġcoo led
author ities
represent ation
sail or
pron ounced
Ġcounsell or
l ament
p atter
Ġd ames
ra ven
Ġun settled
Ġun popular
Ġra oul
char ity
Ġrepresent ations
Ġgro ped
wa iter
Ġimpro v
inc erity
Ġliber ality
assured ly
Ġpadd les
Ġcald igate
Ġrit ual
st ated
Ġher on
au bon
Ġus her
Ġbar g
Ġblack guard
Ġwild ing
Ġbroad side
Ġprevent s
Ġamb ush
Ġcandid ates
Ġcoron er
Ġmelod ious
sentiment al
Ġtapest ry
partic ulars
Ġp als
ad vertis
Ġab ner
ry m
Ġpl ug
Ġpr isons
Ġcr ane
Ġcons ciences
Ġtre ading
Ġbar th
Ġtri ple
Ġoccur ring
exp osed
Ġcool er
Ġcollect ions
Ġtu ft
Ġirr itable
illustr ated
Ġillum ination
Ġexpans ion
appropri ate
a ustri
Ġex uber
Ġsp ouse
Ġsp ines
fore ver
wh ip
Ġye w
Ġke mp
ign ing
there ll
Ġfoll ower
Ġsqu aw
che e
Ġexcl usion
Ġthank fulness
Ġfalse ly
Ġorgan isms
Ġappet ites
Ġinex orable
Ġgy p
Ġimpert inence
persu aded
Ġensu ing
Ġheres y
an ked
al ike
Ġwr inkles
fect ion
Ġsupp lying
Ġadv iser
Ġmist aking
every one
Ġfield ing
Ġinvest ment
Ġstub bs
organ ic
Ġconj unction
Ġscold ed
recom mend
Ġvavas or
p olly
t at
Ġf iss
om est
Ġhis s
-- !"
Ġfr action
ness es
Ġke lls
Ġphys ics
Ġdam nation
Ġsympath ize
Ġdevelop ing
coll ection
mus k
Ġcompre hended
Ġcripp le
Ġbould er
Ġtil ted
Ġdigest ion
- âĢĶ
c ation
Ġn it
Ġhad st
ill usion
os o
do ir
do cum
Ġfin ery
app ar
[...]
