#version: 0.2 - Trained by `huggingface/tokenizers`
Ġ t
h e
Ġ a
i n
Ġt he
Ġ s
Ġ w
Ġ o
r e
n d
h a
Ġ b
e r
Ġ m
o u
Ġ i
Ġ c
Ġ f
e d
e n
Ġo f
o n
Ġa nd
Ġt o
h i
Ġ Ġ
Ġ p
Ġ d
in g
o r
e s
i t
Ġ l
Ġ in
l l
Ġ he
a r
a n
a s
Ġ n
a t
Ġ ha
Ġ g
o m
Ġb e
ha t
Ġ hi
s t
l e
o t
Ġ e
o w
u t
Ġ y
s e
v e
Ġt hat
l d
Ġi t
l y
c e
Ġw as
i d
g h
c h
en t
Ġ re
Ġo n
Ġy ou
ĠĠ ĠĠ
r i
i on
Ġ u
a l
Ġa s
v er
a y
it h
e t
Ġhi s
Ġf or
Ġw ith
Ġw e
i r
Ġs t
Ġt h
i s
r o
a d
Ġ h
u r
Ġa n
c t
Ġi s
gh t
Ġn ot
Ġha d
he r
Ġa t
ou ld
r a
Ġhe r
Ġs a
i c
o o
- -
Ġs e
k e
t er
Ġw hi
Ġb ut
m e
Ġm e
Ġhi m
Ġs u
i ll
' s
a in
Ġ "
Ġl i
Ġs he
Ġs o
es s
Ġha ve
re d
Ġ k
Ġd e
o re
c k
p e
Ġf r
Ġb y
h o
i l
Ġt hi
Ġm y
Ġa ll
om e
a ll
a nd
Ġwhi ch
. "
g e
Ġthe y
q u
Ġc on
Ġn e
u l
Ġw he
Ġ v
Ġthi s
Ġo r
Ġu p
t h
Ġfr om
l i
Ġ r
Ġd o
Ġ j
es t
, "
Ġe x
u s
Ġsa id
Ġm an
b le
Ġwe re
re s
m p
an t
p p
at ion
ou s
Ġn o
u st
Ġs h
Ġthe re
Ġc a
ar d
Ġw ho
er s
f e
Ġf e
n t
ĠĠĠĠ ĠĠĠĠ
Ġa l
Ġon e
in d
l f
ver y
ou r
l a
Ġa re
ar t
Ġw ould
Ġthe m
i ght
Ġk n
on g
Ġp o
Ġg o
as t
Ġin t
t he
Ġc om
Ġl e
Ġthe ir
oo d
ou t
at e
Ġf a
Ġw or
Ġbe en
ou nd
on e
Ġa b
Ġd i
ha n
Ġi f
ou gh
Ġw ill
Ġo ut
Ġwhe n
Ġse e
u n
' t
t her
a k
Ġw hat
Ġp ro
ow n
it t
w e
m ent
r y
o l
oo k
v en
or t
Ġ qu
se lf
Ġu n
Ġ ro
re at
Ġ en
Ġs p
Ġa m
Ġa r
it y
Ġa f
i ve
u m
Ġc an
Ġt i
Ġyou r
u re
Ġa g
Ġm ore
Ġan y
Ġs ome
p t
c i
Ġl o
Ġc ould
Ġm r
t e
he d
a m
a ke
Ġm o
l o
d e
? "
i g
i st
nd er
Ġthe n
Ġint o
Ġo ther
Ġs ha
Ġ very
Ġt e
in e
Ġb o
Ġn ow
Ġc o
s ed
a g
Ġt han
Ġ ri
Ġkn ow
Ġb r
i f
in k
v ed
a ble
c c
Ġ '
en ce
Ġt r
h ing
Ġli ke
an ce
w n
w ay
id e
Ġha s
Ġa d
Ġt w
Ġd id
itt le
ur n
e p
ad e
Ġl ittle
f ore
a u
ou ght
Ġd is
Ġl ook
a ck
Ġsh ould
Ġc ha
e l
Ġti me
Ġo ur
Ġab out
all y
Ġ _
i m
Ġup on
Ġs ay
ot her
er t
is h
i es
Ġg reat
Ġag ain
o se
ing s
Ġu s
Ġp er
Ġp r
Ġo ver
i e
Ġh ow
Ġto o
s s
Ġm u
as s
i ce
o p
ou nt
Ġaf ter
Ġha nd
re e
Ġon ly
or d
k ed
at her
Ġd own
f f
a ge
Ġm ar
ct ion
Ġd ay
Ġg r
Ġs c
v es
v ing
it e
Ġg ood
Ġp e
a c
a b
Ġth ink
Ġp art
m b
Ġbe fore
m ed
ar s
Ġp l
Ġmu ch
Ġm ay
Ġp re
u e
Ġit s
Ġsu ch
Ġm ade
Ġm ust
Ġtw o
f t
Ġh o
Ġof f
â Ģ
f ul
w ard
n ess
p er
u ll
Ġf ir
Ġth r
Ġo ld
Ġthe se
l ed
Ġbe t
Ġ ra
! "
u d
ad y
a re
Ġu nder
Ġl ong
m o
Ġwe ll
re n
Ġf o
Ġo wn
Ġs pe
at ed
Ġw ay
Ġne ver
Ġ 1
ar y
Ġwhe re
Ġcom p
Ġst r
Ġhe re
Ġc ome
Ġm en
Ġy e
or n
Ġe ven
a ch
p s
Ġm ight
res s
Ġfir st
c o
Ġb l
Ġe very
Ġl et
y es
i ous
Ġd es
ri e
Ġca me
ll ow
Ġo b
Ġb ack
ĠĠĠĠĠĠĠĠ ĠĠĠĠĠĠĠĠ
Ġ (
an s
Ġi mp
Ġbe c
t y
c es
in t
Ġhim self
i re
Ġth ought
Ġre s
ion s
l es
Ġp la
Ġha r
c ed
h y
ri ed
Ġc hi
Ġc l
n g
Ġre p
ic k
m s
an g
Ġcon t
m an
Ġs m
l ess
Ġp res
Ġth ose
Ġcon s
Ġj ust
Ġl a
ĠĠ Ġ
a me
e ct
i ly
is s
ou se
Ġli fe
Ġ ke
Ġg et
Ġmo st
Ġm ake
Ġthr ough
Ġj o
Ġsha ll
Ġg l
b ut
Ġd on
Ġa p
a p
on s
a ve
Ġw r
Ġl ast
Ġf l
Ġa cc
Ġbe ing
Ġc h
Ġst ill
n e
Ġbe g
Ġa way
or y
s o
Ġex p
Ġne w
om et
ar k
Ġcom m
Ġw ent
Ġw at
Ġc ar
Ġt urn
pe ct
Ġw i
y ou
Ġc all
Ġyou ng
Ġy et
Ġwor d
Ġhe ad
Ġen g
rie nd
Ġwith out
. '
Ġre t
ĠĠĠĠ Ġ
f fe
li e
Ġre m
Ġth ough
Ġo p
Ġf riend
it ion
Ġman y
Ġm at
Ġwhi le
n ot
Ġs omet
Ġt ake
Ġc our
at h
u b
n o
Ġte ll
Ġe ar
d y
as e
Ġn at
en ed
Ġf ound
ig n
Ġwor k
Ġe yes
Ġf ar
Ġ ent
Ġs er
he s
g ed
Ġh ouse
Ġa pp
Ġc ount
l and
en s
ul t
Ġnot hing
Ġt ra
Ġw ant
or s
o s
i ble
r u
Ġw om
f or
Ġri ght
e ver
Ġe nd
Ġg ra
Ġe ver
g et
Ġg en
Ġin d
ert ain
Ġa c
Ġon ce
ot h
i an
Ġdi st
Ġp a
Ġsu pp
b e
op le
Ġs i
al k
i se
Ġp ut
Ġfa ce
Ġpla ce
Ġn or
Ġm ind
, '
Ġpe ople
Ġsa me
ak ing
l t
Ġs ir
r ow
ation s
in ce
Ġp ri
' ll
e red
Ġf ather
m y
Ġan other
l ic
ra ct
Ġint e
Ġn ight
Ġmr s
Ġin st
Ġm om
Ġan s
Ġmom ent
Ġth ings
Ġi m
se l
d er
Ġs et
l ing
Ġhe art
Ġp le
Ġkn e
Ġsu b
Ġg ot
th ing
ent ly
a red
au se
Ġg i
Ġp ers
Ġwor ld
Ġf ind
way s
Ġle ft
Ġsa w
Ġg u
Ġap pe
i ed
Ġp ass
an k
d d
n er
Ġfe el
Ġli ght
Ġc han
Ġin c
. .
Ġth ing
in ed
Ġlo ve
ow er
Ġlook ed
Ġw ar
is hed
re t
Ġgo d
g g
Ġat t
Ġchi ld
Ġth ree
Ġbe lie
j ect
t o
w hat
Ġm a
ĠĠĠĠ ĠĠ
Ġs at
Ġsee med
Ġs ur
Ġgen er
Ġal ways
ic al
Ġw a
Ġl ady
li ght
t hat
Ġg ive
Ġha pp
ou b
c y
b o
, --
i z
Ġagain st
Ġd one
Ġbet ter
we ll
mo st
Ġs w
ut h
b er
v id
Ġre g
Ġk ind
Ġtoo k
Ġgo ing
Ġpo ss
Ġh u
t ing
Ġv o
Ġc ertain
Ġc lo
Ġsomet hing
Ġfo llow
ce pt
Ġex c
Ġas ked
Ġde c
' d
re w
Ġfe w
re st
Ġb u
Ġret urn
Ġm iss
Ġst e
u al
i a
Ġas s
l s
Ġqu ite
w he
Ġhe ard
t ed
v ent
Ġs ide
c hed
âĢ Ļ
Ġre ad
we en
Ġc ol
Ġcon f
Ġd ra
Ġkne w
Ġhand s
Ġb re
ment s
in ess
n ing
Ġha lf
x t
Ġc he
Ġm on
Ġc le
Ġbo y
l ish
Ġto ld
Ġg ir
Ġw ind
Ġen ough
Ġre st
Ġl ord
Ġm in
Ġbet ween
Ġb ro
Ġin de
Ġs il
Ġye ars
Ġo cc
Ġbec ause
Ġhar d
Ġcour se
a ce
Ġam ong
Ġcha r
i le
Ġro om
pp ed
Ġmat ter
Ġso on
Ġr ound
Ġe ach
Ġse en
m er
Ġb la
Ġne ar
en se
ain ed
Ġm other
a v
Ġh ome
ul ar
ward s
Ġwom an
Ġw h
Ġk ing
Ġp ur
Ġal so
s on
ha ps
get her
Ġin ter
Ġw o
c ha
Ġwho le
ver s
it ed
Ġh our
c ess
hi p
Ġdo or
Ġh um
ot t
i al
k s
Ġa ct
Ġad d
Ġb oth
mb er
ull y
Ġt re
Ġn ame
Ġ 2
it her
Ġple as
Ġke ep
Ġwh om
Ġhe l
it s
Ġ ed
Ġca re
ak en
Ġpo int
Ġu nt
p o
e m
sel ves
Ġv i
Ġpres ent
Ġt ri
Ġsu re
Ġme an
Ġha ving
in s
Ġt er
Ġal most
' m
Ġh or
Ġsh ow
Ġin s
Ġb est
Ġg ent
Ġcount ry
Ġpo or
u ght
Ġhow ever
as ter
Ġst and
Ġhi gh
a ir
as on
Ġd oub
u res
i et
Ġw hy
Ġca pt
u ck
u p
ri st
ro ss
Ġdo es
Ġs l
Ġs ou
Ġl ess
Ġp ar
Ġb us
Ġsm all
Ġ [
d u
a ut
Ġwat er
Ġm orn
Ġb ar
Ġfa m
ff ic
Ġl and
Ġmy self
Ġs ince
is ed
an ge
i er
ut e
Ġs k
Ġlet ter
s he
e f
Ġs ent
Ġin f
Ġar t
Ġre f
dd en
nd ed
Ġt ill
Ġturn ed
Ġl ar
Ġd r
Ġper haps
Ġcall ed
Ġf ore
Ġc r
Ġad v
u se
Ġword s
Ġqu est
Ġd ark
Ġinde ed
Ġfa ct
Ġday s
Ġr ather
Ġunder st
Ġfe lt
t on
n ow
Ġv is
Ġmorn ing
Ġb ri
' ve
b y
Ġgent le
Ġ es
Ġst re
Ġhe ar
at ing
oo l
Ġop en
hi s
Ġde ar
n ed
Ġany thing
Ġg re
Ġwhi te
Ġt alk
re nt
m es
al s
Ġad m
un g
Ġbeg an
Ġh on
Ġho pe
ab ly
Ġm et
ate ly
Ġpro p
k en
Ġst ood
Ġdoub t
Ġe l
u red
Ġne xt
s er
i v
Ġl au
Ġl at
Ġbelie ve
Ġhel p
Ġg ave
Ġbe aut
il ed
Ġvo ice
i red
Ġpers on
Ġex t
on t
m en
Ġbr ought
ou d
Ġsp o
Ġun c
o f
Ġinte rest
s p
Ġgir l
Ġher self
fe ct
Ġsp ir
_ ,
Ġco nd
Ġp at
er ing
Ġa w
Ġcan not
Ġf all
one y
Ġcont in
Ġsu n
we red
Ġp ower
Ġcomp an
Ġcon c
Ġla w
z e
at es
Ġbla ck
Ġu se
Ġne ed
Ġt aken
li ed
the re
c ri
Ġans wered
o h
Ġf ull
Ġspe ak
Ġg one
as sed
Ġunt il
Ġd re
a le
st er
t en
Ġc ou
Ġto gether
Ġse c
Ġdi ffe
Ġtr ue
g er
f ully
Ġsu dden
g n
p ri
Ġ1 8
Ġi de
y e
ce i
f ort
Ġstr ong
Ġr un
Ġre c
i b
Ġf our
t le
Ġother s
Ġb ra
Ġl ay
Ġre me
Ġcapt ain
Ġab o
Ġthem selves
ain t
Ġs we
Ġle ast
Ġst ate
Ġeng lish
a ct
Ġdi re
ent ion
Ġf ire
Ġa ir
Ġd et
Ġde ath
Ġser v
Ġwho se
Ġwi fe
y ing
Ġs y
? '
it ies
Ġs le
Ġal ong
u ri
Ġm is
ir c
Ġm er
Ġc or
Ġnat ure
ow s
Ġpl ay
id er
-- --
Ġse a
it ing
Ġm oney
ant s
k ing
en e
Ġfriend s
Ġf in
le t
Ġho ld
c he
Ġth us
Ġb ook
ur ing
u mp
a il
Ġe mp
u ed
us ed
Ġgener al
it u
. _
Ġs ort
Ġgi ven
o g
Ġc ase
Ġlook ing
w er
Ġm il
Ġfor m
ce ed
Ġde ep
an ces
et s
d ay
Ġo pp
ci ous
Ġst o
Ġp i
bo dy
Ġp assed
au ght
Ġbe h
an e
Ġwhe ther
Ġre al
Ġc at
Ġre ason
Ġsh ort
co nd
Ġlar ge
Ġi ll
Ġfe llow
Ġaf f
Ġbeh ind
ar ing
Ġquest ion
Ġc irc
Ġfe et
ren ce
ie ld
Ġs ing
u nt
Ġc ried
Ġat te
ie w
Ġunderst and
Ġle ave
Ġpr om
Ġbr other
Ġch rist
Ġwo nder
Ġsay s
a h
h ow
Ġr u
Ġclo se
Ġal one
ag es
ve red
Ġc ur
ac hed
u ally
Ġre ally
v al
Ġcha ract
Ġst art
Ġde ad
ang er
Ġdis c
Ġabo ve
Ġto wn
p le
Ġp ub
i i
Ġ 3
Ġte mp
Ġe le
Ġs ho
Ġn um
Ġb es
ot e
e y
m in
Ġab s
ain s
Ġde p
g th
Ġs on
c hes
nd red
Ġb ed
Ġex pect
re ady
Ġof ten
Ġc e
Ġpro f
Ġs ound
la im
ll y
Ġhu ndred
Ġth ou
h n
Ġbe l
Ġd a
ist er
Ġfa ir
Ġgr ound
Ġb ur
r on
Ġw ood
Ġs ign
le y
ffe ct
Ġd ri
Ġd ro
Ġfor t
Ġe as
Ġman ner
ck s
Ġse cond
Ġal ready
Ġst ra
id es
Ġwith in
Ġs ch
Ġt ry
Ġtr uth
res sed
Ġre d
Ġre co
Ġl ad
Ġm ount
Ġjo hn
j o
Ġf ur
m r
Ġ *
Ġfe ar
Ġw ish
Ġcom ing
Ġto wards
Ġob ser
Ġin v
Ġkn own
ch ing
c a
in es
Ġm aster
i x
Ġspir it
ver n
Ġne cess
Ġor der
Ġde v
per i
m on
Ġsi mp
Ġ x
Ġsupp ose
Ġg e
Ġt en
Ġit self
Ġme et
Ġsub ject
ct or
ak es
Ġbus iness
' re
r ing
Ġrep lied
cei ved
Ġle a
Ġti mes
Ġwi ld
r d
ut ion
Ġle ar
o nd
Ġj ud
ent y
Ġe ffect
Ġel se
Ġh ur
the y
Ġl ow
Ġst ri
whe re
i ld
b ed
Ġye ar
Ġw alk
Ġli ve
Ġw all
Ġthere fore
Ġcons ider
Ġme ans
Ġfe ll
Ġm id
! '
Ġse ver
at ive
ction s
Ġchild ren
Ġpr in
Ġnat ur
ow ed
Ġar m
il ity
al ked
l u
Ġlo st
d o
Ġcle ar
Ġb ad
Ġpre t
ct ed
i ent
Ġe ither
ri s
Ġhum an
Ġv ar
b ert
te red
Ġbr ing
Ġs hi
-- "
Ġme re
Ġspe ci
Ġcon st
or row
if ic
ve l
Ġreturn ed
Ġc ast
t his
Ġas k
Ġsu m
Ġsi x
Ġd u
Ġp ort
Ġf an
Ġli st
er n
. ]
Ġth y
Ġstr ange
Ġu sed
Ġcharact er
Ġch ur
Ġqu iet
Ġocc as
p ter
im es
Ġm ad
ill ed
ll ed
o d
the n
Ġres pect
c hi
c ul
Ġbo dy
Ġfo ot
Ġh us
Ġe ye
Ġst ep
Ġro se
Ġear th
Ġappe ar
0 0
Ġhor se
Ġs ense
e k
Ġpo s
Ġs qu
c ing
Ġgl ad
Ġeng land
Ġb ir
Ġcomm on
Ġc al
Ġfam ily
Ġwom en
er ic
. --
Ġexp ress
Ġdi ffic
Ġc ra
Ġke pt
Ġsever al
Ġposs ible
Ġt ou
Ġans wer
Ġhe ld
Ġd ut
Ġac ross
itt ed
Ġs ight
) ,
Ġca p
g u
d le
if ul
Ġgo ld
ard s
t s
âĢ ľ
Ġw on
Ġm ist
Ġc ent
ous and
er y
Ġp ain
i gh
it er
Ġso ci
Ġm aking
Ġsee m
Ġp ast
Ġpart ic
Ġm ag
Ġhe a
Ġ ut
Ġj e
Ġeven ing
Ġth ousand
Ġle ad
Ġpro b
Ġb at
Ġex cept
n y
for m
ou ble
Ġf ree
g s
Ġ est
Ġoff ic
Ġexp l
Ġv iew
m a
he n
Ġp et
Ġreme mber
Ġper fect
Ġbo at
Ġqu ick
Ġro ad
ll s
nd ing
b it
Ġde al
Ġst ory
am es
Ġbec ome
Ġy es
âĢ Ŀ
Ġbl ood
Ġd uring
ne y
Ġc ut
Ġdiffe rent
Ġapp ro
Ġo ught
Ġf ive
li ke
Ġdid n
th ough
id ent
Ġsee ms
om p
Ġb it
Ġacc ount
Ġsur pri
Ġa ble
Ġb ig
Ġco ll
ur y
Ġsomet imes
Ġbeg in
Ġar ri
Ġm ur
et y
Ġsl ow
s ing
Ġre l
Ġf ig
Ġt able
ren ch
_ .
Ġd aught
Ġtr ans
et h
Ġsudden ly
b and
Ġchur ch
Ġgentle man
Ġe vid
Ġsle ep
is m
Ġsu cc
w hi
Ġpro du
ter n
Ġide a
Ġp hi
nd on
itt ing
g in
Ġ ve
Ġde f
Ġfor g
ha m
Ġim ag
Ġe qu
o sed
Ġm or
ous ly
Ġgo vern
Ġpub lic
Ġre ady
Ġm us
Ġbec ame
p ed
Ġco ld
n a
w ith
Ġbre ak
Ġse lf
Ġar ound
Ġcomm and
Ġdis p
ot s
Ġqu e
iz ed
Ġfa v
i ans
ci p
ow ing
Ġsou l
un e
Ġoccas ion
Ġdra w
Ġpart y
Ġri ver
Ġa uth
b r
Ġfollow ed
Ġbeaut iful
Ġsc ar
Ġf lo
Ġfeel ing
is f
Ġsec ret
whe n
Ġspo ke
Ġl u
Ġd in
Ġpret ty
Ġhea ven
Ġg a
Ġhe av
Ġdis co
p h
Ġr an
Ġe v
Ġc orn
Ġmon th
Ġp ay
Ġhus band
ing ly
l it
ri ght
are nt
on es
Ġob ject
Ġpur p
Ġf ight
ess ion
Ġevery thing
Ġwor th
ro om
i ar
Ġqu ar
Ġam eric
ant ly
Ġst ud
Ġs mo
Ġar ms
Ġfor ward
or ge
Ġv al
Ġappe ared
Ġs hip
Ġhe n
ck ed
Ġc li
Ġv ill
w hy
Ġf rench
g r
air s
Ġcomp le
Ġc ity
y ond
Ġp al
v i
ou th
Ġha st
Ġc ho
g es
Ġma j
Ġcertain ly
ious ly
Ġ 4
l er
Ġto m
Ġr us
Ġh ot
Ġp en
in ct
Ġlo ndon
Ġ .
Ġf ine
Ġor d
Ġdre am
Ġbri ght
Ġmo ve
mp t
Ġchi ef
Ġac qu
Ġl ine
ut es
Ġbe yond
id ed
Ġst ay
Ġso ld
Ġhi st
Ġcontin ued
Ġthe e
um b
Ġb en
Ġre qu
Ġex peri
ĠĠĠĠĠĠĠĠĠĠĠĠĠĠĠĠ ĠĠĠĠĠĠĠĠ
li g
itu de
ri es
Ġtw enty
al ity
Ġw in
Ġfa ith
Ġha ir
Ġn one
e x
Ġadd ed
Ġf re
g o
Ġv ol
Ġt aking
s ide
he re
s u
Ġ ver
Ġgra nd
Ġdo ing
Ġimp ort
Ġgre en
Ġhapp y
ou n
Ġd anger
al th
Ġfr ont
Ġcirc um
Ġan im
Ġfur ther
Ġreg ard
ĠĠĠĠ ĠĠĠ
Ġpartic ular
y ed
v o
Ġop in
c ome
Ġr id
Ġnatur al
Ġauth or
Ġcar ry
he ad
Ġex ist
Ġdaught er
Ġsat isf
Ġc reat
Ġcour t
led ge
Ġlau gh
Ġm ine
Ġl ed
Ġpl ain
Ġso ft
Ġf la
as h
g y
Ġstre et
ri age
Ġchan ce
u g
Ġd est
Ġl ate
ter s
i p
Ġchan ge
Ġcompan y
Ġyour self
Ġc uri
Ġcom es
Ġswe et
a f
Ġvis it
p ar
Ġb reat
Ġcar ried
Ġhour s
as ed
Ġs al
Ġcom fort
Ġnum ber
Ġtr ust
ct ure
ic es
e ad
d s
Ġwant ed
med i
Ġboy s
Ġl en
Ġpr ay
ow ers
ra id
Ġde light
Ġw it
Ġp ie
Ġan x
Ġsucc ess
Ġs ad
in ation
ri c
) .
Ġwr ong
Ġre ceived
Ġpri v
w or
Ġnear ly
il ing
Ġsay ing
Ġlong er
Ġis land
ll ing
Ġpos ition
Ġwind ow
Ġc ry
Ġp ract
g ing
Ġcircum st
Ġre ached
Ġg ard
pp ing
Ġcha pter
Ġa ge
Ġbe ar
Ġsha d
k es
Ġde m
Ġca use
Ġlat er
Ġf if
Ġfor ce
ess ed
Ġs la
Ġm ot
nd s
f o
Ġe m
gg est
Ġrem ark
Ġt ro
Ġear ly
Ġc ro
Ġl ab
ent s
Ġhard ly
Ġb ill
Ġs ister
on y
laim ed
Ġs n
Ġc re
Ġsu ggest
Ġaf raid
itt en
Ġre v
Ġca mp
Ġha t
Ġne ither
Ġt ried
a mp
Ġtr ouble
Ġli ving
or m
ag ed
Ġnecess ary
âĢ Ķ
Ġs light
s es
Ġin qu
Ġacc ord
Ġg er
ru pt
Ġpr ince
Ġmin utes
Ġsil ence
Ġf ra
Ġr om
s h
s pe
Ġsch ool
Ġcha ir
us ion
Ġmil es
ound ed
m ing
in ing
Ġw alked
st on
Ġop ened
Ġst ren
Ġf ast
Ġunc le
Ġe mb
en ing
Ġpe ace
Ġfor th
Ġpurp ose
Ġm ed
b b
Ġgra ce
Ġim medi
Ġc row
Ġli e
in ary
Ġag o
z z
Ġge orge
Ġdo ctor
ou red
Ġpleas ure
. ,
Ġs ens
r or
Ġar r
an ced
Ġm outh
Ġprob ably
Ġsm ile
Ġbl ue
Ġscar ce
Ġme ant
Ġal though
u ff
Ġto r
se qu
Ġthink ing
at s
Ġv ir
Ġdes cri
g ra
Ġw is
Ġdist ance
il t
Ġnor th
o ss
Ġyou th
Ġre pe
Ġan g
Ġdi v
Ġen c
Ġt reat
Ġpo et
Ġo ri
Ġent ered
n ight
Ġter ri
it ions
ound s
Ġlen gth
Ġd en
Ġent ire
Ġwhat ever
ho ld
Ġpr ot
Ġo h
qu e
res h
ci ent
d en
Ġrem ain
ce ive
Ġg all
Ġstand ing
Ġla id
il s
m it
Ġw est
Ġslow ly
Ġan n
Ġstr u
Ġha ll
Ġc la
id ge
Ġget ting
Ġpro ceed
Ġe ff
Ġdut y
if ied
Ġj our
Ġbro ken
Ġsa ve
ic ally
Ġsu ff
Ġe ight
ust om
Ġs in
Ġknow ledge
Ġsha r
Ġjo y
Ġ 5
Ġwe ek
Ġheav y
Ġdec la
one l
b in
re ad
i ves
o int
Ġf ield
u nd
Ġne igh
en ces
Ġdes p
Ġb ank
Ġc ri
h ood
Ġ1 7
Ġmar k
Ġhapp ened
Ġc ross
Ġl ang
Ġc as
Ġpri son
Ġdi e
Ġpo st
ag er
Ġi r
Ġri ch
Ġn ar
Ġj ack
Ġtre es
Ġcou n
Ġb urn
i ence
Ġli ved
Ġneigh b
ck et
Ġknow s
Ġstr uck
u me
Ġinte ll
s k
Ġex act
our s
l ished
Ġh op
ad ed
Ġopin ion
Ġg un
ol ute
Ġdire ct
Ġli ps
ent ed
w ise
Ġdet er
.. ..
Ġbr own
Ġh ung
Ġacc omp
ĠĠĠĠĠĠĠĠĠĠĠĠĠĠĠĠ ĠĠĠĠĠĠĠĠĠĠĠĠĠĠĠĠ
l ook
Ġdin ner
Ġcl ass
os ition
l ay
Ġserv ice
lo ck
i us
ic s
Ġcon vers
ra ge
ix ed
pe nd
re me
Ġthi r
Ġwr itten
Ġd ress
Ġsa fe
Ġwat ch
Ġm akes
Ġse nd
Ġu nd
Ġeas y
Ġbu ild
at ure
Ġto p
y al
Ġres ult
Ġb ott
Ġ er
g hed
oo se
Ġrem ained
Ġf as
Ġwe ak
Ġro ck
Ġde g
ol og
ors es
Ġme m
Ġinst ead
Ġa li
Ġmar y
Ġac cept
Ġsou th
Ġgra ve
d on
Ġhi g
Ġexc laimed
Ġm ill
if t
Ġimp oss
Ġdiffic ult
ar ch
Ġsto pped
Ġar my
Ġfollow ing
Ġre lig
Ġbr it
Ġstra ight
ive ly
u c
Ġs itting
Ġm ention
Ġbo ard
Ġd rew
Ġbeaut y
ic ked
Ġd ick
Ġhist ory
Ġque en
s pect
Ġm ess
ist s
c ent
Ġgovern ment
Ġpo lit
Ġwr ite
Ġdi ed
a ld
Ġf it
Ġp ap
Ġg lo
Ġd om
Ġen jo
Ġpa per
Ġc ru
hi on
Ġm ass
en cy
ust r
Ġbel ow
Ġthought s
Ġv an
Ġan t
w ho
Ġst one
as k
ca pe
Ġnot e
Ġg ri
pe ci
Ġstren gth
Ġfig ure
s hip
Ġh orses
Ġt y
Ġori gin
Ġinf lu
Ġpre p
Ġso l
Ġf ut
Ġsil ent
Ġf le
lo s
ve re
Ġsh ore
Ġde li
Ġadm ir
Ġshar p
Ġb ound
Ġb orn
Ġlat ter
Ġsu ffic
ist ed
Ġsee ing
Ġpro per
Ġfor get
Ġwa it
Ġt one
Ġletter s
us h
Ġca ught
Ġhi ll
Ġfr ank
e my
Ġs now
Ġlau ghed
Ġsh out
Ġgard en
Ġus ual
Ġcon te
Ġa unt
Ġt ree
d om
Ġpo p
Ġf resh
Ġcircumst ances
Ġb ene
Ġdes ire
m n
m iss
Ġimposs ible
Ġlang u
Ġocc up
c on
e ch
Ġatt ention
Ġle g
Ġf ing
Ġsome what
Ġsing le
Ġdr ink
Ġsa v
Ġg ar
Ġfor mer
Ġappear ance
Ġocc ur
Ġlo ved
Ġne g
Ġsoci ety
Ġinc l
a pp
Ġen emy
Ġcont r
g ar
Ġcl ot
Ġgr ow
fe ction
to gether
ci ence
Ġn ation
st r
Ġmar ried
Ġgreat er
Ġpres ence
Ġatt ack
c om
Ġbes ides
Ġpl an
Ġs it
Ġwar m
Ġmo ved
Ġnew s
Ġbel ong
Ġcomple te
Ġ z
Ġdem and
Ġgl ass
Ġf at
Ġs or
Ġw ide
Ġdo g
Ġto ward
e ks
Ġsa il
Ġexpect ed
Ġafter wards
Ġmonth s
Ġshow ed
Ġe at
u es
Ġg rew
i ment
ce ll
Ġcol onel
Ġsp ot
no on
Ġgo es
Ġpla ced
Ġp ull
Ġi i
g an
Ġbro ke
Ġof fe
Ġes peci
Ġtra ve
Ġf al
Ġcrow d
i ers
Ġcon sequ
Ġ 6
Ġs im
Ġal together
Ġgu ard
ect ed
Ġlad ies
Ġs li
Ġsc ene
Ġwa iting
Ġexpress ion
Ġno ble
Ġpleas ant
Ġe vent
Ġres ol
Ġ âĢľ
Ġear n
Ġf ro
Ġmere ly
Ġdep art
Ġc iv
Ġrep res
Ġreco gn
Ġm al
Ġra p
Ġcomm un
in a
Ġbro ad
Ġfan cy
Ġstart ed
. )
Ġcond u
Ġi d
Ġmo der
rie f
Ġoff ice
Ġl iter
s c
; --
po sed
af ter
Ġple ase
Ġvi ol
fe rence
Ġpass ion
r s
Ġre lie
r ay
am ed
Ġeff ort
z ed
Ġlike ly
Ġbreat h
Ġe t
Ġv en
Ġb ab
Ġcl oud
h ouse
id ence
or ies
Ġhon est
s y
fo ot
f er
as ure
Ġmar ry
Ġre ach
Ġconvers ation
Ġbes ide
de red
Ġso le
Ġpla ces
Ġthi ck
Ġconc l
Ġbat tle
Ġut ter
Ġbe at
er v
Ġwould n
it al
iet y
Ġd an
Ġsimp le
ac y
Ġmy ster
Ġvill age
Ġtalk ing
nd ered
j ust
Ġspe aking
Ġpres ently
Ġarri ved
Ġfut ure
Ġinc re
Ġbook s
Ġimmedi ately
Ġbegin ning
Ġafter noon
y s
u nder
Ġim m
ib ly
g ged
Ġobser ved
Ġref le
g ress
ch o
Ġpet er
en ess
us hed
ro du
Ġstru gg
Ġthi rd
c al
d ing
Ġun i
el s
ic ed
ous es
Ġfam il
ro pe
Ġsurpri se
Ġespeci ally
mp at
i me
Ġout side
t w
se mb
Ġspeci es
Ġfore st
Ġsp ring
Ġlea ving
it ation
Ġper i
Ġh y
te en
Ġhe ro
Ġhon our
Ġb a
ort ed
Ġcould n
Ġra ised
Ġli ft
Ġb all
Ġwor se
Ġmin ute
Ġf un
Ġdre ad
Ġemp lo
hy s
Ġmar ch
r om
Ġsu per
c il
Ġapp arent
Ġha ng
Ġmid dle
Ġturn ing
Ġbe ll
Ġpre v
Ġjour ney
Ġf illed
Ġm art
Ġbene ath
Ġf ly
Ġstre am
Ġsk y
Ġsh ot
Ġgi ving
Ġgener ally
f ord
us s
Ġst op
Ġprin cip
Ġmo on
Ġpe cul
se t
Ġm ain
Ġgir ls
Ġcorn er
Ã ©
Ġabs olute
Ġis n
Ġb ow
Ġext ra
z en
Ġcond ition
Ġreme mb
Ġl ou
is ion
Ġinst ru
Ġsy mpat
Ġentire ly
Ġimp ress
Ġev il
Ġpecul iar
Ġg ro
Ġperi od
Ġs ick
Ġadv ant
Ġtro op
Ġsh ook
a ment
Ġd ry
he red
Ġthan k
Ġscarce ly
re l
Ġe u
Ġex am
Ġte ars
mr s
Ġm ut
Ġli ves
Ġdire ction
Ġconc er
Ġob t
Ġun less
u ous
i res
Ġset t
Ġpers ons
Ġsor ry
Ġkn o
Ġt a
Ġa ction
ide red
un k
f ast
Ġvar ious
Ġes cape
s ha
Ġsh ut
Ġchrist ian
er able
w ill
Ġciv il
cha rd
ott en
Ġt all
Ġameric an
u ly
Ġdeter m
Ġ |
Ġtry ing
Ġperfect ly
Ġdecla red
c ceed
ar ked
Ġle an
Ġfl at
Ġspe ech
Ġinst ant
Ġt ast
i o
Ġsu cceed
Ġcompan ion
w ood
Ġpriv ate
Ġpre vent
Ġent er
n ers
ter ing
Ġpro v
ul ty
Ġe ager
Ġdu ke
Ġma id
Ġsw ord
Ġob li
Ġeas ily
Ġm ort
is hing
Ġlook s
Ġv es
i am
Ġne are
Ġhu nt
ve lo
at ic
Ġag ree
Ġgentle men
Ġlear ned
Ġst ar
Ġquick ly
c r
ud ed
Ġwr ote
Ġcl er
Ġmar riage
.. .
Ġi ron
Ġw and
or a
Ġsp r
c ol
Ġeu rope
or ough
we l
Ġterri ble
Ġrap id
Ġcast le
b s
Ġsupp osed
it able
Ġp un
Ġcons cious
Ġfas hion
Ġpie ce
ou ra
Ġs itu
Ġchar ge
Ġpa le
Ġjud ge
Ġpart s
Ġpa id
c her
Ġsa ke
Ġfr ance
Ġde lic
Ġexact ly
ha r
Ġf er
Ġsum mer
Ġf right
Ġv all
Ġf aint
Ġl ines
Ġco st
is on
s sed
Ġdiffic ulty
Ġmaj or
Ġp ath
e ction
Ġt ur
Ġsa nd
Ġex cell
Ġp ra
Ġopp ort
Ġearn est
Ġrep ly
Ġchan ged
Ġr ate
Ġinflu ence
est s
Ġunderst ood
Ġtou ch
le nd
Ġ 8
Ġexperi ence
Ġwi se
Ġp it
Ġf ood
Ġte nder
Ġshad ow
Ġrun ning
i or
pp er
Ġflo or
Ġk ill
Ġv ain
Ġ 7
Ġl ower
Ġspo ken
er ial
Ġi gn
âĢ ĺ
Ġsimp ly
Ġc ous
Ġatte mpt
as hed
Ġv ent
Ġmatter s
Ġw ished
Ġx x
Ġfeel ings
l in
Ġprop ert
a w
Ġpleas ed
ri but
Ġfav our
Ġfall en
Ġmount ain
Ġimport ant
Ġhe s
Ġbit ter
Ġvir t
Ġche er
Ġsa m
Ġap art
he t
m orrow
ap ed
Ġdraw ing
ver ing
Ġsm iled
Ġvall ey
Ġp hys
Ġopport un
Ġne ck
Ġext reme
Ġcuri ous
or k
ap pe
Ġrepe ated
not e
is ing
um ed
Ġtemp er
g ment
Ġse par
Ġlear n
Ġves sel
Ġp ress
Ġsu sp
Ġnot ice
est y
Ġk illed
Ġnar row
Ġcal m
if f
Ġwork s
Ġcons idered
in ite
b ur
Ġg ate
Ġde fe
iz e
Ġpr oud
Ġes c
Ġf urn
b ar
Ġlea ves
Ġd are
Ġger man
ed s
e e
for med
al ed
p es
Ġhe alth
Ġp h
Ġse ven
Ġpi cture
Ġf ixed
Ġfir m
a ction
Ġbelie ved
Ġkn ight
c an
Ġj ames
Ġad vent
l ine
Ġe ars
Ġf ier
Ġgr ass
Ġdiffe rence
Ġan cient
Ġanx ious
Ġwall s
Ġcr it
ain ing
Ġbec om
Ġall owed
Ġst ates
Ġho st
s per
Ġwonder ful
Ġind i
Ġfl owers
Ġimp ro
ret ched
Ġdark ness
Ġ -
Ġwin ter
whi ch
Ġstr anger
Ġbur st
Ġra in
Ġopp os
Ġmus ic
Ġaccord ing
Ġrev ol
e c
Ġour selves
nd ay
Ġp ure
Ġstep s
Ġs ong
Ġall ow
Ġcon ce
Ã ¦
Ġlangu age
Ġsil ver
Ġpass age
Ġl ot
los op
Ġl ying
Ġh ol
Ġha th
ad es
Ġjust ice
Ġdist inct
Ġdes ert
Ġro yal
ĠĠĠĠĠĠĠĠ ĠĠ
Ġdeterm ined
Ġe ast
Ġ ess
Ġfif ty
o b
Ġfal se
ct ures
Ġst ro
Ġmo d
f ace
Ġtra in
Ġfort une
Ġd am
Ġser ious
! --
Ġwr iting
Ġra ce
k n
Ġyour s
o red
Ġprom ise
Ġm ir
Ġhi lls
b es
Ġw al
wor th
Ġpass ing
Ġhar ry
Ġint rodu
Ġass ist
Ġt ong
Ġl oud
Ġe ld
Ġdeg ree
Ġex amp
Ġrem arked
ill e
Ġaf fection
u it
Ġe re
Ġbo x
Ġc laim
Ġmoder n
Ġh ouses
ll en
c l
p ing
Ġu r
Ġindi vid
Ġth rew
Ġbrit ish
ci se
Ġquiet ly
ot ion
Ġsw ift
whi le
c lock
Ġwill iam
Ġsp an
Ġmem ory
Ġf oo
Ġno body
Ġwat ched
ach ing
Ġclo sed
Ġest ab
Ġphi losop
Ġcreat ure
Ġapp re
Ġco vered
Ġmag n
at or
Ġha bit
m ar
Ġgl ance
Ġa in
Ġc ustom
i ently
Ġmur m
Ġoff er
Ġo w
s en
Ġal ar
Ġpo cket
Ġdisco vered
Ġse at
Ġtr oub
Ġre mo
Ġst ation
t is
Ġan ge
Ġord ers
Ġlo ss
Ġeng aged
Ġpropert y
Ġdes ce
Ġc and
Ġclot hes
g l
Ġr ough
z ing
Ġfor med
Ġpar is
ing u
Ġg ame
Ġway s
r al
Ġgre y
Ġdec ided
an c
Ġbo ld
Ġv ast
Ġwe ar
Ġdra wn
en ced
Ġb ull
---- ----
Ġread ing
Ġbreak fast
li es
Ġsy st
Ġthir ty
Ġoffe red
Ġsoci al
Ġbir ds
Ġend e
Ġgr ou
t a
Ġa ston
Ġin form
Ġr ing
ot ed
Ġst ir
Ġcr own
" '
Ġvi ct
Ġri se
Ġindivid ual
g en
Ġfre qu
Ġshould er
Ġt alked
Ġprodu ced
Ġsp ite
Ġdro pped
Ġperson al
is es
Ġfo nd
ib ility
Ġquar ter
Ġre ck
Ġcondu ct
Ġcon v
Ġs orrow
Ġgu ess
Ġadvant age
it ated
Ġf ate
Ġhen ry
Ġsure ly
Ġb al
is ho
Ġcol our
Ġpr ide
Ġdis app
Ġhead s
re ed
y our
Ġind ian
Ġth in
Ġknow ing
Ġbe ast
Ġde b
Ġlist en
Ġoppos ite
ag ue
Ġb lo
Ġd ue
Ġfa il
Ġsp read
Ġt it
Ġre ve
vid ed
Ġwe ather
Ġign or
Ġprep ared
Ġforg otten
Ġw id
Ġst ick
Ġaccomp an
. âĢĿ
ro ad
Ġj im
Ġbott om
b l
Ġopportun ity
la ce
Ġsp ent
Ġsp lend
Ġfor ms
Ġp ick
Ġgreat est
Ġbl ind
v ation
Ġcas es
Ġin no
Ġdev il
Ġcous in
Ġmeet ing
b ly
Ġaf fect
ll o
it or
Ġc ott
Ġevid ence
ac her
Ġsold iers
Ġwe l
Ġdest ro
Ġintell ig
Ġl uck
Ġmor al
Ġcou rage
Ġn ice
Ġf ool
Ġfa ult
p hi
Ġr ank
Ġsurpri sed
er ve
fort un
p et
Ġrememb ered
Ġmount ains
Ġbl ow
Ġed uc
Ġoffic ers
Ġth ro
: --
Ġy ork
Ġb and
Ġsh r
Ġri sing
re g
Ġp ounds
Ġoffic er
Ġye llow
Ġsqu are
Ġli ked
Ġun e
Ġhig her
Ġbr an
Ġho ly
Ġthr own
Ġinte nded
Ġw ine
Ġord inary
Ġon es
Ġsusp ic
it es
Ġspir its
ver se
y n
Ġbre ast
Ġang ry
Ġfin ished
Ġende av
Ġstud y
Ġbe ha
Ġs an
Ġaff airs
p l
Ġinter rupt
Ġd er
Ġa v
Ġsha re
Ġbra ve
Ġsur r
Ġhe ight
Ġother wise
f ield
Ġgr at
Ġlaw s
Ġp ity
Ġgr ad
Ġw il
wel ve
Ġcru el
Ġquest ions
Ġn ames
Ġsett led
Ġmot ion
less ly
Ġ1 6
Ġaw are
Ġwa ited
Ġsitu ation
um n
Ġca bin
Ġd ust
Ġdi m
Ġsyst em
foot note
Ġexist ence
Ġpa ir
Ġte a
Ġsha me
ay s
Ġra il
Ġc red
Ġp ack
st one
Ġinst ance
Ġsp ace
chi ef
Ġin j
kn own
Ġtri ump
est ed
Ġbre ad
Ġatte nd
Ġnat ive
Ġgreat ly
Ġsole mn
Ġha m
Ġo per
Ġc ow
Ġb are
spe red
Ġprof ess
Ġevid ently
Ġapparent ly
ant ic
Ġdist ingu
Ġsmo ke
Ġwalk ing
Ġmaj esty
Ġchar les
Ġmean ing
Ġam ount
r id
Ġfact s
Ġfa ces
Ġhold ing
a cc
Ġadd ress
Ġshould ers
Ġter ms
Ġf art
Ġt welve
Ġdo ll
Ġhapp iness
Ġrelig ion
on ed
Ġide as
Ġanim als
mb ers
Ġobli ged
Ġfamil iar
Ġserv ant
Ġsh own
Ġsc ot
Ġreg ular
Ġco ast
Ġconsider able
o ver
us es
Ġpre te
Ġpl ant
Ġre ceive
Ġde velo
Ġwe eks
ll a
Ġlo d
w as
Ġkeep ing
Ġval ue
Ġwas n
ul ous
Ġco p
ree k
oun ced
m ay
Ġb ag
Ġrep ort
Ġj er
os ity
li p
li ce
Ġlo se
Ġarr ange
Ġcle an
Ġ1 0
o ld
Ġdi gn
a ly
Ġpro ved
im ate
me nd
Ġsuggest ed
Ġi v
Ġhot el
ail s
ur s
Ġpoint ed
la w
Ġtroop s
Ġ 9
oint ed
ul ation
Ġwe ight
Ġbo d
Ġtast e
Ġhar m
pt ion
Ġd ar
Ġgr ant
Ġtw ice
g ood
Ġequ al
Ġrepres ent
Ġb an
Ġno ise
l ar
Ġacc ident
Ġm ac
se e
k er
i ant
r ance
re y
Ġcro ssed
Ġfor ced
Ġsub st
Ġread er
Ġdist ant
Ġwhi spered
Ġwood s
Ġconf idence
Ġin n
Ġdis appe
Ġcom b
Ġdist ur
Ġacqu aint
Ġauthor ity
l an
Ġart ic
Ġli bert
Ġexamp le
Ġti red
Ġp arent
Ġanim al
ut ed
Ġha ven
Ġf ill
Ġpro cess
Ġar gu
Ġa ug
Ġhur t
Ġt al
Ġn ur
Ġenjo y
Ġwit ness
Ġt est
s ome
Ġdes ign
Ġtou ched
Ġexc ite
Ġro cks
Ġameric a
Ġsto ck
Ġpro ve
Ġaff air
il ar
Ġfing ers
Ġwill ing
Ġr ub
o e
Ġde ck
Ġposs ession
Ġevery body
Ġprom ised
p ir
Ġste am
Ġth reat
Ġinterest ing
Ġexpl ained
cept ion
Ġc ook
Ġsuffic ient
hen s
Ġbir d
Ġcar riage
Ġwat ching
Ġtell ing
Ġspe ed
ak ed
ish ment
Ġ1 5
Ġpap ers
at er
Ġfore ign
Ġas ide
Ġli es
f le
Ġcommun ic
1 8
mo nd
c han
it ary
if y
Ġed ge
Ġb ent
Ġam b
Ġali ve
Ġfin ally
Ġca used
00 0
cha nt
Ġfe m
Ġb as
Ġuni vers
Ġwor st
Ġmet ho
Ġro of
Ġposs ess
er ved
Ġinst inct
Ġfind ing
Ġhe at
Ġl ake
f ather
b ury
cha pter
int s
Ġa vo
Ġp ot
Ġgr ay
Ġgi ves
it ution
Ġpa ul
Ġpi ctures
Ġro de
Ġfart her
Ġst ern
, âĢĿ
Ġgold en
m ore
Ġbl ess
Ġtr ade
Ġf ol
y er
Ġse le
Ġcon qu
Ġor gan
Ġle gs
Ġexcell ent
Ġatte mp
Ġsu ffe
Ġth orough
c le
Ġa ud
Ġemp ty
il es
Ġinter v
? --
i um
Ġ &
Ġtong ue
Ġspe ct
Ġstre ets
Ġe p
Ġp or
Ġb le
Ġpal ace
Ġfor ty
n at
in y
Ġhi ther
Ġri chard
Ġglo om
Ġst ore
Ġt akes
o ff
Ġbu ilt
Ġwork ing
isho p
Ġpro gress
Ġmention ed
Ġmat erial
ar ily
Ġs lo
Ġs ides
ris h
Ġco at
m itted
k ind
g ers
Ġimag ine
Ġres p
Ġb id
Ġb ay
Ġhon or
Ġhur ried
Ġfort un
Ġre jo
Ġd ull
ci es
o on
are t
Ġ1 2
Ġa ut
Ġpolit ical
og ra
Ġg as
Ġsha pe
Ġin ha
Ġpoint s
Ġst y
Ġput ting
Ġspeci al
Ġsupp ort
Ġcon n
Ġjud gment
ang ed
ro se
Ġru le
Ġhi de
st and
Ġhands ome
Ġag reed
ist ic
k in
Ġfar m
Ġfellow s
am b
Ġth om
Ġabsolute ly
Ġh om
ll e
Ġwe alth
Ġun f
Ġbuild ing
Ġmight y
ha nt
Ġup per
Ġsa ved
Ġtr ad
Ġsim ilar
as ons
Ġp u
Ġcount en
Ġhapp en
Ġha te
Ġro b
i ally
ll er
at hered
Ġopen ing
pp y
Ġf ish
Ġr ide
Ġset tle
Ġb er
Ġsatisf ied
he st
Ġsav age
Ġdoes n
Ġwind ows
Ġaff ord
c er
Ġw icked
ist ers
Ġworth y
Ġreg ret
Ġsur face
Ġr ow
int ed
Ġwant s
Ġtre mb
Ġsold ier
Ġmoment s
Ġno se
re r
us ing
Ġoccur red
Ġv ig
Ġfa iled
the less
look ing
Ġrec ord
Ġdri ve
f rom
ep ing
Ġnatur ally
so ci
Ġneighb our
Ġpo lice
Ġor dered
_ _
Ġse arch
Ġsu spect
Ġmove ment
Ġsu peri
Ġsa cri
at t
Ġw ed
ct s
Ġp owers
ab les
Ġb rief
Ġbr idge
ard on
re es
ra m
Ġcat ch
Ġcont ent
ur al
Ġfier ce
Ġent ertain
Ġlist ened
ck ing
Ġst age
w s
Ġsuff er
Ġw et
Ġheart s
Ġd well
Ġnot iced
ro p
l ord
Ġm am
Ġy ards
e v
Ġk it
Ġshe l
Ġst orm
Ġany body
Ġro bert
Ġneare r
Ġdes per
Ġadv anced
Ġex ec
Ġa id
Ġf ully
est ic
Ġk iss
Ġp age
qu is
Ġo dd
Ġ1 9
d id
Ġextra ord
Ġj ump
ific ation
it ive
Ġgr own
Ġdo zen
Ġb on
ha ve
Ġgl ory
Ġus ually
Ġact ually
Ġt ale
Ġsm iling
Ġex er
Ġfre ed
Ġs cience
Ġcli mb
s ued
Ġexp ressed
Ġr ul
s m
Ġse x
Ġthr ow
th ur
Ġex te
Ġcare fully
a z
Ġpro of
Ġlibert y
Ġcomp ar
ter day
Ġrelie f
Ġen er
Ġimport ance
Ġtr uly
c ertain
Ġbelie f
Ġra re
Ġpur su
Ġpers u
Ġste ad
Ġg le
Ġw ore
Ġ ing
Ġexpl ain
Ġpri ce
Ġequ ally
Ġdirect ly
Ġar chi
Ġdanger ous
l or
Ġgr owing
Ġlaugh ing
Ġan ne
Ġg ho
Ġfav or
Ġfight ing
Ġpar li
Ġdro ve
Ġserv ants
Ġb ore
Ġun fortun
Ġadm itted
Ġben ef
ul f
Ġadv ance
Ġhur ry
ar ies
Ġhu ge
Ġdo ct
per haps
Ġevent s
Ġland s
Ġcomp l
Ġa h
Ġdri ven
Ġte eth
Ġsu nday
Ġsa c
Ġke en
o st
Ġass ured
Ġgho st
Ġmo ving
' ,
ii i
Ġsympat hy
Ġins ide
Ġmer cy
Ġremark able
Ġjo ined
Ġc it
Ġd un
Ġfoo lish
Ġn ine
cha r
ne ver
Ġpl ants
o k
Ġdemand ed
Ġcounten ance
Ġwor ked
Ġsacri f
s hi
art ed
al ous
v ille
Ġposs ibly
Ġmind s
Ġind u
i ch
Ġc ool
Ġmist ress
o c
Ġg li
Ġpre fer
Ġsc re
Ġport ion
Ġcap ital
Ġmo de
Ġhen ce
Ġimag ination
is sed
Ġappe ars
Ġg ather
Ġsoon er
Ġsuperi or
Ġsatisf action
Ġt ar
Ġme asure
Ġpie ces
Ġpro c
Ġsucceed ed
Ġyes terday
Ġsuffe red
Ġlead ing
Ġbir th
Ġadv ice
Ġintell ect
Ġe li
g ue
a ff
ract ed
Ġy ield
Ġconf ess
Ġt ail
Ġg athered
Ġp ark
Ġind ign
ab ility
i fe
Ġw ounded
Ġno dd
Ġdread ful
Ġoccup ied
Ġimpress ion
Ġorigin al
Ġparli ament
ci ple
Ġparticular ly
Ġha b
ke y
Ġmad ame
s a
Ġd ressed
Ġbus y
Ġind ic
Ġcond itions
Ġsho ot
n es
Ġconcer ned
Ġas soci
Ġprop ort
Ġmar ked
ac ity
res po
un ch
Ġcompan ions
Ġi ii
Ġsee k
Ġimp at
p lace
Ġplay ed
Ġsing ular
Ġw ag
Ġlift ed
Ġdis s
che n
Ġse ized
Ġce ased
Ġear l
Ġshi ps
Ġexcite ment
r it
Ġjo in
Ġpop ular
Ġpa used
Ġaug ust
Ġqu al
st airs
Ġaw ful
Ġcont ro
Ġfl ower
Ġwel come
Ġun ha
Ġt aught
ain ted
er al
Ġrem ind
Ġcou ple
Ġun ited
Ġpri est
1 0
Ġinst antly
ver t
Ġbeg un
Ġc art
Ġmist ake
h us
Ġhear ing
Ġdesp air
Ġsupp er
Ġter ror
Ġsu it
Ġm ile
Ġnecess ity
Ġregard ed
e en
Ġv ic
b re
l ong
ent al
an n
Ġcor respo
Ġla mp
Ġcent ury
Ġcha mber
Ġd ouble
as m
Ġpro spect
Ġunder t
-- '
Ġextraord inary
Ġrequ ired
Ġsi gh
Ġnever theless
ang ers
Ġking dom
Ġabs ence
ac le
ill y
Ġp ier
Ġse ason
Ġf les
Ġadm it
Ġlou is
es e
Ġproceed ed
Ġn amed
Ġa ck
Ġi ce
le ep
Ġcl ub
Ġth ri
Ġsplend id
Ġc up
Ġexp ed
s om
Ġinform ation
b id
Ġthink s
Ġprin cess
hi b
c ar
Ġgr as
our se
Ġstrugg le
Ġhor ri
all ed
Ġack now
Ġgun s
Ġfr uit
Ġser ve
Ġho sp
Ġacquaint ance
Ġun known
Ġl one
Ġa le
Ġ âĢĺ
Ġsc he
Ġr ome
Ġfall ing
ust ed
Ġs en
Ġcoll e
Ġhop es
Ġpart ly
Ġte nd
Ġl in
Ġc ult
Ġob ey
e ms
Ġ1 4
Ġcor re
Ġda ily
au nt
Ġcall ing
Ġpower ful
or ous
ons cious
w ick
ie ce
Ġkne es
Ġeduc ation
Ġresol ved
Ġcarry ing
Ġinterest ed
Ġkind ly
Ġse vere
Ġrem ains
w in
Ġprin ciple
l ady
Ġsho p
ad ing
Ġconte mp
Ġres ist
ustom ed
Ġpull ed
" --
p ro
Ġmid st
Ġref used
Ġd or
an y
Ġbra in
Ġse ated
Ġm ult
Ġmin ister
Ġbri ll
Ġc y
Ġp ause
Ġuse ful
at ures
r ant
Ġt ent
be ll
Ġtemp le
la m
Ġhi t
Ġf et
Ġposs essed
Ġst ones
Ġfair ly
Ġp ill
Ġcom r
Ġ1 3
Ġex ceed
Ġcons cience
Ġsi ze
Ġvo y
d ra
Ġb ishop
os ing
Ġ âĢĻ
Ġstand s
Ġbab y
Ġde pend
Ġconsequ ence
s ir
Ġc hat
Ġprof ession
Ġfles h
or ious
Ġs ought
ri son
Ġe tern
Ġpresent ed
n et
Ġse vent
m at
Ġlove ly
Ġte le
iss ion
ers on
Ġbu y
Ġshout ed
. [
an cing
Ġg ay
Ġv ague
Ġcomfort able
olog y
Ġch oose
Ġl y
Ġclear ly
Ġind if
Ġbl ank
Ġsty le
Ġfreed om
Ġser ved
li er
Ġsk in
Ġexpl an
Ġgl anced
Ġcur t
Ġde lay
Ġdescri bed
Ġprison er
Ġpat ri
Ġas leep
Ġcli ff
Ġlab our
Ġeld er
Ġdro p
Ġp an
Ġvo ices
Ġt ask
em ies
Ġhig hest
Ġl oose
Ġar thur
Ġwis dom
Ġwat ers
Ġm ach
Ġcon vi
Ġhop ed
l st
Ġp in
m as
Ġ ze
Ġroom s
Ġsa f
Ġboat s
Ġsc at
Ġm i
Ġmur der
Ġret reat
Ġen emies
Ġmil itary
Ġbo b
Ġcol or
Ġc ig
Ġrom an
ustr ation
Ġw es
Ġthom as
Ġwho lly
Ġcontr ary
Ġcred it
Ġst ars
Ġas semb
Ġad o
Ġh ut
Ġdoll ars
ru ction
Ġf red
Ġar ch
Ġwe ary
ak er
Ġsome body
Ġgri m
Ġkind ness
c ause
ne w
Ġd ir
Ġl ion
Ġh orn
Ġpoet ry
Ġdiv ine
f ic
Ġm ood
Ġm aint
ha s
Ġp il
Ġgrou p
Ġsome how
ur d
ul ated
ust ri
Ġexc ited
id ing
ld om
Ġa ra
t hi
Ġclose ly
k y
ens ive
Ġsc ott
Ġru in
Ġext ent
z y
Ġti m
Ġfr anc
Ġdign ity
Ġcon ne
ab el
Ġam id
Ġstri ke
Ġint ention
Ġb ree
Ġcomplete ly
gy pt
Ġind ians
Ġprodu ce
Ġdisco ver
Ġper form
Ġle vel
b orn
ri l
f a
Ġre asons
Ġo x
Ġass ert
Ġto t
Ġs me
Ġk en
1 7
Ġas king
Ġli m
Ġwr it
Ġresp ons
ast ic
er ous
Ġd ying
Ġgovern or
Ġy o
1 5
x ed
ou l
Ġh un
Ġsmo oth
is her
Ġno ve
Ġcloud s
Ġdis m
Ġrel ations
Ġvis ion
Ġdelic ate
Ġvirt ue
an cy
Ġprincip les
Ġarri val
Ġgrad ually
b ers
Ġp ardon
Ġprofess or
Ġlo ver
Ġphi lip
Ġthr ust
ve y
Ġam a
Ġpl enty
Ġmess age
Ġan ger
Ġdo ors
Ġin vent
Ġsc ra
Ġsm ith
Ġspr ang
Ġj es
Ġcent re
Ġsome where
Ġdisc uss
Ġcuri osity
Ġbet ray
Ġimm ense
Ġs ar
Ġinde pend
Ġri sk
Ġrelig ious
Ġha n
Ġcle ver
Ġcap able
Ġrapid ly
Ġbod ies
Ġf light
Ġa head
Ġun ex
Ġet c
Ġpract ice
Ġgu ide
Ġj ul
ink ing
Ġmon t
Ġaccept ed
Ġman age
Ġcrit ic
Ġcit iz
Ġnation al
Ġe ase
Ġtreat ed
Ġob v
ac es
Ġas h
oura ble
hus i
Ġcare ful
Ġthe ory
Ġrep ro
Ġdes ired
Ġgen ius
Ġesc aped
Ġburn ing
Ġc rew
Ġsent iment
Ġvol ume
ie ur
row s
Ġisland s
Ġfem ale
Ġfam ous
Ġconst ant
Ġconsider ation
Ġme as
Ġcra w
Ġho llow
n al
Ġinno cent
Ġbar on
as ant
Ġacc ustomed
i est
Ġhor ror
Ġele ct
ha nd
Ġliter ature
Ġj an
ign ed
Ġprot est
the se
Ġent husi
Ġlar ger
Ġpres sed
b u
Ġend ed
pect ed
Ġme mbers
Ġf ought
Ġman if
Ġda wn
am s
Ġwhi sper
Ġwor n
Ġdo gs
pt ed
Ġyoung er
Ġinterrupt ed
Ġmurm ured
Ġconte mpt
Ġinha bit
ig hed
Ġanx iety
Ġinf inite
Ġ --
ke ep
Ġg rief
Ġinqu ired
Ġconv in
Ġmis erable
Ġfaith ful
j ection
Ġdeep ly
Ġobject s
Ġ( _
Ġvis ible
Ġfright ened
en a
Ġhe ll
Ġre semb
Ġmetho d
Ġse ldom
Ġinv ol
Ġst ories
Ġdi ff
Ġfa re
ul s
Ġreco ll
Ġst at
Ġinc ident
Ġgod s
Ġnew sp
t r
mon y
Ġsac red
Ġam use
Ġbe hold
Ġemplo y
tw o
ir m
i ven
Ġexc use
ha med
Ġadvent ure
Ġab and
Ġwhen ever
Ġsoft ly
Ġnodd ed
Ġeng age
is c
b or
al ing
bo ard
Ġsu p
p he
b ing
Ġneed ed
Ġtra il
Ġo ce
Ġsaf ety
Ġob st
Ġlo g
Ġdom estic
Ġimp er
Ġfield s
ons ieur
z a
w ar
Ġa im
Ġc ord
Ġevid ent
Ġproport ion
Ġth under
Ġthorough ly
Ġg ained
Ġst airs
Ġun able
Ġsc en
Ġfig ures
Ġrus hed
Ġcur rent
Ġbe aring
Ġbo som
Ġe gypt
Ġl it
Ġca val
om s
Ġtriump h
Ġre cei
Ġcons ult
Ġst uff
Ġmore over
Ġwas hing
ab out
Ġo li
Ġthrough out
se c
us hing
Ġun us
Ġfe atures
Ġr ust
Ġutter ly
Ġ vers
Ġappro ached
Ġhad n
Ġsound s
Ġbe w
; "
as hing
Ġhigh ly
al ian
Ġfing er
Ġfe e
Ġfif teen
Ġhi dden
Ġobt ained
Ġarr anged
Ġpl at
Ġpub lished
oo p
Ġhelp ed
Ġref er
re m
Ġas hamed
Ġm ate
Ġadd ressed
Ġmyster y
Ġli mb
oint ment
Ġcho ice
st e
Ġsc orn
Ġent rance
Ġ2 0
miss ion
Ġextreme ly
Ġplay ing
Ġinqu ir
Ġro lled
Ġman ners
Ġj u
ar se
ut ation
Ġthro at
Ġt ight
Ġdep th
Ġm ild
Ġme lan
Ġg ently
on ly
Ġb ul
Ġevery where
t han
Ġpro posed
id s
Ġpat ient
s ue
Ġshe ep
Ġpart ies
ac hes
Ġconcl usion
v a
Ġn av
Ġco ver
Ġcoun cil
Ġn erv
f all
Ġbring ing
f ive
Ġfriend ly
ac he
het ic
Ġl ing
Ġtell s
Ġgr ate
Ġsp are
at ory
as y
Ġsubject s
Ġwo ndered
Ġremo ved
Ġ Â
i ance
a iled
Ġcirc le
Ġmu d
1 2
Ġwe ap
not hing
Ġman kind
Ġcharact ers
Ġlone ly
Ġtra vel
Ġdoubt less
Ġrel ation
Ġkit chen
wor k
Ġshow ing
Ġun p
ac ed
ar r
Ġfo ld
Ġadmir ation
Ġpract ical
Ġre du
Ġst out
Ġst an
Ġste pped
Ġdisp lay
Ġjo b
Ġcon vent
Ġqu ality
Ġconn ected
o es
Ġoccasion ally
pe lled
Ġsuff ering
Ġpi pe
Ġb ought
Ġex ha
Ġfly ing
Ġst iff
Ġincre ased
ful ness
Ġs our
Ġmiss ion
Ġr um
os es
Ġconst itution
up on
Ġobser ve
Ġjo e
Ġforg ot
Ġnot es
ul se
Ġunha ppy
ha d
ar a
ent h
ous ed
Ġconf usion
Ġdoct r
ud ing
Ġje alous
Ġ[ _
Ġneg le
ing ing
in te
Ġgre et
Ġoce an
Ġexc han
Ġn ay
Ġreturn ing
i ct
Ġsec ure
Ġg rie
Ġdistingu ished
Ġcott age
Ġappro ach
Ġl est
Ġi rish
at ors
Ġsign s
Ġforg ive
ent ial
Ġre ndered
j ud
Ġbecom ing
i ation
Ġbecom es
Ġdisappe ared
Ġha lt
Ġnum bers
Ġmyster ious
he ld
Ġc ard
Ġbla me
b ook
Ġs ons
Ġbu ried
Ġbrother s
Ġslight ly
Ġget s
Ġplain ly
Ġconcer ning
Ġcler gy
am ing
m ble
Ġwis hes
Ġincl ined
Ġk ings
Ġre ward
Ġlau ght
Ġspan ish
Ġmagn ific
um ber
ist r
Ġru de
Ġrus h
Ġab st
Ġaccompan ied
gg ing
Ġke y
Ġwhi lst
ĠĠĠĠĠĠĠĠ Ġ
Ġrus s
Ġlaught er
Ġsp ort
Ġho le
er or
Ġre ven
Ġunc onscious
Ġb ase
f our
Ġme al
Ġprev ious
Ġqu ant
Ġtit le
Ġsha de
Ġf led
Ġcho sen
Ġalar m
h or
Ġreck on
Ġpre cious
1 6
Ġwas te
Ġg reek
Ġas pect
Ġ {
or ing
Ġwhe el
a ult
Ġw ound
Ġcreat ures
Ġchar ming
Ġsuffic iently
Ġce re
Ġha w
f ied
Ġvoy age
Ġappre ci
Ġsupp ly
Ġche eks
Ġte ach
i able
Ġpray er
Ġabs urd
Ġser ies
be cause
Ġunderstand ing
Ġfle et
Ġp ad
Ġpur cha
Ġe mer
Ġconc ern
Ġswe pt
Ġsp ark
Ġcat tle
Ġlist ening
Ġfan ci
Ġphys ical
Ġhab its
ci al
Ġda vid
i qu
z ab
Ġbr ow
o le
Ġdelight ed
Ġpre par
Ġ18 6
Ġher s
Ġemplo yed
it ure
Ġstri ct
Ġcon ven
Ġab road
c ast
Ġnot ion
nd y
1 3
Ġpap a
Ġr ad
Ġno b
Ġem otion
Ġargu ment
Ġbre aking
Ġthan ks
g aret
ur ity
Ġas ce
ut en
st ep
a per
cho ly
Ġbar bar
Ġchar m
Ġd ance
Ġunt o
Ġm our
Ġj ane
Ġw ra
pe l
Ġlu cy
Ġche ek
Ġlu x
Ġdut ies
Ġed ward
li st
Ġdisco very
Ġcomp li
Ġfrequ ently
Ġint ense
Ġm ic
Ġp icked
Ġact ive
Ġwhi st
Ġprob able
Ġstri king
Ġmart in
Ġste ep
Ġp red
Ġsc r
Ġadd ition
Ġbri g
Ġprincip al
Ġl ately
Ġliter ary
Ġe aster
Ġg ain
Ġthe at
is ions
as es
ra ce
um es
Ġbl essed
Ġsla ve
Ġmelan choly
Ġp ushed
Ġstrong ly
Ġsle pt
Ġfl ung
Ġassist ance
n el
Ġfe ver
Ġexplan ation
he l
Ġind ul
Ġold er
lic ity
er ves
Ġag es
Ġfriends hip
Ġm ing
n or
ad s
mo d
Ġscot land
Ġprot ect
Ġint im
Ġse ll
Ġunc om
Ġhither to
ill ustration
Ġtri al
iz ing
Ġdri ft
Ġspe nd
g ate
Ġsol id
Ġimmedi ate
e ous
i ments
Ġk issed
Ġf ri
as ing
ac les
Ġfore head
Ġty pe
uri es
Ġdist ress
Ġhist or
Ġste ady
Ġli ber
Ġdesper ate
1 4
m aster
Ġde pe
Ġavo id
iz ation
= =
Ġrec om
ac on
ative ly
Ġra ge
Ġhunt ing
e ll
Ġme mber
Ġga zed
own ed
Ġintellig ence
Ġunfortun ate
Ġw ing
ri ch
Ġche st
Ġto wer
Ġma le
Ġquar rel
Ġ ...
Ġw ings
Ġinterv iew
Ġs om
Ġw retched
Ġsing ing
Ġca b
Ġnat ives
Ġga ze
Ġh ind
Ġrevol ution
Ġmer chant
Ġpo em
Ġst up
Ġsou ls
Ġdevelo p
ut ions
m ate
Ġpat ience
gg s
Ġnum erous
om in
Ġprof ound
Ġb ol
Ġmer ry
Ġdream s
l ow
Ġill ustr
Ġde ce
Ġsuspic ion
Ġn ations
Ġfranc is
Ġph r
Ġfe ared
p her
Ġweak ness
Ġun s
Ġinf er
Ġlight s
Ġconvin ced
Ġener gy
Ġcontin ue
Ġinterest s
Ġrid ing
Ġj ac
Ġestab lish
Ġst ared
Ġmat ch
umb led
Ġaffect ed
Ġp ant
Ġper ceived
Ġwhen ce
Ġaw a
ub lic
Ġinter p
al es
Ġl ack
Ġaccord ingly
Ġdescri ption
Ġsa int
Ġeffect s
Ġo ak
e ven
Ġunex pected
Ġm onsieur
Ġra ise
Ġce le
v y
Ġcorre ct
Ġprop os
e very
Ġe cho
Ġpu zz
Ġinf ant
Ġatt itude
id ay
Ġchief ly
Ġpra ise
Ġs out
ed ing
Ġviol ent
Ġg la
Ġacqu ainted
Ġparent s
g on
Ġacc ur
Ġcons ent
Ġman aged
Ġcri me
Ġsu s
Ġcomm ission
Ġvi ctor
ill a
Ġshow s
Ġdom in
Ġw ard
oun ce
Ġre nder
Ġind ia
Ġsurr ounded
Ġpl ans
Ġtroub les
Ġar rest
k ins
Ġen orm
Ġshi r
u ch
il ty
Ġfo x
p ort
Ġprison ers
Ġwid ow
Ġvir gin
Ġnar r
Ġcol umn
Ġcra ft
Ġgener ous
Ġre ar
Ġpre ced
b ro
Ġpro sper
Ġst ret
Ġw re
Ġend s
Ġcor p
Ġa pt
Ġl an
Ġmam ma
Ġfra me
Ġsh ining
Ġthr one
Ġreg iment
Ġcl oth
w a
Ġp ed
Ġwor ship
Ġin formed
ag ger
Ġa y
Ġab rupt
Ġtremb ling
Ġdelight ful
Ġob sc
t ho
uri ous
Ġmis ery
Ġexcept ion
Ġart ist
Ġignor ant
Ġsk ill
Ġmount ed
Ġp ist
Ġcomp osed
Ġdeli ber
2 0
ge on
Ġque er
Ġpre cise
Ġor na
Ġte xt
Ġinhabit ants
ol s
Ġper pet
are st
Ġpl ate
Ġkn ife
Ġans w
Ġopin ions
p r
Ġst retched
ic ip
Ġcons id
w ing
Ġa ver
Ġa rose
Ġcall s
l ot
Ġneed s
t es
Ġpro ject
Ġut tered
Ġg est
Ġr ang
ind e
Ġb owed
Ġprom pt
Ġr al
Ġset ting
ri m
m et
Ġtre asure
Ġhorri ble
ul ate
Ġdi am
d es
Ġpr ote
zab eth
Ġcorrespo nd
Ġwes tern
su ch
Ġha unt
Ġeffort s
Ġact ual
c u
Ġdis posed
Ġsub s
Ġdec l
Ġcal cul
Ġc oo
ri se
Ġestab lished
v ol
Ġbrill iant
Ġann ounced
ffe e
Ġdes ir
_ ;
an a
Ġhang ing
Ġmag ic
Ġshel ter
Ġpro vided
Ġno vel
Ġdifficult ies
Ġhouse hold
et te
h um
Ġs well
Ġexer cise
Ġtele gra
Ġinv est
Ġhast ily
b our
Ġm au
Ġview s
stand ing
Ġcele br
Ġbran ches
g od
Ġn ap
il ities
Ġspirit ual
Ġamong st
Ġlean ing
Ġuse less
Ġfin al
Ġconscious ness
Ġs ang
Ġv ac
Ġlike wise
Ġtrans l
Ġed ition
Ġval u
Ġm ental
t ime
e ve
Ġtra mp
Ġ2 5
Ġral ph
Ġse es
Ġim age
uten ant
a e
Ġwa ist
ord er
Ġpain ted
Ġun ion
j e
Ġwr iter
Ġrid ic
Ġli br
Ġfe ather
Ġint ent
ud es
Ġvent ure
i ries
m other
Ġa ven
Ġref use
Ġro pe
Ġwar ning
Ġshad ows
Ġlean ed
ens ion
Ġex ert
Ġsha ke
Ġturn s
en ger
n ay
Ġsuccess ful
Ġapp ointed
Ġs cient
iv ity
h on
Ġlight ed
Ġlaw yer
Ġs ank
ink s
Ġar med
hi c
Ġstup id
o ke
Ġlea f
Ġrequ est
Ġeager ly
Ġa x
Ġb ones
Ġrep ublic
Ġany where
ri et
Ġpres ident
Ġcolle ge
ur ance
Ġnor ther
Ġneg ro
Ġres umed
Ġvict ory
Ġco ffee
Ġhand ed
Ġit alian
Ġgu est
Ġmad am
Ġwar ri
p hy
Ġfar mer
l iness
Ġnur se
w r
it ate
Ġrequ ire
Ġscat tered
ren ces
Ġu g
Ġr ange
Ġright s
Ġ3 0
w ould
Ġappe al
Ġreco vered
Ġn in
Ġut most
Ġcons ist
Ġsqu ire
Ġpro vid
Ġchan ges
---- "
ot es
Ġv ul
Ġlab or
Ġsche me
Ġcop y
Ġeng ine
Ġrest ra
cri pt
um s
sh ine
Ġgu ilty
Ġbott le
Ġret ired
Ġsacrif ice
Ġfat al
Ġal t
Ġgl orious
Ġi dle
Ġwhi r
Ġde l
Ġcircumst ance
Ġfour th
Ġgu ests
Ġetern al
Ġconne ction
Ġbe ach
Ġg ift
1 9
gra ce
Ġr at
Ġhum ble
lu de
Ġvar iety
Ġest ate
Ġcontemp l
Ġwal ter
Ġso vere
Ġpo pe
Ġhes itated
Ġimpro ve
Ġcult iv
Ġri g
Ġshould n
Ġsho ck
Ġdef ence
Ġsli pped
ons ense
Ġs isters
he arted
i k
en n
and er
Ġst amp
Ġmark et
Ġjes us
Ġp ig
Ġneare st
Ġdesce nded
at ch
d ed
Ġoccas ions
Ġa like
Ġwind s
Ġit aly
Ġco ach
Ġch in
Ġfollow s
Ġd ared
Ġin ex
Ġme at
Ġre ference
ct ive
Ġappro aching
Ġour s
Ġborn e
Ġy ard
Ġbr id
Ġf ired
Ġincre ase
Ġbe ard
Ġobt ain
Ġspe cul
r idge
Ġmut tered
un ning
Ġcler k
Ġthousand s
, âĢĻ
Ġpr on
Ġange l
Ġacknow led
Ġo ct
Ġp ow
Ġcoll ect
Ġg ates
Ġconcl uded
l ers
Ġbo ots
Ġman s
v ity
Ġpo l
Ġbr ide
Ġdepart ure
Ġvan ished
Ġlo ft
Ġfle w
b ack
Ġsw all
Ġex hib
Ġtroub led
Ġintrodu ced
Ġcomple x
Ġid ent
Ġnerv ous
Ġsecret ary
Ġvict im
Ġb ark
Ġfl ood
Ġac hi
Ġd ave
Ġcond em
our ing
Ġla p
Ġgrand father
Ġpain ful
Ġde mon
Ġmar garet
Ġma x
ound ing
Ġmist aken
Ġw ave
Ġbank s
u el
Ġsort s
Ġprote ction
Ġsun shine
Ġle ap
Ġrec on
Ġca uses
Ġpriv ile
Ġc ries
Ġsout her
Ġwa ves
Ġdi vided
Ġcheer ful
Ġn et
Ġsha kes
pe are
Ġdeg rees
Ġper mitted
Ġa mp
i ction
Ġsepar ate
by e
Ġsha king
ur a
Ġact ed
Ġkind s
Ġproper ly
Ġnorther n
al og
Ġun if
Ġcount ries
Ġa st
Ġdev oted
g ent
less ness
Ġatt ached
Ġass ure
n on
se y
Ġatte nded
Ġremark s
oo ls
Ġfor bid
con om
li a
Ġsc ore
Ġqual ities
Ġlear ning
Ġcont ri
Ġb ert
Ġsc ri
Ġmean while
Ġl ane
Ġs ne
Ġe lo
ou rage
Ġfor ces
r ous
Ġt u
b ow
Ġviol ence
Ġcomp re
Ġe ve
gr ound
Ġd ate
g est
Ġcontr ast
Ġpo ems
m or
Ġto ler
ment ed
Ġfree ly
Ġgi ant
Ġsleep ing
ri ck
Ġden y
Ġi re
Ġcont ained
Ġpr ud
Ġins ult
Ġwood en
Ġto w
Ġse as
w ater
Ġt ide
Ġa rist
Ġmanif est
Ġsens ible
Ġdet ails
Ġfanci ed
Ġ 't
Ġse ar
Ġser iously
in ity
Ġcommand ed
Ġgood s
Ġdire cted
Ġg if
Ġpo ison
Ġin her
Ġfl ore
Ġdestro yed
Ġcoun ter
at ched
Ġimag ined
Ġtra ck
pt ure
li est
Ġ2 4
Ġlie utenant
Ġpart ed
ĠĠĠĠĠĠĠĠĠĠĠĠĠĠĠĠ Ġ
Ġins isted
Ġignor ance
Ġmove ments
Ġspan i
Ġsail or
Ġobser v
Ġca ve
Ġear lier
Ġbe held
Ġobser vation
Ġbus h
Ġwashing ton
Ġs ighed
Ġcoun sel
Ġt ha
Ġstrong er
Ġphilosop hy
a cious
Ġp ir
th us
Ġeli zabeth
Ġdr unk
Ġemp eror
Ġstead ily
Ġter m
Ġenglish man
che ster
Ġfla me
Ġagree able
s ay
Ġmar ble
r ors
hi re
f l
Ġst aring
Ġconvi ction
me an
olog ical
Ġgro an
Ġun re
om an
Ġe conom
Ġide al
ir d
Ġali ce
c est
Ġcry ing
ĠĠĠĠĠĠĠĠĠĠĠĠĠĠĠĠ ĠĠĠĠĠĠĠĠĠĠĠĠĠĠĠĠĠĠĠĠĠĠĠĠ
Ġany one
Ġsh one
Ġoffic ial
en gers
Ġstate ment
Ġsw im
Ġenjo yed
Ġstep hen
be y
Ġso lit
Ġgrate ful
Ġresult s
Ġshe ll
Ġca red
Ġp ha
o ck
Ġport ra
Ġunivers al
Ġgr an
Ġexped ition
Ġrecogn ized
Ġtra ce
Ġgall ant
Ġcol on
Ġbeg ged
n ce
Ġslight est
ump t
Ġlead er
Ġal as
Ġaston ishment
Ġrepres ented
p ent
t ake
Ġfol ks
Ġme chan
l est
Ġsla ves
e g
Ġattemp ted
Ġpro ble
Ġdist ri
Ġre new
Ġkno cked
nd ers
Ġlo ck
ot ted
Ġfamil ies
in ction
Ġscient ific
3 0
Ġele ment
Ġha ted
mo sp
Ġlo ving
let s
Ġconst antly
Ġchrist mas
Ġo d
Ġri fle
Ġinter fe
Ġhung ry
Ġfe ast
Ġgrave ly
oh n
Ġwith dra
Ġemb arr
Ġse pt
Ġresol ution
Ġj ones
Ġcl ay
Ġreal ity
Ġug ly
Ġadm ire
Ġtemp t
Ġw ha
Ġemp ire
Ġti ed
Ġlibr ary
Ġapart ment
Ġdisp osition
Ġunus ual
Ġhast e
Ġ18 2
ro ld
Ġwonder ing
Ġvis ited
Ġn est
Ġthr owing
Ġlo ves
Ġre n
Ġob ed
Ġartic le
Ġres c
Ġn aked
Ġbelong ed
Ġp ages
is hes
Ġab und
d a
Ġsk et
Ġenorm ous
Ġat mosp
Ġsince re
Ġsharp ly
Ġj une
Ġcha p
Ġpre c
Ġquant ity
Ġsmall er
Ġthen ce
Ġyo nder
Ġth ine
k ward
Ġwild er
Ġtri ck
Ġmagnific ent
ct ing
Ġsent ence
Ġn on
Ġr ud
Ġatt ract
ĠĠĠĠĠĠĠĠ ĠĠĠ
Ġfo lly
Ġro ll
f act
Ġele ven
Ġstr angers
bur g
y ard
Ġdis g
Ġire land
ic o
ad a
min ation
Ġga zing
Ġant icip
Ġdeli vered
Ġvul gar
u ary
Ġright eous
Ġheav ily
Ġinquir y
ra nd
fe rent
Ġquar ters
j ohn
Ġnight s
Ġcan oe
-- -
Ġaw kward
Ġbree ze
er o
Ġdis char
Ġrest ed
Ġvalu able
Ġpur sued
Ġcrowd ed
are r
Ġbut ter
Ġso il
ant e
n ation
Ġl un
Ġcomp ass
Ġf il
Ġdoctr ine
Ġslo pe
Ġvisit or
Ġsouther n
Ġmort al
Ġal oud
Ġm as
Ġste el
Ġme ad
Ġper ple
Ġte ar
Ġpl un
Ġgra cious
Ġdan cing
Ġfe ars
g ments
ol ation
Ġfavour ite
Ġre ign
Ġpur ple
Ġw ake
Ġgrat itude
Ġo ath
Ġse am
inde ed
ĠĠĠĠĠĠĠĠĠĠĠĠĠĠĠĠ ĠĠĠĠĠ
Ġcl as
Ġne at
c ra
iv al
m ad
p res
u ine
ul a
Ġobv ious
Ġf ulf
Ġtor n
Ġr ay
Ġimp ulse
Ġunc ertain
om ed
Ġj un
Ġdesert ed
Ġcare er
Ġfare well
ri er
Ġcre pt
b et
Ġself ish
Ġenter pri
Ġconce al
Ġre le
Ġaston ished
Ġfirm ly
Ġale x
Ġin se
Ġeaster n
Ġta x
Ġcontro l
Ġan no
Ġtown s
Ġout er
Ġact s
Ġp all
Ġd il
-------- --------
Ġarchi te
or al
Ġaw ake
umb ling
v in
Ġgr in
Ġby ron
Ġdest ruction
Ġsil k
Ġb ath
Ġstart led
Ġdistur bed
at ives
Ġatt ribut
Ġcomm er
Ġd ed
Ġintellect ual
z ard
ker chief
Ġb ade
Ġlo cal
Ġcontin ually
Ġsuggest ion
Ġp aint
Ġdri ving
Ġd us
Ġdi se
Ġsix ty
Ġsal t
Ġtre mend
Ġsovere ign
ho lic
Ġst ag
Ġro ar
Ġdef inite
Ġro bin
Ġfol k
Ġe la
lic ation
ter y
Ġh int
Ġfa me
Ġcont ribut
po or
Ġcol ours
Ġj ose
Ġclass es
re ls
Ġf ix
Ġst air
Ġhi d
worth y
Ġconsid ering
) ;
Ġm ixed
Ġs es
p ot
Ġpoint ing
Ġcho se
iven ess
Ġcomm itted
Ġpa ce
Ġland ed
Ġwand ering
st ill
Ġe ating
ck ets
Ġf ried
ĠĠĠĠĠĠĠĠ ĠĠĠĠ
Ġfall s
Ġd ur
Ġob jection
Ġexc l
Ġmil k
p ic
m ary
ot hy
Ġartic les
te ll
ar i
Ġto mb
Ġso re
Ġconf ident
quis ite
Ġpre jud
Ġfind s
Ġearnest ly
Ġs ins
Ġle aped
Ġb i
Ġcomp et
u ge
Ġas certain
Ġro s
Ġground s
Ġre nt
Ġapp lied
ak s
Ġarrange ment
Ġhor iz
c ence
Ġro llo
Ġdra gged
Ġdec ision
Ġow ing
Ġcha mp
than k
Ġatmosp here
Ġn i
Ġde arest
Ġdut ch
Ġrefle ction
is ation
Ġsum mon
Ġ2 2
b on
' .
Ġstay ed
g reg
l eness
1 1
Ġhum our
Ġlo yal
Ġan cest
Ġrespect able
Ġlord ship
] .
Ġp oured
Ġinc on
Ġtor t
Ġsens es
Ġfrequ ent
ab led
Ġtou ching
Ġbenef it
Ġfair y
Ġremain ing
Ġb ask
Ġbran ch
is ure
Ġdesce nd
Ġdis cip
Ġper ceive
Ġmid night
Ġo s
Ġdevelop ment
Ġunif orm
Ġg al
e ld
Ġsign al
Ġpolit ics
Ġswe ar
Ġsa x
oo f
Ġs ed
Ġcomp ared
Ġdestro y
Ġe min
Ġmeant ime
Ġbeast s
Ġcount y
Ġsk i
Ġenc oura
Ġpop ulation
de ar
Ġvi vid
Ġsolit ary
Ġa u
Ġcom pelled
bo y
Ġte acher
Ġser ge
Ġash ore
f ir
Ġt ick
Ġexam ined
Ġle e
Ġhuman ity
s omet
Ġex quisite
Ġvi o
Ġelse where
Ġad am
s ure
ca pt
Ġsafe ly
Ġdaught ers
Ġindif ferent
th ree
Ġpr inted
Ġdisapp ointed
Ġme lt
Ġp ink
Ġno on
Ġth orn
Ġass umed
Ġlord s
Ġ2 6
Ġsmo king
ver ted
Ġlad s
Ġent ering
y et
Ġce ll
Ġexte nded
Ġcha in
Ġve get
Ġpro vo
Ġmis chief
Ġexc ess
Ġbus hes
Ġcat holic
Ġle isure
Ġdistinct ly
Ġmaid en
Ġ2 3
Ġsign ific
Ġing en
Ġr out
Ġt um
Ġb ust
Ġm ast
Ġswift ly
lo ved
Ġgli mp
hen om
Ġcaval ry
Ġbo ston
Ġshi ft
Ġgener ation
Ġ2 9
Ġabs or
Ġserv ices
Ġfla g
Ġun like
Ġpun ishment
Ġpo lic
Ġper il
Ġdeep er
Ġrelie ved
Ġpurp oses
Ġdin ing
Ġur ged
Ġpre cip
b el
Ġsp ain
Ġp ars
Ġdecla re
it ch
Ġhe ir
Ġbew ild
Ġty r
Ġsho es
Ġd oth
Ġad a
keep er
Ġsubst ance
Ġp henom
he m
Ġexperi ment
Ġsad dle
Ġburn ed
Ġgard ens
Ġca ut
be fore
Ġsch ol
Ġlight ly
Ġshort ly
Ġ2 7
Ġfan ny
Ġun ple
or ation
Ġsuspect ed
Ġc unning
Ġbat t
Ġrom ance
Ġlimb s
che l
Ġconsequ ences
Ġst ated
Ġsa iled
Ġdisc us
Ġelo qu
Ġcand le
m ans
Ġvol unt
Ġaud ience
Ġexceed ingly
Ġwhere ver
nat ural
Ġan ch
Ġkne e
Ġ2 8
Ġinc hes
Ġsur re
Ġg ang
Ġbar n
Ġsepar ated
e re
Ġx v
Ġsav ages
ĠĠĠĠĠĠĠĠ ĠĠĠĠĠĠ
Ġscen es
Ġin ner
Ġdrink ing
Ġvessel s
Ġso ot
Ġr as
Ġsuper st
Ġj uly
Ġmaster s
Ġpo ets
Ġf ed
Ġbe ings
Ġqu i
Ġmar ched
__ __
m ind
Ġwant ing
Ġpursu it
Ġfail ure
Ġg ig
Ġlo cked
m ons
Ġcont ents
Ġdepart ed
Ġbill y
Ġhelp less
Ġver se
Ġbad ly
Ġrom antic
Ġrail way
u ce
Ġday light
Ġkno ck
Ġche ap
Ġelect ric
Ġfl ash
it z
Ġadm in
c ase
Ġrep utation
ol en
Ġsh rie
Ġcent ral
Ġgerman y
Ġs ie
Ġbur den
Ġenthusi asm
Ġdistur b
Ġg ree
Ġse nding
Ġdis ag
in o
Ġcount ess
che ss
Ġb ud
Ġb orrow
Ġcow ard
Ġcle ared
Ġgest ure
Ġj ar
Ġcoll ected
Ġphi l
Ġconf used
Ġess ential
Ġp up
at a
Ġe h
Ġdiam ond
Ġposs ibility
Ġless on
Ġdeb t
Ġabs ent
Ġdiscuss ion
Ġdis grace
ri ca
Ġwr ath
Ġbro ok
Ġal ter
or ary
Ġrem ote
Ġze al
Ġdisapp ointment
Ġrec all
ha el
Ġro lling
is p
co at
l ance
Ġn onsense
x ter
Ġgood ness
Ġse ed
Ġin ev
Ġindign ation
Ġhe d
Ġthi ther
Ġwhi t
Ġwo lf
Ġopp osition
Ġsat ur
Ġdis gu
Ġread ily
Ġpolic y
Ġin ch
Ġru ff
m al
Ġinv ited
, [
Ġ18 3
Ġstra in
Ã ¨
in c
ing ton
Ġaut umn
Ġdr ank
with standing
Ġf ires
ve t
Ġu lt
Ġadmir al
Ġfur y
v il
c ut
fir st
Ġstru cture
r ate
ll ers
Ġdeli ver
Ġs illy
Ġneighb or
Ġj on
is er
Ġspeak s
ri ce
in ate
o ber
Ġfurn ished
Ġhar sh
it ating
Ġtrave lling
. âĢĻ
iet ies
Ġexp osed
w art
Ġli qu
gen eral
Ġc ities
Ġpil g
Ġm ul
Ġr uth
Ġappre hens
Ġafter ward
Ġmis sed
Ġ18 5
Ġflore nce
Â ł
Ġchar ged
head ed
Ġabrupt ly
bo at
Ġadvent ures
Ġbar g
Ġbo ast
Ġc ad
Ġed itor
Ġsu st
Ġmar ks
ren e
Ġgo ver
Ġjo ke
Ġrel ated
f red
if ying
Ġcomr ades
Ġtrust ed
Ġtra ged
Ġre form
Ġj est
sm ith
Ġphr ase
x x
Ġphilosop her
Ġreason able
Ġsail ors
Ġp ine
Ġsm art
Ġrefle cted
Ġengage ment
Ġa de
Ġco ck
Ġheart ily
Ġown er
e mber
Ġha rold
Ġat e
ru p
Ġde er
Ġtri be
Ġsup reme
u de
st y
Ġde ed
Ġsli p
Ġne phe
ha l
Ġgrow th
Ġfas c
Ġins p
Ġy er
it ute
Ġdire ctions
Ġsele ction
us ions
Ġbu ck
Ġneighbour hood
Ġprof it
Ġtr ump
Ġsw ung
Ġint r
Ġbeg ins
Ġwi ves
Ġf ain
Ġ1 1
Ġbu ff
Ġsens ation
e ves
Ġent reat
Ġstra w
Ġmed ic
ra ction
Ġje an
Ġnewsp aper
Ġrun s
Ġh ook
m ist
Ġaccomp lished
Ġjim my
Ġand rew
Ġrec ent
Ġamuse ment
* *
Ġl es
Ġref uge
Ġha y
Ġins ist
Ġsh ud
Ġexp ense
Ġredu ced
Ġrul es
Ġo t
Ġmod est
Ġcross ing
Ġt ones
Ġhun ter
Ġdisag ree
Ġal tern
Ġheaven s
Ġsound ed
Ġpl ot
Ġpar ad
Ġeurope an
Ġpe ar
Ġdir ty
Ġexha usted
Ġcharacter istic
Ġcra ck
Ġchi m
Ġenc ourage
Ġwed ding
ri ly
Ġgrant ed
Ġming led
Ġshe d
Ġto b
Ġexec ution
Ġfurn iture
Ġtheat re
Ġacqu ired
Ġtremend ous
Ġo we
Ġvent ured
z es
Ġc ant
Ġstart ing
z an
Ġpat ron
f r
Ġprevent ed
Ġmoon light
Ġhand kerchief
Ġlive ly
Ġshe et
Ġfa c
Ġland lord
Ġpray ers
Ġsteam er
Ġdist inction
Ġt ed
Ġimm ort
Ġserge ant
b ra
Ġact ing
Ġbe lt
Ġpen et
Ġmon arch
Ġth read
Ġl am
Ġso ber
Ġsh y
Ġstrange ly
Ġt id
ly ing
Ġend ure
Ġsil ently
Ġdi min
Ġreg ion
Ġgloom y
Ġclo ck
li x
Ġinc red
Ġ18 4
Ġname ly
us ive
d ig
Ġpol ite
Ġcomm enced
c ont
se en
p art
Ġt in
Ġf isher
Ġch uck
Ġf ert
Ġlu c
pir ation
Ġf ount
Ġnot ed
Ġje w
Ġsme ll
or se
Ġir res
Ġtim id
certain ly
j ac
Ġro ger
Ġper man
Ġgl ow
Ġcur se
Ġmar quis
fo ld
Ġprov isions
Ġwar n
Ġbeat en
Ġlay ing
Ġpri me
Ġk ate
Ġfore ver
Ġconce aled
g ie
Ġmem or
Ġread ers
Ġhel en
l v
Ġfet ch
Ġarri ve
pe red
Ġmill ion
Ġinvest ig
Ġb ible
Ġamb ition
Ġdec ide
oo s
Ġpos itive
ic ian
Ġdescri be
Ġmess enger
Ġam used
Ġshi eld
Ġn ed
mp h
ĠĠĠĠĠĠĠĠĠĠĠĠĠĠĠĠ ĠĠ
Ġindepend ent
Ġdoubt ful
Ġg ale
om b
Ġlo c
Ġmu se
Ġfoot step
Ġfortun ate
Ġcomm itt
Ġroad s
Ġmach ine
ern al
Ġgras p
Ġp y
Ġmar ve
Ġper mit
Ġwand ered
Ġpuzz led
Ġint imate
an ny
Ġer ror
ir ing
Ġjump ed
et t
Ġwilder ness
Ġrespect s
Ġra b
v as
Ġdar ling
Ġfin ish
Ġmus k
Ġshakes peare
pp ers
Ġin e
Ġkeep s
Ġw y
Ġgl en
v is
Ġcommand er
? âĢĿ
Ġper formed
b an
Ġal tered
Ġprop ose
Ġhundred s
Ġland ing
ff in
m ens
ho e
Ġru ined
Ġ18 7
Ġa ctions
Ġfl ow
2 5
Ġchim ney
v est
Ġra ising
Ġbelong ing
Ġup stairs
Ġatt ent
Ġdevelo ped
Ġtob acc
Ġremind ed
Ġfear ful
Ġl ur
Ġaf rica
bur gh
Ġdefe nd
Ġag ony
Ġri val
d in
Ġst uck
um in
Ġwhere as
Ġknight s
Ġcommunic ation
land s
Ġpass es
Ġd av
Ġbr ings
Ġ18 0
Ġdu chess
Ġsc and
n ut
bb ing
Ġclo ser
Ġhapp ens
Ġarrange ments
Ġjose ph
Ġdiv ision
r ated
Ġn iece
Ġap ril
Ġattack ed
Ġli kes
Ġinterv als
Ġst aff
ak ened
el ing
Ġhe els
Ġgall op
ca mp
t able
in al
Ġsun k
Ġsatur day
Ġprecise ly
m ark
ay ed
Ġgather ing
ver ty
Ġexam ination
Ġcon ceive
Ġsc ale
Ġado pted
Ġout ward
Ġsimp licity
gg y
the l
Ġdes k
Ġpor ter
Ġob lig
Ġmajor ity
Ġst or
ing er
-- _
Ġchar ity
Ġf itted
Ġfather s
Ġrev iew
Ġxx x
en g
Ġover t
Ġfried rich
Ġcon ception
Ġcomr ade
Ġsun set
Ġfee ble
b urn
Ġaccount s
Ġwor ry
Ġfl ut
Ġaband oned
Ġnot withstanding
Ġres ent
Ġde mo
Ġir r
Ġcut ting
fort une
Ġwre ck
Ġcitiz ens
t ra
re p
ĠĠĠĠĠĠĠĠĠĠĠĠĠĠĠĠ ĠĠĠĠĠĠĠ
ul ars
Ġn a
Ġadmir able
Ġhon ourable
Ġnephe w
Ġha l
Ġdo cu
Ġtal es
Ġmer it
lu ct
ress ion
Ġcar ol
lam ation
Ġn ut
Ġbr ut
go ing
Ġcontr ad
Ġpo verty
Ġreal ized
Ġtri p
Ġfeel s
Ġpri ze
Ġhe ed
vi our
Ġrest ing
Ġsour ce
Ġle ather
Ġnecess arily
Ġjour nal
Ġexist ed
Ġpri ests
Ġri sen
Ġstud ied
Ġclergy man
f aced
Ġcent uries
Ġd ou
g a
Ġexperi enced
Ġra v
Ġloft y
Ġanch or
Ġcontin u
Ġstir red
Ġl ust
act ory
Ġre ject
Ġsp l
Ġprop osition
Ġthreat ened
Ġt iny
Ġag ent
ve yed
Ġtobacc o
Ġclo ak
Ġtender ness
Ġhold s
Ġswe ep
Ġble w
Ġinfer ior
Ġp ains
Ġtre as
g ive
Ġsee king
Ġsh ri
Ġsucc ession
Ġconsequ ently
Ġmag az
Ġinstru ment
Ġco al
Ġb un
Ġrepe at
Ġinte nd
Ġridic ulous
Ġd ashed
v ant
Ġeight een
d r
Ġgen uine
Ġunple asant
Ġto il
ot ions
Ġele g
w ind
Ġfort night
Ġcuri ously
Ġtrad ition
Ġaffection ate
Ġg il
Ġdet ect
r ust
Ġche ck
ey ed
Ġprete nd
ly n
Ġst oo
Ġcreat ed
gr at
ck en
Ġri vers
Ġar d
Ġpres erved
Ġ" _
Ġbless ing
Ġw ars
Ġbed room
Ġart s
Ġcor rupt
Ġtend ency
Ġgrace ful
Ġso lic
as per
Ġfl ashed
Ġa ris
Ġf est
Ġbuild ings
Ġdev otion
, )
Ġs way
Ġre luct
Ġ ----
Ġlat in
Ġbu nd
umpt ion
li ct
Ġplay s
c ourse
ag on
d own
Ġtri fle
Ġsk ir
ro g
Ġjo lly
Ġcere mony
o y
Ġste al
Ġr hy
Ġbe loved
Ġra ces
Ġele ments
Ġen abled
Ġsc ul
m atic
u its
Ġaver age
Ġsupp orted
Ġmot ive
Ġav ail
Ġsept ember
Ġmass es
Ġre se
Ġhope less
Ġgar rison
Ġtri f
an im
Ġdet ail
ha st
is y
Ġis sue
bo x
Ġpar ish
Ġsec urity
Ġbe ating
Ġ17 9
Ġe thel
Ġman u
Ġrep ent
Ġobey ed
ain e
Ġgo in
Ġcommun ity
Ġdr um
ap ers
Ġdist ribut
Ġdistri ct
Ġda mp
c les
Ġreven ge
Ġoct ober
l ast
Ġexam ine
Ġsub sequ
Ġestablish ment
Ġhi ding
Ġme l
ĠĠĠĠĠĠĠĠĠĠĠĠĠĠĠĠ ĠĠĠ
ang led
Ġpass ions
Ġp ile
Ġdep os
we re
Ġpl uck
Ġvi i
ri an
Ġconf essed
Ġrepro ach
Ġvan ity
h ur
Ġte aching
Ġsettle ment
g re
Ġgrou ps
Ġfe ed
Ġinv itation
ert on
t ree
Ġmult itude
Ġpist ol
Ġe ust
Ġmay be
Ġres idence
ore s
Ġdoor way
Ġbr ass
Ġpr int
Ġo il
ag ain
Ġconf ined
Ġinqu ire
Ġpart ing
Ġinter ior
Ġcap acity
Ġli mit
Ġbrit ain
i el
Ġbe ars
Ġscot ch
Ġbitter ly
Ġd ub
Ġany way
Ġcalm ly
Ġst u
Ġmin or
qu et
Ġchan ces
Ġhu gh
Ġproble m
Ġpass ages
Ġgl it
Ġus ing
Ġwr ought
Ġcl ara
Ġgu ards
Ġexchan ge
Ġsa ints
st ead
Ġmeas ures
Ġd umb
Ġenterpri se
Ġd uck
Ġeat en
Ġtom my
Ġmanu fact
Ġre la
Ġmo ss
Ġhosp ital
Ġf oul
Ġpass engers
Ġc rest
Ġcom ment
um ing
g i
p a
Ġpart ner
Ġshe pher
" ;
Ġreach ing
Ġam y
ather ine
Ġcha se
Ġe ggs
u le
Ġk ick
th ou
Ġprovid ence
Ġcl ut
Ġtreat ment
Ġdisg ust
Ġwas h
ĠĠĠĠĠĠĠĠĠĠĠĠĠĠĠĠ ĠĠĠĠ
sha ll
Ġsad ly
ms on
ma id
Ġresist ance
Ġsl ain
oub ted
ric al
Ġdress ing
and a
Ġara b
Ġconvent ion
Ġl amb
Ġm ould
Ġf aded
Ġuni verse
Ġox ford
lo sed
Ġpre m
Ġstrugg ling
Ġcan non
Ġjac ob
Ġret ire
Ġoccasion al
Ġsympat hi
Ġph ot
Ġindu ced
Ġsol itude
Ġmo or
Ġcig ar
w est
b by
Ġcomple ted
qu ite
ach ment
Ġcare less
Ġpatri ot
Ġhoriz on
Ġdead ly
Ġcitiz en
Ġcry st
Ġsub tle
Ġspe ll
Ġcont ented
Ġmill ions
br idge
gl ass
bre ak
Ġanx iously
Ġcri min
Ġnarr ative
Ġformer ly
Ġtraged y
Ġhe ap
Ġexer c
Ġsto le
a ves
Ġs her
it ors
l k
i mp
Ġr oused
Ġinterfe re
Ġfat ig
il i
Ġgo spe
Ġmis fortune
reg ular
w ed
Ġoff ence
ogra ph
Ġt un
et er
a ign
Ġn ick
Ġstr ing
Ġrecei ving
Ġshir t
Ġover come
Ġce ase
Ġla ura
Ġbetray ed
Ġk id
Ġwr ites
Ġdemon str
Ġpay ing
p ass
Ġfl ushed
Ġcritic ism
Ġb ind
Ġleg al
Ġve il
Ġliber al
Ġweap ons
Ġb art
Ġbal ance
Ġcapt ured
Ġn erves
Ġcompar ison
Ġb lock
en cies
Ġfl ou
Ġclimb ed
is l
Ġre in
Ġbur nt
il ight
Ġlet ting
Ġplat form
Ġre vel
Ġra chel
e nd
Ġch ina
Ġtre acher
Ġsec ured
Ġrest ored
Ġrefer red
Ġcommitt ee
d led
Ġportra it
Ġa ustri
Ġca ution
Ġapp le
s id
Ġent it
Ġsha ft
Ġstand ard
Ġrep orted
Ġdec or
Ġoper ation
Ġpersu aded
in er
Ġrejo ined
Ġintellig ent
m outh
s ho
Ġle ge
Ġen able
Ġinstru ctions
Ġst er
Ġcont aining
Ġange ls
Ġshoot ing
Ġf ant
Ġtr an
Ġstro ke
Ġven ice
Ġdwell ing
Ġwrit ers
Ġf ishing
Ġl unch
re rs
Ġbl ows
Ġpress ure
Ġbed s
Ġcompl aint
i xt
Ġhes itation
Ġbask et
Ġcat hed
Ġcelebr ated
Ġproceed ings
it a
Ġregard ing
se ll
Ġlim ited
h in
5 0
c our
Ġlo sing
Ġmurm ur
Ġfast ened
Ġs na
Ġw ret
Ġj aw
Ġ18 8
ic ing
Ġtw ilight
e enth
Ġdepe nds
a res
ĠĠĠĠĠĠĠĠ ĠĠĠĠĠĠĠ
Ġenc oun
Ġven ge
v ag
Ġblo om
Ġpro dig
t op
Ġneighb ours
Ġs ke
Ġwe aring
Ġa ust
Ġgall ery
u v
Ġ :
Ġsa lly
Ġalar med
Ġcon ceived
Ġro ver
Ġeas ier
Ġany how
Ġinter val
Ġfro st
Ġbr ush
Ġhosp it
Ġmour n
Ġquestion ed
Ġvisit ors
Ġart ific
Ġvirt ues
Ġpo lly
Ġre bell
Ġcompar atively
Ġcoll ection
Ġem ily
Ġinqu iries
Ġclaim s
Ġcli mate
Ġv ice
p en
Ġe c
Ġan ton
Ġscar let
Ġ" '
ol ution
Ġle on
Ġpassion ate
Ġhast ings
Ġtw ink
Ġch ron
Ġsy mb
Ġs its
Ġper mission
Ġre ef
Ġup right
Ġsus an
Ġbeha lf
Ġs ink
it ively
Ġp ool
Ġapp et
Ġsevent y
Ġper sec
Ġcon grat
ir med
Ġdec ent
Ġdi vers
Ġinst ances
Ġindif ference
Ġwar rant
Ġimp ressed
Ġexp lo
Ġdoubt s
as ion
itt y
Ġgu y
Ġcamp aign
Ġa we
Ġacknowled ged
b orough
Ġres our
Ġune asy
Ġpow der
Ġadv ancing
Ġassemb led
Ġlear nt
Ġspani ards
Ġe cc
Ġadm ired
Ġmo ck
Ġdise ase
b ru
Ġlands cape
.' "
x ic
nd e
Ġpo ckets
Ġbe er
Ġvio let
s ix
Ġg orge
Ġbarg ain
fe ctions
Ġir regular
Ġprefer red
Ġcompli ment
Ġlan tern
shi ps
Ġemploy ment
Ġg ross
Ġde eds
Ġoli ver
ir s
Ġinc ome
Ġwas hed
s ar
Ġl ance
Ġconven ient
Ġglimp se
Ġw ol
Ġun will
whe l
Ġdisc ourse
Ġm ap
Ġho ll
Ġlight ning
Ġrus hing
Ġa ld
Ġleg isl
k a
Ġg own
al t
ag ing
ll i
Ġso fa
Ġcha pel
Ġsla very
if ully
Ġobed ience
Ġtri bes
Ġfootstep s
Ġwalk s
a x
Ġreco ver
Ġama ze
Ġrecogn ised
Ġindividual s
Ġca res
Ġweap on
v ar
Ġwa ved
ot ing
Ġreve aled
Ġimpat ient
Ġad vert
Ġinv is
Ġchair s
Ġtremb led
Ġsch oon
Ġw ages
Ġtr ot
e med
Ġadvant ages
th y
Ġsw ar
Ġrid ge
Ġaf ore
Ġpl ed
Ġwar ned
Ġper fection
be lie
Ġele v
Ġm un
Ġant iqu
am y
Ġcount ed
Ġshout ing
Ġintrodu ction
g age
Ġh oney
Ġd ine
Ġgif ts
p i
Ġis abel
Ġcour ts
Ġrel ative
Ġpract ically
Ġcurt ain
Ġa me
Ġcha llen
Ġopp osed
Ġin ward
Ġwhi ther
Ġbreat hing
Ġwit ch
Ġex agger
Ġextra vag
Ġsign ed
Ġperform ance
ol ate
Ġflo ating
Ġben ch
Ġsch ools
for th
Ġsub li
Ġmar ia
Ġf ul
Ġgener ations
Ġass ault
col n
e le
Ġnove mber
Ġpo le
Ġpartic ulars
Ġluck y
Ġput s
Ġsto pping
Ġund oubted
Ġdream ed
Ġgu ilt
Ġblo ss
mind ed
i ved
Ġski pper
Ġbri sk
Ġtrave ller
Ġden ied
Ġvers es
Ġco arse
Ġresc ue
Ġgu essed
Ġwand er
Ġpit ch
Ġhum or
Ġmaint ain
ge l
Ġenjoy ment
Ġir re
ci a
Ġsupp lied
Ġembarr ass
Ġli ly
Ġhide ous
Ġrespons ibility
Ġfl u
Ġprepar ations
Ġfollow ers
Ġhor rid
Ġreve rence
b a
Ġt on
Ġr att
in ent
Ġgo ss
Ġincl uding
i ency
Ġsa ils
Ġw har
Ġind ust
ul ations
ic a
Ġspe ar
Ġn ich
in burgh
Ġatt racted
Ġsh ru
Ġcorrespond ence
ag o
Ġbr ute
c us
an other
Ġhalt ed
ill ery
Ġca mb
Ġover whel
it ious
ck er
Ġrep ose
Ġst olen
it an
w oman
ank s
Ġproceed ing
Ġprete nded
Ġen velo
Ġso b
Ġrail road
Ġnegle cted
Ġwra pped
Ġheart y
Ġqu it
ine as
Ġoff ering
ed y
Ġaband on
ha ving
Ġfr own
Ġdi ct
all el
Ġmost ly
Ġwarm th
Ġle cture
Ġab b
Ġpropos al
Ġp uff
Ġexist ing
Ġincre asing
Ġrecom mend
Ġinterp ret
Ġbra nd
p hant
on a
Ġmy st
Ġsong s
Ġlin coln
ens ity
no ld
Ġjust ified
Ġauth ors
ber y
ring ton
qu ar
Ġconf ession
Ġjo an
Ġcand id
u ously
ang le
os ure
capt ain
ul p
ane ous
Ġconst ru
Ġthought ful
Ġindic ated
ess ie
Ġvenge ance
art s
Ġlo ad
Ġapp la
ber g
Ġcondu cted
Ġtest im
hi st
Ġfaint ly
Ġde w
Ġman us
j ah
Ġwhi sk
Ġmo b
Ġtr unk
Ġpr uss
Ġtriump hant
ub b
be red
Ġdiffe rences
r ot
Ġrest less
Ġprin ces
Ġla wn
Ġinc ap
ĠĠĠĠĠĠĠĠĠĠĠĠĠĠĠĠĠĠĠĠĠĠĠĠ Ġ
o cr
Ġeld est
Ġappro pri
Ġsatisf y
Ġplun ged
ir k
Ġmotion less
Ġass urance
nat ured
Ġimag in
ul ating
Ġune as
Ġpress ing
p iece
Ġb order
we lt
Ġsha ken
Ġres po
Ġs id
ard ed
ne cess
Ġa rise
ise lle
Ġma h
Ġpictures que
b all
Ġo st
Ġsha w
Ġfo e
Ġem otions
Ġsa le
y r
Ġsum mit
Ġprep are
Ġfif th
Ġgl ancing
Ġde an
Ġcont ract
Ġb ough
Ġaw akened
f as
Ġla un
Ġtrans p
Ġmaint ained
Ġra w
Ġd aring
Ġb ern
id able
Ġcol oured
Ġcourt es
Ġde gr
Ġnor man
Ġprop he
Ġbro od
Ġfra gments
Ġfound ation
Ġw ont
Ġfound ed
Ġaccompan y
f ire
Ġres erve
Ġw ot
as hes
qu es
cri bed
tho se
Ġcommon ly
Ġrecoll ection
2 4
ll ings
Ġmot ives
or us
Ġpar l
Ġrank s
gl as
Ġentit led
Ġpre y
Ġfun ny
s al
Ġd welt
Ġinc ons
Ġmanus cript
off rey
Ġdoub ted
Ġchrist ians
Ġgospe l
, _
Ġra nd
Ġdra g
Ġf urious
au d
ĠĠĠĠĠĠĠĠĠĠĠĠĠĠĠĠ ĠĠĠĠĠĠ
Ġbold ly
Ġsecond s
Ġ4 0
Ġorna ment
Ġfa b
Ġass ume
ress es
Ġ vel
Ġdor othy
Ġill ness
Ġres ign
Ġdisagree able
Ġoccup ation
Ġsu gar
Ġca pe
Ġoper ations
Ġse ats
Ġlead s
Ġbelong s
Ġha ul
Ġcrit ical
Ġattemp ts
er ies
Ġp p
Ġpen ny
Ġstore s
Ġrighteous ness
d les
Ġdepth s
Ġvar ieties
Ġhat red
Ġtrave lled
Ġmetho ds
Ġfa ced
ĠĠĠĠĠĠĠĠ ĠĠĠĠĠ
Ġdes ires
Ġvill ages
com ing
Ġap ost
Ġcomm ons
for ce
u gg
Ġviol ently
Ġres olute
Ġobsc ure
ar ian
Ġf ow
Ġse eds
Ġsa iling
ol as
Ġfe lix
Ġc ards
Ġsh rew
Ġinvis ible
Ġsle nder
ation al
Ġs han
f rey
Ġv est
Ġret orted
Ġdis may
Ġmon k
Ġyield ed
Ġmon u
Ġtot al
Ġpain ting
Ġun just
Ġhapp ily
Ġchan nel
Ġindu ce
Ġpos itively
Ġbelie ving
o la
Ġgr ows
Ġhung er
Ġalt ar
Ġro ot
Ġaccomp lish
Ġtrave llers
Ġyour selves
Ġho arse
Ġvi ii
Ġm oo
Ġext rem
Ġcont act
Ġpal m
Ġcathed ral
Ġgle am
Ġrecoll ect
Ġmin isters
Ġrab bit
Ġchild hood
Ġa ustr
Ġblood y
Ġcott on
Ġdr owned
u a
Ġhand le
Ġpron ounced
Ġcertain ty
st ers
Ġbl ast
Ġdes erve
Ġmur dered
w all
Ġhas n
at isf
ce l
Ġcig aret
Ġfold ed
Ġmur de
Ġameric ans
Ġche cked
Ġter rit
Ġwarri ors
Ġprep aring
_ --
m und
Ġro ses
Ġsa ving
he nd
on ce
Ġparad ise
Ġsub mit
Ã ±
Ġt ub
m ade
Ġt ables
Ġtran qu
Ġsummon ed
Ġmo nday
Ġthank ful
Ġcan vas
Ġen chant
Ġbri ck
Ġdri ver
Ġschoon er
Ġru ins
Ġu mb
Ġgra in
with out
Ġrespons ible
Ġele phant
Ġsele cted
Ġjohn son
la ced
Ġpers ist
Ġexpect ing
Ġl ass
Ġpersu ade
Ġgrie v
Ġaff li
Ġact ivity
Ġcontin ent
ha w
Ġpresent s
Ġthr ong
m un
Ġcon vey
Ġbe ck
Ġsu llen
Ġmut ual
Ġnewsp apers
Ġdiscip line
Ġpain ter
Ġd ad
c ount
' --
ide l
Ġuncom fort
Ġbe th
Ġse ction
Ġjer ry
Ġp ush
Ġgar ments
d ie
Ġup ward
ib ilities
Ġinj ury
Ġfin est
le ton
Ġwas ted
Ġdis ple
Ġpleas ures
Ġmad ness
ur red
Ġti e
Ġpa ci
b la
Ġrare ly
Ġinvol ved
re et
Ġex ult
ind er
Ġinter course
Ġhol iday
Ġstay ing
Ġprocess ion
Ġarrest ed
Ġen v
Ġdis hon
Ġcr ou
Ġsword s
g one
tw as
Ġpl ains
Ġpars on
Ġin k
Ġbut t
Ġsp ared
ia h
Ġst om
so ever
do es
Ġapp ar
Ġhom es
Ġthere by
Ġchur ches
Ġinst it
Ġunivers ity
Ġ $
ri a
Ġacc um
Ġins ol
Ġcons pic
Ġmic hael
mo iselle
Ġstud ent
Ġmon str
qu est
Ġvis its
Ġje ws
Ġsatisf actory
Ġansw ers
it udes
a i
um ble
bru ary
Ġvol umes
Ġhistor ical
Ġown ed
Ġruss ian
p ast
Ġsix teen
Ġcl ust
Ġf ence
Ġbut ler
Ġdis like
Ġre de
Ġis sued
Ġmag istr
Ġh ud
Ġdeter mination
Ġuncom mon
somet hing
Ġw ilt
Ġdisplay ed
== ==
Ġr ash
Ġfortun es
Ġlong ing
Ġless ons
Ġba pt
n s
Ġglad stone
Ġtr ades
Ġra m
Ġgas ped
Ġmedic ine
Ġret ain
Ġb or
Ġbo nd
Ġtemp ted
Ġc u
Ġj ap
c ould
Ġspect acle
Ġinev itable
el t
Ġ18 9
Ġassemb ly
Ġperson ally
h ouses
Ġsent iments
Ġspeak er
Ġfour teen
Ġrock y
Ġdisappe ar
Ġtum ult
Ġstud ies
Ġra ven
cher s
Ġger ald
Ġrec ently
Ġn ic
Ġargu ments
Ġrem orse
Ġje ff
Ġfit z
Ġb one
Ġauthor ities
Ġtra ining
Ġant i
Ġform al
Ġpeace ful
Ġdiff er
Ġtheir s
Ġder ived
Ġprompt ly
Ġform ing
Ġinj ured
2 3
Ġchi ll
Ġprivile ge
we ls
Ġre ception
Ġsurre nder
Ġpilg rim
Ġde ceived
Ġcor ps
Ġend less
Ġprev iously
hi le
Ġv ale
Ġj ung
Ġst ately
Ġher bert
Ġs inking
Ġlim its
Ġpe asant
Ġgra vity
Ġentertain ed
ole on
Ġthi ef
Ġye a
Ġorigin ally
ĠĠĠĠĠĠĠĠĠĠĠĠĠĠĠĠĠĠĠĠĠĠĠĠ ĠĠ
ri ages
Ġdro pping
Ġw ink
Ġb ald
ff led
Ġchan ging
Ġj am
Ġreg ions
Ġaw oke
Ġsie ge
Ġe ag
f are
s ince
en ote
Ġlo vers
e ar
Ġamaze ment
Ġstret ch
sid enote
Ġsolemn ly
Ġli p
Ġdes cent
Ġacknow ledge
Ġpurcha se
Ġtempt ation
d ale
Ġinsp ired
Ġthought fully
Ġincl uded
g ot
cri ption
Ġrig id
Ġcons isted
Ġdepart ment
t om
Ġli ken
Ġun necess
Ġma il
Ġglass es
Ġprov in
Ġtra p
2 7
Ġt our
Ġme lo
Ġhar bour
Ġp ave
Ġdece mber
Ġinc omp
Ġst ub
po ss
Ġresemb lance
Ġshore s
Ġwag on
ount ed
Ġex tern
Ġacc ess
Ġapp ly
Ġphenom ena
Ġapp lication
ris hed
Ġpres ume
Ġabo ard
Ġstrugg led
Ġdistingu ish
Ġlead ers
Ġnegle ct
Ã ¡
la c
Ġhast ened
the ir
Ġreal ize
Ġlarge ly
Ġde pri
Ġco pper
._ ]
su pp
Ġjealous y
Ġansw ering
Ġpro long
Ġc ure
Ġwhere fore
Ġe ffic
th ren
Ġcomp are
Ġstren g
Ġfoo ls
Ġshi llings
Ġfount ain
Ġar row
Ġstom ach
Ġc her
om mod
Ġbe lls
Ġbl owing
Ġfeather s
Ġas hes
m ont
Ġimp erial
Ġvar ied
Ġrefle ct
Ġsha llow
ĠĠĠĠĠĠĠĠĠĠĠĠĠĠĠĠĠĠĠĠĠĠĠĠ ĠĠĠĠ
Ġed inburgh
Ġbon net
Ġfo li
ber ry
Ġme ek
Ġhear th
Ġdro ps
Ġhealth y
hes is
ro s
Ġbl own
Ġimpat ience
Ġwhe els
Ġn aught
Ġoffic es
Ġb ou
Ġopen ly
Ġback s
e mp
Ġimper fect
u ity
Ġun w
Ġmo s
hi ll
Ġinher it
Ġse al
Ġrec alled
Ġa ught
Ġrespect ing
Ġk ent
he a
Ġam using
Ġcl ung
Ġhero ic
Ġperpet ual
Ġindust ry
Ġf und
Ġafford ed
m i
m ers
Ġis a
Ġconqu ered
Ġcompl ain
un ken
Ġre med
Ġcre ation
Ġcorn ers
Ġremo ve
Ġjan uary
Ġwill ingly
Ġqu aint
Ġsurpri sing
Ġcomp osition
Ġdefe at
Ġwa ving
Ġmiss ing
Ġela bor
Ġfla mes
Ġdou glas
Ġmonstr ous
Ġfo g
Ġback ward
Ġrom ans
Ġstream s
Ġpat tern
Ġlady ship
Ġsupp osing
be ar
.... ....
Ġhy pot
Ġright ly
ing ham
Ġpe ep
Ġart illery
Ġmaterial s
Ġcre ep
Ġro d
Ġprop het
Ġha mp
Ġcon gress
Ġro ots
Ġabsor bed
Ġb ars
Ġd ame
Ġwho les
Ġlod ge
Ġd at
ic ious
Ġcivil ization
Ġstrict ly
b able
sp ring
Ġb ot
Ġperple x
Ġf id
Ġeust ace
Ġb ows
Ġcon j
pp le
hion ed
Ġam iable
Ġri ses
Ġfortun ately
Ġsur v
Ġemb ra
ers ed
Ġm ou
Ġd angers
Ġtr ous
Ġl ud
Ġdes erved
Ġcruel ty
Ġcapt ure
Ġprop riet
Ġinfant ry
b al
Ġin val
Ġp oo
e ers
Ġwe eping
Ġcri mson
Ġprev ail
Ġfault s
Ġendeav oured
,-- "
Ġobser ving
Ġid i
Ġyouth ful
he rent
Ġa pe
a way
s w
Ġpar allel
Ġconsider ably
Ġl ic
Ġbre thren
Ġsu itable
Ġprodu ction
Ġpull ing
Ġjohn ny
Ġth res
Ġab bey
Ġprosper ity
Ġel bow
Ġbra ins
Ġfrank ly
Ġsub du
ĠĠĠĠĠĠĠĠĠĠĠĠĠĠĠĠĠĠĠĠĠĠĠĠ ĠĠĠ
Ġv on
Ġm ason
Ġmar s
Ġcol umb
Ġpres erve
j ack
Ġsha lt
Ġscott ish
Ġset s
Ġvig orous
g reat
Ġdre ary
Ġmed ical
Ġmans ion
Ġen vy
Ġst able
Ġlast ed
Ġele ction
Ġprofession al
Ġbl unt
Ġclo sing
Ġsurr ounding
com be
Ġfierce ly
Ġy a
col oured
Ġbull et
Ġi x
Ġtar zan
o cc
2 6
or ter
Ġcliff s
Ġprov ince
e ight
4 0
Ġmode l
Ġt ap
ra el
Ġcabin et
s ch
Ġinno cence
ens es
Ġglad ly
Ġad orn
Ġmust n
Ġjud ged
Ġpub l
Ġchan ced
te enth
Ġstat ue
Ġobserv ations
l uck
Ġlo aded
ap h
Ġsax on
Ġcheer fully
i ations
ret ion
Ġest im
ha ll
Ġwhere in
Ġdra ught
Ġthe t
Ġlow ered
Ġliken ess
Ġ2 1
Ġlow est
Ġdiscus sed
Ġcoll ar
Ġbut ton
Ġsu spe
Ġf ug
Ġfl ora
Ġsket ch
Ġsc ant
Ġreg ards
m ight
Ġguard ian
Ġchristian ity
ump s
d rew
Ġn igh
Ġst im
Ġat l
Ġneed n
Ġpro se
Ġper cy
Ġe y
Ġadv ise
Ġdisc ont
Ġlad der
ific ations
Ġcont ain
Ġnob les
Ġcondem ned
l ings
cha ir
Ġeduc ated
Ġbo ot
Ġsan ct
Ġper se
Ġwo e
Ġsal vation
Ġunwill ing
Ġinse cts
Ġconc ent
Ġfun eral
Ġencoura ged
Ġde af
Ġup wards
ens ions
Ġarm ies
Ġwis hing
Ġincon ven
Ġcourtes y
n ie
Ġpla c
Ġdecl ined
Ġnot ions
Ġsa ith
Ġsw ore
Ġvill ain
Ġbitter ness
Ġfav ourable
Ġaw hile
Ġste ward
Ġnin et
Ġchar lie
Ġevery one
Ġmon ot
Ġimpro ved
Ġaven ue
Ġsmall est
Ġaf fections
ver sed
Ġmem ories
g ings
Ġfasc in
ĠĠĠĠĠĠĠĠĠĠĠĠĠĠĠĠĠĠĠĠĠĠĠĠ ĠĠĠĠĠ
Ġwhi p
Ġinde f
Ġdisp ute
y ne
Ġc ris
Ġk in
Ġcons pir
c ation
Ġwe ep
Ġdra ma
Ġvirgin ia
Ġinfinite ly
Ġw oo
po st
Ġtreat y
Ġcomb at
m ic
Ġse ize
Ġmet al
Ġearth ly
f ig
Ġfem ales
j our
Ġhar dy
Ġsear ching
Ġbewild ered
Ġshepher d
Ġo ars
Ġv ote
Ġc ens
Ġdown stairs
o ft
Ġap olog
Ġ3 5
Ġparl our
Ġw ounds
Ġbe nd
Ġr ays
Ġto re
Ġr ot
Ġp ony
ra ined
Ġtra ined
Ġest e
Ġmar ian
t urn
st ri
Ġpur sue
Ġcontri ved
p at
Ġf lies
Ġsk ull
Ġter race
Ġsu ited
Ġri s
Ġrenew ed
Ġbr on
p ical
Ġv ine
Ġint ol
Ġcat ching
Ġpen n
Ġarchite cture
Ġendeav our
Ġo mn
Ġ `
Ġv ary
Ġpl um
Ġcon ject
Ġbl an
Ġunfortun ately
Ġvic ar
Ġpe as
just ice
Ġmagaz ine
Ġfl or
Ġundoubted ly
Ġd ash
Ġje wels
Ġxx v
Ġprev ailed
Ġkill ing
Ġle nd
Ġimmort al
Ġm ol
vi ved
Ġdesir able
Ġtemp orary
on str
ing e
z el
Ġwhe at
Ġmo an
Ġsun light
m ust
s is
Ġwith drew
Ġag ed
Ġhop ing
Ġpolice man
Ġtid ings
ur g
Ġex hi
Ġsm iles
Ġver d
Ġread iness
Ġge offrey
! _
Ġtri m
che on
Ġappet ite
Ġl ind
Ġpur se
m ill
and s
Ġla ment
Ġcultiv ated
p ut
Ġbe a
Ġpret t
Ġan th
Ġmax im
p ence
Ġacc ommod
ĠÂ £
Ġtestim ony
Ġann ounce
Ġven et
Ġdec lar
r un
Ġhaunt ed
Ġjud ges
Ġencoun ter
Ġwe pt
Ġd ing
Ġamp le
Ġhast y
e ches
Ġcar pet
Ġinn um
Ġcomm ence
Ġoffe nded
Ġhigh ness
Ġer rand
Ġlin en
al o
ustri ous
Ġperman ent
Ġm ack
Ġalex ander
il ised
Ġpe re
Ġchief s
b us
Ġfier y
Ġno d
Ġst are
tw enty
Ġadv oc
Ġeight y
Ġneighbor hood
Ġprob ability
Ġper f
Ġimprove ment
r ation
Ġtrans port
Ġtrans fer
Ġte am
Ġc reek
Ġax e
Ġacc used
Ġexpect ation
Ġloud ly
Ġjap an
whi te
Ġmarve ll
Ġpray ed
au x
Ġintent ions
in i
ro ll
a ur
Ġear liest
ri el
Ġspo il
Ġk ins
Ġra gged
Ġgra ham
Ġmor ris
Ġcompass ion
ale m
i pp
Ġwild ly
Ġdisgu ise
Ġspeci ally
Ġchild ish
do or
Ġp our
Ġsevere ly
Ġinnum erable
2 8
Ġbill s
Ġclas ped
ha rd
Ġb rist
Ġsecret s
Ġw an
Ġseem ing
Ġf iction
Ġadv ised
Ġ3 3
Ġd anced
Ġre bu
Ġspeed ily
Ġan aly
Ġp ic
ad o
Ġmach in
Ġc ic
Ġman ager
Ġobv iously
ex cept
er ation
cour t
Ġp ound
Ġman ly
es ar
o v
Ġcha mbers
Ġcr ushed
Ġwhist le
Ġuncomfort able
Ġthan ked
Ġha ught
is le
Ġrecogn ition
Ġtra g
vo y
Ġm c
Ġglit tering
Ġto ps
ol k
Ġbre ed
chi ld
Ġlux ury
Ġwil son
c ons
Ġchar ley
Ġaddress ing
Ġnap oleon
Ġimp rison
o ked
ru de
2 9
Ġc ub
Ġchi val
Ġ5 0
Ġdro op
Ġcons ented
Ġd ense
e ur
Ġsp in
Ġfir ing
Ġadmin istr
Ġup set
Ġsc out
Ġbreat hed
Ġgro ve
che st
Ġrecogn ize
Ġ1 00
Ġunc on
Ġcou ch
Ġis rael
Ġlong ed
Ġj en
Ġal fred
Ġam bit
ha lf
Ġwords worth
Ġp ious
is ms
Ġar g
Ġaddition al
Ġp ian
Ġpo ly
Ġmade moiselle
Ġgl owing
Ġelder ly
Ġp sy
Ġbra ndy
Ġflo ck
Ġbe nding
Ġde emed
Ġconqu er
Ġjul ia
th r
Ġfro zen
Ġforest s
Ġplant ed
Ġpure ly
Ġmeas ured
c at
Ġapp ointment
Ġconf id
Ġo z
Ġc us
Ġadd ing
Ġfr uits
Ġl ent
i rie
Ġp as
Ġst am
Ġsens itive
Ġere ct
u ated
Ġrem onstr
Ġimpress ions
us alem
Ġt une
Ġfe bruary
Ġjung le
Ġsc ent
Ġemp has
Ġwis er
Ġjan et
Ġrecom me
ap ing
Ġd ried
Ġro ared
Ġdisc om
lo ve
Ġrememb rance
Ġca ps
light ed
Ġsn ake
Ġor ange
Ġnow here
Ġbr u
Ġmal es
Ġt ack
Ġhero es
Ġwarri or
Ġreturn s
Ġesc ort
Ġw ig
Ġpre acher
d uring
ho le
Ġcon veyed
Ġeye b
Ġterri bly
Ġbag gage
Ġag itation
Ġdelic ious
Ġwonder fully
ar ms
Ġassoci ation
th s
Ġout line
Ġindepend ence
Ġw ire
Ġli ver
Ġapprehens ion
Ġhapp ier
Ġprec aut
Ġe ls
Ġter min
Ġlod gings
' "
lic it
Ġhi red
Ġavo ided
Ġmanage ment
Ġgreet ed
Ġar rows
fas hioned
Ġbreat he
Ġcrimin al
Ġto ss
Ġh ood
b en
r ane
Ġle w
ul us
Ġemb race
Ġprotest ant
Ġbund le
ou ch
Ġd ined
Ġl ink
Ġvi v
mit ive
Ġun a
ult ies
cei ving
m mer
Ġtrous ers
id a
ic able
Ġwind ing
Ġconst it
Ġshrew d
Ġpleas ing
Ġform idable
Ġtal ent
Ġscand al
Ġins pect
Ġphot ograph
at us
Ġcomplex ion
l ittle
w al
! âĢĿ
Ġdeliber ately
Ġhar der
Ġcont ains
Ġmer its
er ate
Ġreport s
Ġprov ision
Ġoli ve
Ġthir st
Ġsp y
Ġatt ain
Ġenglish men
Ġguard ed
Ġg ulf
Ġen lar
Ġhere after
Ġjust ify
Ġinex p
f ar
Ġg ab
Ġdelic acy
Ġtow ers
c li
Ġfr an
Ġjust ly
Ġmir ror
Ġwret ch
Ġdisp os
Ġti mber
ert ed
he art
or p
Ġshud der
Ġimpat iently
Ġundert ake
ĠÂ §
Ġ3 6
Ġfront ier
Ġdec ay
hi m
Ġli mp
Ġfe ature
how ever
Ġdes olate
Ġconc lude
Ġsn ap
Ġang le
Ġprom ises
Ġw its
Ġnew ly
ines e
Ġsubst ant
Ġshout s
Ġdil ig
Ġdism issed
; '
cast le
Ġnich olas
Ġfr iday
ol o
Ġdis aster
Ġwo ke
Ġmon ster
Ġpreced ing
Ġthere of
Ġun worthy
Ġdick ens
Ġda zz
Ġins ens
Ġconspic uous
Ġprot ested
Ġgoss ip
Ġmir acle
Ġbrief ly
ress ing
Ġmus ical
Ġstir ring
h ot
Ġth umb
ci le
Ġser mon
Ġf ie
Ġy ach
ent ially
ass ad
Ġb our
Ġwe igh
Ġdemand s
Ġunnecess ary
Ġp om
Ġpra irie
le m
Ġremain der
Ġancest ors
Ġincap able
k now
Ġve ins
Ġchron ic
e er
gu ish
he ard
Ġdra matic
Ġlift ing
Ġgreat ness
Ġsupp lies
Ġirres ist
Ġw rist
li fe
Ġen camp
Ġbr ows
Ġprepar ation
Ġab ility
Ġtom orrow
Ã ł
Ġfavor ite
y l
Ġve x
Ġstick s
Ġv ap
Ġco vering
Ġsex es
Ġcor rid
Ġsh ine
Ġhol es
Ġsubdu ed
Ġbeg gar
Ġmet h
Ġthres hold
m ates
Ġheaven ly
Ġhy po
Ġsuspic ious
Ġattract ive
Ġcris is
" _
Ġp ag
Ġtw isted
a is
Ġm orrow
Ġpat ch
Ġh oof
ge red
v ial
hi cal
im ately
Ġwa iter
Ġrequ ires
Ġlou ise
ha ble
Ġpri mitive
Ġmi xt
Ġextern al
Ġcons olation
Ġfac ulties
Ġid ol
Ġleon ard
Ġall e
te l
ord on
Ġsw amp
Ġstern ly
Ġcustom s
Ġtur k
Ġeffect ed
Ġartific ial
Ġwha le
Ġis le
Ġpor ch
m and
Ġcalcul ated
Ġ3 4
Ġwide ly
Ġcommer cial
Ġsur m
Ġado pt
Ġrebell ion
lot te
Ġdo st
Ġres erved
ogra phy
Ġm ent
Ġprov ide
Ġexist s
Ġdest iny
ol ph
Ġconf irmed
se a
ld a
Ġalong side
Ġsla ught
Ġcost ume
Ġcomb ined
Ġdi g
Ġachi eve
us al
Ġexpress ions
Ġscen ery
Ġf aster
Ġbla ze
Ġcommand s
Ġlar ry
g ence
th orn
Ġintrodu ce
b ird
Ġamid st
Ġbeaut ifully
Ġconf lict
Ġabst ract
um m
Ġcons ists
set t
Ġpave ment
i ated
co vered
Ġmoder ate
Ġbr ad
Ġreck less
Ġnove ls
Ġf ern
Ġcon greg
Ġv ital
Ġret ained
' ;
Ġshe er
Ġun acc
Ġmar vel
Ġly d
Ġwor shi
Ġmother s
Ġama zed
p re
Ġass isted
Ġsecret ly
Ġbod ily
Ġde fect
Ġm it
Ġj ury
Ġarm our
Ġro bes
Ġmill er
Ġpack ed
Ġsubli me
Ġspr ings
Ġeleg ant
it ations
o li
Ġg amb
Ġsat an
Ġdischar ge
m aking
Ġsho cked
sa id
Ġlod ging
Ġtr u
Ġflo ated
d ling
Ġas ks
Ġremember ing
Ġmil ton
Ġv ault
Ġstill ness
bo ys
Ġstrong est
Ġfill ing
lo g
Ġclot hing
Ġp hant
ke ys
Ġcolumn s
Ġth or
Ġindign ant
Ġbe e
ri am
Ġro aring
min ster
Ġreason ing
Ġsa ck
Ġch inese
Ġoccup y
Ġcle aring
Ġgras ped
Ġun seen
Ġhospit ality
Ġin justice
cul ty
c la
Ġbeha ved
ri ety
Ġsur geon
gg er
Ġsick ness
Ġfe min
Ġeager ness
Ġind isp
Ġhigh land
Ġhelp ing
inte rest
ha ired
Ġp ines
Ġfa culty
Ġd ow
Ġcom mod
Ġcaut iously
Ġaw fully
Ġhe m
un s
Ġtelegra m
whe ther
Ġt act
Ġhorn s
f les
Ġse rene
Ġshe lls
Ġrepresent ative
Ġrelie ve
i ary
om en
ri al
ie u
Ġdr unken
Ġrob bed
Ġsome one
Ġvac ant
Ġsu l
Ġsurr ound
Ġburn s
Ġdism al
Ġstair case
Ġg or
Ġfright ful
Ġpier re
Ġsc rup
Ġcomp lic
Ġow en
i en
Ġc atherine
Ġv ag
Ġwitness es
Ġg ill
Ġfle e
Ġcommand ing
Ġshr ub
Ġjer usalem
Ġc ed
Ġmo ist
g il
Ġover look
Ġb red
Ġd ale
Ġinst itution
Ġste ven
Ġbet ty
Ġl oo
Ġmain ly
Ġper ish
Ġs ant
ine ment
Ġ =
Ġchar ms
Ġsur f
Ġregular ly
Ġvel vet
Ġfa cing
Ġcold ly
Ġn erve
hoe be
ch rist
Ġcol ony
r at
Ġdo om
Ġcap it
Ġquar re
Ġworld ly
ol ved
Ġover head
Ġmoment ary
Ġdir t
Ġsubsequ ent
Ġsymb ol
Ġpaci fic
Ġl ots
_ ."
ro y
un cle
Ġg y
Ġbest owed
Ġphys ician
Ġdam ned
Ġheat hen
ste in
Ġcamb ridge
Ġda res
Ġinstit utions
Ġan te
Ġsl umber
2 2
Ġinha b
Ġmar ie
cer ity
Ġare n
Ġlege nd
Ġspe eches
Ġpill ow
Ġins piration
Ġcountry men
Ġi mb
Ġliter ally
Ġang rily
Ġx i
Ġrespect ed
Ġvague ly
Ġhed ge
g us
j or
Ġbar ren
Ġcur sed
ft s
Ġprud ence
Ġeconom y
f ert
m us
r us
Ġhar mony
Ġcond es
Ġal an
ĠĠĠĠĠĠĠĠĠĠĠĠĠĠĠĠĠĠĠĠĠĠĠĠ ĠĠĠĠĠĠ
Ġhe t
Ġme nd
quar ters
Ġw ad
ge orge
Ġfo am
Ġf ret
Ġseam an
Ġri bb
Ġlar gest
Ġch oo
Ġdiv ide
Ġto ssed
d al
Ġw ist
Ġsha red
Ġpla cing
Ġwa x
Ġdeal t
Ġmead ow
Ġgre g
Ġeyeb rows
Ġm ak
Ġcont est
f ish
Ġconn ect
i ate
Ġun natural
w ixt
Ġmin ist
Ġheight s
Ġeag le
Ġbl ush
Ġmarry ing
Ġback ground
Ġcl ar
Ġar oused
gu ard
uri ously
Ġinvent ion
Ġcord ial
Ġtra itor
ge ons
Ġsl ay
Ġcompre hens
Ġaf ric
Ġb its
Ġexamp les
Ġcurt ains
r ud
Ġtre ad
Ġstri kes
Ġmult ip
d ick
Ġm es
Ġcigaret te
h om
Ġhurried ly
Ġrep air
Ġbox es
Ġcarol ine
Ġmachin ery
Ġcons erv
Ġim ages
Ġass ented
Ġpract ised
Ã ¢
Ġlamp s
Ġscre am
er ving
Ġexc lamation
d is
n one
Ġf ist
Ġcons ol
d am
Ġmar ching
Ġfl ush
Ġenjo ying
Ġvig il
Ġbid ding
Ġunre ason
Ġimp art
Ġsun ny
Ġ3 7
Ġk at
Ġru gged
Ġegypt ian
Ġtemp est
Ġtor rent
Ġdest ined
g ans
Ġwarm ly
Ġr ational
Ġpl ates
Ġbene vol
Ġc Ã¦
t ie
ur able
Ġqu art
Ġhonest ly
ut ing
al ia
Ġpleas antly
Ġexhib ited
Ġsuspic ions
th ink
ab e
Ġecho ed
Ġr up
Ġall eg
Ġp ang
Ġext ensive
Ġstri p
Ġr ou
Ġcr ash
Ġdus k
Ġr ings
Ġn ig
Ġg ust
Ġcla m
Ġarist ocr
Ġabo de
Ġsympat hetic
cl ass
Ġappreci ate
Ġdocu ment
Ġthe od
Ġassoci ated
Ġan alog
Ġimp ert
ag ra
Ġshri ll
Ġd ru
Ġenc ount
c omp
Ġcar go
Ġhan s
Ġju an
om y
Ġpay ment
Ġexperi ments
Ġg hast
ur t
Ġre vere
Ġrespo nded
Ġm all
Ġca vern
Ġclot hed
Ġeloqu ence
Ġencount ered
Ġfan cies
Ġneighbour ing
Ġb other
i cted
Ġac ade
Ġcou p
Ġjack son
if orn
Ġcra zy
Ġrecord ed
ane ously
Ġdream ing
Ġhol mes
cept ible
Ġfrench man
Ġgrand mother
Ġvig or
Ġsentiment al
Ġeng ra
Ġrest ore
f n
Ġf itting
ur re
Ġpen cil
Ġall an
Ġk a
Ġghost s
] ,
Ġprud ent
Ġm s
Ġling ered
Ġbeha viour
Ġruss ia
Ġcere mon
Ġcommer ce
a ired
Ġr ans
Ġpeculiar ly
Ġencourage ment
ac re
Ġven erable
Ġtra ces
Ġprodu cing
ic ated
Ġsand y
g no
er ick
Ġsweet ness
Ġgall ey
Ġhun ters
Ġacc us
ang ing
ogra phi
ari ably
fe llow
Ġmead ows
Ġd war
Ġmar gin
Ġcour te
at ha
Ġsc are
Ġed gar
Ġfrancis co
Ġw ick
ul ously
Ġatt ained
Ġran ch
ic ians
Ġexc urs
Ġcous ins
Ġ3 8
Ġtrif ling
c ular
Ġt ut
Ġspeci men
ink led
Ġring ing
Ġtot ally
Ġever last
Ġfun ction
Ġmet ap
al though
Ġpart ial
Ġmed ium
Ġgri p
Ġmau d
Ġd ora
Ġjack et
t rees
Ġdi pl
Ġcapt ive
Ġr ue
Ġsc ared
Ġmor ality
Ġpun ish
Ġ19 0
Ġmixt ure
Ġform ation
Ġmusk et
Ġdecided ly
Ġcomp rom
Ġrup ert
Ġv it
Ġvalley s
Ġbul k
Ġswall owed
Ġfant astic
c ap
Ġpo lished
Ġabund ance
Ġta vern
Ġfurn ish
Ġexchan ged
Ġple aded
hi a
Ġfor s
ci an
Ġneighb ors
Ġlo cks
Ġsha pes
Ġtort ure
Ġb ast
Ġdesp ite
h our
un less
Ġmo ses
Ġes mond
Ġinv ariably
Ġen qu
d ri
Ġgo dd
Ġfl owing
Ġhunt ed
Ġspr ung
Ġmir th
Ġha ts
Ġexp los
Ġsuperior ity
Ġfemin ine
co ck
Ġart istic
Ġtor ment
Ġf u
Ġen light
Ġsitu ated
Ġv ile
Ġr ous
Ġdar win
Ġb acon
Ġl ag
Ġmouth s
din and
Ġmus cles
Ġasce nded
Ġfatig ue
Ġp omp
Ġx ii
Ġtemper ament
Ġeste em
in ter
Ġjo int
not es
m uch
Ġcor al
Ġdo ings
Ġliqu or
ne xt
ger y
y ers
Ġof t
me red
lt on
Ġincl ination
Ġtender ly
ll ey
Ġpian o
ent er
is a
Ġsw orn
Ġmag gie
Ġpo nder
Ġcal iforn
h u
Ġan na
Ġqu oted
_ .--
Ġm ix
Ġe gg
Ġt am
Ġstud ents
Ġamb assad
Ġsevent een
Ġdiamond s
be ing
Ġnav y
Ġprejud ice
Ġhang ed
Ġpet t
Ġadvert ise
ag ues
Ġdra gon
Ġess ay
Ġbre ach
ri ff
Ġhe ars
ut able
Ġdeal ing
Ġan guish
Ġlu ke
Ġp ump
Ġco in
Ġdef in
se x
Ġce cil
Ġsingular ly
t oo
Ġaw aken
ft ed
Ġch orus
Ġcl ad
Ġref resh
urs day
Ġp ushing
Ġmer ri
Ġgot hic
Ġsol ution
Ġgla re
Ġatl antic
Ġr ows
Ġsport s
Ġbreath less
Ġli able
Ġdeclar ation
Ġya wn
Ġst ake
Ġcare lessly
Ġc laimed
ar n
Ġbet wixt
h ine
Ġbur g
Ġmarvell ous
Ġg inger
Ġcan ada
Ġpers isted
Ġtri but
Ġ3 9
Ġp ert
Ġdis d
Ġprot ected
ne ath
Ġ17 8
je ctions
Ġcard inal
st ru
Ġto day
Ġha zard
Ġti ger
Ġexpress ing
Ġfra gment
Ġgroan ed
ac ing
Ġpot at
Ġhonest y
Ġham mer
for ms
Ġchar lotte
Ġdign ified
Ġdr own
Ġdust y
Ġla zy
2 1
Ġwitness ed
Ġextrem ity
Ġtr un
Ġdipl om
p ow
Ġgil bert
spe ak
me re
Ġsu lt
Ġtong ues
Ġbare ly
Ġpo nd
Ġbig ger
Ġincred ible
Ġsp ots
Ġrout e
d ers
Ġfo es
Ġbl iss
Ġdev ils
Ġcryst al
Ġla ce
Ġdo d
Ġdis order
Ġus es
Ġschol ar
Ġbough s
Ġmoo re
Ġcr us
Ġdisc retion
Ġterrit ory
Ġpo ster
Ġla ure
Ġass ent
Ġsho ps
Ġwrit ings
pres ently
Â §
Ġfe ud
Ġresent ment
Ġa z
Ġfo ster
Ġspeci mens
Ġscul pt
Ġre ass
Ġpla gue
qu al
Ġbra ce
Ġgu ided
Ġsqu ee
Ġghast ly
Ġmer c
Ġdepe nded
Ġbatt les
c lo
Ġacc ent
Ġexperi ences
Ġanno y
ion ed
ade l
Ġglo ves
Ġshadow y
Ġv ind
Ġgu id
Ġstart ling
Ġess entially
Ġappe aring
Ġemer ged
Ġgreet ing
Ġwhir l
Ġlaw rence
Ġlat est
Ġdist rust
Ġsto ve
Ġunconscious ly
Ġassert ed
Ġgig antic
Ġm ask
ting u
chan ce
Ġswall ow
Ġcorp se
f in
le igh
Ġinc ess
Ġinvent ed
Ġillustr ated
Ġown ers
Ġhes itate
Ġspect acles
on se
cl oth
po int
o x
Ġoff ers
Ġbe fall
Ġha il
Ġfor d
Ġint ensity
Ġhurry ing
Ġe llen
Ġar nold
Ġcomfort ably
._ )
Ġreject ed
Ġcha ins
Ġpe nd
Ġdim ly
Ġrub bed
Ġbas is
int on
Ġglo be
Ġcommunic ated
me l
Ġow ed
Ġdisc ern
Ġcre eping
Ġcar ved
en ched
Ġcult ure
bla ck
Ġshe ets
iv able
Ġtw ist
Ġyoung est
Ġmort on
Ġattend ant
Ġev olution
Ġgrow led
Ġexam ining
Ġbern ard
p age
Ġg ames
Ġple ad
Ġs cept
Ġin it
Ġle ve
Ġholl and
ast y
Ġh ounds
Ġfaith fully
Ġher mit
man y
che t
Ġexec uted
g al
au g
Ġopp ress
Ġbelie ves
Ġagree ment
Ġrele ased
Ġgree ks
Ġinstru ction
ho l
Ġforget ting
p ool
ag ers
Ġhost ile
Ġed mund
Ġest ates
Ġper ception
Ġsin cerity
Ġd art
Ġro be
3 5
ls on
Ġconst able
Ġbread th
Ġsuspe nded
bl est
Ġincident s
Ġf en
Ġcolon ies
Ġexp enses
Ġwholes ome
Ġsqu ir
s il
Ġye ll
Ġresour ces
Ġc ows
Ġb omb
4 5
Ġall ies
Ġfalse hood
Ġshru gged
Ġr ider
Ġbat tery
sh ould
Ġpath s
Ġsw inging
Ġentertain ment
Ġstoo ped
Ġre b
Ġdi es
Ġfashion able
Ġimp ud
Ġant agon
w ich
Ġfra gr
Ġne ll
get ic
Ġpat hetic
w alk
Ġinstru ments
bro ken
Ġm ute
Ġad vers
Ġremark ably
Ġmonu ment
Ġdu g
Ġcre ed
Ġasce nd
h un
Ġsa nds
Ġpri m
Ġx iv
Ġarchi e
Ġisa ac
! )
Ġt ab
Ġor chard
Ġhy mn
Ġcomb ination
Ġmi riam
Ġsu ng
Ġdec line
Ġdwar f
Ġsy mpt
Ġg ordon
Ġro sy
Ġdef iance
room s
Ġcri mes
Ġbe es
Ġwho ever
Ġdoct ors
Ġexha ust
Ġforbid den
Ġsa g
ud ge
Ġpe op
un ci
Ġrefle ctions
Ġfred erick
i as
Ġthreat ening
d og
l orn
o dy
Ġwo nders
ĠĠĠĠĠĠĠĠĠĠĠĠĠĠĠĠĠĠĠĠĠĠĠĠ ĠĠĠĠĠĠĠ
Ã ª
Ġpr ow
Ġser pent
Ġcontin ual
Ġconqu est
Ġun kind
ke e
Ġal b
Ġbl and
Ġconst ruction
Ġba xter
Ġpup il
Ġreg iments
gr own
Ġag itated
Ġassured ly
Ġyach t
Ġen s
Ġsp here
c ro
t ies
Ġha re
Ġsw ed
Ġattemp ting
Ġinherit ance
Ġhar mon
Ġclimb ing
Ġperple xed
Ġgodd ess
Ġexc iting
Ġinter posed
Ġm ouse
Ġhe ra
Ġgr ind
Ġscre amed
Ġcomm it
Ġillustr ations
alog ue
Ġtruth s
Ġep it
Ġthri ll
Ġcaut ious
Ġwol ves
Ġsc ound
Ġpost s
Ġrep rodu
Ġstamp ed
Ġhypot hesis
Ġcl at
Ġdrift ed
Ġe po
Ġopp on
Ġloyal ty
Ġm are
us ively
Ġdeep est
ple ase
Ġsn uff
Ġsepar ation
Ġsc ots
Ġmis under
Ġw reat
Ġmer ci
Ġf res
Ġoff spring
u k
Ġcal am
Ġintim acy
Ġre cess
Ġab use
Ġdu ly
Ġmuse um
Ġconsult ed
Ġpir ates
Ġbreak s
Ġqu oth
Ġpri or
Ġfro g
Ġaut om
Ġsuperst ition
Ġswe eping
Ġcl inging
Ġle ague
sk in
Ġinvol unt
Ġumb re
Ġge or
Ġbo ers
Ġsub ord
Ġdef ic
Ġsim on
Ġsp ar
Ġmon key
Ġvis iting
Ġsoft ened
Ġafric an
Ġpun ct
Ġleap ing
o ks
Ġre ct
Ġfoli age
d ro
il ton
Ġbutter f
Ġport ions
Ġj ail
im er
Ġcent s
Ġold est
Ġdis h
Ġele vation
Ġlou der
Ġec st
ir a
Ġsuccess ive
3 6
b oth
Ġharm less
le g
Ġconsider ations
m ot
Ġw ool
Ġart ists
ut ter
Ġs hat
Ġb ord
Ġli king
Ġcha lk
b ishop
Ġintol erable
Ġfa iling
Ġemb ro
Ġpir ate
Ġb ounds
Ġti p
Ġtra ced
Ġsw ing
Ġger mans
Ġsin ner
Ġapart ments
wr iting
Ġcast ing
Ġrough ly
ues day
t ic
Ġ 0
phi a
er idge
Ġattend ants
Ġtri cks
Ġtrump et
on ies
Ġsp ray
Ġsuper inte
Ġinf li
Ġtransl ation
Ġstr ang
Ġce iling
Ġfulf il
Ġap ology
Ġp ouring
Ġsur vey
Ġpun ished
Ġallow ance
Ġingen ious
Ġthy self
Ġball s
Ġpeas ants
Ġpro sec
am a
hi l
Ġterri fied
Ġsust ained
p sed
Ġp aces
Ġk et
mp ton
Ġal ert
idel ity
Ġc ars
Ġe jac
ra in
Ġca esar
Ġpurcha sed
res pect
Ġpe er
Ġgi ld
Ġinstinct s
Ġshell ey
Ġseam en
Ġident ity
ri ot
Ġqu ad
Ġfin er
Ġmur ray
Ġtast es
Ġcar pent
Ġnegro es
Ġepo ch
ud den
Ġdeterm ine
Ġborrow ed
Ġv iz
Ġfer dinand
Ġdoll ar
ern est
Ġmart ha
ss es
Ġthir teen
Ġhand ful
Ġtalk s
b ag
Ġhe el
Ġmyster ies
Ġmay or
Ġrevel ation
