{"<s>":0,"</s>":1,"<pad>":2,"<unk>":3,"<eos>":4,"<mask>":5,"!":6,"\"":7,"#":8,"$":9,"%":10,"&":11,"'":12,"(":13,")":14,"*":15,"+":16,",":17,"-":18,".":19,"/":20,"0":21,"1":22,"2":23,"3":24,"4":25,"5":26,"6":27,"7":28,"8":29,"9":30,":":31,";":32,"<":33,"=":34,">":35,"?":36,"@":37,"A":38,"B":39,"C":40,"D":41,"E":42,"F":43,"G":44,"H":45,"I":46,"J":47,"K":48,"L":49,"M":50,"N":51,"O":52,"P":53,"Q":54,"R":55,"S":56,"T":57,"U":58,"V":59,"W":60,"X":61,"Y":62,"Z":63,"[":64,"\\":65,"]":66,"^":67,"_":68,"`":69,"a":70,"b":71,"c":72,"d":73,"e":74,"f":75,"g":76,"h":77,"i":78,"j":79,"k":80,"l":81,"m":82,"n":83,"o":84,"p":85,"q":86,"r":87,"s":88,"t":89,"u":90,"v":91,"w":92,"x":93,"y":94,"z":95,"{":96,"|":97,"}":98,"~":99,"¡":100,"¢":101,"£":102,"¤":103,"¥":104,"¦":105,"§":106,"¨":107,"©":108,"ª":109,"«":110,"¬":111,"®":112,"¯":113,"°":114,"±":115,"²":116,"³":117,"´":118,"µ":119,"¶":120,"·":121,"¸":122,"¹":123,"º":124,"»":125,"¼":126,"½":127,"¾":128,"¿":129,"À":130,"Á":131,"Â":132,"Ã":133,"Ä":134,"Å":135,"Æ":136,"Ç":137,"È":138,"É":139,"Ê":140,"Ë":141,"Ì":142,"Í":143,"Î":144,"Ï":145,"Ð":146,"Ñ":147,"Ò":148,"Ó":149,"Ô":150,"Õ":151,"Ö":152,"×":153,"Ø":154,"Ù":155,"Ú":156,"Û":157,"Ü":158,"Ý":159,"Þ":160,"ß":161,"à":162,"á":163,"â":164,"ã":165,"ä":166,"å":167,"æ":168,"ç":169,"è":170,"é":171,"ê":172,"ë":173,"ì":174,"í":175,"î":176,"ï":177,"ð":178,"ñ":179,"ò":180,"ó":181,"ô":182,"õ":183,"ö":184,"÷":185,"ø":186,"ù":187,"ú":188,"û":189,"ü":190,"ý":191,"þ":192,"ÿ":193,"Ā":194,"ā":195,"Ă":196,"ă":197,"Ą":198,"ą":199,"Ć":200,"ć":201,"Ĉ":202,"ĉ":203,"Ċ":204,"ċ":205,"Č":206,"č":207,"Ď":208,"ď":209,"Đ":210,"đ":211,"Ē":212,"ē":213,"Ĕ":214,"ĕ":215,"Ė":216,"ė":217,"Ę":218,"ę":219,"Ě":220,"ě":221,"Ĝ":222,"ĝ":223,"Ğ":224,"ğ":225,"Ġ":226,"ġ":227,"Ģ":228,"ģ":229,"Ĥ":230,"ĥ":231,"Ħ":232,"ħ":233,"Ĩ":234,"ĩ":235,"Ī":236,"ī":237,"Ĭ":238,"ĭ":239,"Į":240,"į":241,"İ":242,"ı":243,"Ĳ":244,"ĳ":245,"Ĵ":246,"ĵ":247,"Ķ":248,"ķ":249,"ĸ":250,"Ĺ":251,"ĺ":252,"Ļ":253,"ļ":254,"Ľ":255,"ľ":256,"Ŀ":257,"ŀ":258,"Ł":259,"ł":260,"Ń":261,"Ġt":262,"he":263,"Ġa":264,"in":265,"Ġthe":266,"Ġs":267,"Ġw":268,"Ġo":269,"re":270,"nd":271,"ha":272,"Ġb":273,"er":274,"Ġm":275,"ou":276,"Ġi":277,"Ġc":278,"Ġf":279,"ed":280,"en":281,"Ġof":282,"on":283,"Ġand":284,"Ġto":285,"hi":286,"ĠĠ":287,"Ġp":288,"Ġd":289,"ing":290,"or":291,"es":292,"it":293,"Ġl":294,"Ġin":295,"ll":296,"Ġhe":297,"ar":298,"an":299,"as":300,"Ġn":301,"at":302,"Ġha":303,"Ġg":304,"om":305,"Ġbe":306,"hat":307,"Ġhi":308,"st":309,"le":310,"ot":311,"Ġe":312,"ow":313,"ut":314,"Ġy":315,"se":316,"ve":317,"Ġthat":318,"ld":319,"Ġit":320,"ly":321,"ce":322,"Ġwas":323,"id":324,"gh":325,"ch":326,"ent":327,"Ġre":328,"Ġon":329,"Ġyou":330,"ĠĠĠĠ":331,"ri":332,"ion":333,"Ġu":334,"al":335,"Ġas":336,"ver":337,"ay":338,"ith":339,"et":340,"Ġhis":341,"Ġfor":342,"Ġwith":343,"Ġwe":344,"ir":345,"Ġst":346,"Ġth":347,"is":348,"ro":349,"ad":350,"Ġh":351,"ur":352,"Ġan":353,"ct":354,"Ġis":355,"ght":356,"Ġnot":357,"Ġhad":358,"her":359,"Ġat":360,"ould":361,"ra":362,"Ġher":363,"Ġsa":364,"ic":365,"oo":366,"--":367,"Ġse":368,"ke":369,"ter":370,"Ġwhi":371,"Ġbut":372,"me":373,"Ġme":374,"Ġhim":375,"Ġsu":376,"ill":377,"'s":378,"ain":379,"Ġ\"":380,"Ġli":381,"Ġshe":382,"Ġso":383,"ess":384,"Ġhave":385,"red":386,"Ġk":387,"Ġde":388,"ore":389,"ck":390,"pe":391,"Ġfr":392,"Ġby":393,"ho":394,"il":395,"Ġthi":396,"Ġmy":397,"Ġall":398,"ome":399,"all":400,"and":401,"Ġwhich":402,".\"":403,"ge":404,"Ġthey":405,"qu":406,"Ġcon":407,"Ġne":408,"ul":409,"Ġwhe":410,"Ġv":411,"Ġthis":412,"Ġor":413,"Ġup":414,"th":415,"Ġfrom":416,"li":417,"Ġr":418,"Ġdo":419,"Ġj":420,"est":421,",\"":422,"Ġex":423,"us":424,"Ġsaid":425,"Ġman":426,"ble":427,"Ġwere":428,"res":429,"mp":430,"ant":431,"pp":432,"ation":433,"ous":434,"Ġno":435,"ust":436,"Ġsh":437,"Ġthere":438,"Ġca":439,"ard":440,"Ġwho":441,"ers":442,"fe":443,"Ġfe":444,"nt":445,"ĠĠĠĠĠĠĠĠ":446,"Ġal":447,"Ġone":448,"ind":449,"lf":450,"very":451,"our":452,"la":453,"Ġare":454,"art":455,"Ġwould":456,"Ġthem":457,"ight":458,"Ġkn":459,"ong":460,"Ġpo":461,"Ġgo":462,"ast":463,"Ġint":464,"the":465,"Ġcom":466,"Ġle":467,"Ġtheir":468,"ood":469,"out":470,"ate":471,"Ġfa":472,"Ġwor":473,"Ġbeen":474,"ound":475,"one":476,"Ġab":477,"Ġdi":478,"han":479,"Ġif":480,"ough":481,"Ġwill":482,"Ġout":483,"Ġwhen":484,"Ġsee":485,"un":486,"'t":487,"ther":488,"ak":489,"Ġwhat":490,"Ġpro":491,"own":492,"itt":493,"we":494,"ment":495,"ry":496,"ol":497,"ook":498,"ven":499,"ort":500,"Ġqu":501,"self":502,"Ġun":503,"Ġro":504,"reat":505,"Ġen":506,"Ġsp":507,"Ġam":508,"Ġar":509,"ity":510,"Ġaf":511,"ive":512,"um":513,"Ġcan":514,"Ġti":515,"Ġyour":516,"ure":517,"Ġag":518,"Ġmore":519,"Ġany":520,"Ġsome":521,"pt":522,"ci":523,"Ġlo":524,"Ġcould":525,"Ġmr":526,"te":527,"hed":528,"am":529,"ake":530,"Ġmo":531,"lo":532,"de":533,"?\"":534,"ig":535,"ist":536,"nder":537,"Ġthen":538,"Ġinto":539,"Ġother":540,"Ġsha":541,"Ġvery":542,"Ġte":543,"ine":544,"Ġbo":545,"Ġnow":546,"Ġco":547,"sed":548,"ag":549,"Ġthan":550,"Ġri":551,"Ġknow":552,"Ġbr":553,"if":554,"ink":555,"ved":556,"able":557,"cc":558,"Ġ'":559,"ence":560,"Ġtr":561,"hing":562,"Ġlike":563,"ance":564,"wn":565,"way":566,"ide":567,"Ġhas":568,"Ġad":569,"Ġtw":570,"Ġdid":571,"ittle":572,"urn":573,"ep":574,"ade":575,"Ġlittle":576,"fore":577,"au":578,"ought":579,"Ġdis":580,"Ġlook":581,"ack":582,"Ġshould":583,"Ġcha":584,"el":585,"Ġtime":586,"Ġour":587,"Ġabout":588,"ally":589,"Ġ_":590,"im":591,"Ġupon":592,"Ġsay":593,"other":594,"ert":595,"ish":596,"ies":597,"Ġgreat":598,"Ġagain":599,"ose":600,"ings":601,"Ġus":602,"Ġper":603,"Ġpr":604,"Ġover":605,"ie":606,"Ġhow":607,"Ġtoo":608,"ss":609,"Ġmu":610,"ass":611,"ice":612,"op":613,"ount":614,"Ġafter":615,"Ġhand":616,"ree":617,"Ġonly":618,"ord":619,"ked":620,"ather":621,"Ġdown":622,"ff":623,"age":624,"Ġmar":625,"ction":626,"Ġday":627,"Ġgr":628,"Ġsc":629,"ves":630,"ving":631,"ite":632,"Ġgood":633,"Ġpe":634,"ac":635,"ab":636,"Ġthink":637,"Ġpart":638,"mb":639,"Ġbefore":640,"med":641,"ars":642,"Ġpl":643,"Ġmuch":644,"Ġmay":645,"Ġpre":646,"ue":647,"Ġits":648,"Ġsuch":649,"Ġmade":650,"Ġmust":651,"Ġtwo":652,"ft":653,"Ġho":654,"Ġoff":655,"âĢ":656,"ful":657,"ward":658,"ness":659,"per":660,"ull":661,"Ġfir":662,"Ġthr":663,"Ġold":664,"Ġthese":665,"led":666,"Ġbet":667,"Ġra":668,"!\"":669,"ud":670,"ady":671,"are":672,"Ġunder":673,"Ġlong":674,"mo":675,"Ġwell":676,"ren":677,"Ġfo":678,"Ġown":679,"Ġspe":680,"ated":681,"Ġway":682,"Ġnever":683,"Ġ1":684,"ary":685,"Ġwhere":686,"Ġcomp":687,"Ġstr":688,"Ġhere":689,"Ġcome":690,"Ġmen":691,"Ġye":692,"orn":693,"Ġeven":694,"ach":695,"ps":696,"Ġmight":697,"ress":698,"Ġfirst":699,"co":700,"Ġbl":701,"Ġevery":702,"Ġlet":703,"yes":704,"ious":705,"Ġdes":706,"rie":707,"Ġcame":708,"llow":709,"Ġob":710,"Ġback":711,"ĠĠĠĠĠĠĠĠĠĠĠĠĠĠĠĠ":712,"Ġ(":713,"ans":714,"Ġimp":715,"Ġbec":716,"ty":717,"ces":718,"int":719,"Ġhimself":720,"ire":721,"Ġthought":722,"Ġres":723,"ions":724,"les":725,"Ġpla":726,"Ġhar":727,"ced":728,"hy":729,"ried":730,"Ġchi":731,"Ġcl":732,"ng":733,"Ġrep":734,"ick":735,"ms":736,"ang":737,"Ġcont":738,"man":739,"Ġsm":740,"less":741,"Ġpres":742,"Ġthose":743,"Ġcons":744,"Ġjust":745,"Ġla":746,"ĠĠĠ":747,"ame":748,"ect":749,"ily":750,"iss":751,"ouse":752,"Ġlife":753,"Ġke":754,"Ġget":755,"Ġmost":756,"Ġmake":757,"Ġthrough":758,"Ġjo":759,"Ġshall":760,"Ġgl":761,"but":762,"Ġdon":763,"Ġap":764,"ap":765,"ons":766,"ave":767,"Ġwr":768,"Ġlast":769,"Ġfl":770,"Ġacc":771,"Ġbeing":772,"Ġch":773,"Ġstill":774,"ne":775,"Ġbeg":776,"Ġaway":777,"ory":778,"so":779,"Ġexp":780,"Ġnew":781,"omet":782,"ark":783,"Ġcomm":784,"Ġwent":785,"Ġwat":786,"Ġcar":787,"Ġturn":788,"pect":789,"Ġwi":790,"you":791,"Ġcall":792,"Ġyoung":793,"Ġyet":794,"Ġword":795,"Ġhead":796,"Ġeng":797,"riend":798,"Ġwithout":799,".'":800,"Ġret":801,"ĠĠĠĠĠ":802,"ffe":803,"lie":804,"Ġrem":805,"Ġthough":806,"Ġop":807,"Ġfriend":808,"ition":809,"Ġmany":810,"Ġmat":811,"Ġwhile":812,"not":813,"Ġsomet":814,"Ġtake":815,"Ġcour":816,"ath":817,"ub":818,"no":819,"Ġtell":820,"Ġear":821,"dy":822,"ase":823,"Ġnat":824,"ened":825,"Ġfound":826,"ign":827,"Ġwork":828,"Ġeyes":829,"Ġfar":830,"Ġent":831,"Ġser":832,"hes":833,"ged":834,"Ġhouse":835,"Ġapp":836,"Ġcount":837,"land":838,"ens":839,"ult":840,"Ġnothing":841,"Ġtra":842,"Ġwant":843,"ors":844,"os":845,"ible":846,"ru":847,"Ġwom":848,"for":849,"Ġright":850,"ever":851,"Ġend":852,"Ġgra":853,"Ġever":854,"get":855,"Ġgen":856,"Ġind":857,"ertain":858,"Ġac":859,"Ġonce":860,"oth":861,"ian":862,"Ġdist":863,"Ġpa":864,"Ġsupp":865,"be":866,"ople":867,"Ġsi":868,"alk":869,"ise":870,"Ġput":871,"Ġface":872,"Ġplace":873,"Ġnor":874,"Ġmind":875,",'":876,"Ġpeople":877,"Ġsame":878,"aking":879,"lt":880,"Ġsir":881,"row":882,"ations":883,"ince":884,"Ġpri":885,"'ll":886,"ered":887,"Ġfather":888,"my":889,"Ġanother":890,"lic":891,"ract":892,"Ġinte":893,"Ġnight":894,"Ġmrs":895,"Ġinst":896,"Ġmom":897,"Ġans":898,"Ġmoment":899,"Ġthings":900,"Ġim":901,"sel":902,"der":903,"Ġset":904,"ling":905,"Ġheart":906,"Ġple":907,"Ġkne":908,"Ġsub":909,"Ġgot":910,"thing":911,"ently":912,"ared":913,"ause":914,"Ġgi":915,"Ġpers":916,"Ġworld":917,"Ġfind":918,"ways":919,"Ġleft":920,"Ġsaw":921,"Ġgu":922,"Ġappe":923,"ied":924,"Ġpass":925,"ank":926,"dd":927,"ner":928,"Ġfeel":929,"Ġlight":930,"Ġchan":931,"Ġinc":932,"..":933,"Ġthing":934,"ined":935,"Ġlove":936,"ower":937,"Ġlooked":938,"Ġwar":939,"ished":940,"ret":941,"Ġgod":942,"gg":943,"Ġatt":944,"Ġchild":945,"Ġthree":946,"Ġbelie":947,"ject":948,"to":949,"what":950,"Ġma":951,"ĠĠĠĠĠĠ":952,"Ġsat":953,"Ġseemed":954,"Ġsur":955,"Ġgener":956,"Ġalways":957,"ical":958,"Ġwa":959,"Ġlady":960,"light":961,"that":962,"Ġgive":963,"Ġhapp":964,"oub":965,"cy":966,"bo":967,",--":968,"iz":969,"Ġagainst":970,"Ġdone":971,"Ġbetter":972,"well":973,"most":974,"Ġsw":975,"uth":976,"ber":977,"vid":978,"Ġreg":979,"Ġkind":980,"Ġtook":981,"Ġgoing":982,"Ġposs":983,"Ġhu":984,"ting":985,"Ġvo":986,"Ġcertain":987,"Ġclo":988,"Ġsomething":989,"Ġfollow":990,"cept":991,"Ġexc":992,"Ġasked":993,"Ġdec":994,"'d":995,"rew":996,"Ġfew":997,"rest":998,"Ġbu":999,"Ġreturn":1000,"Ġmiss":1001,"Ġste":1002,"ual":1003,"ia":1004,"Ġass":1005,"ls":1006,"Ġquite":1007,"whe":1008,"Ġheard":1009,"ted":1010,"vent":1011,"Ġside":1012,"ched":1013,"âĢĻ":1014,"Ġread":1015,"ween":1016,"Ġcol":1017,"Ġconf":1018,"Ġdra":1019,"Ġknew":1020,"Ġhands":1021,"Ġbre":1022,"ments":1023,"iness":1024,"ning":1025,"Ġhalf":1026,"xt":1027,"Ġche":1028,"Ġmon":1029,"Ġcle":1030,"Ġboy":1031,"lish":1032,"Ġtold":1033,"Ġgir":1034,"Ġwind":1035,"Ġenough":1036,"Ġrest":1037,"Ġlord":1038,"Ġmin":1039,"Ġbetween":1040,"Ġbro":1041,"Ġinde":1042,"Ġsil":1043,"Ġyears":1044,"Ġocc":1045,"Ġbecause":1046,"Ġhard":1047,"Ġcourse":1048,"ace":1049,"Ġamong":1050,"Ġchar":1051,"ile":1052,"Ġroom":1053,"pped":1054,"Ġmatter":1055,"Ġsoon":1056,"Ġround":1057,"Ġeach":1058,"Ġseen":1059,"mer":1060,"Ġbla":1061,"Ġnear":1062,"ense":1063,"ained":1064,"Ġmother":1065,"av":1066,"Ġhome":1067,"ular":1068,"wards":1069,"Ġwoman":1070,"Ġwh":1071,"Ġking":1072,"Ġpur":1073,"Ġalso":1074,"son":1075,"haps":1076,"gether":1077,"Ġinter":1078,"Ġwo":1079,"cha":1080,"Ġwhole":1081,"vers":1082,"ited":1083,"Ġhour":1084,"cess":1085,"hip":1086,"Ġdoor":1087,"Ġhum":1088,"ott":1089,"ial":1090,"ks":1091,"Ġact":1092,"Ġadd":1093,"Ġboth":1094,"mber":1095,"ully":1096,"Ġtre":1097,"Ġname":1098,"Ġ2":1099,"ither":1100,"Ġpleas":1101,"Ġkeep":1102,"Ġwhom":1103,"Ġhel":1104,"its":1105,"Ġed":1106,"Ġcare":1107,"aken":1108,"Ġpoint":1109,"Ġunt":1110,"po":1111,"em":1112,"selves":1113,"Ġvi":1114,"Ġpresent":1115,"Ġtri":1116,"Ġsure":1117,"Ġmean":1118,"Ġhaving":1119,"ins":1120,"Ġter":1121,"Ġalmost":1122,"'m":1123,"Ġhor":1124,"Ġshow":1125,"Ġins":1126,"Ġbest":1127,"Ġgent":1128,"Ġcountry":1129,"Ġpoor":1130,"ught":1131,"Ġhowever":1132,"aster":1133,"Ġstand":1134,"Ġhigh":1135,"air":1136,"ason":1137,"Ġdoub":1138,"ures":1139,"iet":1140,"Ġwhy":1141,"Ġcapt":1142,"uck":1143,"up":1144,"rist":1145,"ross":1146,"Ġdoes":1147,"Ġsl":1148,"Ġsou":1149,"Ġless":1150,"Ġpar":1151,"Ġbus":1152,"Ġsmall":1153,"Ġ[":1154,"du":1155,"aut":1156,"Ġwater":1157,"Ġmorn":1158,"Ġbar":1159,"Ġfam":1160,"ffic":1161,"Ġland":1162,"Ġmyself":1163,"Ġsince":1164,"ised":1165,"ange":1166,"ier":1167,"ute":1168,"Ġsk":1169,"Ġletter":1170,"she":1171,"ef":1172,"Ġsent":1173,"Ġinf":1174,"Ġart":1175,"Ġref":1176,"dden":1177,"nded":1178,"Ġtill":1179,"Ġturned":1180,"Ġlar":1181,"Ġdr":1182,"Ġperhaps":1183,"Ġcalled":1184,"Ġfore":1185,"Ġcr":1186,"Ġadv":1187,"use":1188,"Ġwords":1189,"Ġquest":1190,"Ġdark":1191,"Ġindeed":1192,"Ġfact":1193,"Ġdays":1194,"Ġrather":1195,"Ġunderst":1196,"Ġfelt":1197,"ton":1198,"now":1199,"Ġvis":1200,"Ġmorning":1201,"Ġbri":1202,"'ve":1203,"by":1204,"Ġgentle":1205,"Ġes":1206,"Ġstre":1207,"Ġhear":1208,"ating":1209,"ool":1210,"Ġopen":1211,"his":1212,"Ġdear":1213,"ned":1214,"Ġanything":1215,"Ġgre":1216,"Ġwhite":1217,"Ġtalk":1218,"rent":1219,"mes":1220,"als":1221,"Ġadm":1222,"ung":1223,"Ġbegan":1224,"Ġhon":1225,"Ġhope":1226,"ably":1227,"Ġmet":1228,"ately":1229,"Ġprop":1230,"ken":1231,"Ġstood":1232,"Ġdoubt":1233,"Ġel":1234,"ured":1235,"Ġnext":1236,"ser":1237,"iv":1238,"Ġlau":1239,"Ġlat":1240,"Ġbelieve":1241,"Ġhelp":1242,"Ġgave":1243,"Ġbeaut":1244,"iled":1245,"Ġvoice":1246,"ired":1247,"Ġperson":1248,"Ġext":1249,"ont":1250,"men":1251,"Ġbrought":1252,"oud":1253,"Ġspo":1254,"Ġunc":1255,"of":1256,"Ġinterest":1257,"sp":1258,"Ġgirl":1259,"Ġherself":1260,"fect":1261,"Ġspir":1262,"_,":1263,"Ġcond":1264,"Ġpat":1265,"ering":1266,"Ġaw":1267,"Ġcannot":1268,"Ġfall":1269,"oney":1270,"Ġcontin":1271,"Ġsun":1272,"wered":1273,"Ġpower":1274,"Ġcompan":1275,"Ġconc":1276,"Ġlaw":1277,"ze":1278,"ates":1279,"Ġblack":1280,"Ġuse":1281,"Ġneed":1282,"Ġtaken":1283,"lied":1284,"there":1285,"cri":1286,"Ġanswered":1287,"oh":1288,"Ġfull":1289,"Ġspeak":1290,"Ġgone":1291,"assed":1292,"Ġuntil":1293,"Ġdre":1294,"ale":1295,"ster":1296,"ten":1297,"Ġcou":1298,"Ġtogether":1299,"Ġsec":1300,"Ġdiffe":1301,"Ġtrue":1302,"ger":1303,"fully":1304,"Ġsudden":1305,"gn":1306,"pri":1307,"Ġ18":1308,"Ġide":1309,"ye":1310,"cei":1311,"fort":1312,"Ġstrong":1313,"Ġrun":1314,"Ġrec":1315,"ib":1316,"Ġfour":1317,"tle":1318,"Ġothers":1319,"Ġbra":1320,"Ġlay":1321,"Ġreme":1322,"Ġcaptain":1323,"Ġabo":1324,"Ġthemselves":1325,"aint":1326,"Ġswe":1327,"Ġleast":1328,"Ġstate":1329,"Ġenglish":1330,"act":1331,"Ġdire":1332,"ention":1333,"Ġfire":1334,"Ġair":1335,"Ġdet":1336,"Ġdeath":1337,"Ġserv":1338,"Ġwhose":1339,"Ġwife":1340,"ying":1341,"Ġsy":1342,"?'":1343,"ities":1344,"Ġsle":1345,"Ġalong":1346,"uri":1347,"Ġmis":1348,"irc":1349,"Ġmer":1350,"Ġcor":1351,"Ġnature":1352,"ows":1353,"Ġplay":1354,"ider":1355,"----":1356,"Ġsea":1357,"iting":1358,"Ġmoney":1359,"ants":1360,"king":1361,"ene":1362,"Ġfriends":1363,"Ġfin":1364,"let":1365,"Ġhold":1366,"che":1367,"Ġthus":1368,"Ġbook":1369,"uring":1370,"ump":1371,"ail":1372,"Ġemp":1373,"ued":1374,"used":1375,"Ġgeneral":1376,"itu":1377,"._":1378,"Ġsort":1379,"Ġgiven":1380,"og":1381,"Ġcase":1382,"Ġlooking":1383,"wer":1384,"Ġmil":1385,"Ġform":1386,"ceed":1387,"Ġdeep":1388,"ances":1389,"ets":1390,"day":1391,"Ġopp":1392,"cious":1393,"Ġsto":1394,"Ġpi":1395,"body":1396,"Ġpassed":1397,"aught":1398,"Ġbeh":1399,"ane":1400,"Ġwhether":1401,"Ġreal":1402,"Ġcat":1403,"Ġreason":1404,"Ġshort":1405,"cond":1406,"Ġlarge":1407,"Ġill":1408,"Ġfellow":1409,"Ġaff":1410,"Ġbehind":1411,"aring":1412,"Ġquestion":1413,"Ġcirc":1414,"Ġfeet":1415,"rence":1416,"ield":1417,"Ġsing":1418,"unt":1419,"Ġcried":1420,"Ġatte":1421,"iew":1422,"Ġunderstand":1423,"Ġleave":1424,"Ġprom":1425,"Ġbrother":1426,"Ġchrist":1427,"Ġwonder":1428,"Ġsays":1429,"ah":1430,"how":1431,"Ġru":1432,"Ġclose":1433,"Ġalone":1434,"ages":1435,"vered":1436,"Ġcur":1437,"ached":1438,"ually":1439,"Ġreally":1440,"val":1441,"Ġcharact":1442,"Ġstart":1443,"Ġdead":1444,"anger":1445,"Ġdisc":1446,"Ġabove":1447,"Ġtown":1448,"ple":1449,"Ġpub":1450,"ii":1451,"Ġ3":1452,"Ġtemp":1453,"Ġele":1454,"Ġsho":1455,"Ġnum":1456,"Ġbes":1457,"ote":1458,"ey":1459,"min":1460,"Ġabs":1461,"ains":1462,"Ġdep":1463,"gth":1464,"Ġson":1465,"ches":1466,"ndred":1467,"Ġbed":1468,"Ġexpect":1469,"ready":1470,"Ġoften":1471,"Ġce":1472,"Ġprof":1473,"Ġsound":1474,"laim":1475,"lly":1476,"Ġhundred":1477,"Ġthou":1478,"hn":1479,"Ġbel":1480,"Ġda":1481,"ister":1482,"Ġfair":1483,"Ġground":1484,"Ġbur":1485,"ron":1486,"Ġwood":1487,"Ġsign":1488,"ley":1489,"ffect":1490,"Ġdri":1491,"Ġdro":1492,"Ġfort":1493,"Ġeas":1494,"Ġmanner":1495,"cks":1496,"Ġsecond":1497,"Ġalready":1498,"Ġstra":1499,"ides":1500,"Ġwithin":1501,"Ġsch":1502,"Ġtry":1503,"Ġtruth":1504,"ressed":1505,"Ġred":1506,"Ġreco":1507,"Ġlad":1508,"Ġmount":1509,"Ġjohn":1510,"jo":1511,"Ġfur":1512,"mr":1513,"Ġ*":1514,"Ġfear":1515,"Ġwish":1516,"Ġcoming":1517,"Ġtowards":1518,"Ġobser":1519,"Ġinv":1520,"Ġknown":1521,"ching":1522,"ca":1523,"ines":1524,"Ġmaster":1525,"ix":1526,"Ġspirit":1527,"vern":1528,"Ġnecess":1529,"Ġorder":1530,"Ġdev":1531,"peri":1532,"mon":1533,"Ġsimp":1534,"Ġx":1535,"Ġsuppose":1536,"Ġge":1537,"Ġten":1538,"Ġitself":1539,"Ġmeet":1540,"Ġsubject":1541,"ctor":1542,"akes":1543,"Ġbusiness":1544,"'re":1545,"ring":1546,"Ġreplied":1547,"ceived":1548,"Ġlea":1549,"Ġtimes":1550,"Ġwild":1551,"rd":1552,"ution":1553,"Ġlear":1554,"ond":1555,"Ġjud":1556,"enty":1557,"Ġeffect":1558,"Ġelse":1559,"Ġhur":1560,"they":1561,"Ġlow":1562,"Ġstri":1563,"where":1564,"ild":1565,"bed":1566,"Ġyear":1567,"Ġwalk":1568,"Ġlive":1569,"Ġwall":1570,"Ġtherefore":1571,"Ġconsider":1572,"Ġmeans":1573,"Ġfell":1574,"Ġmid":1575,"!'":1576,"Ġsever":1577,"ative":1578,"ctions":1579,"Ġchildren":1580,"Ġprin":1581,"Ġnatur":1582,"owed":1583,"Ġarm":1584,"ility":1585,"alked":1586,"lu":1587,"Ġlost":1588,"do":1589,"Ġclear":1590,"Ġbad":1591,"Ġpret":1592,"cted":1593,"ient":1594,"Ġeither":1595,"ris":1596,"Ġhuman":1597,"Ġvar":1598,"bert":1599,"tered":1600,"Ġbring":1601,"Ġshi":1602,"--\"":1603,"Ġmere":1604,"Ġspeci":1605,"Ġconst":1606,"orrow":1607,"ific":1608,"vel":1609,"Ġreturned":1610,"Ġcast":1611,"this":1612,"Ġask":1613,"Ġsum":1614,"Ġsix":1615,"Ġdu":1616,"Ġport":1617,"Ġfan":1618,"Ġlist":1619,"ern":1620,".]":1621,"Ġthy":1622,"Ġstrange":1623,"Ġused":1624,"Ġcharacter":1625,"Ġchur":1626,"Ġquiet":1627,"Ġoccas":1628,"pter":1629,"imes":1630,"Ġmad":1631,"illed":1632,"lled":1633,"od":1634,"then":1635,"Ġrespect":1636,"chi":1637,"cul":1638,"Ġbody":1639,"Ġfoot":1640,"Ġhus":1641,"Ġeye":1642,"Ġstep":1643,"Ġrose":1644,"Ġearth":1645,"Ġappear":1646,"00":1647,"Ġhorse":1648,"Ġsense":1649,"ek":1650,"Ġpos":1651,"Ġsqu":1652,"cing":1653,"Ġglad":1654,"Ġengland":1655,"Ġbir":1656,"Ġcommon":1657,"Ġcal":1658,"Ġfamily":1659,"Ġwomen":1660,"eric":1661,".--":1662,"Ġexpress":1663,"Ġdiffic":1664,"Ġcra":1665,"Ġkept":1666,"Ġseveral":1667,"Ġpossible":1668,"Ġtou":1669,"Ġanswer":1670,"Ġheld":1671,"Ġdut":1672,"Ġacross":1673,"itted":1674,"Ġsight":1675,"),":1676,"Ġcap":1677,"gu":1678,"dle":1679,"iful":1680,"Ġgold":1681,"ards":1682,"ts":1683,"âĢľ":1684,"Ġwon":1685,"Ġmist":1686,"Ġcent":1687,"ousand":1688,"ery":1689,"Ġpain":1690,"igh":1691,"iter":1692,"Ġsoci":1693,"Ġmaking":1694,"Ġseem":1695,"Ġpast":1696,"Ġpartic":1697,"Ġmag":1698,"Ġhea":1699,"Ġut":1700,"Ġje":1701,"Ġevening":1702,"Ġthousand":1703,"Ġlead":1704,"Ġprob":1705,"Ġbat":1706,"Ġexcept":1707,"ny":1708,"form":1709,"ouble":1710,"Ġfree":1711,"gs":1712,"Ġest":1713,"Ġoffic":1714,"Ġexpl":1715,"Ġview":1716,"ma":1717,"hen":1718,"Ġpet":1719,"Ġremember":1720,"Ġperfect":1721,"Ġboat":1722,"Ġquick":1723,"Ġroad":1724,"lls":1725,"nding":1726,"bit":1727,"Ġdeal":1728,"Ġstory":1729,"ames":1730,"Ġbecome":1731,"Ġyes":1732,"âĢĿ":1733,"Ġblood":1734,"Ġduring":1735,"ney":1736,"Ġcut":1737,"Ġdifferent":1738,"Ġappro":1739,"Ġought":1740,"Ġfive":1741,"like":1742,"Ġdidn":1743,"though":1744,"ident":1745,"Ġseems":1746,"omp":1747,"Ġbit":1748,"Ġaccount":1749,"Ġsurpri":1750,"Ġable":1751,"Ġbig":1752,"Ġcoll":1753,"ury":1754,"Ġsometimes":1755,"Ġbegin":1756,"Ġarri":1757,"Ġmur":1758,"ety":1759,"Ġslow":1760,"sing":1761,"Ġrel":1762,"Ġfig":1763,"Ġtable":1764,"rench":1765,"_.":1766,"Ġdaught":1767,"Ġtrans":1768,"eth":1769,"Ġsuddenly":1770,"band":1771,"Ġchurch":1772,"Ġgentleman":1773,"Ġevid":1774,"Ġsleep":1775,"ism":1776,"Ġsucc":1777,"whi":1778,"Ġprodu":1779,"tern":1780,"Ġidea":1781,"Ġphi":1782,"ndon":1783,"itting":1784,"gin":1785,"Ġve":1786,"Ġdef":1787,"Ġforg":1788,"ham":1789,"Ġimag":1790,"Ġequ":1791,"osed":1792,"Ġmor":1793,"ously":1794,"Ġgovern":1795,"Ġpublic":1796,"Ġready":1797,"Ġmus":1798,"Ġbecame":1799,"ped":1800,"Ġcold":1801,"na":1802,"with":1803,"Ġbreak":1804,"Ġself":1805,"Ġaround":1806,"Ġcommand":1807,"Ġdisp":1808,"ots":1809,"Ġque":1810,"ized":1811,"Ġfav":1812,"ians":1813,"cip":1814,"owing":1815,"Ġsoul":1816,"une":1817,"Ġoccasion":1818,"Ġdraw":1819,"Ġparty":1820,"Ġriver":1821,"Ġauth":1822,"br":1823,"Ġfollowed":1824,"Ġbeautiful":1825,"Ġscar":1826,"Ġflo":1827,"Ġfeeling":1828,"isf":1829,"Ġsecret":1830,"when":1831,"Ġspoke":1832,"Ġlu":1833,"Ġdin":1834,"Ġpretty":1835,"Ġheaven":1836,"Ġga":1837,"Ġheav":1838,"Ġdisco":1839,"ph":1840,"Ġran":1841,"Ġev":1842,"Ġcorn":1843,"Ġmonth":1844,"Ġpay":1845,"Ġhusband":1846,"ingly":1847,"lit":1848,"right":1849,"arent":1850,"ones":1851,"Ġobject":1852,"Ġpurp":1853,"Ġfight":1854,"ession":1855,"Ġeverything":1856,"Ġworth":1857,"room":1858,"iar":1859,"Ġquar":1860,"Ġameric":1861,"antly":1862,"Ġstud":1863,"Ġsmo":1864,"Ġarms":1865,"Ġforward":1866,"orge":1867,"Ġval":1868,"Ġappeared":1869,"Ġship":1870,"Ġhen":1871,"cked":1872,"Ġcli":1873,"Ġvill":1874,"why":1875,"Ġfrench":1876,"gr":1877,"airs":1878,"Ġcomple":1879,"Ġcity":1880,"yond":1881,"Ġpal":1882,"vi":1883,"outh":1884,"Ġhast":1885,"Ġcho":1886,"ges":1887,"Ġmaj":1888,"Ġcertainly":1889,"iously":1890,"Ġ4":1891,"ler":1892,"Ġtom":1893,"Ġrus":1894,"Ġhot":1895,"Ġpen":1896,"inct":1897,"Ġlondon":1898,"Ġ.":1899,"Ġfine":1900,"Ġord":1901,"Ġdream":1902,"Ġbright":1903,"Ġmove":1904,"mpt":1905,"Ġchief":1906,"Ġacqu":1907,"Ġline":1908,"utes":1909,"Ġbeyond":1910,"ided":1911,"Ġstay":1912,"Ġsold":1913,"Ġhist":1914,"Ġcontinued":1915,"Ġthee":1916,"umb":1917,"Ġben":1918,"Ġrequ":1919,"Ġexperi":1920,"ĠĠĠĠĠĠĠĠĠĠĠĠĠĠĠĠĠĠĠĠĠĠĠĠ":1921,"lig":1922,"itude":1923,"ries":1924,"Ġtwenty":1925,"ality":1926,"Ġwin":1927,"Ġfaith":1928,"Ġhair":1929,"Ġnone":1930,"ex":1931,"Ġadded":1932,"Ġfre":1933,"go":1934,"Ġvol":1935,"Ġtaking":1936,"side":1937,"here":1938,"su":1939,"Ġver":1940,"Ġgrand":1941,"Ġdoing":1942,"Ġimport":1943,"Ġgreen":1944,"Ġhappy":1945,"oun":1946,"Ġdanger":1947,"alth":1948,"Ġfront":1949,"Ġcircum":1950,"Ġanim":1951,"Ġfurther":1952,"Ġregard":1953,"ĠĠĠĠĠĠĠ":1954,"Ġparticular":1955,"yed":1956,"vo":1957,"Ġopin":1958,"come":1959,"Ġrid":1960,"Ġnatural":1961,"Ġauthor":1962,"Ġcarry":1963,"head":1964,"Ġexist":1965,"Ġdaughter":1966,"Ġsatisf":1967,"Ġcreat":1968,"Ġcourt":1969,"ledge":1970,"Ġlaugh":1971,"Ġmine":1972,"Ġled":1973,"Ġplain":1974,"Ġsoft":1975,"Ġfla":1976,"ash":1977,"gy":1978,"Ġstreet":1979,"riage":1980,"Ġchance":1981,"ug":1982,"Ġdest":1983,"Ġlate":1984,"ters":1985,"ip":1986,"Ġchange":1987,"Ġcompany":1988,"Ġyourself":1989,"Ġcuri":1990,"Ġcomes":1991,"Ġsweet":1992,"af":1993,"Ġvisit":1994,"par":1995,"Ġbreat":1996,"Ġcarried":1997,"Ġhours":1998,"ased":1999,"Ġsal":2000,"Ġcomfort":2001,"Ġnumber":2002,"Ġtrust":2003,"cture":2004,"ices":2005,"ead":2006,"ds":2007,"Ġwanted":2008,"medi":2009,"Ġboys":2010,"Ġlen":2011,"Ġpray":2012,"owers":2013,"raid":2014,"Ġdelight":2015,"Ġwit":2016,"Ġpie":2017,"Ġanx":2018,"Ġsuccess":2019,"Ġsad":2020,"ination":2021,"ric":2022,").":2023,"Ġwrong":2024,"Ġreceived":2025,"Ġpriv":2026,"wor":2027,"Ġnearly":2028,"iling":2029,"Ġsaying":2030,"Ġlonger":2031,"Ġisland":2032,"lling":2033,"Ġposition":2034,"Ġwindow":2035,"Ġcry":2036,"Ġpract":2037,"ging":2038,"Ġcircumst":2039,"Ġreached":2040,"Ġgard":2041,"pping":2042,"Ġchapter":2043,"Ġage":2044,"Ġbear":2045,"Ġshad":2046,"kes":2047,"Ġdem":2048,"Ġcause":2049,"Ġlater":2050,"Ġfif":2051,"Ġforce":2052,"essed":2053,"Ġsla":2054,"Ġmot":2055,"nds":2056,"fo":2057,"Ġem":2058,"ggest":2059,"Ġremark":2060,"Ġtro":2061,"Ġearly":2062,"Ġcro":2063,"Ġlab":2064,"ents":2065,"Ġhardly":2066,"Ġbill":2067,"Ġsister":2068,"ony":2069,"laimed":2070,"Ġsn":2071,"Ġcre":2072,"Ġsuggest":2073,"Ġafraid":2074,"itten":2075,"Ġrev":2076,"Ġcamp":2077,"Ġhat":2078,"Ġneither":2079,"Ġtried":2080,"amp":2081,"Ġtrouble":2082,"Ġliving":2083,"orm":2084,"aged":2085,"Ġnecessary":2086,"âĢĶ":2087,"Ġslight":2088,"ses":2089,"Ġinqu":2090,"Ġaccord":2091,"Ġger":2092,"rupt":2093,"Ġprince":2094,"Ġminutes":2095,"Ġsilence":2096,"Ġfra":2097,"Ġrom":2098,"sh":2099,"spe":2100,"Ġschool":2101,"Ġchair":2102,"usion":2103,"Ġmiles":2104,"ounded":2105,"ming":2106,"ining":2107,"Ġwalked":2108,"ston":2109,"Ġopened":2110,"Ġstren":2111,"Ġfast":2112,"Ġuncle":2113,"Ġemb":2114,"ening":2115,"Ġpeace":2116,"Ġforth":2117,"Ġpurpose":2118,"Ġmed":2119,"bb":2120,"Ġgrace":2121,"Ġimmedi":2122,"Ġcrow":2123,"Ġlie":2124,"inary":2125,"Ġago":2126,"zz":2127,"Ġgeorge":2128,"Ġdoctor":2129,"oured":2130,"Ġpleasure":2131,".,":2132,"Ġsens":2133,"ror":2134,"Ġarr":2135,"anced":2136,"Ġmouth":2137,"Ġprobably":2138,"Ġsmile":2139,"Ġblue":2140,"Ġscarce":2141,"Ġmeant":2142,"Ġalthough":2143,"uff":2144,"Ġtor":2145,"sequ":2146,"Ġthinking":2147,"ats":2148,"Ġvir":2149,"Ġdescri":2150,"gra":2151,"Ġwis":2152,"Ġdistance":2153,"ilt":2154,"Ġnorth":2155,"oss":2156,"Ġyouth":2157,"Ġrepe":2158,"Ġang":2159,"Ġdiv":2160,"Ġenc":2161,"Ġtreat":2162,"Ġpoet":2163,"Ġori":2164,"Ġentered":2165,"night":2166,"Ġterri":2167,"itions":2168,"ounds":2169,"Ġlength":2170,"Ġden":2171,"Ġentire":2172,"Ġwhatever":2173,"hold":2174,"Ġprot":2175,"Ġoh":2176,"que":2177,"resh":2178,"cient":2179,"den":2180,"Ġremain":2181,"ceive":2182,"Ġgall":2183,"Ġstanding":2184,"Ġlaid":2185,"ils":2186,"mit":2187,"Ġwest":2188,"Ġslowly":2189,"Ġann":2190,"Ġstru":2191,"Ġhall":2192,"Ġcla":2193,"idge":2194,"Ġgetting":2195,"Ġproceed":2196,"Ġeff":2197,"Ġduty":2198,"ified":2199,"Ġjour":2200,"Ġbroken":2201,"Ġsave":2202,"ically":2203,"Ġsuff":2204,"Ġeight":2205,"ustom":2206,"Ġsin":2207,"Ġknowledge":2208,"Ġshar":2209,"Ġjoy":2210,"Ġ5":2211,"Ġweek":2212,"Ġheavy":2213,"Ġdecla":2214,"onel":2215,"bin":2216,"read":2217,"ives":2218,"oint":2219,"Ġfield":2220,"und":2221,"Ġneigh":2222,"ences":2223,"Ġdesp":2224,"Ġbank":2225,"Ġcri":2226,"hood":2227,"Ġ17":2228,"Ġmark":2229,"Ġhappened":2230,"Ġcross":2231,"Ġlang":2232,"Ġcas":2233,"Ġprison":2234,"Ġdie":2235,"Ġpost":2236,"ager":2237,"Ġir":2238,"Ġrich":2239,"Ġnar":2240,"Ġjack":2241,"Ġtrees":2242,"Ġcoun":2243,"Ġburn":2244,"ience":2245,"Ġlived":2246,"Ġneighb":2247,"cket":2248,"Ġknows":2249,"Ġstruck":2250,"ume":2251,"Ġintell":2252,"sk":2253,"Ġexact":2254,"ours":2255,"lished":2256,"Ġhop":2257,"aded":2258,"Ġopinion":2259,"Ġgun":2260,"olute":2261,"Ġdirect":2262,"Ġlips":2263,"ented":2264,"wise":2265,"Ġdeter":2266,"....":2267,"Ġbrown":2268,"Ġhung":2269,"Ġaccomp":2270,"ĠĠĠĠĠĠĠĠĠĠĠĠĠĠĠĠĠĠĠĠĠĠĠĠĠĠĠĠĠĠĠĠ":2271,"look":2272,"Ġdinner":2273,"Ġclass":2274,"osition":2275,"lay":2276,"Ġservice":2277,"lock":2278,"ius":2279,"ics":2280,"Ġconvers":2281,"rage":2282,"ixed":2283,"pend":2284,"reme":2285,"Ġthir":2286,"Ġwritten":2287,"Ġdress":2288,"Ġsafe":2289,"Ġwatch":2290,"Ġmakes":2291,"Ġsend":2292,"Ġund":2293,"Ġeasy":2294,"Ġbuild":2295,"ature":2296,"Ġtop":2297,"yal":2298,"Ġresult":2299,"Ġbott":2300,"Ġer":2301,"ghed":2302,"oose":2303,"Ġremained":2304,"Ġfas":2305,"Ġweak":2306,"Ġrock":2307,"Ġdeg":2308,"olog":2309,"orses":2310,"Ġmem":2311,"Ġinstead":2312,"Ġali":2313,"Ġmary":2314,"Ġaccept":2315,"Ġsouth":2316,"Ġgrave":2317,"don":2318,"Ġhig":2319,"Ġexclaimed":2320,"Ġmill":2321,"ift":2322,"Ġimposs":2323,"Ġdifficult":2324,"arch":2325,"Ġstopped":2326,"Ġarmy":2327,"Ġfollowing":2328,"Ġrelig":2329,"Ġbrit":2330,"Ġstraight":2331,"ively":2332,"uc":2333,"Ġsitting":2334,"Ġmention":2335,"Ġboard":2336,"Ġdrew":2337,"Ġbeauty":2338,"icked":2339,"Ġdick":2340,"Ġhistory":2341,"Ġqueen":2342,"spect":2343,"Ġmess":2344,"ists":2345,"cent":2346,"Ġgovernment":2347,"Ġpolit":2348,"Ġwrite":2349,"Ġdied":2350,"ald":2351,"Ġfit":2352,"Ġpap":2353,"Ġglo":2354,"Ġdom":2355,"Ġenjo":2356,"Ġpaper":2357,"Ġcru":2358,"hion":2359,"Ġmass":2360,"ency":2361,"ustr":2362,"Ġbelow":2363,"Ġthoughts":2364,"Ġvan":2365,"Ġant":2366,"who":2367,"Ġstone":2368,"ask":2369,"cape":2370,"Ġnote":2371,"Ġgri":2372,"peci":2373,"Ġstrength":2374,"Ġfigure":2375,"ship":2376,"Ġhorses":2377,"Ġty":2378,"Ġorigin":2379,"Ġinflu":2380,"Ġprep":2381,"Ġsol":2382,"Ġfut":2383,"Ġsilent":2384,"Ġfle":2385,"los":2386,"vere":2387,"Ġshore":2388,"Ġdeli":2389,"Ġadmir":2390,"Ġsharp":2391,"Ġbound":2392,"Ġborn":2393,"Ġlatter":2394,"Ġsuffic":2395,"isted":2396,"Ġseeing":2397,"Ġproper":2398,"Ġforget":2399,"Ġwait":2400,"Ġtone":2401,"Ġletters":2402,"ush":2403,"Ġcaught":2404,"Ġhill":2405,"Ġfrank":2406,"emy":2407,"Ġsnow":2408,"Ġlaughed":2409,"Ġshout":2410,"Ġgarden":2411,"Ġusual":2412,"Ġconte":2413,"Ġaunt":2414,"Ġtree":2415,"dom":2416,"Ġpop":2417,"Ġfresh":2418,"Ġcircumstances":2419,"Ġbene":2420,"Ġdesire":2421,"mn":2422,"miss":2423,"Ġimpossible":2424,"Ġlangu":2425,"Ġoccup":2426,"con":2427,"ech":2428,"Ġattention":2429,"Ġleg":2430,"Ġfing":2431,"Ġsomewhat":2432,"Ġsingle":2433,"Ġdrink":2434,"Ġsav":2435,"Ġgar":2436,"Ġformer":2437,"Ġappearance":2438,"Ġoccur":2439,"Ġloved":2440,"Ġneg":2441,"Ġsociety":2442,"Ġincl":2443,"app":2444,"Ġenemy":2445,"Ġcontr":2446,"gar":2447,"Ġclot":2448,"Ġgrow":2449,"fection":2450,"together":2451,"cience":2452,"Ġnation":2453,"str":2454,"Ġmarried":2455,"Ġgreater":2456,"Ġpresence":2457,"Ġattack":2458,"com":2459,"Ġbesides":2460,"Ġplan":2461,"Ġsit":2462,"Ġwarm":2463,"Ġmoved":2464,"Ġnews":2465,"Ġbelong":2466,"Ġcomplete":2467,"Ġz":2468,"Ġdemand":2469,"Ġglass":2470,"Ġfat":2471,"Ġsor":2472,"Ġwide":2473,"Ġdog":2474,"Ġtoward":2475,"eks":2476,"Ġsail":2477,"Ġexpected":2478,"Ġafterwards":2479,"Ġmonths":2480,"Ġshowed":2481,"Ġeat":2482,"ues":2483,"Ġgrew":2484,"iment":2485,"cell":2486,"Ġcolonel":2487,"Ġspot":2488,"noon":2489,"Ġgoes":2490,"Ġplaced":2491,"Ġpull":2492,"Ġii":2493,"gan":2494,"Ġbroke":2495,"Ġoffe":2496,"Ġespeci":2497,"Ġtrave":2498,"Ġfal":2499,"Ġcrowd":2500,"iers":2501,"Ġconsequ":2502,"Ġ6":2503,"Ġsim":2504,"Ġaltogether":2505,"Ġguard":2506,"ected":2507,"Ġladies":2508,"Ġsli":2509,"Ġscene":2510,"Ġwaiting":2511,"Ġexpression":2512,"Ġnoble":2513,"Ġpleasant":2514,"Ġevent":2515,"Ġresol":2516,"ĠâĢľ":2517,"Ġearn":2518,"Ġfro":2519,"Ġmerely":2520,"Ġdepart":2521,"Ġciv":2522,"Ġrepres":2523,"Ġrecogn":2524,"Ġmal":2525,"Ġrap":2526,"Ġcommun":2527,"ina":2528,"Ġbroad":2529,"Ġfancy":2530,"Ġstarted":2531,".)":2532,"Ġcondu":2533,"Ġid":2534,"Ġmoder":2535,"rief":2536,"Ġoffice":2537,"Ġliter":2538,"sc":2539,";--":2540,"posed":2541,"after":2542,"Ġplease":2543,"Ġviol":2544,"ference":2545,"Ġpassion":2546,"rs":2547,"Ġrelie":2548,"ray":2549,"amed":2550,"Ġeffort":2551,"zed":2552,"Ġlikely":2553,"Ġbreath":2554,"Ġet":2555,"Ġven":2556,"Ġbab":2557,"Ġcloud":2558,"house":2559,"idence":2560,"ories":2561,"Ġhonest":2562,"sy":2563,"foot":2564,"fer":2565,"asure":2566,"Ġmarry":2567,"Ġreach":2568,"Ġconversation":2569,"Ġbeside":2570,"dered":2571,"Ġsole":2572,"Ġplaces":2573,"Ġthick":2574,"Ġconcl":2575,"Ġbattle":2576,"Ġutter":2577,"Ġbeat":2578,"erv":2579,"Ġwouldn":2580,"ital":2581,"iety":2582,"Ġdan":2583,"Ġsimple":2584,"acy":2585,"Ġmyster":2586,"Ġvillage":2587,"Ġtalking":2588,"ndered":2589,"just":2590,"Ġspeaking":2591,"Ġpresently":2592,"Ġarrived":2593,"Ġfuture":2594,"Ġincre":2595,"Ġbooks":2596,"Ġimmediately":2597,"Ġbeginning":2598,"Ġafternoon":2599,"ys":2600,"under":2601,"Ġimm":2602,"ibly":2603,"gged":2604,"Ġobserved":2605,"Ġrefle":2606,"gress":2607,"cho":2608,"Ġpeter":2609,"eness":2610,"ushed":2611,"rodu":2612,"Ġstrugg":2613,"Ġthird":2614,"cal":2615,"ding":2616,"Ġuni":2617,"els":2618,"iced":2619,"ouses":2620,"Ġfamil":2621,"rope":2622,"Ġsurprise":2623,"Ġespecially":2624,"mpat":2625,"ime":2626,"Ġoutside":2627,"tw":2628,"semb":2629,"Ġspecies":2630,"Ġforest":2631,"Ġspring":2632,"Ġleaving":2633,"itation":2634,"Ġperi":2635,"Ġhy":2636,"teen":2637,"Ġhero":2638,"Ġhonour":2639,"Ġba":2640,"orted":2641,"Ġcouldn":2642,"Ġraised":2643,"Ġlift":2644,"Ġball":2645,"Ġworse":2646,"Ġminute":2647,"Ġfun":2648,"Ġdread":2649,"Ġemplo":2650,"hys":2651,"Ġmarch":2652,"rom":2653,"Ġsuper":2654,"cil":2655,"Ġapparent":2656,"Ġhang":2657,"Ġmiddle":2658,"Ġturning":2659,"Ġbell":2660,"Ġprev":2661,"Ġjourney":2662,"Ġfilled":2663,"Ġmart":2664,"Ġbeneath":2665,"Ġfly":2666,"Ġstream":2667,"Ġsky":2668,"Ġshot":2669,"Ġgiving":2670,"Ġgenerally":2671,"ford":2672,"uss":2673,"Ġstop":2674,"Ġprincip":2675,"Ġmoon":2676,"Ġpecul":2677,"set":2678,"Ġmain":2679,"Ġgirls":2680,"Ġcorner":2681,"Ã©":2682,"Ġabsolute":2683,"Ġisn":2684,"Ġbow":2685,"Ġextra":2686,"zen":2687,"Ġcondition":2688,"Ġrememb":2689,"Ġlou":2690,"ision":2691,"Ġinstru":2692,"Ġsympat":2693,"Ġentirely":2694,"Ġimpress":2695,"Ġevil":2696,"Ġpeculiar":2697,"Ġgro":2698,"Ġperiod":2699,"Ġsick":2700,"Ġadvant":2701,"Ġtroop":2702,"Ġshook":2703,"ament":2704,"Ġdry":2705,"hered":2706,"Ġthank":2707,"Ġscarcely":2708,"rel":2709,"Ġeu":2710,"Ġexam":2711,"Ġtears":2712,"mrs":2713,"Ġmut":2714,"Ġlives":2715,"Ġdirection":2716,"Ġconcer":2717,"Ġobt":2718,"Ġunless":2719,"uous":2720,"ires":2721,"Ġsett":2722,"Ġpersons":2723,"Ġsorry":2724,"Ġkno":2725,"Ġta":2726,"Ġaction":2727,"idered":2728,"unk":2729,"fast":2730,"Ġvarious":2731,"Ġescape":2732,"sha":2733,"Ġshut":2734,"Ġchristian":2735,"erable":2736,"will":2737,"Ġcivil":2738,"chard":2739,"otten":2740,"Ġtall":2741,"Ġamerican":2742,"uly":2743,"Ġdeterm":2744,"Ġ|":2745,"Ġtrying":2746,"Ġperfectly":2747,"Ġdeclared":2748,"cceed":2749,"arked":2750,"Ġlean":2751,"Ġflat":2752,"Ġspeech":2753,"Ġinstant":2754,"Ġtast":2755,"io":2756,"Ġsucceed":2757,"Ġcompanion":2758,"wood":2759,"Ġprivate":2760,"Ġprevent":2761,"Ġenter":2762,"ners":2763,"tering":2764,"Ġprov":2765,"ulty":2766,"Ġeager":2767,"Ġduke":2768,"Ġmaid":2769,"Ġsword":2770,"Ġobli":2771,"Ġeasily":2772,"Ġmort":2773,"ishing":2774,"Ġlooks":2775,"Ġves":2776,"iam":2777,"Ġneare":2778,"Ġhunt":2779,"velo":2780,"atic":2781,"Ġagree":2782,"Ġgentlemen":2783,"Ġlearned":2784,"Ġstar":2785,"Ġquickly":2786,"cr":2787,"uded":2788,"Ġwrote":2789,"Ġcler":2790,"Ġmarriage":2791,"...":2792,"Ġiron":2793,"Ġwand":2794,"ora":2795,"Ġspr":2796,"col":2797,"Ġeurope":2798,"orough":2799,"wel":2800,"Ġterrible":2801,"Ġrapid":2802,"Ġcastle":2803,"bs":2804,"Ġsupposed":2805,"itable":2806,"Ġpun":2807,"Ġconscious":2808,"Ġfashion":2809,"Ġpiece":2810,"oura":2811,"Ġsitu":2812,"Ġcharge":2813,"Ġpale":2814,"Ġjudge":2815,"Ġparts":2816,"Ġpaid":2817,"cher":2818,"Ġsake":2819,"Ġfrance":2820,"Ġdelic":2821,"Ġexactly":2822,"har":2823,"Ġfer":2824,"Ġsummer":2825,"Ġfright":2826,"Ġvall":2827,"Ġfaint":2828,"Ġlines":2829,"Ġcost":2830,"ison":2831,"ssed":2832,"Ġdifficulty":2833,"Ġmajor":2834,"Ġpath":2835,"ection":2836,"Ġtur":2837,"Ġsand":2838,"Ġexcell":2839,"Ġpra":2840,"Ġopport":2841,"Ġearnest":2842,"Ġreply":2843,"Ġchanged":2844,"Ġrate":2845,"Ġinfluence":2846,"ests":2847,"Ġunderstood":2848,"Ġtouch":2849,"lend":2850,"Ġ8":2851,"Ġexperience":2852,"Ġwise":2853,"Ġpit":2854,"Ġfood":2855,"Ġtender":2856,"Ġshadow":2857,"Ġrunning":2858,"ior":2859,"pper":2860,"Ġfloor":2861,"Ġkill":2862,"Ġvain":2863,"Ġ7":2864,"Ġlower":2865,"Ġspoken":2866,"erial":2867,"Ġign":2868,"âĢĺ":2869,"Ġsimply":2870,"Ġcous":2871,"Ġattempt":2872,"ashed":2873,"Ġvent":2874,"Ġmatters":2875,"Ġwished":2876,"Ġxx":2877,"Ġfeelings":2878,"lin":2879,"Ġpropert":2880,"aw":2881,"Ġpleased":2882,"ribut":2883,"Ġfavour":2884,"Ġfallen":2885,"Ġmountain":2886,"Ġimportant":2887,"Ġhes":2888,"Ġbitter":2889,"Ġvirt":2890,"Ġcheer":2891,"Ġsam":2892,"Ġapart":2893,"het":2894,"morrow":2895,"aped":2896,"Ġdrawing":2897,"vering":2898,"Ġsmiled":2899,"Ġvalley":2900,"Ġphys":2901,"Ġopportun":2902,"Ġneck":2903,"Ġextreme":2904,"Ġcurious":2905,"ork":2906,"appe":2907,"Ġrepeated":2908,"note":2909,"ising":2910,"umed":2911,"Ġtemper":2912,"gment":2913,"Ġsepar":2914,"Ġlearn":2915,"Ġvessel":2916,"Ġpress":2917,"Ġsusp":2918,"Ġnotice":2919,"esty":2920,"Ġkilled":2921,"Ġnarrow":2922,"Ġcalm":2923,"iff":2924,"Ġworks":2925,"Ġconsidered":2926,"inite":2927,"bur":2928,"Ġgate":2929,"Ġdefe":2930,"ize":2931,"Ġproud":2932,"Ġesc":2933,"Ġfurn":2934,"bar":2935,"Ġleaves":2936,"Ġdare":2937,"Ġgerman":2938,"eds":2939,"ee":2940,"formed":2941,"aled":2942,"pes":2943,"Ġhealth":2944,"Ġph":2945,"Ġseven":2946,"Ġpicture":2947,"Ġfixed":2948,"Ġfirm":2949,"action":2950,"Ġbelieved":2951,"Ġknight":2952,"can":2953,"Ġjames":2954,"Ġadvent":2955,"line":2956,"Ġears":2957,"Ġfier":2958,"Ġgrass":2959,"Ġdifference":2960,"Ġancient":2961,"Ġanxious":2962,"Ġwalls":2963,"Ġcrit":2964,"aining":2965,"Ġbecom":2966,"Ġallowed":2967,"Ġstates":2968,"Ġhost":2969,"sper":2970,"Ġwonderful":2971,"Ġindi":2972,"Ġflowers":2973,"Ġimpro":2974,"retched":2975,"Ġdarkness":2976,"Ġ-":2977,"Ġwinter":2978,"which":2979,"Ġstranger":2980,"Ġburst":2981,"Ġrain":2982,"Ġoppos":2983,"Ġmusic":2984,"Ġaccording":2985,"Ġrevol":2986,"ec":2987,"Ġourselves":2988,"nday":2989,"Ġpure":2990,"Ġsteps":2991,"Ġsong":2992,"Ġallow":2993,"Ġconce":2994,"Ã¦":2995,"Ġlanguage":2996,"Ġsilver":2997,"Ġpassage":2998,"Ġlot":2999,"losop":3000,"Ġlying":3001,"Ġhol":3002,"Ġhath":3003,"ades":3004,"Ġjustice":3005,"Ġdistinct":3006,"Ġdesert":3007,"Ġroyal":3008,"ĠĠĠĠĠĠĠĠĠĠ":3009,"Ġdetermined":3010,"Ġeast":3011,"Ġess":3012,"Ġfifty":3013,"ob":3014,"Ġfalse":3015,"ctures":3016,"Ġstro":3017,"Ġmod":3018,"face":3019,"Ġtrain":3020,"Ġfortune":3021,"Ġdam":3022,"Ġserious":3023,"!--":3024,"Ġwriting":3025,"Ġrace":3026,"kn":3027,"Ġyours":3028,"ored":3029,"Ġpromise":3030,"Ġmir":3031,"Ġhills":3032,"bes":3033,"Ġwal":3034,"worth":3035,"Ġpassing":3036,"Ġharry":3037,"Ġintrodu":3038,"Ġassist":3039,"Ġtong":3040,"Ġloud":3041,"Ġeld":3042,"Ġdegree":3043,"Ġexamp":3044,"Ġremarked":3045,"ille":3046,"Ġaffection":3047,"uit":3048,"Ġere":3049,"Ġbox":3050,"Ġclaim":3051,"Ġmodern":3052,"Ġhouses":3053,"llen":3054,"cl":3055,"ping":3056,"Ġur":3057,"Ġindivid":3058,"Ġthrew":3059,"Ġbritish":3060,"cise":3061,"Ġquietly":3062,"otion":3063,"Ġswift":3064,"while":3065,"clock":3066,"Ġwilliam":3067,"Ġspan":3068,"Ġmemory":3069,"Ġfoo":3070,"Ġnobody":3071,"Ġwatched":3072,"aching":3073,"Ġclosed":3074,"Ġestab":3075,"Ġphilosop":3076,"Ġcreature":3077,"Ġappre":3078,"Ġcovered":3079,"Ġmagn":3080,"ator":3081,"Ġhabit":3082,"mar":3083,"Ġglance":3084,"Ġain":3085,"Ġcustom":3086,"iently":3087,"Ġmurm":3088,"Ġoffer":3089,"Ġow":3090,"sen":3091,"Ġalar":3092,"Ġpocket":3093,"Ġdiscovered":3094,"Ġseat":3095,"Ġtroub":3096,"Ġremo":3097,"Ġstation":3098,"tis":3099,"Ġange":3100,"Ġorders":3101,"Ġloss":3102,"Ġengaged":3103,"Ġproperty":3104,"Ġdesce":3105,"Ġcand":3106,"Ġclothes":3107,"gl":3108,"Ġrough":3109,"zing":3110,"Ġformed":3111,"Ġparis":3112,"ingu":3113,"Ġgame":3114,"Ġways":3115,"ral":3116,"Ġgrey":3117,"Ġdecided":3118,"anc":3119,"Ġbold":3120,"Ġvast":3121,"Ġwear":3122,"Ġdrawn":3123,"enced":3124,"Ġbull":3125,"--------":3126,"Ġreading":3127,"Ġbreakfast":3128,"lies":3129,"Ġsyst":3130,"Ġthirty":3131,"Ġoffered":3132,"Ġsocial":3133,"Ġbirds":3134,"Ġende":3135,"Ġgrou":3136,"ta":3137,"Ġaston":3138,"Ġinform":3139,"Ġring":3140,"oted":3141,"Ġstir":3142,"Ġcrown":3143,"\"'":3144,"Ġvict":3145,"Ġrise":3146,"Ġindividual":3147,"gen":3148,"Ġfrequ":3149,"Ġshoulder":3150,"Ġtalked":3151,"Ġproduced":3152,"Ġspite":3153,"Ġdropped":3154,"Ġpersonal":3155,"ises":3156,"Ġfond":3157,"ibility":3158,"Ġquarter":3159,"Ġreck":3160,"Ġconduct":3161,"Ġconv":3162,"Ġsorrow":3163,"Ġguess":3164,"Ġadvantage":3165,"itated":3166,"Ġfate":3167,"Ġhenry":3168,"Ġsurely":3169,"Ġbal":3170,"isho":3171,"Ġcolour":3172,"Ġpride":3173,"Ġdisapp":3174,"Ġheads":3175,"reed":3176,"your":3177,"Ġindian":3178,"Ġthin":3179,"Ġknowing":3180,"Ġbeast":3181,"Ġdeb":3182,"Ġlisten":3183,"Ġopposite":3184,"ague":3185,"Ġblo":3186,"Ġdue":3187,"Ġfail":3188,"Ġspread":3189,"Ġtit":3190,"Ġreve":3191,"vided":3192,"Ġweather":3193,"Ġignor":3194,"Ġprepared":3195,"Ġforgotten":3196,"Ġwid":3197,"Ġstick":3198,"Ġaccompan":3199,".âĢĿ":3200,"road":3201,"Ġjim":3202,"Ġbottom":3203,"bl":3204,"Ġopportunity":3205,"lace":3206,"Ġspent":3207,"Ġsplend":3208,"Ġforms":3209,"Ġpick":3210,"Ġgreatest":3211,"Ġblind":3212,"vation":3213,"Ġcases":3214,"Ġinno":3215,"Ġdevil":3216,"Ġcousin":3217,"Ġmeeting":3218,"bly":3219,"Ġaffect":3220,"llo":3221,"itor":3222,"Ġcott":3223,"Ġevidence":3224,"acher":3225,"Ġsoldiers":3226,"Ġwel":3227,"Ġdestro":3228,"Ġintellig":3229,"Ġluck":3230,"Ġmoral":3231,"Ġcourage":3232,"Ġnice":3233,"Ġfool":3234,"Ġfault":3235,"phi":3236,"Ġrank":3237,"Ġsurprised":3238,"erve":3239,"fortun":3240,"pet":3241,"Ġremembered":3242,"Ġmountains":3243,"Ġblow":3244,"Ġeduc":3245,"Ġofficers":3246,"Ġthro":3247,":--":3248,"Ġyork":3249,"Ġband":3250,"Ġshr":3251,"Ġrising":3252,"reg":3253,"Ġpounds":3254,"Ġofficer":3255,"Ġyellow":3256,"Ġsquare":3257,"Ġliked":3258,"Ġune":3259,"Ġhigher":3260,"Ġbran":3261,"Ġholy":3262,"Ġthrown":3263,"Ġintended":3264,"Ġwine":3265,"Ġordinary":3266,"Ġones":3267,"Ġsuspic":3268,"ites":3269,"Ġspirits":3270,"verse":3271,"yn":3272,"Ġbreast":3273,"Ġangry":3274,"Ġfinished":3275,"Ġendeav":3276,"Ġstudy":3277,"Ġbeha":3278,"Ġsan":3279,"Ġaffairs":3280,"pl":3281,"Ġinterrupt":3282,"Ġder":3283,"Ġav":3284,"Ġshare":3285,"Ġbrave":3286,"Ġsurr":3287,"Ġheight":3288,"Ġotherwise":3289,"field":3290,"Ġgrat":3291,"Ġlaws":3292,"Ġpity":3293,"Ġgrad":3294,"Ġwil":3295,"welve":3296,"Ġcruel":3297,"Ġquestions":3298,"Ġnames":3299,"Ġsettled":3300,"Ġmotion":3301,"lessly":3302,"Ġ16":3303,"Ġaware":3304,"Ġwaited":3305,"Ġsituation":3306,"umn":3307,"Ġcabin":3308,"Ġdust":3309,"Ġdim":3310,"Ġsystem":3311,"footnote":3312,"Ġexistence":3313,"Ġpair":3314,"Ġtea":3315,"Ġshame":3316,"ays":3317,"Ġrail":3318,"Ġcred":3319,"Ġpack":3320,"stone":3321,"Ġinstance":3322,"Ġspace":3323,"chief":3324,"Ġinj":3325,"known":3326,"Ġtriump":3327,"ested":3328,"Ġbread":3329,"Ġattend":3330,"Ġnative":3331,"Ġgreatly":3332,"Ġsolemn":3333,"Ġham":3334,"Ġoper":3335,"Ġcow":3336,"Ġbare":3337,"spered":3338,"Ġprofess":3339,"Ġevidently":3340,"Ġapparently":3341,"antic":3342,"Ġdistingu":3343,"Ġsmoke":3344,"Ġwalking":3345,"Ġmajesty":3346,"Ġcharles":3347,"Ġmeaning":3348,"Ġamount":3349,"rid":3350,"Ġfacts":3351,"Ġfaces":3352,"Ġholding":3353,"acc":3354,"Ġaddress":3355,"Ġshoulders":3356,"Ġterms":3357,"Ġfart":3358,"Ġtwelve":3359,"Ġdoll":3360,"Ġhappiness":3361,"Ġreligion":3362,"oned":3363,"Ġideas":3364,"Ġanimals":3365,"mbers":3366,"Ġobliged":3367,"Ġfamiliar":3368,"Ġservant":3369,"Ġshown":3370,"Ġscot":3371,"Ġregular":3372,"Ġcoast":3373,"Ġconsiderable":3374,"over":3375,"uses":3376,"Ġprete":3377,"Ġplant":3378,"Ġreceive":3379,"Ġdevelo":3380,"Ġweeks":3381,"lla":3382,"Ġlod":3383,"was":3384,"Ġkeeping":3385,"Ġvalue":3386,"Ġwasn":3387,"ulous":3388,"Ġcop":3389,"reek":3390,"ounced":3391,"may":3392,"Ġbag":3393,"Ġreport":3394,"Ġjer":3395,"osity":3396,"lip":3397,"lice":3398,"Ġlose":3399,"Ġarrange":3400,"Ġclean":3401,"Ġ10":3402,"old":3403,"Ġdign":3404,"aly":3405,"Ġproved":3406,"imate":3407,"mend":3408,"Ġsuggested":3409,"Ġiv":3410,"Ġhotel":3411,"ails":3412,"urs":3413,"Ġpointed":3414,"law":3415,"Ġtroops":3416,"Ġ9":3417,"ointed":3418,"ulation":3419,"Ġweight":3420,"Ġbod":3421,"Ġtaste":3422,"Ġharm":3423,"ption":3424,"Ġdar":3425,"Ġgrant":3426,"Ġtwice":3427,"good":3428,"Ġequal":3429,"Ġrepresent":3430,"Ġban":3431,"Ġnoise":3432,"lar":3433,"Ġaccident":3434,"Ġmac":3435,"see":3436,"ker":3437,"iant":3438,"rance":3439,"rey":3440,"Ġcrossed":3441,"Ġforced":3442,"Ġsubst":3443,"Ġreader":3444,"Ġdistant":3445,"Ġwhispered":3446,"Ġwoods":3447,"Ġconfidence":3448,"Ġinn":3449,"Ġdisappe":3450,"Ġcomb":3451,"Ġdistur":3452,"Ġacquaint":3453,"Ġauthority":3454,"lan":3455,"Ġartic":3456,"Ġlibert":3457,"Ġexample":3458,"Ġtired":3459,"Ġparent":3460,"Ġanimal":3461,"uted":3462,"Ġhaven":3463,"Ġfill":3464,"Ġprocess":3465,"Ġargu":3466,"Ġaug":3467,"Ġhurt":3468,"Ġtal":3469,"Ġnur":3470,"Ġenjoy":3471,"Ġwitness":3472,"Ġtest":3473,"some":3474,"Ġdesign":3475,"Ġtouched":3476,"Ġexcite":3477,"Ġrocks":3478,"Ġamerica":3479,"Ġstock":3480,"Ġprove":3481,"Ġaffair":3482,"ilar":3483,"Ġfingers":3484,"Ġwilling":3485,"Ġrub":3486,"oe":3487,"Ġdeck":3488,"Ġpossession":3489,"Ġeverybody":3490,"Ġpromised":3491,"pir":3492,"Ġsteam":3493,"Ġthreat":3494,"Ġinteresting":3495,"Ġexplained":3496,"ception":3497,"Ġcook":3498,"Ġsufficient":3499,"hens":3500,"Ġbird":3501,"Ġcarriage":3502,"Ġwatching":3503,"Ġtelling":3504,"Ġspeed":3505,"aked":3506,"ishment":3507,"Ġ15":3508,"Ġpapers":3509,"ater":3510,"Ġforeign":3511,"Ġaside":3512,"Ġlies":3513,"fle":3514,"Ġcommunic":3515,"18":3516,"mond":3517,"chan":3518,"itary":3519,"ify":3520,"Ġedge":3521,"Ġbent":3522,"Ġamb":3523,"Ġalive":3524,"Ġfinally":3525,"Ġcaused":3526,"000":3527,"chant":3528,"Ġfem":3529,"Ġbas":3530,"Ġunivers":3531,"Ġworst":3532,"Ġmetho":3533,"Ġroof":3534,"Ġpossess":3535,"erved":3536,"Ġinstinct":3537,"Ġfinding":3538,"Ġheat":3539,"Ġlake":3540,"father":3541,"bury":3542,"chapter":3543,"ints":3544,"Ġavo":3545,"Ġpot":3546,"Ġgray":3547,"Ġgives":3548,"itution":3549,"Ġpaul":3550,"Ġpictures":3551,"Ġrode":3552,"Ġfarther":3553,"Ġstern":3554,",âĢĿ":3555,"Ġgolden":3556,"more":3557,"Ġbless":3558,"Ġtrade":3559,"Ġfol":3560,"yer":3561,"Ġsele":3562,"Ġconqu":3563,"Ġorgan":3564,"Ġlegs":3565,"Ġexcellent":3566,"Ġattemp":3567,"Ġsuffe":3568,"Ġthorough":3569,"cle":3570,"Ġaud":3571,"Ġempty":3572,"iles":3573,"Ġinterv":3574,"?--":3575,"ium":3576,"Ġ&":3577,"Ġtongue":3578,"Ġspect":3579,"Ġstreets":3580,"Ġep":3581,"Ġpor":3582,"Ġble":3583,"Ġpalace":3584,"Ġforty":3585,"nat":3586,"iny":3587,"Ġhither":3588,"Ġrichard":3589,"Ġgloom":3590,"Ġstore":3591,"Ġtakes":3592,"off":3593,"Ġbuilt":3594,"Ġworking":3595,"ishop":3596,"Ġprogress":3597,"Ġmentioned":3598,"Ġmaterial":3599,"arily":3600,"Ġslo":3601,"Ġsides":3602,"rish":3603,"Ġcoat":3604,"mitted":3605,"kind":3606,"gers":3607,"Ġimagine":3608,"Ġresp":3609,"Ġbid":3610,"Ġbay":3611,"Ġhonor":3612,"Ġhurried":3613,"Ġfortun":3614,"Ġrejo":3615,"Ġdull":3616,"cies":3617,"oon":3618,"aret":3619,"Ġ12":3620,"Ġaut":3621,"Ġpolitical":3622,"ogra":3623,"Ġgas":3624,"Ġshape":3625,"Ġinha":3626,"Ġpoints":3627,"Ġsty":3628,"Ġputting":3629,"Ġspecial":3630,"Ġsupport":3631,"Ġconn":3632,"Ġjudgment":3633,"anged":3634,"rose":3635,"Ġrule":3636,"Ġhide":3637,"stand":3638,"Ġhandsome":3639,"Ġagreed":3640,"istic":3641,"kin":3642,"Ġfarm":3643,"Ġfellows":3644,"amb":3645,"Ġthom":3646,"Ġabsolutely":3647,"Ġhom":3648,"lle":3649,"Ġwealth":3650,"Ġunf":3651,"Ġbuilding":3652,"Ġmighty":3653,"hant":3654,"Ġupper":3655,"Ġsaved":3656,"Ġtrad":3657,"Ġsimilar":3658,"asons":3659,"Ġpu":3660,"Ġcounten":3661,"Ġhappen":3662,"Ġhate":3663,"Ġrob":3664,"ially":3665,"ller":3666,"athered":3667,"Ġopening":3668,"ppy":3669,"Ġfish":3670,"Ġride":3671,"Ġsettle":3672,"Ġber":3673,"Ġsatisfied":3674,"hest":3675,"Ġsavage":3676,"Ġdoesn":3677,"Ġwindows":3678,"Ġafford":3679,"cer":3680,"Ġwicked":3681,"isters":3682,"Ġworthy":3683,"Ġregret":3684,"Ġsurface":3685,"Ġrow":3686,"inted":3687,"Ġwants":3688,"Ġtremb":3689,"Ġsoldier":3690,"Ġmoments":3691,"Ġnose":3692,"rer":3693,"using":3694,"Ġoccurred":3695,"Ġvig":3696,"Ġfailed":3697,"theless":3698,"looking":3699,"Ġrecord":3700,"Ġdrive":3701,"from":3702,"eping":3703,"Ġnaturally":3704,"soci":3705,"Ġneighbour":3706,"Ġpolice":3707,"Ġordered":3708,"__":3709,"Ġsearch":3710,"Ġsuspect":3711,"Ġmovement":3712,"Ġsuperi":3713,"Ġsacri":3714,"att":3715,"Ġwed":3716,"cts":3717,"Ġpowers":3718,"ables":3719,"Ġbrief":3720,"Ġbridge":3721,"ardon":3722,"rees":3723,"ram":3724,"Ġcatch":3725,"Ġcontent":3726,"ural":3727,"Ġfierce":3728,"Ġentertain":3729,"Ġlistened":3730,"cking":3731,"Ġstage":3732,"ws":3733,"Ġsuffer":3734,"Ġwet":3735,"Ġhearts":3736,"Ġdwell":3737,"Ġnoticed":3738,"rop":3739,"lord":3740,"Ġmam":3741,"Ġyards":3742,"ev":3743,"Ġkit":3744,"Ġshel":3745,"Ġstorm":3746,"Ġanybody":3747,"Ġrobert":3748,"Ġnearer":3749,"Ġdesper":3750,"Ġadvanced":3751,"Ġexec":3752,"Ġaid":3753,"Ġfully":3754,"estic":3755,"Ġkiss":3756,"Ġpage":3757,"quis":3758,"Ġodd":3759,"Ġ19":3760,"did":3761,"Ġextraord":3762,"Ġjump":3763,"ification":3764,"itive":3765,"Ġgrown":3766,"Ġdozen":3767,"Ġbon":3768,"have":3769,"Ġglory":3770,"Ġusually":3771,"Ġactually":3772,"Ġtale":3773,"Ġsmiling":3774,"Ġexer":3775,"Ġfreed":3776,"Ġscience":3777,"Ġclimb":3778,"sued":3779,"Ġexpressed":3780,"Ġrul":3781,"sm":3782,"Ġsex":3783,"Ġthrow":3784,"thur":3785,"Ġexte":3786,"Ġcarefully":3787,"az":3788,"Ġproof":3789,"Ġliberty":3790,"Ġcompar":3791,"terday":3792,"Ġrelief":3793,"Ġener":3794,"Ġimportance":3795,"Ġtruly":3796,"certain":3797,"Ġbelief":3798,"Ġrare":3799,"Ġpursu":3800,"Ġpersu":3801,"Ġstead":3802,"Ġgle":3803,"Ġwore":3804,"Ġing":3805,"Ġexplain":3806,"Ġprice":3807,"Ġequally":3808,"Ġdirectly":3809,"Ġarchi":3810,"Ġdangerous":3811,"lor":3812,"Ġgrowing":3813,"Ġlaughing":3814,"Ġanne":3815,"Ġgho":3816,"Ġfavor":3817,"Ġfighting":3818,"Ġparli":3819,"Ġdrove":3820,"Ġservants":3821,"Ġbore":3822,"Ġunfortun":3823,"Ġadmitted":3824,"Ġbenef":3825,"ulf":3826,"Ġadvance":3827,"Ġhurry":3828,"aries":3829,"Ġhuge":3830,"Ġdoct":3831,"perhaps":3832,"Ġevents":3833,"Ġlands":3834,"Ġcompl":3835,"Ġah":3836,"Ġdriven":3837,"Ġteeth":3838,"Ġsunday":3839,"Ġsac":3840,"Ġkeen":3841,"ost":3842,"Ġassured":3843,"Ġghost":3844,"Ġmoving":3845,"',":3846,"iii":3847,"Ġsympathy":3848,"Ġinside":3849,"Ġmercy":3850,"Ġremarkable":3851,"Ġjoined":3852,"Ġcit":3853,"Ġdun":3854,"Ġfoolish":3855,"Ġnine":3856,"char":3857,"never":3858,"Ġplants":3859,"ok":3860,"Ġdemanded":3861,"Ġcountenance":3862,"Ġworked":3863,"Ġsacrif":3864,"shi":3865,"arted":3866,"alous":3867,"ville":3868,"Ġpossibly":3869,"Ġminds":3870,"Ġindu":3871,"ich":3872,"Ġcool":3873,"Ġmistress":3874,"oc":3875,"Ġgli":3876,"Ġprefer":3877,"Ġscre":3878,"Ġportion":3879,"Ġcapital":3880,"Ġmode":3881,"Ġhence":3882,"Ġimagination":3883,"issed":3884,"Ġappears":3885,"Ġgather":3886,"Ġsooner":3887,"Ġsuperior":3888,"Ġsatisfaction":3889,"Ġtar":3890,"Ġmeasure":3891,"Ġpieces":3892,"Ġproc":3893,"Ġsucceeded":3894,"Ġyesterday":3895,"Ġsuffered":3896,"Ġleading":3897,"Ġbirth":3898,"Ġadvice":3899,"Ġintellect":3900,"Ġeli":3901,"gue":3902,"aff":3903,"racted":3904,"Ġyield":3905,"Ġconfess":3906,"Ġtail":3907,"Ġgathered":3908,"Ġpark":3909,"Ġindign":3910,"ability":3911,"ife":3912,"Ġwounded":3913,"Ġnodd":3914,"Ġdreadful":3915,"Ġoccupied":3916,"Ġimpression":3917,"Ġoriginal":3918,"Ġparliament":3919,"ciple":3920,"Ġparticularly":3921,"Ġhab":3922,"key":3923,"Ġmadame":3924,"sa":3925,"Ġdressed":3926,"Ġbusy":3927,"Ġindic":3928,"Ġconditions":3929,"Ġshoot":3930,"nes":3931,"Ġconcerned":3932,"Ġassoci":3933,"Ġproport":3934,"Ġmarked":3935,"acity":3936,"respo":3937,"unch":3938,"Ġcompanions":3939,"Ġiii":3940,"Ġseek":3941,"Ġimpat":3942,"place":3943,"Ġplayed":3944,"Ġsingular":3945,"Ġwag":3946,"Ġlifted":3947,"Ġdiss":3948,"chen":3949,"Ġseized":3950,"Ġceased":3951,"Ġearl":3952,"Ġships":3953,"Ġexcitement":3954,"rit":3955,"Ġjoin":3956,"Ġpopular":3957,"Ġpaused":3958,"Ġaugust":3959,"Ġqual":3960,"stairs":3961,"Ġawful":3962,"Ġcontro":3963,"Ġflower":3964,"Ġwelcome":3965,"Ġunha":3966,"Ġtaught":3967,"ainted":3968,"eral":3969,"Ġremind":3970,"Ġcouple":3971,"Ġunited":3972,"Ġpriest":3973,"10":3974,"Ġinstantly":3975,"vert":3976,"Ġbegun":3977,"Ġcart":3978,"Ġmistake":3979,"hus":3980,"Ġhearing":3981,"Ġdespair":3982,"Ġsupper":3983,"Ġterror":3984,"Ġsuit":3985,"Ġmile":3986,"Ġnecessity":3987,"Ġregarded":3988,"een":3989,"Ġvic":3990,"bre":3991,"long":3992,"ental":3993,"ann":3994,"Ġcorrespo":3995,"Ġlamp":3996,"Ġcentury":3997,"Ġchamber":3998,"Ġdouble":3999,"asm":4000,"Ġprospect":4001,"Ġundert":4002,"--'":4003,"Ġextraordinary":4004,"Ġrequired":4005,"Ġsigh":4006,"Ġnevertheless":4007,"angers":4008,"Ġkingdom":4009,"Ġabsence":4010,"acle":4011,"illy":4012,"Ġpier":4013,"Ġseason":4014,"Ġfles":4015,"Ġadmit":4016,"Ġlouis":4017,"ese":4018,"Ġproceeded":4019,"Ġnamed":4020,"Ġack":4021,"Ġice":4022,"leep":4023,"Ġclub":4024,"Ġthri":4025,"Ġsplendid":4026,"Ġcup":4027,"Ġexped":4028,"som":4029,"Ġinformation":4030,"bid":4031,"Ġthinks":4032,"Ġprincess":4033,"hib":4034,"car":4035,"Ġgras":4036,"ourse":4037,"Ġstruggle":4038,"Ġhorri":4039,"alled":4040,"Ġacknow":4041,"Ġguns":4042,"Ġfruit":4043,"Ġserve":4044,"Ġhosp":4045,"Ġacquaintance":4046,"Ġunknown":4047,"Ġlone":4048,"Ġale":4049,"ĠâĢĺ":4050,"Ġsche":4051,"Ġrome":4052,"Ġfalling":4053,"usted":4054,"Ġsen":4055,"Ġcolle":4056,"Ġhopes":4057,"Ġpartly":4058,"Ġtend":4059,"Ġlin":4060,"Ġcult":4061,"Ġobey":4062,"ems":4063,"Ġ14":4064,"Ġcorre":4065,"Ġdaily":4066,"aunt":4067,"Ġcalling":4068,"Ġpowerful":4069,"orous":4070,"onscious":4071,"wick":4072,"iece":4073,"Ġknees":4074,"Ġeducation":4075,"Ġresolved":4076,"Ġcarrying":4077,"Ġinterested":4078,"Ġkindly":4079,"Ġsevere":4080,"Ġremains":4081,"win":4082,"Ġprinciple":4083,"lady":4084,"Ġshop":4085,"ading":4086,"Ġcontemp":4087,"Ġresist":4088,"ustomed":4089,"Ġpulled":4090,"\"--":4091,"pro":4092,"Ġmidst":4093,"Ġrefused":4094,"Ġdor":4095,"any":4096,"Ġbrain":4097,"Ġseated":4098,"Ġmult":4099,"Ġminister":4100,"Ġbrill":4101,"Ġcy":4102,"Ġpause":4103,"Ġuseful":4104,"atures":4105,"rant":4106,"Ġtent":4107,"bell":4108,"Ġtemple":4109,"lam":4110,"Ġhit":4111,"Ġfet":4112,"Ġpossessed":4113,"Ġstones":4114,"Ġfairly":4115,"Ġpill":4116,"Ġcomr":4117,"Ġ13":4118,"Ġexceed":4119,"Ġconscience":4120,"Ġsize":4121,"Ġvoy":4122,"dra":4123,"Ġbishop":4124,"osing":4125,"ĠâĢĻ":4126,"Ġstands":4127,"Ġbaby":4128,"Ġdepend":4129,"Ġconsequence":4130,"sir":4131,"Ġchat":4132,"Ġprofession":4133,"Ġflesh":4134,"orious":4135,"Ġsought":4136,"rison":4137,"Ġetern":4138,"Ġpresented":4139,"net":4140,"Ġsevent":4141,"mat":4142,"Ġlovely":4143,"Ġtele":4144,"ission":4145,"erson":4146,"Ġbuy":4147,"Ġshouted":4148,".[":4149,"ancing":4150,"Ġgay":4151,"Ġvague":4152,"Ġcomfortable":4153,"ology":4154,"Ġchoose":4155,"Ġly":4156,"Ġclearly":4157,"Ġindif":4158,"Ġblank":4159,"Ġstyle":4160,"Ġfreedom":4161,"Ġserved":4162,"lier":4163,"Ġskin":4164,"Ġexplan":4165,"Ġglanced":4166,"Ġcurt":4167,"Ġdelay":4168,"Ġdescribed":4169,"Ġprisoner":4170,"Ġpatri":4171,"Ġasleep":4172,"Ġcliff":4173,"Ġlabour":4174,"Ġelder":4175,"Ġdrop":4176,"Ġpan":4177,"Ġvoices":4178,"Ġtask":4179,"emies":4180,"Ġhighest":4181,"Ġloose":4182,"Ġarthur":4183,"Ġwisdom":4184,"Ġwaters":4185,"Ġmach":4186,"Ġconvi":4187,"Ġhoped":4188,"lst":4189,"Ġpin":4190,"mas":4191,"Ġze":4192,"Ġrooms":4193,"Ġsaf":4194,"Ġboats":4195,"Ġscat":4196,"Ġmi":4197,"Ġmurder":4198,"Ġretreat":4199,"Ġenemies":4200,"Ġmilitary":4201,"Ġbob":4202,"Ġcolor":4203,"Ġcig":4204,"Ġroman":4205,"ustration":4206,"Ġwes":4207,"Ġthomas":4208,"Ġwholly":4209,"Ġcontrary":4210,"Ġcredit":4211,"Ġstars":4212,"Ġassemb":4213,"Ġado":4214,"Ġhut":4215,"Ġdollars":4216,"ruction":4217,"Ġfred":4218,"Ġarch":4219,"Ġweary":4220,"aker":4221,"Ġsomebody":4222,"Ġgrim":4223,"Ġkindness":4224,"cause":4225,"new":4226,"Ġdir":4227,"Ġlion":4228,"Ġhorn":4229,"Ġpoetry":4230,"Ġdivine":4231,"fic":4232,"Ġmood":4233,"Ġmaint":4234,"has":4235,"Ġpil":4236,"Ġgroup":4237,"Ġsomehow":4238,"urd":4239,"ulated":4240,"ustri":4241,"Ġexcited":4242,"iding":4243,"ldom":4244,"Ġara":4245,"thi":4246,"Ġclosely":4247,"ky":4248,"ensive":4249,"Ġscott":4250,"Ġruin":4251,"Ġextent":4252,"zy":4253,"Ġtim":4254,"Ġfranc":4255,"Ġdignity":4256,"Ġconne":4257,"abel":4258,"Ġamid":4259,"Ġstrike":4260,"Ġintention":4261,"Ġbree":4262,"Ġcompletely":4263,"gypt":4264,"Ġindians":4265,"Ġproduce":4266,"Ġdiscover":4267,"Ġperform":4268,"Ġlevel":4269,"born":4270,"ril":4271,"fa":4272,"Ġreasons":4273,"Ġox":4274,"Ġassert":4275,"Ġtot":4276,"Ġsme":4277,"Ġken":4278,"17":4279,"Ġasking":4280,"Ġlim":4281,"Ġwrit":4282,"Ġrespons":4283,"astic":4284,"erous":4285,"Ġdying":4286,"Ġgovernor":4287,"Ġyo":4288,"15":4289,"xed":4290,"oul":4291,"Ġhun":4292,"Ġsmooth":4293,"isher":4294,"Ġnove":4295,"Ġclouds":4296,"Ġdism":4297,"Ġrelations":4298,"Ġvision":4299,"Ġdelicate":4300,"Ġvirtue":4301,"ancy":4302,"Ġprinciples":4303,"Ġarrival":4304,"Ġgradually":4305,"bers":4306,"Ġpardon":4307,"Ġprofessor":4308,"Ġlover":4309,"Ġphilip":4310,"Ġthrust":4311,"vey":4312,"Ġama":4313,"Ġplenty":4314,"Ġmessage":4315,"Ġanger":4316,"Ġdoors":4317,"Ġinvent":4318,"Ġscra":4319,"Ġsmith":4320,"Ġsprang":4321,"Ġjes":4322,"Ġcentre":4323,"Ġsomewhere":4324,"Ġdiscuss":4325,"Ġcuriosity":4326,"Ġbetray":4327,"Ġimmense":4328,"Ġsar":4329,"Ġindepend":4330,"Ġrisk":4331,"Ġreligious":4332,"Ġhan":4333,"Ġclever":4334,"Ġcapable":4335,"Ġrapidly":4336,"Ġbodies":4337,"Ġflight":4338,"Ġahead":4339,"Ġunex":4340,"Ġetc":4341,"Ġpractice":4342,"Ġguide":4343,"Ġjul":4344,"inking":4345,"Ġmont":4346,"Ġaccepted":4347,"Ġmanage":4348,"Ġcritic":4349,"Ġcitiz":4350,"Ġnational":4351,"Ġease":4352,"Ġtreated":4353,"Ġobv":4354,"aces":4355,"Ġash":4356,"ourable":4357,"husi":4358,"Ġcareful":4359,"Ġtheory":4360,"Ġrepro":4361,"Ġdesired":4362,"Ġgenius":4363,"Ġescaped":4364,"Ġburning":4365,"Ġcrew":4366,"Ġsentiment":4367,"Ġvolume":4368,"ieur":4369,"rows":4370,"Ġislands":4371,"Ġfemale":4372,"Ġfamous":4373,"Ġconstant":4374,"Ġconsideration":4375,"Ġmeas":4376,"Ġcraw":4377,"Ġhollow":4378,"nal":4379,"Ġinnocent":4380,"Ġbaron":4381,"asant":4382,"Ġaccustomed":4383,"iest":4384,"Ġhorror":4385,"Ġelect":4386,"hand":4387,"Ġliterature":4388,"Ġjan":4389,"igned":4390,"Ġprotest":4391,"these":4392,"Ġenthusi":4393,"Ġlarger":4394,"Ġpressed":4395,"bu":4396,"Ġended":4397,"pected":4398,"Ġmembers":4399,"Ġfought":4400,"Ġmanif":4401,"Ġdawn":4402,"ams":4403,"Ġwhisper":4404,"Ġworn":4405,"Ġdogs":4406,"pted":4407,"Ġyounger":4408,"Ġinterrupted":4409,"Ġmurmured":4410,"Ġcontempt":4411,"Ġinhabit":4412,"ighed":4413,"Ġanxiety":4414,"Ġinfinite":4415,"Ġ--":4416,"keep":4417,"Ġgrief":4418,"Ġinquired":4419,"Ġconvin":4420,"Ġmiserable":4421,"Ġfaithful":4422,"jection":4423,"Ġdeeply":4424,"Ġobjects":4425,"Ġ(_":4426,"Ġvisible":4427,"Ġfrightened":4428,"ena":4429,"Ġhell":4430,"Ġresemb":4431,"Ġmethod":4432,"Ġseldom":4433,"Ġinvol":4434,"Ġstories":4435,"Ġdiff":4436,"Ġfare":4437,"uls":4438,"Ġrecoll":4439,"Ġstat":4440,"Ġincident":4441,"Ġgods":4442,"Ġnewsp":4443,"tr":4444,"mony":4445,"Ġsacred":4446,"Ġamuse":4447,"Ġbehold":4448,"Ġemploy":4449,"two":4450,"irm":4451,"iven":4452,"Ġexcuse":4453,"hamed":4454,"Ġadventure":4455,"Ġaband":4456,"Ġwhenever":4457,"Ġsoftly":4458,"Ġnodded":4459,"Ġengage":4460,"isc":4461,"bor":4462,"aling":4463,"board":4464,"Ġsup":4465,"phe":4466,"bing":4467,"Ġneeded":4468,"Ġtrail":4469,"Ġoce":4470,"Ġsafety":4471,"Ġobst":4472,"Ġlog":4473,"Ġdomestic":4474,"Ġimper":4475,"Ġfields":4476,"onsieur":4477,"za":4478,"war":4479,"Ġaim":4480,"Ġcord":4481,"Ġevident":4482,"Ġproportion":4483,"Ġthunder":4484,"Ġthoroughly":4485,"Ġgained":4486,"Ġstairs":4487,"Ġunable":4488,"Ġscen":4489,"Ġfigures":4490,"Ġrushed":4491,"Ġcurrent":4492,"Ġbearing":4493,"Ġbosom":4494,"Ġegypt":4495,"Ġlit":4496,"Ġcaval":4497,"oms":4498,"Ġtriumph":4499,"Ġrecei":4500,"Ġconsult":4501,"Ġstuff":4502,"Ġmoreover":4503,"Ġwashing":4504,"about":4505,"Ġoli":4506,"Ġthroughout":4507,"sec":4508,"ushing":4509,"Ġunus":4510,"Ġfeatures":4511,"Ġrust":4512,"Ġutterly":4513,"Ġvers":4514,"Ġapproached":4515,"Ġhadn":4516,"Ġsounds":4517,"Ġbew":4518,";\"":4519,"ashing":4520,"Ġhighly":4521,"alian":4522,"Ġfinger":4523,"Ġfee":4524,"Ġfifteen":4525,"Ġhidden":4526,"Ġobtained":4527,"Ġarranged":4528,"Ġplat":4529,"Ġpublished":4530,"oop":4531,"Ġhelped":4532,"Ġrefer":4533,"rem":4534,"Ġashamed":4535,"Ġmate":4536,"Ġaddressed":4537,"Ġmystery":4538,"Ġlimb":4539,"ointment":4540,"Ġchoice":4541,"ste":4542,"Ġscorn":4543,"Ġentrance":4544,"Ġ20":4545,"mission":4546,"Ġextremely":4547,"Ġplaying":4548,"Ġinquir":4549,"Ġrolled":4550,"Ġmanners":4551,"Ġju":4552,"arse":4553,"utation":4554,"Ġthroat":4555,"Ġtight":4556,"Ġdepth":4557,"Ġmild":4558,"Ġmelan":4559,"Ġgently":4560,"only":4561,"Ġbul":4562,"Ġeverywhere":4563,"than":4564,"Ġproposed":4565,"ids":4566,"Ġpatient":4567,"sue":4568,"Ġsheep":4569,"Ġparties":4570,"aches":4571,"Ġconclusion":4572,"va":4573,"Ġnav":4574,"Ġcover":4575,"Ġcouncil":4576,"Ġnerv":4577,"fall":4578,"Ġbringing":4579,"five":4580,"Ġfriendly":4581,"ache":4582,"hetic":4583,"Ġling":4584,"Ġtells":4585,"Ġgrate":4586,"Ġspare":4587,"atory":4588,"asy":4589,"Ġsubjects":4590,"Ġwondered":4591,"Ġremoved":4592,"ĠÂ":4593,"iance":4594,"ailed":4595,"Ġcircle":4596,"Ġmud":4597,"12":4598,"Ġweap":4599,"nothing":4600,"Ġmankind":4601,"Ġcharacters":4602,"Ġlonely":4603,"Ġtravel":4604,"Ġdoubtless":4605,"Ġrelation":4606,"Ġkitchen":4607,"work":4608,"Ġshowing":4609,"Ġunp":4610,"aced":4611,"arr":4612,"Ġfold":4613,"Ġadmiration":4614,"Ġpractical":4615,"Ġredu":4616,"Ġstout":4617,"Ġstan":4618,"Ġstepped":4619,"Ġdisplay":4620,"Ġjob":4621,"Ġconvent":4622,"Ġquality":4623,"Ġconnected":4624,"oes":4625,"Ġoccasionally":4626,"pelled":4627,"Ġsuffering":4628,"Ġpipe":4629,"Ġbought":4630,"Ġexha":4631,"Ġflying":4632,"Ġstiff":4633,"Ġincreased":4634,"fulness":4635,"Ġsour":4636,"Ġmission":4637,"Ġrum":4638,"oses":4639,"Ġconstitution":4640,"upon":4641,"Ġobserve":4642,"Ġjoe":4643,"Ġforgot":4644,"Ġnotes":4645,"ulse":4646,"Ġunhappy":4647,"had":4648,"ara":4649,"enth":4650,"oused":4651,"Ġconfusion":4652,"Ġdoctr":4653,"uding":4654,"Ġjealous":4655,"Ġ[_":4656,"Ġnegle":4657,"inging":4658,"inte":4659,"Ġgreet":4660,"Ġocean":4661,"Ġexchan":4662,"Ġnay":4663,"Ġreturning":4664,"ict":4665,"Ġsecure":4666,"Ġgrie":4667,"Ġdistinguished":4668,"Ġcottage":4669,"Ġapproach":4670,"Ġlest":4671,"Ġirish":4672,"ators":4673,"Ġsigns":4674,"Ġforgive":4675,"ential":4676,"Ġrendered":4677,"jud":4678,"Ġbecoming":4679,"iation":4680,"Ġbecomes":4681,"Ġdisappeared":4682,"Ġhalt":4683,"Ġnumbers":4684,"Ġmysterious":4685,"held":4686,"Ġcard":4687,"Ġblame":4688,"book":4689,"Ġsons":4690,"Ġburied":4691,"Ġbrothers":4692,"Ġslightly":4693,"Ġgets":4694,"Ġplainly":4695,"Ġconcerning":4696,"Ġclergy":4697,"aming":4698,"mble":4699,"Ġwishes":4700,"Ġinclined":4701,"Ġkings":4702,"Ġreward":4703,"Ġlaught":4704,"Ġspanish":4705,"Ġmagnific":4706,"umber":4707,"istr":4708,"Ġrude":4709,"Ġrush":4710,"Ġabst":4711,"Ġaccompanied":4712,"gging":4713,"Ġkey":4714,"Ġwhilst":4715,"ĠĠĠĠĠĠĠĠĠ":4716,"Ġruss":4717,"Ġlaughter":4718,"Ġsport":4719,"Ġhole":4720,"eror":4721,"Ġreven":4722,"Ġunconscious":4723,"Ġbase":4724,"four":4725,"Ġmeal":4726,"Ġprevious":4727,"Ġquant":4728,"Ġtitle":4729,"Ġshade":4730,"Ġfled":4731,"Ġchosen":4732,"Ġalarm":4733,"hor":4734,"Ġreckon":4735,"Ġprecious":4736,"16":4737,"Ġwaste":4738,"Ġgreek":4739,"Ġaspect":4740,"Ġ{":4741,"oring":4742,"Ġwheel":4743,"ault":4744,"Ġwound":4745,"Ġcreatures":4746,"Ġcharming":4747,"Ġsufficiently":4748,"Ġcere":4749,"Ġhaw":4750,"fied":4751,"Ġvoyage":4752,"Ġappreci":4753,"Ġsupply":4754,"Ġcheeks":4755,"Ġteach":4756,"iable":4757,"Ġprayer":4758,"Ġabsurd":4759,"Ġseries":4760,"because":4761,"Ġunderstanding":4762,"Ġfleet":4763,"Ġpad":4764,"Ġpurcha":4765,"Ġemer":4766,"Ġconcern":4767,"Ġswept":4768,"Ġspark":4769,"Ġcattle":4770,"Ġlistening":4771,"Ġfanci":4772,"Ġphysical":4773,"Ġhabits":4774,"cial":4775,"Ġdavid":4776,"iqu":4777,"zab":4778,"Ġbrow":4779,"ole":4780,"Ġdelighted":4781,"Ġprepar":4782,"Ġ186":4783,"Ġhers":4784,"Ġemployed":4785,"iture":4786,"Ġstrict":4787,"Ġconven":4788,"Ġabroad":4789,"cast":4790,"Ġnotion":4791,"ndy":4792,"13":4793,"Ġpapa":4794,"Ġrad":4795,"Ġnob":4796,"Ġemotion":4797,"Ġargument":4798,"Ġbreaking":4799,"Ġthanks":4800,"garet":4801,"urity":4802,"Ġasce":4803,"uten":4804,"step":4805,"aper":4806,"choly":4807,"Ġbarbar":4808,"Ġcharm":4809,"Ġdance":4810,"Ġunto":4811,"Ġmour":4812,"Ġjane":4813,"Ġwra":4814,"pel":4815,"Ġlucy":4816,"Ġcheek":4817,"Ġlux":4818,"Ġduties":4819,"Ġedward":4820,"list":4821,"Ġdiscovery":4822,"Ġcompli":4823,"Ġfrequently":4824,"Ġintense":4825,"Ġmic":4826,"Ġpicked":4827,"Ġactive":4828,"Ġwhist":4829,"Ġprobable":4830,"Ġstriking":4831,"Ġmartin":4832,"Ġsteep":4833,"Ġpred":4834,"Ġscr":4835,"Ġaddition":4836,"Ġbrig":4837,"Ġprincipal":4838,"Ġlately":4839,"Ġliterary":4840,"Ġeaster":4841,"Ġgain":4842,"Ġtheat":4843,"isions":4844,"ases":4845,"race":4846,"umes":4847,"Ġblessed":4848,"Ġslave":4849,"Ġmelancholy":4850,"Ġpushed":4851,"Ġstrongly":4852,"Ġslept":4853,"Ġflung":4854,"Ġassistance":4855,"nel":4856,"Ġfever":4857,"Ġexplanation":4858,"hel":4859,"Ġindul":4860,"Ġolder":4861,"licity":4862,"erves":4863,"Ġages":4864,"Ġfriendship":4865,"Ġming":4866,"nor":4867,"ads":4868,"mod":4869,"Ġscotland":4870,"Ġprotect":4871,"Ġintim":4872,"Ġsell":4873,"Ġuncom":4874,"Ġhitherto":4875,"illustration":4876,"Ġtrial":4877,"izing":4878,"Ġdrift":4879,"Ġspend":4880,"gate":4881,"Ġsolid":4882,"Ġimmediate":4883,"eous":4884,"iments":4885,"Ġkissed":4886,"Ġfri":4887,"asing":4888,"acles":4889,"Ġforehead":4890,"Ġtype":4891,"uries":4892,"Ġdistress":4893,"Ġhistor":4894,"Ġsteady":4895,"Ġliber":4896,"Ġdesperate":4897,"14":4898,"master":4899,"Ġdepe":4900,"Ġavoid":4901,"ization":4902,"==":4903,"Ġrecom":4904,"acon":4905,"atively":4906,"Ġrage":4907,"Ġhunting":4908,"ell":4909,"Ġmember":4910,"Ġgazed":4911,"owned":4912,"Ġintelligence":4913,"Ġunfortunate":4914,"Ġwing":4915,"rich":4916,"Ġchest":4917,"Ġtower":4918,"Ġmale":4919,"Ġquarrel":4920,"Ġ...":4921,"Ġwings":4922,"Ġinterview":4923,"Ġsom":4924,"Ġwretched":4925,"Ġsinging":4926,"Ġcab":4927,"Ġnatives":4928,"Ġgaze":4929,"Ġhind":4930,"Ġrevolution":4931,"Ġmerchant":4932,"Ġpoem":4933,"Ġstup":4934,"Ġsouls":4935,"Ġdevelop":4936,"utions":4937,"mate":4938,"Ġpatience":4939,"ggs":4940,"Ġnumerous":4941,"omin":4942,"Ġprofound":4943,"Ġbol":4944,"Ġmerry":4945,"Ġdreams":4946,"low":4947,"Ġillustr":4948,"Ġdece":4949,"Ġsuspicion":4950,"Ġnations":4951,"Ġfrancis":4952,"Ġphr":4953,"Ġfeared":4954,"pher":4955,"Ġweakness":4956,"Ġuns":4957,"Ġinfer":4958,"Ġlights":4959,"Ġconvinced":4960,"Ġenergy":4961,"Ġcontinue":4962,"Ġinterests":4963,"Ġriding":4964,"Ġjac":4965,"Ġestablish":4966,"Ġstared":4967,"Ġmatch":4968,"umbled":4969,"Ġaffected":4970,"Ġpant":4971,"Ġperceived":4972,"Ġwhence":4973,"Ġawa":4974,"ublic":4975,"Ġinterp":4976,"ales":4977,"Ġlack":4978,"Ġaccordingly":4979,"Ġdescription":4980,"Ġsaint":4981,"Ġeffects":4982,"Ġoak":4983,"even":4984,"Ġunexpected":4985,"Ġmonsieur":4986,"Ġraise":4987,"Ġcele":4988,"vy":4989,"Ġcorrect":4990,"Ġpropos":4991,"every":4992,"Ġecho":4993,"Ġpuzz":4994,"Ġinfant":4995,"Ġattitude":4996,"iday":4997,"Ġchiefly":4998,"Ġpraise":4999,"Ġsout":5000,"eding":5001,"Ġviolent":5002,"Ġgla":5003,"Ġacquainted":5004,"Ġparents":5005,"gon":5006,"Ġaccur":5007,"Ġconsent":5008,"Ġmanaged":5009,"Ġcrime":5010,"Ġsus":5011,"Ġcommission":5012,"Ġvictor":5013,"illa":5014,"Ġshows":5015,"Ġdomin":5016,"Ġward":5017,"ounce":5018,"Ġrender":5019,"Ġindia":5020,"Ġsurrounded":5021,"Ġplans":5022,"Ġtroubles":5023,"Ġarrest":5024,"kins":5025,"Ġenorm":5026,"Ġshir":5027,"uch":5028,"ilty":5029,"Ġfox":5030,"port":5031,"Ġprisoners":5032,"Ġwidow":5033,"Ġvirgin":5034,"Ġnarr":5035,"Ġcolumn":5036,"Ġcraft":5037,"Ġgenerous":5038,"Ġrear":5039,"Ġpreced":5040,"bro":5041,"Ġprosper":5042,"Ġstret":5043,"Ġwre":5044,"Ġends":5045,"Ġcorp":5046,"Ġapt":5047,"Ġlan":5048,"Ġmamma":5049,"Ġframe":5050,"Ġshining":5051,"Ġthrone":5052,"Ġregiment":5053,"Ġcloth":5054,"wa":5055,"Ġped":5056,"Ġworship":5057,"Ġinformed":5058,"agger":5059,"Ġay":5060,"Ġabrupt":5061,"Ġtrembling":5062,"Ġdelightful":5063,"Ġobsc":5064,"tho":5065,"urious":5066,"Ġmisery":5067,"Ġexception":5068,"Ġartist":5069,"Ġignorant":5070,"Ġskill":5071,"Ġmounted":5072,"Ġpist":5073,"Ġcomposed":5074,"Ġdeliber":5075,"20":5076,"geon":5077,"Ġqueer":5078,"Ġprecise":5079,"Ġorna":5080,"Ġtext":5081,"Ġinhabitants":5082,"ols":5083,"Ġperpet":5084,"arest":5085,"Ġplate":5086,"Ġknife":5087,"Ġansw":5088,"Ġopinions":5089,"pr":5090,"Ġstretched":5091,"icip":5092,"Ġconsid":5093,"wing":5094,"Ġaver":5095,"Ġarose":5096,"Ġcalls":5097,"lot":5098,"Ġneeds":5099,"tes":5100,"Ġproject":5101,"Ġuttered":5102,"Ġgest":5103,"Ġrang":5104,"inde":5105,"Ġbowed":5106,"Ġprompt":5107,"Ġral":5108,"Ġsetting":5109,"rim":5110,"met":5111,"Ġtreasure":5112,"Ġhorrible":5113,"ulate":5114,"Ġdiam":5115,"des":5116,"Ġprote":5117,"zabeth":5118,"Ġcorrespond":5119,"Ġwestern":5120,"such":5121,"Ġhaunt":5122,"Ġefforts":5123,"Ġactual":5124,"cu":5125,"Ġdisposed":5126,"Ġsubs":5127,"Ġdecl":5128,"Ġcalcul":5129,"Ġcoo":5130,"rise":5131,"Ġestablished":5132,"vol":5133,"Ġbrilliant":5134,"Ġannounced":5135,"ffee":5136,"Ġdesir":5137,"_;":5138,"ana":5139,"Ġhanging":5140,"Ġmagic":5141,"Ġshelter":5142,"Ġprovided":5143,"Ġnovel":5144,"Ġdifficulties":5145,"Ġhousehold":5146,"ette":5147,"hum":5148,"Ġswell":5149,"Ġexercise":5150,"Ġtelegra":5151,"Ġinvest":5152,"Ġhastily":5153,"bour":5154,"Ġmau":5155,"Ġviews":5156,"standing":5157,"Ġcelebr":5158,"Ġbranches":5159,"god":5160,"Ġnap":5161,"ilities":5162,"Ġspiritual":5163,"Ġamongst":5164,"Ġleaning":5165,"Ġuseless":5166,"Ġfinal":5167,"Ġconsciousness":5168,"Ġsang":5169,"Ġvac":5170,"Ġlikewise":5171,"Ġtransl":5172,"Ġedition":5173,"Ġvalu":5174,"Ġmental":5175,"time":5176,"eve":5177,"Ġtramp":5178,"Ġ25":5179,"Ġralph":5180,"Ġsees":5181,"Ġimage":5182,"utenant":5183,"ae":5184,"Ġwaist":5185,"order":5186,"Ġpainted":5187,"Ġunion":5188,"je":5189,"Ġwriter":5190,"Ġridic":5191,"Ġlibr":5192,"Ġfeather":5193,"Ġintent":5194,"udes":5195,"Ġventure":5196,"iries":5197,"mother":5198,"Ġaven":5199,"Ġrefuse":5200,"Ġrope":5201,"Ġwarning":5202,"Ġshadows":5203,"Ġleaned":5204,"ension":5205,"Ġexert":5206,"Ġshake":5207,"Ġturns":5208,"enger":5209,"nay":5210,"Ġsuccessful":5211,"Ġappointed":5212,"Ġscient":5213,"ivity":5214,"hon":5215,"Ġlighted":5216,"Ġlawyer":5217,"Ġsank":5218,"inks":5219,"Ġarmed":5220,"hic":5221,"Ġstupid":5222,"oke":5223,"Ġleaf":5224,"Ġrequest":5225,"Ġeagerly":5226,"Ġax":5227,"Ġbones":5228,"Ġrepublic":5229,"Ġanywhere":5230,"riet":5231,"Ġpresident":5232,"Ġcollege":5233,"urance":5234,"Ġnorther":5235,"Ġnegro":5236,"Ġresumed":5237,"Ġvictory":5238,"Ġcoffee":5239,"Ġhanded":5240,"Ġitalian":5241,"Ġguest":5242,"Ġmadam":5243,"Ġwarri":5244,"phy":5245,"Ġfarmer":5246,"liness":5247,"Ġnurse":5248,"wr":5249,"itate":5250,"Ġrequire":5251,"Ġscattered":5252,"rences":5253,"Ġug":5254,"Ġrange":5255,"Ġrights":5256,"Ġ30":5257,"would":5258,"Ġappeal":5259,"Ġrecovered":5260,"Ġnin":5261,"Ġutmost":5262,"Ġconsist":5263,"Ġsquire":5264,"Ġprovid":5265,"Ġchanges":5266,"----\"":5267,"otes":5268,"Ġvul":5269,"Ġlabor":5270,"Ġscheme":5271,"Ġcopy":5272,"Ġengine":5273,"Ġrestra":5274,"cript":5275,"ums":5276,"shine":5277,"Ġguilty":5278,"Ġbottle":5279,"Ġretired":5280,"Ġsacrifice":5281,"Ġfatal":5282,"Ġalt":5283,"Ġglorious":5284,"Ġidle":5285,"Ġwhir":5286,"Ġdel":5287,"Ġcircumstance":5288,"Ġfourth":5289,"Ġguests":5290,"Ġeternal":5291,"Ġconnection":5292,"Ġbeach":5293,"Ġgift":5294,"19":5295,"grace":5296,"Ġrat":5297,"Ġhumble":5298,"lude":5299,"Ġvariety":5300,"Ġestate":5301,"Ġcontempl":5302,"Ġwalter":5303,"Ġsovere":5304,"Ġpope":5305,"Ġhesitated":5306,"Ġimprove":5307,"Ġcultiv":5308,"Ġrig":5309,"Ġshouldn":5310,"Ġshock":5311,"Ġdefence":5312,"Ġslipped":5313,"onsense":5314,"Ġsisters":5315,"hearted":5316,"ik":5317,"enn":5318,"ander":5319,"Ġstamp":5320,"Ġmarket":5321,"Ġjesus":5322,"Ġpig":5323,"Ġnearest":5324,"Ġdescended":5325,"atch":5326,"ded":5327,"Ġoccasions":5328,"Ġalike":5329,"Ġwinds":5330,"Ġitaly":5331,"Ġcoach":5332,"Ġchin":5333,"Ġfollows":5334,"Ġdared":5335,"Ġinex":5336,"Ġmeat":5337,"Ġreference":5338,"ctive":5339,"Ġapproaching":5340,"Ġours":5341,"Ġborne":5342,"Ġyard":5343,"Ġbrid":5344,"Ġfired":5345,"Ġincrease":5346,"Ġbeard":5347,"Ġobtain":5348,"Ġspecul":5349,"ridge":5350,"Ġmuttered":5351,"unning":5352,"Ġclerk":5353,"Ġthousands":5354,",âĢĻ":5355,"Ġpron":5356,"Ġangel":5357,"Ġacknowled":5358,"Ġoct":5359,"Ġpow":5360,"Ġcollect":5361,"Ġgates":5362,"Ġconcluded":5363,"lers":5364,"Ġboots":5365,"Ġmans":5366,"vity":5367,"Ġpol":5368,"Ġbride":5369,"Ġdeparture":5370,"Ġvanished":5371,"Ġloft":5372,"Ġflew":5373,"back":5374,"Ġswall":5375,"Ġexhib":5376,"Ġtroubled":5377,"Ġintroduced":5378,"Ġcomplex":5379,"Ġident":5380,"Ġnervous":5381,"Ġsecretary":5382,"Ġvictim":5383,"Ġbark":5384,"Ġflood":5385,"Ġachi":5386,"Ġdave":5387,"Ġcondem":5388,"ouring":5389,"Ġlap":5390,"Ġgrandfather":5391,"Ġpainful":5392,"Ġdemon":5393,"Ġmargaret":5394,"Ġmax":5395,"ounding":5396,"Ġmistaken":5397,"Ġwave":5398,"Ġbanks":5399,"uel":5400,"Ġsorts":5401,"Ġprotection":5402,"Ġsunshine":5403,"Ġleap":5404,"Ġrecon":5405,"Ġcauses":5406,"Ġprivile":5407,"Ġcries":5408,"Ġsouther":5409,"Ġwaves":5410,"Ġdivided":5411,"Ġcheerful":5412,"Ġnet":5413,"Ġshakes":5414,"peare":5415,"Ġdegrees":5416,"Ġpermitted":5417,"Ġamp":5418,"iction":5419,"Ġseparate":5420,"bye":5421,"Ġshaking":5422,"ura":5423,"Ġacted":5424,"Ġkinds":5425,"Ġproperly":5426,"Ġnorthern":5427,"alog":5428,"Ġunif":5429,"Ġcountries":5430,"Ġast":5431,"Ġdevoted":5432,"gent":5433,"lessness":5434,"Ġattached":5435,"Ġassure":5436,"non":5437,"sey":5438,"Ġattended":5439,"Ġremarks":5440,"ools":5441,"Ġforbid":5442,"conom":5443,"lia":5444,"Ġscore":5445,"Ġqualities":5446,"Ġlearning":5447,"Ġcontri":5448,"Ġbert":5449,"Ġscri":5450,"Ġmeanwhile":5451,"Ġlane":5452,"Ġsne":5453,"Ġelo":5454,"ourage":5455,"Ġforces":5456,"rous":5457,"Ġtu":5458,"bow":5459,"Ġviolence":5460,"Ġcompre":5461,"Ġeve":5462,"ground":5463,"Ġdate":5464,"gest":5465,"Ġcontrast":5466,"Ġpoems":5467,"mor":5468,"Ġtoler":5469,"mented":5470,"Ġfreely":5471,"Ġgiant":5472,"Ġsleeping":5473,"rick":5474,"Ġdeny":5475,"Ġire":5476,"Ġcontained":5477,"Ġprud":5478,"Ġinsult":5479,"Ġwooden":5480,"Ġtow":5481,"Ġseas":5482,"water":5483,"Ġtide":5484,"Ġarist":5485,"Ġmanifest":5486,"Ġsensible":5487,"Ġdetails":5488,"Ġfancied":5489,"Ġ't":5490,"Ġsear":5491,"Ġseriously":5492,"inity":5493,"Ġcommanded":5494,"Ġgoods":5495,"Ġdirected":5496,"Ġgif":5497,"Ġpoison":5498,"Ġinher":5499,"Ġflore":5500,"Ġdestroyed":5501,"Ġcounter":5502,"atched":5503,"Ġimagined":5504,"Ġtrack":5505,"pture":5506,"liest":5507,"Ġ24":5508,"Ġlieutenant":5509,"Ġparted":5510,"ĠĠĠĠĠĠĠĠĠĠĠĠĠĠĠĠĠ":5511,"Ġinsisted":5512,"Ġignorance":5513,"Ġmovements":5514,"Ġspani":5515,"Ġsailor":5516,"Ġobserv":5517,"Ġcave":5518,"Ġearlier":5519,"Ġbeheld":5520,"Ġobservation":5521,"Ġbush":5522,"Ġwashington":5523,"Ġsighed":5524,"Ġcounsel":5525,"Ġtha":5526,"Ġstronger":5527,"Ġphilosophy":5528,"acious":5529,"Ġpir":5530,"thus":5531,"Ġelizabeth":5532,"Ġdrunk":5533,"Ġemperor":5534,"Ġsteadily":5535,"Ġterm":5536,"Ġenglishman":5537,"chester":5538,"Ġflame":5539,"Ġagreeable":5540,"say":5541,"Ġmarble":5542,"rors":5543,"hire":5544,"fl":5545,"Ġstaring":5546,"Ġconviction":5547,"mean":5548,"ological":5549,"Ġgroan":5550,"Ġunre":5551,"oman":5552,"Ġeconom":5553,"Ġideal":5554,"ird":5555,"Ġalice":5556,"cest":5557,"Ġcrying":5558,"ĠĠĠĠĠĠĠĠĠĠĠĠĠĠĠĠĠĠĠĠĠĠĠĠĠĠĠĠĠĠĠĠĠĠĠĠĠĠĠĠ":5559,"Ġanyone":5560,"Ġshone":5561,"Ġofficial":5562,"engers":5563,"Ġstatement":5564,"Ġswim":5565,"Ġenjoyed":5566,"Ġstephen":5567,"bey":5568,"Ġsolit":5569,"Ġgrateful":5570,"Ġresults":5571,"Ġshell":5572,"Ġcared":5573,"Ġpha":5574,"ock":5575,"Ġportra":5576,"Ġuniversal":5577,"Ġgran":5578,"Ġexpedition":5579,"Ġrecognized":5580,"Ġtrace":5581,"Ġgallant":5582,"Ġcolon":5583,"Ġbegged":5584,"nce":5585,"Ġslightest":5586,"umpt":5587,"Ġleader":5588,"Ġalas":5589,"Ġastonishment":5590,"Ġrepresented":5591,"pent":5592,"take":5593,"Ġfolks":5594,"Ġmechan":5595,"lest":5596,"Ġslaves":5597,"eg":5598,"Ġattempted":5599,"Ġproble":5600,"Ġdistri":5601,"Ġrenew":5602,"Ġknocked":5603,"nders":5604,"Ġlock":5605,"otted":5606,"Ġfamilies":5607,"inction":5608,"Ġscientific":5609,"30":5610,"Ġelement":5611,"Ġhated":5612,"mosp":5613,"Ġloving":5614,"lets":5615,"Ġconstantly":5616,"Ġchristmas":5617,"Ġod":5618,"Ġrifle":5619,"Ġinterfe":5620,"Ġhungry":5621,"Ġfeast":5622,"Ġgravely":5623,"ohn":5624,"Ġwithdra":5625,"Ġembarr":5626,"Ġsept":5627,"Ġresolution":5628,"Ġjones":5629,"Ġclay":5630,"Ġreality":5631,"Ġugly":5632,"Ġadmire":5633,"Ġtempt":5634,"Ġwha":5635,"Ġempire":5636,"Ġtied":5637,"Ġlibrary":5638,"Ġapartment":5639,"Ġdisposition":5640,"Ġunusual":5641,"Ġhaste":5642,"Ġ182":5643,"rold":5644,"Ġwondering":5645,"Ġvisited":5646,"Ġnest":5647,"Ġthrowing":5648,"Ġloves":5649,"Ġren":5650,"Ġobed":5651,"Ġarticle":5652,"Ġresc":5653,"Ġnaked":5654,"Ġbelonged":5655,"Ġpages":5656,"ishes":5657,"Ġabund":5658,"da":5659,"Ġsket":5660,"Ġenormous":5661,"Ġatmosp":5662,"Ġsincere":5663,"Ġsharply":5664,"Ġjune":5665,"Ġchap":5666,"Ġprec":5667,"Ġquantity":5668,"Ġsmaller":5669,"Ġthence":5670,"Ġyonder":5671,"Ġthine":5672,"kward":5673,"Ġwilder":5674,"Ġtrick":5675,"Ġmagnificent":5676,"cting":5677,"Ġsentence":5678,"Ġnon":5679,"Ġrud":5680,"Ġattract":5681,"ĠĠĠĠĠĠĠĠĠĠĠ":5682,"Ġfolly":5683,"Ġroll":5684,"fact":5685,"Ġeleven":5686,"Ġstrangers":5687,"burg":5688,"yard":5689,"Ġdisg":5690,"Ġireland":5691,"ico":5692,"ada":5693,"mination":5694,"Ġgazing":5695,"Ġanticip":5696,"Ġdelivered":5697,"Ġvulgar":5698,"uary":5699,"Ġrighteous":5700,"Ġheavily":5701,"Ġinquiry":5702,"rand":5703,"ferent":5704,"Ġquarters":5705,"john":5706,"Ġnights":5707,"Ġcanoe":5708,"---":5709,"Ġawkward":5710,"Ġbreeze":5711,"ero":5712,"Ġdischar":5713,"Ġrested":5714,"Ġvaluable":5715,"Ġpursued":5716,"Ġcrowded":5717,"arer":5718,"Ġbutter":5719,"Ġsoil":5720,"ante":5721,"nation":5722,"Ġlun":5723,"Ġcompass":5724,"Ġfil":5725,"Ġdoctrine":5726,"Ġslope":5727,"Ġvisitor":5728,"Ġsouthern":5729,"Ġmortal":5730,"Ġaloud":5731,"Ġmas":5732,"Ġsteel":5733,"Ġmead":5734,"Ġperple":5735,"Ġtear":5736,"Ġplun":5737,"Ġgracious":5738,"Ġdancing":5739,"Ġfears":5740,"gments":5741,"olation":5742,"Ġfavourite":5743,"Ġreign":5744,"Ġpurple":5745,"Ġwake":5746,"Ġgratitude":5747,"Ġoath":5748,"Ġseam":5749,"indeed":5750,"ĠĠĠĠĠĠĠĠĠĠĠĠĠĠĠĠĠĠĠĠĠ":5751,"Ġclas":5752,"Ġneat":5753,"cra":5754,"ival":5755,"mad":5756,"pres":5757,"uine":5758,"ula":5759,"Ġobvious":5760,"Ġfulf":5761,"Ġtorn":5762,"Ġray":5763,"Ġimpulse":5764,"Ġuncertain":5765,"omed":5766,"Ġjun":5767,"Ġdeserted":5768,"Ġcareer":5769,"Ġfarewell":5770,"rier":5771,"Ġcrept":5772,"bet":5773,"Ġselfish":5774,"Ġenterpri":5775,"Ġconceal":5776,"Ġrele":5777,"Ġastonished":5778,"Ġfirmly":5779,"Ġalex":5780,"Ġinse":5781,"Ġeastern":5782,"Ġtax":5783,"Ġcontrol":5784,"Ġanno":5785,"Ġtowns":5786,"Ġouter":5787,"Ġacts":5788,"Ġpall":5789,"Ġdil":5790,"----------------":5791,"Ġarchite":5792,"oral":5793,"Ġawake":5794,"umbling":5795,"vin":5796,"Ġgrin":5797,"Ġbyron":5798,"Ġdestruction":5799,"Ġsilk":5800,"Ġbath":5801,"Ġstartled":5802,"Ġdisturbed":5803,"atives":5804,"Ġattribut":5805,"Ġcommer":5806,"Ġded":5807,"Ġintellectual":5808,"zard":5809,"kerchief":5810,"Ġbade":5811,"Ġlocal":5812,"Ġcontinually":5813,"Ġsuggestion":5814,"Ġpaint":5815,"Ġdriving":5816,"Ġdus":5817,"Ġdise":5818,"Ġsixty":5819,"Ġsalt":5820,"Ġtremend":5821,"Ġsovereign":5822,"holic":5823,"Ġstag":5824,"Ġroar":5825,"Ġdefinite":5826,"Ġrobin":5827,"Ġfolk":5828,"Ġela":5829,"lication":5830,"tery":5831,"Ġhint":5832,"Ġfame":5833,"Ġcontribut":5834,"poor":5835,"Ġcolours":5836,"Ġjose":5837,"Ġclasses":5838,"rels":5839,"Ġfix":5840,"Ġstair":5841,"Ġhid":5842,"worthy":5843,"Ġconsidering":5844,");":5845,"Ġmixed":5846,"Ġses":5847,"pot":5848,"Ġpointing":5849,"Ġchose":5850,"iveness":5851,"Ġcommitted":5852,"Ġpace":5853,"Ġlanded":5854,"Ġwandering":5855,"still":5856,"Ġeating":5857,"ckets":5858,"Ġfried":5859,"ĠĠĠĠĠĠĠĠĠĠĠĠ":5860,"Ġfalls":5861,"Ġdur":5862,"Ġobjection":5863,"Ġexcl":5864,"Ġmilk":5865,"pic":5866,"mary":5867,"othy":5868,"Ġarticles":5869,"tell":5870,"ari":5871,"Ġtomb":5872,"Ġsore":5873,"Ġconfident":5874,"quisite":5875,"Ġprejud":5876,"Ġfinds":5877,"Ġearnestly":5878,"Ġsins":5879,"Ġleaped":5880,"Ġbi":5881,"Ġcompet":5882,"uge":5883,"Ġascertain":5884,"Ġros":5885,"Ġgrounds":5886,"Ġrent":5887,"Ġapplied":5888,"aks":5889,"Ġarrangement":5890,"Ġhoriz":5891,"cence":5892,"Ġrollo":5893,"Ġdragged":5894,"Ġdecision":5895,"Ġowing":5896,"Ġchamp":5897,"thank":5898,"Ġatmosphere":5899,"Ġni":5900,"Ġdearest":5901,"Ġdutch":5902,"Ġreflection":5903,"isation":5904,"Ġsummon":5905,"Ġ22":5906,"bon":5907,"'.":5908,"Ġstayed":5909,"greg":5910,"leness":5911,"11":5912,"Ġhumour":5913,"Ġloyal":5914,"Ġancest":5915,"Ġrespectable":5916,"Ġlordship":5917,"].":5918,"Ġpoured":5919,"Ġincon":5920,"Ġtort":5921,"Ġsenses":5922,"Ġfrequent":5923,"abled":5924,"Ġtouching":5925,"Ġbenefit":5926,"Ġfairy":5927,"Ġremaining":5928,"Ġbask":5929,"Ġbranch":5930,"isure":5931,"Ġdescend":5932,"Ġdiscip":5933,"Ġperceive":5934,"Ġmidnight":5935,"Ġos":5936,"Ġdevelopment":5937,"Ġuniform":5938,"Ġgal":5939,"eld":5940,"Ġsignal":5941,"Ġpolitics":5942,"Ġswear":5943,"Ġsax":5944,"oof":5945,"Ġsed":5946,"Ġcompared":5947,"Ġdestroy":5948,"Ġemin":5949,"Ġmeantime":5950,"Ġbeasts":5951,"Ġcounty":5952,"Ġski":5953,"Ġencoura":5954,"Ġpopulation":5955,"dear":5956,"Ġvivid":5957,"Ġsolitary":5958,"Ġau":5959,"Ġcompelled":5960,"boy":5961,"Ġteacher":5962,"Ġserge":5963,"Ġashore":5964,"fir":5965,"Ġtick":5966,"Ġexamined":5967,"Ġlee":5968,"Ġhumanity":5969,"somet":5970,"Ġexquisite":5971,"Ġvio":5972,"Ġelsewhere":5973,"Ġadam":5974,"sure":5975,"capt":5976,"Ġsafely":5977,"Ġdaughters":5978,"Ġindifferent":5979,"three":5980,"Ġprinted":5981,"Ġdisappointed":5982,"Ġmelt":5983,"Ġpink":5984,"Ġnoon":5985,"Ġthorn":5986,"Ġassumed":5987,"Ġlords":5988,"Ġ26":5989,"Ġsmoking":5990,"verted":5991,"Ġlads":5992,"Ġentering":5993,"yet":5994,"Ġcell":5995,"Ġextended":5996,"Ġchain":5997,"Ġveget":5998,"Ġprovo":5999,"Ġmischief":6000,"Ġexcess":6001,"Ġbushes":6002,"Ġcatholic":6003,"Ġleisure":6004,"Ġdistinctly":6005,"Ġmaiden":6006,"Ġ23":6007,"Ġsignific":6008,"Ġingen":6009,"Ġrout":6010,"Ġtum":6011,"Ġbust":6012,"Ġmast":6013,"Ġswiftly":6014,"loved":6015,"Ġglimp":6016,"henom":6017,"Ġcavalry":6018,"Ġboston":6019,"Ġshift":6020,"Ġgeneration":6021,"Ġ29":6022,"Ġabsor":6023,"Ġservices":6024,"Ġflag":6025,"Ġunlike":6026,"Ġpunishment":6027,"Ġpolic":6028,"Ġperil":6029,"Ġdeeper":6030,"Ġrelieved":6031,"Ġpurposes":6032,"Ġdining":6033,"Ġurged":6034,"Ġprecip":6035,"bel":6036,"Ġspain":6037,"Ġpars":6038,"Ġdeclare":6039,"itch":6040,"Ġheir":6041,"Ġbewild":6042,"Ġtyr":6043,"Ġshoes":6044,"Ġdoth":6045,"Ġada":6046,"keeper":6047,"Ġsubstance":6048,"Ġphenom":6049,"hem":6050,"Ġexperiment":6051,"Ġsaddle":6052,"Ġburned":6053,"Ġgardens":6054,"Ġcaut":6055,"before":6056,"Ġschol":6057,"Ġlightly":6058,"Ġshortly":6059,"Ġ27":6060,"Ġfanny":6061,"Ġunple":6062,"oration":6063,"Ġsuspected":6064,"Ġcunning":6065,"Ġbatt":6066,"Ġromance":6067,"Ġlimbs":6068,"chel":6069,"Ġconsequences":6070,"Ġstated":6071,"Ġsailed":6072,"Ġdiscus":6073,"Ġeloqu":6074,"Ġcandle":6075,"mans":6076,"Ġvolunt":6077,"Ġaudience":6078,"Ġexceedingly":6079,"Ġwherever":6080,"natural":6081,"Ġanch":6082,"Ġknee":6083,"Ġ28":6084,"Ġinches":6085,"Ġsurre":6086,"Ġgang":6087,"Ġbarn":6088,"Ġseparated":6089,"ere":6090,"Ġxv":6091,"Ġsavages":6092,"ĠĠĠĠĠĠĠĠĠĠĠĠĠĠ":6093,"Ġscenes":6094,"Ġinner":6095,"Ġdrinking":6096,"Ġvessels":6097,"Ġsoot":6098,"Ġras":6099,"Ġsuperst":6100,"Ġjuly":6101,"Ġmasters":6102,"Ġpoets":6103,"Ġfed":6104,"Ġbeings":6105,"Ġqui":6106,"Ġmarched":6107,"____":6108,"mind":6109,"Ġwanting":6110,"Ġpursuit":6111,"Ġfailure":6112,"Ġgig":6113,"Ġlocked":6114,"mons":6115,"Ġcontents":6116,"Ġdeparted":6117,"Ġbilly":6118,"Ġhelpless":6119,"Ġverse":6120,"Ġbadly":6121,"Ġromantic":6122,"Ġrailway":6123,"uce":6124,"Ġdaylight":6125,"Ġknock":6126,"Ġcheap":6127,"Ġelectric":6128,"Ġflash":6129,"itz":6130,"Ġadmin":6131,"case":6132,"Ġreputation":6133,"olen":6134,"Ġshrie":6135,"Ġcentral":6136,"Ġgermany":6137,"Ġsie":6138,"Ġburden":6139,"Ġenthusiasm":6140,"Ġdisturb":6141,"Ġgree":6142,"Ġsending":6143,"Ġdisag":6144,"ino":6145,"Ġcountess":6146,"chess":6147,"Ġbud":6148,"Ġborrow":6149,"Ġcoward":6150,"Ġcleared":6151,"Ġgesture":6152,"Ġjar":6153,"Ġcollected":6154,"Ġphil":6155,"Ġconfused":6156,"Ġessential":6157,"Ġpup":6158,"ata":6159,"Ġeh":6160,"Ġdiamond":6161,"Ġpossibility":6162,"Ġlesson":6163,"Ġdebt":6164,"Ġabsent":6165,"Ġdiscussion":6166,"Ġdisgrace":6167,"rica":6168,"Ġwrath":6169,"Ġbrook":6170,"Ġalter":6171,"orary":6172,"Ġremote":6173,"Ġzeal":6174,"Ġdisappointment":6175,"Ġrecall":6176,"hael":6177,"Ġrolling":6178,"isp":6179,"coat":6180,"lance":6181,"Ġnonsense":6182,"xter":6183,"Ġgoodness":6184,"Ġseed":6185,"Ġinev":6186,"Ġindignation":6187,"Ġhed":6188,"Ġthither":6189,"Ġwhit":6190,"Ġwolf":6191,"Ġopposition":6192,"Ġsatur":6193,"Ġdisgu":6194,"Ġreadily":6195,"Ġpolicy":6196,"Ġinch":6197,"Ġruff":6198,"mal":6199,"Ġinvited":6200,",[":6201,"Ġ183":6202,"Ġstrain":6203,"Ã¨":6204,"inc":6205,"ington":6206,"Ġautumn":6207,"Ġdrank":6208,"withstanding":6209,"Ġfires":6210,"vet":6211,"Ġult":6212,"Ġadmiral":6213,"Ġfury":6214,"vil":6215,"cut":6216,"first":6217,"Ġstructure":6218,"rate":6219,"llers":6220,"Ġdeliver":6221,"Ġsilly":6222,"Ġneighbor":6223,"Ġjon":6224,"iser":6225,"Ġspeaks":6226,"rice":6227,"inate":6228,"ober":6229,"Ġfurnished":6230,"Ġharsh":6231,"itating":6232,"Ġtravelling":6233,".âĢĻ":6234,"ieties":6235,"Ġexposed":6236,"wart":6237,"Ġliqu":6238,"general":6239,"Ġcities":6240,"Ġpilg":6241,"Ġmul":6242,"Ġruth":6243,"Ġapprehens":6244,"Ġafterward":6245,"Ġmissed":6246,"Ġ185":6247,"Ġflorence":6248,"Âł":6249,"Ġcharged":6250,"headed":6251,"Ġabruptly":6252,"boat":6253,"Ġadventures":6254,"Ġbarg":6255,"Ġboast":6256,"Ġcad":6257,"Ġeditor":6258,"Ġsust":6259,"Ġmarks":6260,"rene":6261,"Ġgover":6262,"Ġjoke":6263,"Ġrelated":6264,"fred":6265,"ifying":6266,"Ġcomrades":6267,"Ġtrusted":6268,"Ġtraged":6269,"Ġreform":6270,"Ġjest":6271,"smith":6272,"Ġphrase":6273,"xx":6274,"Ġphilosopher":6275,"Ġreasonable":6276,"Ġsailors":6277,"Ġpine":6278,"Ġsmart":6279,"Ġreflected":6280,"Ġengagement":6281,"Ġade":6282,"Ġcock":6283,"Ġheartily":6284,"Ġowner":6285,"ember":6286,"Ġharold":6287,"Ġate":6288,"rup":6289,"Ġdeer":6290,"Ġtribe":6291,"Ġsupreme":6292,"ude":6293,"sty":6294,"Ġdeed":6295,"Ġslip":6296,"Ġnephe":6297,"hal":6298,"Ġgrowth":6299,"Ġfasc":6300,"Ġinsp":6301,"Ġyer":6302,"itute":6303,"Ġdirections":6304,"Ġselection":6305,"usions":6306,"Ġbuck":6307,"Ġneighbourhood":6308,"Ġprofit":6309,"Ġtrump":6310,"Ġswung":6311,"Ġintr":6312,"Ġbegins":6313,"Ġwives":6314,"Ġfain":6315,"Ġ11":6316,"Ġbuff":6317,"Ġsensation":6318,"eves":6319,"Ġentreat":6320,"Ġstraw":6321,"Ġmedic":6322,"raction":6323,"Ġjean":6324,"Ġnewspaper":6325,"Ġruns":6326,"Ġhook":6327,"mist":6328,"Ġaccomplished":6329,"Ġjimmy":6330,"Ġandrew":6331,"Ġrecent":6332,"Ġamusement":6333,"**":6334,"Ġles":6335,"Ġrefuge":6336,"Ġhay":6337,"Ġinsist":6338,"Ġshud":6339,"Ġexpense":6340,"Ġreduced":6341,"Ġrules":6342,"Ġot":6343,"Ġmodest":6344,"Ġcrossing":6345,"Ġtones":6346,"Ġhunter":6347,"Ġdisagree":6348,"Ġaltern":6349,"Ġheavens":6350,"Ġsounded":6351,"Ġplot":6352,"Ġparad":6353,"Ġeuropean":6354,"Ġpear":6355,"Ġdirty":6356,"Ġexhausted":6357,"Ġcharacteristic":6358,"Ġcrack":6359,"Ġchim":6360,"Ġencourage":6361,"Ġwedding":6362,"rily":6363,"Ġgranted":6364,"Ġmingled":6365,"Ġshed":6366,"Ġtob":6367,"Ġexecution":6368,"Ġfurniture":6369,"Ġtheatre":6370,"Ġacquired":6371,"Ġtremendous":6372,"Ġowe":6373,"Ġventured":6374,"zes":6375,"Ġcant":6376,"Ġstarting":6377,"zan":6378,"Ġpatron":6379,"fr":6380,"Ġprevented":6381,"Ġmoonlight":6382,"Ġhandkerchief":6383,"Ġlively":6384,"Ġsheet":6385,"Ġfac":6386,"Ġlandlord":6387,"Ġprayers":6388,"Ġsteamer":6389,"Ġdistinction":6390,"Ġted":6391,"Ġimmort":6392,"Ġsergeant":6393,"bra":6394,"Ġacting":6395,"Ġbelt":6396,"Ġpenet":6397,"Ġmonarch":6398,"Ġthread":6399,"Ġlam":6400,"Ġsober":6401,"Ġshy":6402,"Ġstrangely":6403,"Ġtid":6404,"lying":6405,"Ġendure":6406,"Ġsilently":6407,"Ġdimin":6408,"Ġregion":6409,"Ġgloomy":6410,"Ġclock":6411,"lix":6412,"Ġincred":6413,"Ġ184":6414,"Ġnamely":6415,"usive":6416,"dig":6417,"Ġpolite":6418,"Ġcommenced":6419,"cont":6420,"seen":6421,"part":6422,"Ġtin":6423,"Ġfisher":6424,"Ġchuck":6425,"Ġfert":6426,"Ġluc":6427,"piration":6428,"Ġfount":6429,"Ġnoted":6430,"Ġjew":6431,"Ġsmell":6432,"orse":6433,"Ġirres":6434,"Ġtimid":6435,"certainly":6436,"jac":6437,"Ġroger":6438,"Ġperman":6439,"Ġglow":6440,"Ġcurse":6441,"Ġmarquis":6442,"fold":6443,"Ġprovisions":6444,"Ġwarn":6445,"Ġbeaten":6446,"Ġlaying":6447,"Ġprime":6448,"Ġkate":6449,"Ġforever":6450,"Ġconcealed":6451,"gie":6452,"Ġmemor":6453,"Ġreaders":6454,"Ġhelen":6455,"lv":6456,"Ġfetch":6457,"Ġarrive":6458,"pered":6459,"Ġmillion":6460,"Ġinvestig":6461,"Ġbible":6462,"Ġambition":6463,"Ġdecide":6464,"oos":6465,"Ġpositive":6466,"ician":6467,"Ġdescribe":6468,"Ġmessenger":6469,"Ġamused":6470,"Ġshield":6471,"Ġned":6472,"mph":6473,"ĠĠĠĠĠĠĠĠĠĠĠĠĠĠĠĠĠĠ":6474,"Ġindependent":6475,"Ġdoubtful":6476,"Ġgale":6477,"omb":6478,"Ġloc":6479,"Ġmuse":6480,"Ġfootstep":6481,"Ġfortunate":6482,"Ġcommitt":6483,"Ġroads":6484,"Ġmachine":6485,"ernal":6486,"Ġgrasp":6487,"Ġpy":6488,"Ġmarve":6489,"Ġpermit":6490,"Ġwandered":6491,"Ġpuzzled":6492,"Ġintimate":6493,"anny":6494,"Ġerror":6495,"iring":6496,"Ġjumped":6497,"ett":6498,"Ġwilderness":6499,"Ġrespects":6500,"Ġrab":6501,"vas":6502,"Ġdarling":6503,"Ġfinish":6504,"Ġmusk":6505,"Ġshakespeare":6506,"ppers":6507,"Ġine":6508,"Ġkeeps":6509,"Ġwy":6510,"Ġglen":6511,"vis":6512,"Ġcommander":6513,"?âĢĿ":6514,"Ġperformed":6515,"ban":6516,"Ġaltered":6517,"Ġpropose":6518,"Ġhundreds":6519,"Ġlanding":6520,"ffin":6521,"mens":6522,"hoe":6523,"Ġruined":6524,"Ġ187":6525,"Ġactions":6526,"Ġflow":6527,"25":6528,"Ġchimney":6529,"vest":6530,"Ġraising":6531,"Ġbelonging":6532,"Ġupstairs":6533,"Ġattent":6534,"Ġdeveloped":6535,"Ġtobacc":6536,"Ġreminded":6537,"Ġfearful":6538,"Ġlur":6539,"Ġafrica":6540,"burgh":6541,"Ġdefend":6542,"Ġagony":6543,"Ġrival":6544,"din":6545,"Ġstuck":6546,"umin":6547,"Ġwhereas":6548,"Ġknights":6549,"Ġcommunication":6550,"lands":6551,"Ġpasses":6552,"Ġdav":6553,"Ġbrings":6554,"Ġ180":6555,"Ġduchess":6556,"Ġscand":6557,"nut":6558,"bbing":6559,"Ġcloser":6560,"Ġhappens":6561,"Ġarrangements":6562,"Ġjoseph":6563,"Ġdivision":6564,"rated":6565,"Ġniece":6566,"Ġapril":6567,"Ġattacked":6568,"Ġlikes":6569,"Ġintervals":6570,"Ġstaff":6571,"akened":6572,"eling":6573,"Ġheels":6574,"Ġgallop":6575,"camp":6576,"table":6577,"inal":6578,"Ġsunk":6579,"Ġsaturday":6580,"Ġprecisely":6581,"mark":6582,"ayed":6583,"Ġgathering":6584,"verty":6585,"Ġexamination":6586,"Ġconceive":6587,"Ġscale":6588,"Ġadopted":6589,"Ġoutward":6590,"Ġsimplicity":6591,"ggy":6592,"thel":6593,"Ġdesk":6594,"Ġporter":6595,"Ġoblig":6596,"Ġmajority":6597,"Ġstor":6598,"inger":6599,"--_":6600,"Ġcharity":6601,"Ġfitted":6602,"Ġfathers":6603,"Ġreview":6604,"Ġxxx":6605,"eng":6606,"Ġovert":6607,"Ġfriedrich":6608,"Ġconception":6609,"Ġcomrade":6610,"Ġsunset":6611,"Ġfeeble":6612,"burn":6613,"Ġaccounts":6614,"Ġworry":6615,"Ġflut":6616,"Ġabandoned":6617,"Ġnotwithstanding":6618,"Ġresent":6619,"Ġdemo":6620,"Ġirr":6621,"Ġcutting":6622,"fortune":6623,"Ġwreck":6624,"Ġcitizens":6625,"tra":6626,"rep":6627,"ĠĠĠĠĠĠĠĠĠĠĠĠĠĠĠĠĠĠĠĠĠĠĠ":6628,"ulars":6629,"Ġna":6630,"Ġadmirable":6631,"Ġhonourable":6632,"Ġnephew":6633,"Ġhal":6634,"Ġdocu":6635,"Ġtales":6636,"Ġmerit":6637,"luct":6638,"ression":6639,"Ġcarol":6640,"lamation":6641,"Ġnut":6642,"Ġbrut":6643,"going":6644,"Ġcontrad":6645,"Ġpoverty":6646,"Ġrealized":6647,"Ġtrip":6648,"Ġfeels":6649,"Ġprize":6650,"Ġheed":6651,"viour":6652,"Ġresting":6653,"Ġsource":6654,"Ġleather":6655,"Ġnecessarily":6656,"Ġjournal":6657,"Ġexisted":6658,"Ġpriests":6659,"Ġrisen":6660,"Ġstudied":6661,"Ġclergyman":6662,"faced":6663,"Ġcenturies":6664,"Ġdou":6665,"ga":6666,"Ġexperienced":6667,"Ġrav":6668,"Ġlofty":6669,"Ġanchor":6670,"Ġcontinu":6671,"Ġstirred":6672,"Ġlust":6673,"actory":6674,"Ġreject":6675,"Ġspl":6676,"Ġproposition":6677,"Ġthreatened":6678,"Ġtiny":6679,"Ġagent":6680,"veyed":6681,"Ġtobacco":6682,"Ġcloak":6683,"Ġtenderness":6684,"Ġholds":6685,"Ġsweep":6686,"Ġblew":6687,"Ġinferior":6688,"Ġpains":6689,"Ġtreas":6690,"give":6691,"Ġseeking":6692,"Ġshri":6693,"Ġsuccession":6694,"Ġconsequently":6695,"Ġmagaz":6696,"Ġinstrument":6697,"Ġcoal":6698,"Ġbun":6699,"Ġrepeat":6700,"Ġintend":6701,"Ġridiculous":6702,"Ġdashed":6703,"vant":6704,"Ġeighteen":6705,"dr":6706,"Ġgenuine":6707,"Ġunpleasant":6708,"Ġtoil":6709,"otions":6710,"Ġeleg":6711,"wind":6712,"Ġfortnight":6713,"Ġcuriously":6714,"Ġtradition":6715,"Ġaffectionate":6716,"Ġgil":6717,"Ġdetect":6718,"rust":6719,"Ġcheck":6720,"eyed":6721,"Ġpretend":6722,"lyn":6723,"Ġstoo":6724,"Ġcreated":6725,"grat":6726,"cken":6727,"Ġrivers":6728,"Ġard":6729,"Ġpreserved":6730,"Ġ\"_":6731,"Ġblessing":6732,"Ġwars":6733,"Ġbedroom":6734,"Ġarts":6735,"Ġcorrupt":6736,"Ġtendency":6737,"Ġgraceful":6738,"Ġsolic":6739,"asper":6740,"Ġflashed":6741,"Ġaris":6742,"Ġfest":6743,"Ġbuildings":6744,"Ġdevotion":6745,",)":6746,"Ġsway":6747,"Ġreluct":6748,"Ġ----":6749,"Ġlatin":6750,"Ġbund":6751,"umption":6752,"lict":6753,"Ġplays":6754,"course":6755,"agon":6756,"down":6757,"Ġtrifle":6758,"Ġskir":6759,"rog":6760,"Ġjolly":6761,"Ġceremony":6762,"oy":6763,"Ġsteal":6764,"Ġrhy":6765,"Ġbeloved":6766,"Ġraces":6767,"Ġelements":6768,"Ġenabled":6769,"Ġscul":6770,"matic":6771,"uits":6772,"Ġaverage":6773,"Ġsupported":6774,"Ġmotive":6775,"Ġavail":6776,"Ġseptember":6777,"Ġmasses":6778,"Ġrese":6779,"Ġhopeless":6780,"Ġgarrison":6781,"Ġtrif":6782,"anim":6783,"Ġdetail":6784,"hast":6785,"isy":6786,"Ġissue":6787,"box":6788,"Ġparish":6789,"Ġsecurity":6790,"Ġbeating":6791,"Ġ179":6792,"Ġethel":6793,"Ġmanu":6794,"Ġrepent":6795,"Ġobeyed":6796,"aine":6797,"Ġgoin":6798,"Ġcommunity":6799,"Ġdrum":6800,"apers":6801,"Ġdistribut":6802,"Ġdistrict":6803,"Ġdamp":6804,"cles":6805,"Ġrevenge":6806,"Ġoctober":6807,"last":6808,"Ġexamine":6809,"Ġsubsequ":6810,"Ġestablishment":6811,"Ġhiding":6812,"Ġmel":6813,"ĠĠĠĠĠĠĠĠĠĠĠĠĠĠĠĠĠĠĠ":6814,"angled":6815,"Ġpassions":6816,"Ġpile":6817,"Ġdepos":6818,"were":6819,"Ġpluck":6820,"Ġvii":6821,"rian":6822,"Ġconfessed":6823,"Ġreproach":6824,"Ġvanity":6825,"hur":6826,"Ġteaching":6827,"Ġsettlement":6828,"gre":6829,"Ġgroups":6830,"Ġfeed":6831,"Ġinvitation":6832,"erton":6833,"tree":6834,"Ġmultitude":6835,"Ġpistol":6836,"Ġeust":6837,"Ġmaybe":6838,"Ġresidence":6839,"ores":6840,"Ġdoorway":6841,"Ġbrass":6842,"Ġprint":6843,"Ġoil":6844,"again":6845,"Ġconfined":6846,"Ġinquire":6847,"Ġparting":6848,"Ġinterior":6849,"Ġcapacity":6850,"Ġlimit":6851,"Ġbritain":6852,"iel":6853,"Ġbears":6854,"Ġscotch":6855,"Ġbitterly":6856,"Ġdub":6857,"Ġanyway":6858,"Ġcalmly":6859,"Ġstu":6860,"Ġminor":6861,"quet":6862,"Ġchances":6863,"Ġhugh":6864,"Ġproblem":6865,"Ġpassages":6866,"Ġglit":6867,"Ġusing":6868,"Ġwrought":6869,"Ġclara":6870,"Ġguards":6871,"Ġexchange":6872,"Ġsaints":6873,"stead":6874,"Ġmeasures":6875,"Ġdumb":6876,"Ġenterprise":6877,"Ġduck":6878,"Ġeaten":6879,"Ġtommy":6880,"Ġmanufact":6881,"Ġrela":6882,"Ġmoss":6883,"Ġhospital":6884,"Ġfoul":6885,"Ġpassengers":6886,"Ġcrest":6887,"Ġcomment":6888,"uming":6889,"gi":6890,"pa":6891,"Ġpartner":6892,"Ġshepher":6893,"\";":6894,"Ġreaching":6895,"Ġamy":6896,"atherine":6897,"Ġchase":6898,"Ġeggs":6899,"ule":6900,"Ġkick":6901,"thou":6902,"Ġprovidence":6903,"Ġclut":6904,"Ġtreatment":6905,"Ġdisgust":6906,"Ġwash":6907,"ĠĠĠĠĠĠĠĠĠĠĠĠĠĠĠĠĠĠĠĠ":6908,"shall":6909,"Ġsadly":6910,"mson":6911,"maid":6912,"Ġresistance":6913,"Ġslain":6914,"oubted":6915,"rical":6916,"Ġdressing":6917,"anda":6918,"Ġarab":6919,"Ġconvention":6920,"Ġlamb":6921,"Ġmould":6922,"Ġfaded":6923,"Ġuniverse":6924,"Ġoxford":6925,"losed":6926,"Ġprem":6927,"Ġstruggling":6928,"Ġcannon":6929,"Ġjacob":6930,"Ġretire":6931,"Ġoccasional":6932,"Ġsympathi":6933,"Ġphot":6934,"Ġinduced":6935,"Ġsolitude":6936,"Ġmoor":6937,"Ġcigar":6938,"west":6939,"bby":6940,"Ġcompleted":6941,"quite":6942,"achment":6943,"Ġcareless":6944,"Ġpatriot":6945,"Ġhorizon":6946,"Ġdeadly":6947,"Ġcitizen":6948,"Ġcryst":6949,"Ġsubtle":6950,"Ġspell":6951,"Ġcontented":6952,"Ġmillions":6953,"bridge":6954,"glass":6955,"break":6956,"Ġanxiously":6957,"Ġcrimin":6958,"Ġnarrative":6959,"Ġformerly":6960,"Ġtragedy":6961,"Ġheap":6962,"Ġexerc":6963,"Ġstole":6964,"aves":6965,"Ġsher":6966,"itors":6967,"lk":6968,"imp":6969,"Ġroused":6970,"Ġinterfere":6971,"Ġfatig":6972,"ili":6973,"Ġgospe":6974,"Ġmisfortune":6975,"regular":6976,"wed":6977,"Ġoffence":6978,"ograph":6979,"Ġtun":6980,"eter":6981,"aign":6982,"Ġnick":6983,"Ġstring":6984,"Ġreceiving":6985,"Ġshirt":6986,"Ġovercome":6987,"Ġcease":6988,"Ġlaura":6989,"Ġbetrayed":6990,"Ġkid":6991,"Ġwrites":6992,"Ġdemonstr":6993,"Ġpaying":6994,"pass":6995,"Ġflushed":6996,"Ġcriticism":6997,"Ġbind":6998,"Ġlegal":6999,"Ġveil":7000,"Ġliberal":7001,"Ġweapons":7002,"Ġbart":7003,"Ġbalance":7004,"Ġcaptured":7005,"Ġnerves":7006,"Ġcomparison":7007,"Ġblock":7008,"encies":7009,"Ġflou":7010,"Ġclimbed":7011,"isl":7012,"Ġrein":7013,"Ġburnt":7014,"ilight":7015,"Ġletting":7016,"Ġplatform":7017,"Ġrevel":7018,"Ġrachel":7019,"end":7020,"Ġchina":7021,"Ġtreacher":7022,"Ġsecured":7023,"Ġrestored":7024,"Ġreferred":7025,"Ġcommittee":7026,"dled":7027,"Ġportrait":7028,"Ġaustri":7029,"Ġcaution":7030,"Ġapple":7031,"sid":7032,"Ġentit":7033,"Ġshaft":7034,"Ġstandard":7035,"Ġreported":7036,"Ġdecor":7037,"Ġoperation":7038,"Ġpersuaded":7039,"iner":7040,"Ġrejoined":7041,"Ġintelligent":7042,"mouth":7043,"sho":7044,"Ġlege":7045,"Ġenable":7046,"Ġinstructions":7047,"Ġster":7048,"Ġcontaining":7049,"Ġangels":7050,"Ġshooting":7051,"Ġfant":7052,"Ġtran":7053,"Ġstroke":7054,"Ġvenice":7055,"Ġdwelling":7056,"Ġwriters":7057,"Ġfishing":7058,"Ġlunch":7059,"rers":7060,"Ġblows":7061,"Ġpressure":7062,"Ġbeds":7063,"Ġcomplaint":7064,"ixt":7065,"Ġhesitation":7066,"Ġbasket":7067,"Ġcathed":7068,"Ġcelebrated":7069,"Ġproceedings":7070,"ita":7071,"Ġregarding":7072,"sell":7073,"Ġlimited":7074,"hin":7075,"50":7076,"cour":7077,"Ġlosing":7078,"Ġmurmur":7079,"Ġfastened":7080,"Ġsna":7081,"Ġwret":7082,"Ġjaw":7083,"Ġ188":7084,"icing":7085,"Ġtwilight":7086,"eenth":7087,"Ġdepends":7088,"ares":7089,"ĠĠĠĠĠĠĠĠĠĠĠĠĠĠĠ":7090,"Ġencoun":7091,"Ġvenge":7092,"vag":7093,"Ġbloom":7094,"Ġprodig":7095,"top":7096,"Ġneighbours":7097,"Ġske":7098,"Ġwearing":7099,"Ġaust":7100,"Ġgallery":7101,"uv":7102,"Ġ:":7103,"Ġsally":7104,"Ġalarmed":7105,"Ġconceived":7106,"Ġrover":7107,"Ġeasier":7108,"Ġanyhow":7109,"Ġinterval":7110,"Ġfrost":7111,"Ġbrush":7112,"Ġhospit":7113,"Ġmourn":7114,"Ġquestioned":7115,"Ġvisitors":7116,"Ġartific":7117,"Ġvirtues":7118,"Ġpolly":7119,"Ġrebell":7120,"Ġcomparatively":7121,"Ġcollection":7122,"Ġemily":7123,"Ġinquiries":7124,"Ġclaims":7125,"Ġclimate":7126,"Ġvice":7127,"pen":7128,"Ġec":7129,"Ġanton":7130,"Ġscarlet":7131,"Ġ\"'":7132,"olution":7133,"Ġleon":7134,"Ġpassionate":7135,"Ġhastings":7136,"Ġtwink":7137,"Ġchron":7138,"Ġsymb":7139,"Ġsits":7140,"Ġpermission":7141,"Ġreef":7142,"Ġupright":7143,"Ġsusan":7144,"Ġbehalf":7145,"Ġsink":7146,"itively":7147,"Ġpool":7148,"Ġappet":7149,"Ġseventy":7150,"Ġpersec":7151,"Ġcongrat":7152,"irmed":7153,"Ġdecent":7154,"Ġdivers":7155,"Ġinstances":7156,"Ġindifference":7157,"Ġwarrant":7158,"Ġimpressed":7159,"Ġexplo":7160,"Ġdoubts":7161,"asion":7162,"itty":7163,"Ġguy":7164,"Ġcampaign":7165,"Ġawe":7166,"Ġacknowledged":7167,"borough":7168,"Ġresour":7169,"Ġuneasy":7170,"Ġpowder":7171,"Ġadvancing":7172,"Ġassembled":7173,"Ġlearnt":7174,"Ġspaniards":7175,"Ġecc":7176,"Ġadmired":7177,"Ġmock":7178,"Ġdisease":7179,"bru":7180,"Ġlandscape":7181,".'\"":7182,"xic":7183,"nde":7184,"Ġpockets":7185,"Ġbeer":7186,"Ġviolet":7187,"six":7188,"Ġgorge":7189,"Ġbargain":7190,"fections":7191,"Ġirregular":7192,"Ġpreferred":7193,"Ġcompliment":7194,"Ġlantern":7195,"ships":7196,"Ġemployment":7197,"Ġgross":7198,"Ġdeeds":7199,"Ġoliver":7200,"irs":7201,"Ġincome":7202,"Ġwashed":7203,"sar":7204,"Ġlance":7205,"Ġconvenient":7206,"Ġglimpse":7207,"Ġwol":7208,"Ġunwill":7209,"whel":7210,"Ġdiscourse":7211,"Ġmap":7212,"Ġholl":7213,"Ġlightning":7214,"Ġrushing":7215,"Ġald":7216,"Ġlegisl":7217,"ka":7218,"Ġgown":7219,"alt":7220,"aging":7221,"lli":7222,"Ġsofa":7223,"Ġchapel":7224,"Ġslavery":7225,"ifully":7226,"Ġobedience":7227,"Ġtribes":7228,"Ġfootsteps":7229,"Ġwalks":7230,"ax":7231,"Ġrecover":7232,"Ġamaze":7233,"Ġrecognised":7234,"Ġindividuals":7235,"Ġcares":7236,"Ġweapon":7237,"var":7238,"Ġwaved":7239,"oting":7240,"Ġrevealed":7241,"Ġimpatient":7242,"Ġadvert":7243,"Ġinvis":7244,"Ġchairs":7245,"Ġtrembled":7246,"Ġschoon":7247,"Ġwages":7248,"Ġtrot":7249,"emed":7250,"Ġadvantages":7251,"thy":7252,"Ġswar":7253,"Ġridge":7254,"Ġafore":7255,"Ġpled":7256,"Ġwarned":7257,"Ġperfection":7258,"belie":7259,"Ġelev":7260,"Ġmun":7261,"Ġantiqu":7262,"amy":7263,"Ġcounted":7264,"Ġshouting":7265,"Ġintroduction":7266,"gage":7267,"Ġhoney":7268,"Ġdine":7269,"Ġgifts":7270,"pi":7271,"Ġisabel":7272,"Ġcourts":7273,"Ġrelative":7274,"Ġpractically":7275,"Ġcurtain":7276,"Ġame":7277,"Ġchallen":7278,"Ġopposed":7279,"Ġinward":7280,"Ġwhither":7281,"Ġbreathing":7282,"Ġwitch":7283,"Ġexagger":7284,"Ġextravag":7285,"Ġsigned":7286,"Ġperformance":7287,"olate":7288,"Ġfloating":7289,"Ġbench":7290,"Ġschools":7291,"forth":7292,"Ġsubli":7293,"Ġmaria":7294,"Ġful":7295,"Ġgenerations":7296,"Ġassault":7297,"coln":7298,"ele":7299,"Ġnovember":7300,"Ġpole":7301,"Ġparticulars":7302,"Ġlucky":7303,"Ġputs":7304,"Ġstopping":7305,"Ġundoubted":7306,"Ġdreamed":7307,"Ġguilt":7308,"Ġbloss":7309,"minded":7310,"ived":7311,"Ġskipper":7312,"Ġbrisk":7313,"Ġtraveller":7314,"Ġdenied":7315,"Ġverses":7316,"Ġcoarse":7317,"Ġrescue":7318,"Ġguessed":7319,"Ġwander":7320,"Ġpitch":7321,"Ġhumor":7322,"Ġmaintain":7323,"gel":7324,"Ġenjoyment":7325,"Ġirre":7326,"cia":7327,"Ġsupplied":7328,"Ġembarrass":7329,"Ġlily":7330,"Ġhideous":7331,"Ġresponsibility":7332,"Ġflu":7333,"Ġpreparations":7334,"Ġfollowers":7335,"Ġhorrid":7336,"Ġreverence":7337,"ba":7338,"Ġton":7339,"Ġratt":7340,"inent":7341,"Ġgoss":7342,"Ġincluding":7343,"iency":7344,"Ġsails":7345,"Ġwhar":7346,"Ġindust":7347,"ulations":7348,"ica":7349,"Ġspear":7350,"Ġnich":7351,"inburgh":7352,"Ġattracted":7353,"Ġshru":7354,"Ġcorrespondence":7355,"ago":7356,"Ġbrute":7357,"cus":7358,"another":7359,"Ġhalted":7360,"illery":7361,"Ġcamb":7362,"Ġoverwhel":7363,"itious":7364,"cker":7365,"Ġrepose":7366,"Ġstolen":7367,"itan":7368,"woman":7369,"anks":7370,"Ġproceeding":7371,"Ġpretended":7372,"Ġenvelo":7373,"Ġsob":7374,"Ġrailroad":7375,"Ġneglected":7376,"Ġwrapped":7377,"Ġhearty":7378,"Ġquit":7379,"ineas":7380,"Ġoffering":7381,"edy":7382,"Ġabandon":7383,"having":7384,"Ġfrown":7385,"Ġdict":7386,"allel":7387,"Ġmostly":7388,"Ġwarmth":7389,"Ġlecture":7390,"Ġabb":7391,"Ġproposal":7392,"Ġpuff":7393,"Ġexisting":7394,"Ġincreasing":7395,"Ġrecommend":7396,"Ġinterpret":7397,"Ġbrand":7398,"phant":7399,"ona":7400,"Ġmyst":7401,"Ġsongs":7402,"Ġlincoln":7403,"ensity":7404,"nold":7405,"Ġjustified":7406,"Ġauthors":7407,"bery":7408,"rington":7409,"quar":7410,"Ġconfession":7411,"Ġjoan":7412,"Ġcandid":7413,"uously":7414,"angle":7415,"osure":7416,"captain":7417,"ulp":7418,"aneous":7419,"Ġconstru":7420,"Ġthoughtful":7421,"Ġindicated":7422,"essie":7423,"Ġvengeance":7424,"arts":7425,"Ġload":7426,"Ġappla":7427,"berg":7428,"Ġconducted":7429,"Ġtestim":7430,"hist":7431,"Ġfaintly":7432,"Ġdew":7433,"Ġmanus":7434,"jah":7435,"Ġwhisk":7436,"Ġmob":7437,"Ġtrunk":7438,"Ġpruss":7439,"Ġtriumphant":7440,"ubb":7441,"bered":7442,"Ġdifferences":7443,"rot":7444,"Ġrestless":7445,"Ġprinces":7446,"Ġlawn":7447,"Ġincap":7448,"ĠĠĠĠĠĠĠĠĠĠĠĠĠĠĠĠĠĠĠĠĠĠĠĠĠ":7449,"ocr":7450,"Ġeldest":7451,"Ġappropri":7452,"Ġsatisfy":7453,"Ġplunged":7454,"irk":7455,"Ġmotionless":7456,"Ġassurance":7457,"natured":7458,"Ġimagin":7459,"ulating":7460,"Ġuneas":7461,"Ġpressing":7462,"piece":7463,"Ġborder":7464,"welt":7465,"Ġshaken":7466,"Ġrespo":7467,"Ġsid":7468,"arded":7469,"necess":7470,"Ġarise":7471,"iselle":7472,"Ġmah":7473,"Ġpicturesque":7474,"ball":7475,"Ġost":7476,"Ġshaw":7477,"Ġfoe":7478,"Ġemotions":7479,"Ġsale":7480,"yr":7481,"Ġsummit":7482,"Ġprepare":7483,"Ġfifth":7484,"Ġglancing":7485,"Ġdean":7486,"Ġcontract":7487,"Ġbough":7488,"Ġawakened":7489,"fas":7490,"Ġlaun":7491,"Ġtransp":7492,"Ġmaintained":7493,"Ġraw":7494,"Ġdaring":7495,"Ġbern":7496,"idable":7497,"Ġcoloured":7498,"Ġcourtes":7499,"Ġdegr":7500,"Ġnorman":7501,"Ġprophe":7502,"Ġbrood":7503,"Ġfragments":7504,"Ġfoundation":7505,"Ġwont":7506,"Ġfounded":7507,"Ġaccompany":7508,"fire":7509,"Ġreserve":7510,"Ġwot":7511,"ashes":7512,"ques":7513,"cribed":7514,"those":7515,"Ġcommonly":7516,"Ġrecollection":7517,"24":7518,"llings":7519,"Ġmotives":7520,"orus":7521,"Ġparl":7522,"Ġranks":7523,"glas":7524,"Ġentitled":7525,"Ġprey":7526,"Ġfunny":7527,"sal":7528,"Ġdwelt":7529,"Ġincons":7530,"Ġmanuscript":7531,"offrey":7532,"Ġdoubted":7533,"Ġchristians":7534,"Ġgospel":7535,",_":7536,"Ġrand":7537,"Ġdrag":7538,"Ġfurious":7539,"aud":7540,"ĠĠĠĠĠĠĠĠĠĠĠĠĠĠĠĠĠĠĠĠĠĠ":7541,"Ġboldly":7542,"Ġseconds":7543,"Ġ40":7544,"Ġornament":7545,"Ġfab":7546,"Ġassume":7547,"resses":7548,"Ġvel":7549,"Ġdorothy":7550,"Ġillness":7551,"Ġresign":7552,"Ġdisagreeable":7553,"Ġoccupation":7554,"Ġsugar":7555,"Ġcape":7556,"Ġoperations":7557,"Ġseats":7558,"Ġleads":7559,"Ġbelongs":7560,"Ġhaul":7561,"Ġcritical":7562,"Ġattempts":7563,"eries":7564,"Ġpp":7565,"Ġpenny":7566,"Ġstores":7567,"Ġrighteousness":7568,"dles":7569,"Ġdepths":7570,"Ġvarieties":7571,"Ġhatred":7572,"Ġtravelled":7573,"Ġmethods":7574,"Ġfaced":7575,"ĠĠĠĠĠĠĠĠĠĠĠĠĠ":7576,"Ġdesires":7577,"Ġvillages":7578,"coming":7579,"Ġapost":7580,"Ġcommons":7581,"force":7582,"ugg":7583,"Ġviolently":7584,"Ġresolute":7585,"Ġobscure":7586,"arian":7587,"Ġfow":7588,"Ġseeds":7589,"Ġsailing":7590,"olas":7591,"Ġfelix":7592,"Ġcards":7593,"Ġshrew":7594,"Ġinvisible":7595,"Ġslender":7596,"ational":7597,"Ġshan":7598,"frey":7599,"Ġvest":7600,"Ġretorted":7601,"Ġdismay":7602,"Ġmonk":7603,"Ġyielded":7604,"Ġmonu":7605,"Ġtotal":7606,"Ġpainting":7607,"Ġunjust":7608,"Ġhappily":7609,"Ġchannel":7610,"Ġinduce":7611,"Ġpositively":7612,"Ġbelieving":7613,"ola":7614,"Ġgrows":7615,"Ġhunger":7616,"Ġaltar":7617,"Ġroot":7618,"Ġaccomplish":7619,"Ġtravellers":7620,"Ġyourselves":7621,"Ġhoarse":7622,"Ġviii":7623,"Ġmoo":7624,"Ġextrem":7625,"Ġcontact":7626,"Ġpalm":7627,"Ġcathedral":7628,"Ġgleam":7629,"Ġrecollect":7630,"Ġministers":7631,"Ġrabbit":7632,"Ġchildhood":7633,"Ġaustr":7634,"Ġbloody":7635,"Ġcotton":7636,"Ġdrowned":7637,"ua":7638,"Ġhandle":7639,"Ġpronounced":7640,"Ġcertainty":7641,"sters":7642,"Ġblast":7643,"Ġdeserve":7644,"Ġmurdered":7645,"wall":7646,"Ġhasn":7647,"atisf":7648,"cel":7649,"Ġcigaret":7650,"Ġfolded":7651,"Ġmurde":7652,"Ġamericans":7653,"Ġchecked":7654,"Ġterrit":7655,"Ġwarriors":7656,"Ġpreparing":7657,"_--":7658,"mund":7659,"Ġroses":7660,"Ġsaving":7661,"hend":7662,"once":7663,"Ġparadise":7664,"Ġsubmit":7665,"Ã±":7666,"Ġtub":7667,"made":7668,"Ġtables":7669,"Ġtranqu":7670,"Ġsummoned":7671,"Ġmonday":7672,"Ġthankful":7673,"Ġcanvas":7674,"Ġenchant":7675,"Ġbrick":7676,"Ġdriver":7677,"Ġschooner":7678,"Ġruins":7679,"Ġumb":7680,"Ġgrain":7681,"without":7682,"Ġresponsible":7683,"Ġelephant":7684,"Ġselected":7685,"Ġjohnson":7686,"laced":7687,"Ġpersist":7688,"Ġexpecting":7689,"Ġlass":7690,"Ġpersuade":7691,"Ġgriev":7692,"Ġaffli":7693,"Ġactivity":7694,"Ġcontinent":7695,"haw":7696,"Ġpresents":7697,"Ġthrong":7698,"mun":7699,"Ġconvey":7700,"Ġbeck":7701,"Ġsullen":7702,"Ġmutual":7703,"Ġnewspapers":7704,"Ġdiscipline":7705,"Ġpainter":7706,"Ġdad":7707,"count":7708,"'--":7709,"idel":7710,"Ġuncomfort":7711,"Ġbeth":7712,"Ġsection":7713,"Ġjerry":7714,"Ġpush":7715,"Ġgarments":7716,"die":7717,"Ġupward":7718,"ibilities":7719,"Ġinjury":7720,"Ġfinest":7721,"leton":7722,"Ġwasted":7723,"Ġdisple":7724,"Ġpleasures":7725,"Ġmadness":7726,"urred":7727,"Ġtie":7728,"Ġpaci":7729,"bla":7730,"Ġrarely":7731,"Ġinvolved":7732,"reet":7733,"Ġexult":7734,"inder":7735,"Ġintercourse":7736,"Ġholiday":7737,"Ġstaying":7738,"Ġprocession":7739,"Ġarrested":7740,"Ġenv":7741,"Ġdishon":7742,"Ġcrou":7743,"Ġswords":7744,"gone":7745,"twas":7746,"Ġplains":7747,"Ġparson":7748,"Ġink":7749,"Ġbutt":7750,"Ġspared":7751,"iah":7752,"Ġstom":7753,"soever":7754,"does":7755,"Ġappar":7756,"Ġhomes":7757,"Ġthereby":7758,"Ġchurches":7759,"Ġinstit":7760,"Ġuniversity":7761,"Ġ$":7762,"ria":7763,"Ġaccum":7764,"Ġinsol":7765,"Ġconspic":7766,"Ġmichael":7767,"moiselle":7768,"Ġstudent":7769,"Ġmonstr":7770,"quest":7771,"Ġvisits":7772,"Ġjews":7773,"Ġsatisfactory":7774,"Ġanswers":7775,"itudes":7776,"ai":7777,"umble":7778,"bruary":7779,"Ġvolumes":7780,"Ġhistorical":7781,"Ġowned":7782,"Ġrussian":7783,"past":7784,"Ġsixteen":7785,"Ġclust":7786,"Ġfence":7787,"Ġbutler":7788,"Ġdislike":7789,"Ġrede":7790,"Ġissued":7791,"Ġmagistr":7792,"Ġhud":7793,"Ġdetermination":7794,"Ġuncommon":7795,"something":7796,"Ġwilt":7797,"Ġdisplayed":7798,"====":7799,"Ġrash":7800,"Ġfortunes":7801,"Ġlonging":7802,"Ġlessons":7803,"Ġbapt":7804,"ns":7805,"Ġgladstone":7806,"Ġtrades":7807,"Ġram":7808,"Ġgasped":7809,"Ġmedicine":7810,"Ġretain":7811,"Ġbor":7812,"Ġbond":7813,"Ġtempted":7814,"Ġcu":7815,"Ġjap":7816,"could":7817,"Ġspectacle":7818,"Ġinevitable":7819,"elt":7820,"Ġ189":7821,"Ġassembly":7822,"Ġpersonally":7823,"houses":7824,"Ġsentiments":7825,"Ġspeaker":7826,"Ġfourteen":7827,"Ġrocky":7828,"Ġdisappear":7829,"Ġtumult":7830,"Ġstudies":7831,"Ġraven":7832,"chers":7833,"Ġgerald":7834,"Ġrecently":7835,"Ġnic":7836,"Ġarguments":7837,"Ġremorse":7838,"Ġjeff":7839,"Ġfitz":7840,"Ġbone":7841,"Ġauthorities":7842,"Ġtraining":7843,"Ġanti":7844,"Ġformal":7845,"Ġpeaceful":7846,"Ġdiffer":7847,"Ġtheirs":7848,"Ġderived":7849,"Ġpromptly":7850,"Ġforming":7851,"Ġinjured":7852,"23":7853,"Ġchill":7854,"Ġprivilege":7855,"wels":7856,"Ġreception":7857,"Ġsurrender":7858,"Ġpilgrim":7859,"Ġdeceived":7860,"Ġcorps":7861,"Ġendless":7862,"Ġpreviously":7863,"hile":7864,"Ġvale":7865,"Ġjung":7866,"Ġstately":7867,"Ġherbert":7868,"Ġsinking":7869,"Ġlimits":7870,"Ġpeasant":7871,"Ġgravity":7872,"Ġentertained":7873,"oleon":7874,"Ġthief":7875,"Ġyea":7876,"Ġoriginally":7877,"ĠĠĠĠĠĠĠĠĠĠĠĠĠĠĠĠĠĠĠĠĠĠĠĠĠĠ":7878,"riages":7879,"Ġdropping":7880,"Ġwink":7881,"Ġbald":7882,"ffled":7883,"Ġchanging":7884,"Ġjam":7885,"Ġregions":7886,"Ġawoke":7887,"Ġsiege":7888,"Ġeag":7889,"fare":7890,"since":7891,"enote":7892,"Ġlovers":7893,"ear":7894,"Ġamazement":7895,"Ġstretch":7896,"sidenote":7897,"Ġsolemnly":7898,"Ġlip":7899,"Ġdescent":7900,"Ġacknowledge":7901,"Ġpurchase":7902,"Ġtemptation":7903,"dale":7904,"Ġinspired":7905,"Ġthoughtfully":7906,"Ġincluded":7907,"got":7908,"cription":7909,"Ġrigid":7910,"Ġconsisted":7911,"Ġdepartment":7912,"tom":7913,"Ġliken":7914,"Ġunnecess":7915,"Ġmail":7916,"Ġglasses":7917,"Ġprovin":7918,"Ġtrap":7919,"27":7920,"Ġtour":7921,"Ġmelo":7922,"Ġharbour":7923,"Ġpave":7924,"Ġdecember":7925,"Ġincomp":7926,"Ġstub":7927,"poss":7928,"Ġresemblance":7929,"Ġshores":7930,"Ġwagon":7931,"ounted":7932,"Ġextern":7933,"Ġaccess":7934,"Ġapply":7935,"Ġphenomena":7936,"Ġapplication":7937,"rished":7938,"Ġpresume":7939,"Ġaboard":7940,"Ġstruggled":7941,"Ġdistinguish":7942,"Ġleaders":7943,"Ġneglect":7944,"Ã¡":7945,"lac":7946,"Ġhastened":7947,"their":7948,"Ġrealize":7949,"Ġlargely":7950,"Ġdepri":7951,"Ġcopper":7952,"._]":7953,"supp":7954,"Ġjealousy":7955,"Ġanswering":7956,"Ġprolong":7957,"Ġcure":7958,"Ġwherefore":7959,"Ġeffic":7960,"thren":7961,"Ġcompare":7962,"Ġstreng":7963,"Ġfools":7964,"Ġshillings":7965,"Ġfountain":7966,"Ġarrow":7967,"Ġstomach":7968,"Ġcher":7969,"ommod":7970,"Ġbells":7971,"Ġblowing":7972,"Ġfeathers":7973,"Ġashes":7974,"mont":7975,"Ġimperial":7976,"Ġvaried":7977,"Ġreflect":7978,"Ġshallow":7979,"ĠĠĠĠĠĠĠĠĠĠĠĠĠĠĠĠĠĠĠĠĠĠĠĠĠĠĠĠ":7980,"Ġedinburgh":7981,"Ġbonnet":7982,"Ġfoli":7983,"berry":7984,"Ġmeek":7985,"Ġhearth":7986,"Ġdrops":7987,"Ġhealthy":7988,"hesis":7989,"ros":7990,"Ġblown":7991,"Ġimpatience":7992,"Ġwheels":7993,"Ġnaught":7994,"Ġoffices":7995,"Ġbou":7996,"Ġopenly":7997,"Ġbacks":7998,"emp":7999,"Ġimperfect":8000,"uity":8001,"Ġunw":8002,"Ġmos":8003,"hill":8004,"Ġinherit":8005,"Ġseal":8006,"Ġrecalled":8007,"Ġaught":8008,"Ġrespecting":8009,"Ġkent":8010,"hea":8011,"Ġamusing":8012,"Ġclung":8013,"Ġheroic":8014,"Ġperpetual":8015,"Ġindustry":8016,"Ġfund":8017,"Ġafforded":8018,"mi":8019,"mers":8020,"Ġisa":8021,"Ġconquered":8022,"Ġcomplain":8023,"unken":8024,"Ġremed":8025,"Ġcreation":8026,"Ġcorners":8027,"Ġremove":8028,"Ġjanuary":8029,"Ġwillingly":8030,"Ġquaint":8031,"Ġsurprising":8032,"Ġcomposition":8033,"Ġdefeat":8034,"Ġwaving":8035,"Ġmissing":8036,"Ġelabor":8037,"Ġflames":8038,"Ġdouglas":8039,"Ġmonstrous":8040,"Ġfog":8041,"Ġbackward":8042,"Ġromans":8043,"Ġstreams":8044,"Ġpattern":8045,"Ġladyship":8046,"Ġsupposing":8047,"bear":8048,"........":8049,"Ġhypot":8050,"Ġrightly":8051,"ingham":8052,"Ġpeep":8053,"Ġartillery":8054,"Ġmaterials":8055,"Ġcreep":8056,"Ġrod":8057,"Ġprophet":8058,"Ġhamp":8059,"Ġcongress":8060,"Ġroots":8061,"Ġabsorbed":8062,"Ġbars":8063,"Ġdame":8064,"Ġwholes":8065,"Ġlodge":8066,"Ġdat":8067,"icious":8068,"Ġcivilization":8069,"Ġstrictly":8070,"bable":8071,"spring":8072,"Ġbot":8073,"Ġperplex":8074,"Ġfid":8075,"Ġeustace":8076,"Ġbows":8077,"Ġconj":8078,"pple":8079,"hioned":8080,"Ġamiable":8081,"Ġrises":8082,"Ġfortunately":8083,"Ġsurv":8084,"Ġembra":8085,"ersed":8086,"Ġmou":8087,"Ġdangers":8088,"Ġtrous":8089,"Ġlud":8090,"Ġdeserved":8091,"Ġcruelty":8092,"Ġcapture":8093,"Ġpropriet":8094,"Ġinfantry":8095,"bal":8096,"Ġinval":8097,"Ġpoo":8098,"eers":8099,"Ġweeping":8100,"Ġcrimson":8101,"Ġprevail":8102,"Ġfaults":8103,"Ġendeavoured":8104,",--\"":8105,"Ġobserving":8106,"Ġidi":8107,"Ġyouthful":8108,"herent":8109,"Ġape":8110,"away":8111,"sw":8112,"Ġparallel":8113,"Ġconsiderably":8114,"Ġlic":8115,"Ġbrethren":8116,"Ġsuitable":8117,"Ġproduction":8118,"Ġpulling":8119,"Ġjohnny":8120,"Ġthres":8121,"Ġabbey":8122,"Ġprosperity":8123,"Ġelbow":8124,"Ġbrains":8125,"Ġfrankly":8126,"Ġsubdu":8127,"ĠĠĠĠĠĠĠĠĠĠĠĠĠĠĠĠĠĠĠĠĠĠĠĠĠĠĠ":8128,"Ġvon":8129,"Ġmason":8130,"Ġmars":8131,"Ġcolumb":8132,"Ġpreserve":8133,"jack":8134,"Ġshalt":8135,"Ġscottish":8136,"Ġsets":8137,"Ġvigorous":8138,"great":8139,"Ġdreary":8140,"Ġmedical":8141,"Ġmansion":8142,"Ġenvy":8143,"Ġstable":8144,"Ġlasted":8145,"Ġelection":8146,"Ġprofessional":8147,"Ġblunt":8148,"Ġclosing":8149,"Ġsurrounding":8150,"combe":8151,"Ġfiercely":8152,"Ġya":8153,"coloured":8154,"Ġbullet":8155,"Ġix":8156,"Ġtarzan":8157,"occ":8158,"26":8159,"orter":8160,"Ġcliffs":8161,"Ġprovince":8162,"eight":8163,"40":8164,"Ġmodel":8165,"Ġtap":8166,"rael":8167,"Ġcabinet":8168,"sch":8169,"Ġinnocence":8170,"enses":8171,"Ġgladly":8172,"Ġadorn":8173,"Ġmustn":8174,"Ġjudged":8175,"Ġpubl":8176,"Ġchanced":8177,"teenth":8178,"Ġstatue":8179,"Ġobservations":8180,"luck":8181,"Ġloaded":8182,"aph":8183,"Ġsaxon":8184,"Ġcheerfully":8185,"iations":8186,"retion":8187,"Ġestim":8188,"hall":8189,"Ġwherein":8190,"Ġdraught":8191,"Ġthet":8192,"Ġlowered":8193,"Ġlikeness":8194,"Ġ21":8195,"Ġlowest":8196,"Ġdiscussed":8197,"Ġcollar":8198,"Ġbutton":8199,"Ġsuspe":8200,"Ġfug":8201,"Ġflora":8202,"Ġsketch":8203,"Ġscant":8204,"Ġregards":8205,"might":8206,"Ġguardian":8207,"Ġchristianity":8208,"umps":8209,"drew":8210,"Ġnigh":8211,"Ġstim":8212,"Ġatl":8213,"Ġneedn":8214,"Ġprose":8215,"Ġpercy":8216,"Ġey":8217,"Ġadvise":8218,"Ġdiscont":8219,"Ġladder":8220,"ifications":8221,"Ġcontain":8222,"Ġnobles":8223,"Ġcondemned":8224,"lings":8225,"chair":8226,"Ġeducated":8227,"Ġboot":8228,"Ġsanct":8229,"Ġperse":8230,"Ġwoe":8231,"Ġsalvation":8232,"Ġunwilling":8233,"Ġinsects":8234,"Ġconcent":8235,"Ġfuneral":8236,"Ġencouraged":8237,"Ġdeaf":8238,"Ġupwards":8239,"ensions":8240,"Ġarmies":8241,"Ġwishing":8242,"Ġinconven":8243,"Ġcourtesy":8244,"nie":8245,"Ġplac":8246,"Ġdeclined":8247,"Ġnotions":8248,"Ġsaith":8249,"Ġswore":8250,"Ġvillain":8251,"Ġbitterness":8252,"Ġfavourable":8253,"Ġawhile":8254,"Ġsteward":8255,"Ġninet":8256,"Ġcharlie":8257,"Ġeveryone":8258,"Ġmonot":8259,"Ġimproved":8260,"Ġavenue":8261,"Ġsmallest":8262,"Ġaffections":8263,"versed":8264,"Ġmemories":8265,"gings":8266,"Ġfascin":8267,"ĠĠĠĠĠĠĠĠĠĠĠĠĠĠĠĠĠĠĠĠĠĠĠĠĠĠĠĠĠ":8268,"Ġwhip":8269,"Ġindef":8270,"Ġdispute":8271,"yne":8272,"Ġcris":8273,"Ġkin":8274,"Ġconspir":8275,"cation":8276,"Ġweep":8277,"Ġdrama":8278,"Ġvirginia":8279,"Ġinfinitely":8280,"Ġwoo":8281,"post":8282,"Ġtreaty":8283,"Ġcombat":8284,"mic":8285,"Ġseize":8286,"Ġmetal":8287,"Ġearthly":8288,"fig":8289,"Ġfemales":8290,"jour":8291,"Ġhardy":8292,"Ġsearching":8293,"Ġbewildered":8294,"Ġshepherd":8295,"Ġoars":8296,"Ġvote":8297,"Ġcens":8298,"Ġdownstairs":8299,"oft":8300,"Ġapolog":8301,"Ġ35":8302,"Ġparlour":8303,"Ġwounds":8304,"Ġbend":8305,"Ġrays":8306,"Ġtore":8307,"Ġrot":8308,"Ġpony":8309,"rained":8310,"Ġtrained":8311,"Ġeste":8312,"Ġmarian":8313,"turn":8314,"stri":8315,"Ġpursue":8316,"Ġcontrived":8317,"pat":8318,"Ġflies":8319,"Ġskull":8320,"Ġterrace":8321,"Ġsuited":8322,"Ġris":8323,"Ġrenewed":8324,"Ġbron":8325,"pical":8326,"Ġvine":8327,"Ġintol":8328,"Ġcatching":8329,"Ġpenn":8330,"Ġarchitecture":8331,"Ġendeavour":8332,"Ġomn":8333,"Ġ`":8334,"Ġvary":8335,"Ġplum":8336,"Ġconject":8337,"Ġblan":8338,"Ġunfortunately":8339,"Ġvicar":8340,"Ġpeas":8341,"justice":8342,"Ġmagazine":8343,"Ġflor":8344,"Ġundoubtedly":8345,"Ġdash":8346,"Ġjewels":8347,"Ġxxv":8348,"Ġprevailed":8349,"Ġkilling":8350,"Ġlend":8351,"Ġimmortal":8352,"Ġmol":8353,"vived":8354,"Ġdesirable":8355,"Ġtemporary":8356,"onstr":8357,"inge":8358,"zel":8359,"Ġwheat":8360,"Ġmoan":8361,"Ġsunlight":8362,"must":8363,"sis":8364,"Ġwithdrew":8365,"Ġaged":8366,"Ġhoping":8367,"Ġpoliceman":8368,"Ġtidings":8369,"urg":8370,"Ġexhi":8371,"Ġsmiles":8372,"Ġverd":8373,"Ġreadiness":8374,"Ġgeoffrey":8375,"!_":8376,"Ġtrim":8377,"cheon":8378,"Ġappetite":8379,"Ġlind":8380,"Ġpurse":8381,"mill":8382,"ands":8383,"Ġlament":8384,"Ġcultivated":8385,"put":8386,"Ġbea":8387,"Ġprett":8388,"Ġanth":8389,"Ġmaxim":8390,"pence":8391,"Ġaccommod":8392,"ĠÂ£":8393,"Ġtestimony":8394,"Ġannounce":8395,"Ġvenet":8396,"Ġdeclar":8397,"run":8398,"Ġhaunted":8399,"Ġjudges":8400,"Ġencounter":8401,"Ġwept":8402,"Ġding":8403,"Ġample":8404,"Ġhasty":8405,"eches":8406,"Ġcarpet":8407,"Ġinnum":8408,"Ġcommence":8409,"Ġoffended":8410,"Ġhighness":8411,"Ġerrand":8412,"Ġlinen":8413,"alo":8414,"ustrious":8415,"Ġpermanent":8416,"Ġmack":8417,"Ġalexander":8418,"ilised":8419,"Ġpere":8420,"Ġchiefs":8421,"bus":8422,"Ġfiery":8423,"Ġnod":8424,"Ġstare":8425,"twenty":8426,"Ġadvoc":8427,"Ġeighty":8428,"Ġneighborhood":8429,"Ġprobability":8430,"Ġperf":8431,"Ġimprovement":8432,"ration":8433,"Ġtransport":8434,"Ġtransfer":8435,"Ġteam":8436,"Ġcreek":8437,"Ġaxe":8438,"Ġaccused":8439,"Ġexpectation":8440,"Ġloudly":8441,"Ġjapan":8442,"white":8443,"Ġmarvell":8444,"Ġprayed":8445,"aux":8446,"Ġintentions":8447,"ini":8448,"roll":8449,"aur":8450,"Ġearliest":8451,"riel":8452,"Ġspoil":8453,"Ġkins":8454,"Ġragged":8455,"Ġgraham":8456,"Ġmorris":8457,"Ġcompassion":8458,"alem":8459,"ipp":8460,"Ġwildly":8461,"Ġdisguise":8462,"Ġspecially":8463,"Ġchildish":8464,"door":8465,"Ġpour":8466,"Ġseverely":8467,"Ġinnumerable":8468,"28":8469,"Ġbills":8470,"Ġclasped":8471,"hard":8472,"Ġbrist":8473,"Ġsecrets":8474,"Ġwan":8475,"Ġseeming":8476,"Ġfiction":8477,"Ġadvised":8478,"Ġ33":8479,"Ġdanced":8480,"Ġrebu":8481,"Ġspeedily":8482,"Ġanaly":8483,"Ġpic":8484,"ado":8485,"Ġmachin":8486,"Ġcic":8487,"Ġmanager":8488,"Ġobviously":8489,"except":8490,"eration":8491,"court":8492,"Ġpound":8493,"Ġmanly":8494,"esar":8495,"ov":8496,"Ġchambers":8497,"Ġcrushed":8498,"Ġwhistle":8499,"Ġuncomfortable":8500,"Ġthanked":8501,"Ġhaught":8502,"isle":8503,"Ġrecognition":8504,"Ġtrag":8505,"voy":8506,"Ġmc":8507,"Ġglittering":8508,"Ġtops":8509,"olk":8510,"Ġbreed":8511,"child":8512,"Ġluxury":8513,"Ġwilson":8514,"cons":8515,"Ġcharley":8516,"Ġaddressing":8517,"Ġnapoleon":8518,"Ġimprison":8519,"oked":8520,"rude":8521,"29":8522,"Ġcub":8523,"Ġchival":8524,"Ġ50":8525,"Ġdroop":8526,"Ġconsented":8527,"Ġdense":8528,"eur":8529,"Ġspin":8530,"Ġfiring":8531,"Ġadministr":8532,"Ġupset":8533,"Ġscout":8534,"Ġbreathed":8535,"Ġgrove":8536,"chest":8537,"Ġrecognize":8538,"Ġ100":8539,"Ġuncon":8540,"Ġcouch":8541,"Ġisrael":8542,"Ġlonged":8543,"Ġjen":8544,"Ġalfred":8545,"Ġambit":8546,"half":8547,"Ġwordsworth":8548,"Ġpious":8549,"isms":8550,"Ġarg":8551,"Ġadditional":8552,"Ġpian":8553,"Ġpoly":8554,"Ġmademoiselle":8555,"Ġglowing":8556,"Ġelderly":8557,"Ġpsy":8558,"Ġbrandy":8559,"Ġflock":8560,"Ġbending":8561,"Ġdeemed":8562,"Ġconquer":8563,"Ġjulia":8564,"thr":8565,"Ġfrozen":8566,"Ġforests":8567,"Ġplanted":8568,"Ġpurely":8569,"Ġmeasured":8570,"cat":8571,"Ġappointment":8572,"Ġconfid":8573,"Ġoz":8574,"Ġcus":8575,"Ġadding":8576,"Ġfruits":8577,"Ġlent":8578,"irie":8579,"Ġpas":8580,"Ġstam":8581,"Ġsensitive":8582,"Ġerect":8583,"uated":8584,"Ġremonstr":8585,"Ġimpressions":8586,"usalem":8587,"Ġtune":8588,"Ġfebruary":8589,"Ġjungle":8590,"Ġscent":8591,"Ġemphas":8592,"Ġwiser":8593,"Ġjanet":8594,"Ġrecomme":8595,"aping":8596,"Ġdried":8597,"Ġroared":8598,"Ġdiscom":8599,"love":8600,"Ġremembrance":8601,"Ġcaps":8602,"lighted":8603,"Ġsnake":8604,"Ġorange":8605,"Ġnowhere":8606,"Ġbru":8607,"Ġmales":8608,"Ġtack":8609,"Ġheroes":8610,"Ġwarrior":8611,"Ġreturns":8612,"Ġescort":8613,"Ġwig":8614,"Ġpreacher":8615,"during":8616,"hole":8617,"Ġconveyed":8618,"Ġeyeb":8619,"Ġterribly":8620,"Ġbaggage":8621,"Ġagitation":8622,"Ġdelicious":8623,"Ġwonderfully":8624,"arms":8625,"Ġassociation":8626,"ths":8627,"Ġoutline":8628,"Ġindependence":8629,"Ġwire":8630,"Ġliver":8631,"Ġapprehension":8632,"Ġhappier":8633,"Ġprecaut":8634,"Ġels":8635,"Ġtermin":8636,"Ġlodgings":8637,"'\"":8638,"licit":8639,"Ġhired":8640,"Ġavoided":8641,"Ġmanagement":8642,"Ġgreeted":8643,"Ġarrows":8644,"fashioned":8645,"Ġbreathe":8646,"Ġcriminal":8647,"Ġtoss":8648,"Ġhood":8649,"ben":8650,"rane":8651,"Ġlew":8652,"ulus":8653,"Ġembrace":8654,"Ġprotestant":8655,"Ġbundle":8656,"ouch":8657,"Ġdined":8658,"Ġlink":8659,"Ġviv":8660,"mitive":8661,"Ġuna":8662,"ulties":8663,"ceiving":8664,"mmer":8665,"Ġtrousers":8666,"ida":8667,"icable":8668,"Ġwinding":8669,"Ġconstit":8670,"Ġshrewd":8671,"Ġpleasing":8672,"Ġformidable":8673,"Ġtalent":8674,"Ġscandal":8675,"Ġinspect":8676,"Ġphotograph":8677,"atus":8678,"Ġcomplexion":8679,"little":8680,"wal":8681,"!âĢĿ":8682,"Ġdeliberately":8683,"Ġharder":8684,"Ġcontains":8685,"Ġmerits":8686,"erate":8687,"Ġreports":8688,"Ġprovision":8689,"Ġolive":8690,"Ġthirst":8691,"Ġspy":8692,"Ġattain":8693,"Ġenglishmen":8694,"Ġguarded":8695,"Ġgulf":8696,"Ġenlar":8697,"Ġhereafter":8698,"Ġjustify":8699,"Ġinexp":8700,"far":8701,"Ġgab":8702,"Ġdelicacy":8703,"Ġtowers":8704,"cli":8705,"Ġfran":8706,"Ġjustly":8707,"Ġmirror":8708,"Ġwretch":8709,"Ġdispos":8710,"Ġtimber":8711,"erted":8712,"heart":8713,"orp":8714,"Ġshudder":8715,"Ġimpatiently":8716,"Ġundertake":8717,"ĠÂ§":8718,"Ġ36":8719,"Ġfrontier":8720,"Ġdecay":8721,"him":8722,"Ġlimp":8723,"Ġfeature":8724,"however":8725,"Ġdesolate":8726,"Ġconclude":8727,"Ġsnap":8728,"Ġangle":8729,"Ġpromises":8730,"Ġwits":8731,"Ġnewly":8732,"inese":8733,"Ġsubstant":8734,"Ġshouts":8735,"Ġdilig":8736,"Ġdismissed":8737,";'":8738,"castle":8739,"Ġnicholas":8740,"Ġfriday":8741,"olo":8742,"Ġdisaster":8743,"Ġwoke":8744,"Ġmonster":8745,"Ġpreceding":8746,"Ġthereof":8747,"Ġunworthy":8748,"Ġdickens":8749,"Ġdazz":8750,"Ġinsens":8751,"Ġconspicuous":8752,"Ġprotested":8753,"Ġgossip":8754,"Ġmiracle":8755,"Ġbriefly":8756,"ressing":8757,"Ġmusical":8758,"Ġstirring":8759,"hot":8760,"Ġthumb":8761,"cile":8762,"Ġsermon":8763,"Ġfie":8764,"Ġyach":8765,"entially":8766,"assad":8767,"Ġbour":8768,"Ġweigh":8769,"Ġdemands":8770,"Ġunnecessary":8771,"Ġpom":8772,"Ġprairie":8773,"lem":8774,"Ġremainder":8775,"Ġancestors":8776,"Ġincapable":8777,"know":8778,"Ġveins":8779,"Ġchronic":8780,"eer":8781,"guish":8782,"heard":8783,"Ġdramatic":8784,"Ġlifting":8785,"Ġgreatness":8786,"Ġsupplies":8787,"Ġirresist":8788,"Ġwrist":8789,"life":8790,"Ġencamp":8791,"Ġbrows":8792,"Ġpreparation":8793,"Ġability":8794,"Ġtomorrow":8795,"Ãł":8796,"Ġfavorite":8797,"yl":8798,"Ġvex":8799,"Ġsticks":8800,"Ġvap":8801,"Ġcovering":8802,"Ġsexes":8803,"Ġcorrid":8804,"Ġshine":8805,"Ġholes":8806,"Ġsubdued":8807,"Ġbeggar":8808,"Ġmeth":8809,"Ġthreshold":8810,"mates":8811,"Ġheavenly":8812,"Ġhypo":8813,"Ġsuspicious":8814,"Ġattractive":8815,"Ġcrisis":8816,"\"_":8817,"Ġpag":8818,"Ġtwisted":8819,"ais":8820,"Ġmorrow":8821,"Ġpatch":8822,"Ġhoof":8823,"gered":8824,"vial":8825,"hical":8826,"imately":8827,"Ġwaiter":8828,"Ġrequires":8829,"Ġlouise":8830,"hable":8831,"Ġprimitive":8832,"Ġmixt":8833,"Ġexternal":8834,"Ġconsolation":8835,"Ġfaculties":8836,"Ġidol":8837,"Ġleonard":8838,"Ġalle":8839,"tel":8840,"ordon":8841,"Ġswamp":8842,"Ġsternly":8843,"Ġcustoms":8844,"Ġturk":8845,"Ġeffected":8846,"Ġartificial":8847,"Ġwhale":8848,"Ġisle":8849,"Ġporch":8850,"mand":8851,"Ġcalculated":8852,"Ġ34":8853,"Ġwidely":8854,"Ġcommercial":8855,"Ġsurm":8856,"Ġadopt":8857,"Ġrebellion":8858,"lotte":8859,"Ġdost":8860,"Ġreserved":8861,"ography":8862,"Ġment":8863,"Ġprovide":8864,"Ġexists":8865,"Ġdestiny":8866,"olph":8867,"Ġconfirmed":8868,"sea":8869,"lda":8870,"Ġalongside":8871,"Ġslaught":8872,"Ġcostume":8873,"Ġcombined":8874,"Ġdig":8875,"Ġachieve":8876,"usal":8877,"Ġexpressions":8878,"Ġscenery":8879,"Ġfaster":8880,"Ġblaze":8881,"Ġcommands":8882,"Ġlarry":8883,"gence":8884,"thorn":8885,"Ġintroduce":8886,"bird":8887,"Ġamidst":8888,"Ġbeautifully":8889,"Ġconflict":8890,"Ġabstract":8891,"umm":8892,"Ġconsists":8893,"sett":8894,"Ġpavement":8895,"iated":8896,"covered":8897,"Ġmoderate":8898,"Ġbrad":8899,"Ġreckless":8900,"Ġnovels":8901,"Ġfern":8902,"Ġcongreg":8903,"Ġvital":8904,"Ġretained":8905,"';":8906,"Ġsheer":8907,"Ġunacc":8908,"Ġmarvel":8909,"Ġlyd":8910,"Ġworshi":8911,"Ġmothers":8912,"Ġamazed":8913,"pre":8914,"Ġassisted":8915,"Ġsecretly":8916,"Ġbodily":8917,"Ġdefect":8918,"Ġmit":8919,"Ġjury":8920,"Ġarmour":8921,"Ġrobes":8922,"Ġmiller":8923,"Ġpacked":8924,"Ġsublime":8925,"Ġsprings":8926,"Ġelegant":8927,"itations":8928,"oli":8929,"Ġgamb":8930,"Ġsatan":8931,"Ġdischarge":8932,"making":8933,"Ġshocked":8934,"said":8935,"Ġlodging":8936,"Ġtru":8937,"Ġfloated":8938,"dling":8939,"Ġasks":8940,"Ġremembering":8941,"Ġmilton":8942,"Ġvault":8943,"Ġstillness":8944,"boys":8945,"Ġstrongest":8946,"Ġfilling":8947,"log":8948,"Ġclothing":8949,"Ġphant":8950,"keys":8951,"Ġcolumns":8952,"Ġthor":8953,"Ġindignant":8954,"Ġbee":8955,"riam":8956,"Ġroaring":8957,"minster":8958,"Ġreasoning":8959,"Ġsack":8960,"Ġchinese":8961,"Ġoccupy":8962,"Ġclearing":8963,"Ġgrasped":8964,"Ġunseen":8965,"Ġhospitality":8966,"Ġinjustice":8967,"culty":8968,"cla":8969,"Ġbehaved":8970,"riety":8971,"Ġsurgeon":8972,"gger":8973,"Ġsickness":8974,"Ġfemin":8975,"Ġeagerness":8976,"Ġindisp":8977,"Ġhighland":8978,"Ġhelping":8979,"interest":8980,"haired":8981,"Ġpines":8982,"Ġfaculty":8983,"Ġdow":8984,"Ġcommod":8985,"Ġcautiously":8986,"Ġawfully":8987,"Ġhem":8988,"uns":8989,"Ġtelegram":8990,"whether":8991,"Ġtact":8992,"Ġhorns":8993,"fles":8994,"Ġserene":8995,"Ġshells":8996,"Ġrepresentative":8997,"Ġrelieve":8998,"iary":8999,"omen":9000,"rial":9001,"ieu":9002,"Ġdrunken":9003,"Ġrobbed":9004,"Ġsomeone":9005,"Ġvacant":9006,"Ġsul":9007,"Ġsurround":9008,"Ġburns":9009,"Ġdismal":9010,"Ġstaircase":9011,"Ġgor":9012,"Ġfrightful":9013,"Ġpierre":9014,"Ġscrup":9015,"Ġcomplic":9016,"Ġowen":9017,"ien":9018,"Ġcatherine":9019,"Ġvag":9020,"Ġwitnesses":9021,"Ġgill":9022,"Ġflee":9023,"Ġcommanding":9024,"Ġshrub":9025,"Ġjerusalem":9026,"Ġced":9027,"Ġmoist":9028,"gil":9029,"Ġoverlook":9030,"Ġbred":9031,"Ġdale":9032,"Ġinstitution":9033,"Ġsteven":9034,"Ġbetty":9035,"Ġloo":9036,"Ġmainly":9037,"Ġperish":9038,"Ġsant":9039,"inement":9040,"Ġ=":9041,"Ġcharms":9042,"Ġsurf":9043,"Ġregularly":9044,"Ġvelvet":9045,"Ġfacing":9046,"Ġcoldly":9047,"Ġnerve":9048,"hoebe":9049,"christ":9050,"Ġcolony":9051,"rat":9052,"Ġdoom":9053,"Ġcapit":9054,"Ġquarre":9055,"Ġworldly":9056,"olved":9057,"Ġoverhead":9058,"Ġmomentary":9059,"Ġdirt":9060,"Ġsubsequent":9061,"Ġsymbol":9062,"Ġpacific":9063,"Ġlots":9064,"_.\"":9065,"roy":9066,"uncle":9067,"Ġgy":9068,"Ġbestowed":9069,"Ġphysician":9070,"Ġdamned":9071,"Ġheathen":9072,"stein":9073,"Ġcambridge":9074,"Ġdares":9075,"Ġinstitutions":9076,"Ġante":9077,"Ġslumber":9078,"22":9079,"Ġinhab":9080,"Ġmarie":9081,"cerity":9082,"Ġaren":9083,"Ġlegend":9084,"Ġspeeches":9085,"Ġpillow":9086,"Ġinspiration":9087,"Ġcountrymen":9088,"Ġimb":9089,"Ġliterally":9090,"Ġangrily":9091,"Ġxi":9092,"Ġrespected":9093,"Ġvaguely":9094,"Ġhedge":9095,"gus":9096,"jor":9097,"Ġbarren":9098,"Ġcursed":9099,"fts":9100,"Ġprudence":9101,"Ġeconomy":9102,"fert":9103,"mus":9104,"rus":9105,"Ġharmony":9106,"Ġcondes":9107,"Ġalan":9108,"ĠĠĠĠĠĠĠĠĠĠĠĠĠĠĠĠĠĠĠĠĠĠĠĠĠĠĠĠĠĠ":9109,"Ġhet":9110,"Ġmend":9111,"quarters":9112,"Ġwad":9113,"george":9114,"Ġfoam":9115,"Ġfret":9116,"Ġseaman":9117,"Ġribb":9118,"Ġlargest":9119,"Ġchoo":9120,"Ġdivide":9121,"Ġtossed":9122,"dal":9123,"Ġwist":9124,"Ġshared":9125,"Ġplacing":9126,"Ġwax":9127,"Ġdealt":9128,"Ġmeadow":9129,"Ġgreg":9130,"Ġeyebrows":9131,"Ġmak":9132,"Ġcontest":9133,"fish":9134,"Ġconnect":9135,"iate":9136,"Ġunnatural":9137,"wixt":9138,"Ġminist":9139,"Ġheights":9140,"Ġeagle":9141,"Ġblush":9142,"Ġmarrying":9143,"Ġbackground":9144,"Ġclar":9145,"Ġaroused":9146,"guard":9147,"uriously":9148,"Ġinvention":9149,"Ġcordial":9150,"Ġtraitor":9151,"geons":9152,"Ġslay":9153,"Ġcomprehens":9154,"Ġafric":9155,"Ġbits":9156,"Ġexamples":9157,"Ġcurtains":9158,"rud":9159,"Ġtread":9160,"Ġstrikes":9161,"Ġmultip":9162,"dick":9163,"Ġmes":9164,"Ġcigarette":9165,"hom":9166,"Ġhurriedly":9167,"Ġrepair":9168,"Ġboxes":9169,"Ġcaroline":9170,"Ġmachinery":9171,"Ġconserv":9172,"Ġimages":9173,"Ġassented":9174,"Ġpractised":9175,"Ã¢":9176,"Ġlamps":9177,"Ġscream":9178,"erving":9179,"Ġexclamation":9180,"dis":9181,"none":9182,"Ġfist":9183,"Ġconsol":9184,"dam":9185,"Ġmarching":9186,"Ġflush":9187,"Ġenjoying":9188,"Ġvigil":9189,"Ġbidding":9190,"Ġunreason":9191,"Ġimpart":9192,"Ġsunny":9193,"Ġ37":9194,"Ġkat":9195,"Ġrugged":9196,"Ġegyptian":9197,"Ġtempest":9198,"Ġtorrent":9199,"Ġdestined":9200,"gans":9201,"Ġwarmly":9202,"Ġrational":9203,"Ġplates":9204,"Ġbenevol":9205,"ĠcÃ¦":9206,"tie":9207,"urable":9208,"Ġquart":9209,"Ġhonestly":9210,"uting":9211,"alia":9212,"Ġpleasantly":9213,"Ġexhibited":9214,"Ġsuspicions":9215,"think":9216,"abe":9217,"Ġechoed":9218,"Ġrup":9219,"Ġalleg":9220,"Ġpang":9221,"Ġextensive":9222,"Ġstrip":9223,"Ġrou":9224,"Ġcrash":9225,"Ġdusk":9226,"Ġrings":9227,"Ġnig":9228,"Ġgust":9229,"Ġclam":9230,"Ġaristocr":9231,"Ġabode":9232,"Ġsympathetic":9233,"class":9234,"Ġappreciate":9235,"Ġdocument":9236,"Ġtheod":9237,"Ġassociated":9238,"Ġanalog":9239,"Ġimpert":9240,"agra":9241,"Ġshrill":9242,"Ġdru":9243,"Ġencount":9244,"comp":9245,"Ġcargo":9246,"Ġhans":9247,"Ġjuan":9248,"omy":9249,"Ġpayment":9250,"Ġexperiments":9251,"Ġghast":9252,"urt":9253,"Ġrevere":9254,"Ġresponded":9255,"Ġmall":9256,"Ġcavern":9257,"Ġclothed":9258,"Ġeloquence":9259,"Ġencountered":9260,"Ġfancies":9261,"Ġneighbouring":9262,"Ġbother":9263,"icted":9264,"Ġacade":9265,"Ġcoup":9266,"Ġjackson":9267,"iforn":9268,"Ġcrazy":9269,"Ġrecorded":9270,"aneously":9271,"Ġdreaming":9272,"Ġholmes":9273,"ceptible":9274,"Ġfrenchman":9275,"Ġgrandmother":9276,"Ġvigor":9277,"Ġsentimental":9278,"Ġengra":9279,"Ġrestore":9280,"fn":9281,"Ġfitting":9282,"urre":9283,"Ġpencil":9284,"Ġallan":9285,"Ġka":9286,"Ġghosts":9287,"],":9288,"Ġprudent":9289,"Ġms":9290,"Ġlingered":9291,"Ġbehaviour":9292,"Ġrussia":9293,"Ġceremon":9294,"Ġcommerce":9295,"aired":9296,"Ġrans":9297,"Ġpeculiarly":9298,"Ġencouragement":9299,"acre":9300,"Ġvenerable":9301,"Ġtraces":9302,"Ġproducing":9303,"icated":9304,"Ġsandy":9305,"gno":9306,"erick":9307,"Ġsweetness":9308,"Ġgalley":9309,"Ġhunters":9310,"Ġaccus":9311,"anging":9312,"ographi":9313,"ariably":9314,"fellow":9315,"Ġmeadows":9316,"Ġdwar":9317,"Ġmargin":9318,"Ġcourte":9319,"atha":9320,"Ġscare":9321,"Ġedgar":9322,"Ġfrancisco":9323,"Ġwick":9324,"ulously":9325,"Ġattained":9326,"Ġranch":9327,"icians":9328,"Ġexcurs":9329,"Ġcousins":9330,"Ġ38":9331,"Ġtrifling":9332,"cular":9333,"Ġtut":9334,"Ġspecimen":9335,"inkled":9336,"Ġringing":9337,"Ġtotally":9338,"Ġeverlast":9339,"Ġfunction":9340,"Ġmetap":9341,"although":9342,"Ġpartial":9343,"Ġmedium":9344,"Ġgrip":9345,"Ġmaud":9346,"Ġdora":9347,"Ġjacket":9348,"trees":9349,"Ġdipl":9350,"Ġcaptive":9351,"Ġrue":9352,"Ġscared":9353,"Ġmorality":9354,"Ġpunish":9355,"Ġ190":9356,"Ġmixture":9357,"Ġformation":9358,"Ġmusket":9359,"Ġdecidedly":9360,"Ġcomprom":9361,"Ġrupert":9362,"Ġvit":9363,"Ġvalleys":9364,"Ġbulk":9365,"Ġswallowed":9366,"Ġfantastic":9367,"cap":9368,"Ġpolished":9369,"Ġabundance":9370,"Ġtavern":9371,"Ġfurnish":9372,"Ġexchanged":9373,"Ġpleaded":9374,"hia":9375,"Ġfors":9376,"cian":9377,"Ġneighbors":9378,"Ġlocks":9379,"Ġshapes":9380,"Ġtorture":9381,"Ġbast":9382,"Ġdespite":9383,"hour":9384,"unless":9385,"Ġmoses":9386,"Ġesmond":9387,"Ġinvariably":9388,"Ġenqu":9389,"dri":9390,"Ġgodd":9391,"Ġflowing":9392,"Ġhunted":9393,"Ġsprung":9394,"Ġmirth":9395,"Ġhats":9396,"Ġexplos":9397,"Ġsuperiority":9398,"Ġfeminine":9399,"cock":9400,"Ġartistic":9401,"Ġtorment":9402,"Ġfu":9403,"Ġenlight":9404,"Ġsituated":9405,"Ġvile":9406,"Ġrous":9407,"Ġdarwin":9408,"Ġbacon":9409,"Ġlag":9410,"Ġmouths":9411,"dinand":9412,"Ġmuscles":9413,"Ġascended":9414,"Ġfatigue":9415,"Ġpomp":9416,"Ġxii":9417,"Ġtemperament":9418,"Ġesteem":9419,"inter":9420,"Ġjoint":9421,"notes":9422,"much":9423,"Ġcoral":9424,"Ġdoings":9425,"Ġliquor":9426,"next":9427,"gery":9428,"yers":9429,"Ġoft":9430,"mered":9431,"lton":9432,"Ġinclination":9433,"Ġtenderly":9434,"lley":9435,"Ġpiano":9436,"enter":9437,"isa":9438,"Ġsworn":9439,"Ġmaggie":9440,"Ġponder":9441,"Ġcaliforn":9442,"hu":9443,"Ġanna":9444,"Ġquoted":9445,"_.--":9446,"Ġmix":9447,"Ġegg":9448,"Ġtam":9449,"Ġstudents":9450,"Ġambassad":9451,"Ġseventeen":9452,"Ġdiamonds":9453,"being":9454,"Ġnavy":9455,"Ġprejudice":9456,"Ġhanged":9457,"Ġpett":9458,"Ġadvertise":9459,"agues":9460,"Ġdragon":9461,"Ġessay":9462,"Ġbreach":9463,"riff":9464,"Ġhears":9465,"utable":9466,"Ġdealing":9467,"Ġanguish":9468,"Ġluke":9469,"Ġpump":9470,"Ġcoin":9471,"Ġdefin":9472,"sex":9473,"Ġcecil":9474,"Ġsingularly":9475,"too":9476,"Ġawaken":9477,"fted":9478,"Ġchorus":9479,"Ġclad":9480,"Ġrefresh":9481,"ursday":9482,"Ġpushing":9483,"Ġmerri":9484,"Ġgothic":9485,"Ġsolution":9486,"Ġglare":9487,"Ġatlantic":9488,"Ġrows":9489,"Ġsports":9490,"Ġbreathless":9491,"Ġliable":9492,"Ġdeclaration":9493,"Ġyawn":9494,"Ġstake":9495,"Ġcarelessly":9496,"Ġclaimed":9497,"arn":9498,"Ġbetwixt":9499,"hine":9500,"Ġburg":9501,"Ġmarvellous":9502,"Ġginger":9503,"Ġcanada":9504,"Ġpersisted":9505,"Ġtribut":9506,"Ġ39":9507,"Ġpert":9508,"Ġdisd":9509,"Ġprotected":9510,"neath":9511,"Ġ178":9512,"jections":9513,"Ġcardinal":9514,"stru":9515,"Ġtoday":9516,"Ġhazard":9517,"Ġtiger":9518,"Ġexpressing":9519,"Ġfragment":9520,"Ġgroaned":9521,"acing":9522,"Ġpotat":9523,"Ġhonesty":9524,"Ġhammer":9525,"forms":9526,"Ġcharlotte":9527,"Ġdignified":9528,"Ġdrown":9529,"Ġdusty":9530,"Ġlazy":9531,"21":9532,"Ġwitnessed":9533,"Ġextremity":9534,"Ġtrun":9535,"Ġdiplom":9536,"pow":9537,"Ġgilbert":9538,"speak":9539,"mere":9540,"Ġsult":9541,"Ġtongues":9542,"Ġbarely":9543,"Ġpond":9544,"Ġbigger":9545,"Ġincredible":9546,"Ġspots":9547,"Ġroute":9548,"ders":9549,"Ġfoes":9550,"Ġbliss":9551,"Ġdevils":9552,"Ġcrystal":9553,"Ġlace":9554,"Ġdod":9555,"Ġdisorder":9556,"Ġuses":9557,"Ġscholar":9558,"Ġboughs":9559,"Ġmoore":9560,"Ġcrus":9561,"Ġdiscretion":9562,"Ġterritory":9563,"Ġposter":9564,"Ġlaure":9565,"Ġassent":9566,"Ġshops":9567,"Ġwritings":9568,"presently":9569,"Â§":9570,"Ġfeud":9571,"Ġresentment":9572,"Ġaz":9573,"Ġfoster":9574,"Ġspecimens":9575,"Ġsculpt":9576,"Ġreass":9577,"Ġplague":9578,"qual":9579,"Ġbrace":9580,"Ġguided":9581,"Ġsquee":9582,"Ġghastly":9583,"Ġmerc":9584,"Ġdepended":9585,"Ġbattles":9586,"clo":9587,"Ġaccent":9588,"Ġexperiences":9589,"Ġannoy":9590,"ioned":9591,"adel":9592,"Ġgloves":9593,"Ġshadowy":9594,"Ġvind":9595,"Ġguid":9596,"Ġstartling":9597,"Ġessentially":9598,"Ġappearing":9599,"Ġemerged":9600,"Ġgreeting":9601,"Ġwhirl":9602,"Ġlawrence":9603,"Ġlatest":9604,"Ġdistrust":9605,"Ġstove":9606,"Ġunconsciously":9607,"Ġasserted":9608,"Ġgigantic":9609,"Ġmask":9610,"tingu":9611,"chance":9612,"Ġswallow":9613,"Ġcorpse":9614,"fin":9615,"leigh":9616,"Ġincess":9617,"Ġinvented":9618,"Ġillustrated":9619,"Ġowners":9620,"Ġhesitate":9621,"Ġspectacles":9622,"onse":9623,"cloth":9624,"point":9625,"ox":9626,"Ġoffers":9627,"Ġbefall":9628,"Ġhail":9629,"Ġford":9630,"Ġintensity":9631,"Ġhurrying":9632,"Ġellen":9633,"Ġarnold":9634,"Ġcomfortably":9635,"._)":9636,"Ġrejected":9637,"Ġchains":9638,"Ġpend":9639,"Ġdimly":9640,"Ġrubbed":9641,"Ġbasis":9642,"inton":9643,"Ġglobe":9644,"Ġcommunicated":9645,"mel":9646,"Ġowed":9647,"Ġdiscern":9648,"Ġcreeping":9649,"Ġcarved":9650,"enched":9651,"Ġculture":9652,"black":9653,"Ġsheets":9654,"ivable":9655,"Ġtwist":9656,"Ġyoungest":9657,"Ġmorton":9658,"Ġattendant":9659,"Ġevolution":9660,"Ġgrowled":9661,"Ġexamining":9662,"Ġbernard":9663,"page":9664,"Ġgames":9665,"Ġplead":9666,"Ġscept":9667,"Ġinit":9668,"Ġleve":9669,"Ġholland":9670,"asty":9671,"Ġhounds":9672,"Ġfaithfully":9673,"Ġhermit":9674,"many":9675,"chet":9676,"Ġexecuted":9677,"gal":9678,"aug":9679,"Ġoppress":9680,"Ġbelieves":9681,"Ġagreement":9682,"Ġreleased":9683,"Ġgreeks":9684,"Ġinstruction":9685,"hol":9686,"Ġforgetting":9687,"pool":9688,"agers":9689,"Ġhostile":9690,"Ġedmund":9691,"Ġestates":9692,"Ġperception":9693,"Ġsincerity":9694,"Ġdart":9695,"Ġrobe":9696,"35":9697,"lson":9698,"Ġconstable":9699,"Ġbreadth":9700,"Ġsuspended":9701,"blest":9702,"Ġincidents":9703,"Ġfen":9704,"Ġcolonies":9705,"Ġexpenses":9706,"Ġwholesome":9707,"Ġsquir":9708,"sil":9709,"Ġyell":9710,"Ġresources":9711,"Ġcows":9712,"Ġbomb":9713,"45":9714,"Ġallies":9715,"Ġfalsehood":9716,"Ġshrugged":9717,"Ġrider":9718,"Ġbattery":9719,"should":9720,"Ġpaths":9721,"Ġswinging":9722,"Ġentertainment":9723,"Ġstooped":9724,"Ġreb":9725,"Ġdies":9726,"Ġfashionable":9727,"Ġimpud":9728,"Ġantagon":9729,"wich":9730,"Ġfragr":9731,"Ġnell":9732,"getic":9733,"Ġpathetic":9734,"walk":9735,"Ġinstruments":9736,"broken":9737,"Ġmute":9738,"Ġadvers":9739,"Ġremarkably":9740,"Ġmonument":9741,"Ġdug":9742,"Ġcreed":9743,"Ġascend":9744,"hun":9745,"Ġsands":9746,"Ġprim":9747,"Ġxiv":9748,"Ġarchie":9749,"Ġisaac":9750,"!)":9751,"Ġtab":9752,"Ġorchard":9753,"Ġhymn":9754,"Ġcombination":9755,"Ġmiriam":9756,"Ġsung":9757,"Ġdecline":9758,"Ġdwarf":9759,"Ġsympt":9760,"Ġgordon":9761,"Ġrosy":9762,"Ġdefiance":9763,"rooms":9764,"Ġcrimes":9765,"Ġbees":9766,"Ġwhoever":9767,"Ġdoctors":9768,"Ġexhaust":9769,"Ġforbidden":9770,"Ġsag":9771,"udge":9772,"Ġpeop":9773,"unci":9774,"Ġreflections":9775,"Ġfrederick":9776,"ias":9777,"Ġthreatening":9778,"dog":9779,"lorn":9780,"ody":9781,"Ġwonders":9782,"ĠĠĠĠĠĠĠĠĠĠĠĠĠĠĠĠĠĠĠĠĠĠĠĠĠĠĠĠĠĠĠ":9783,"Ãª":9784,"Ġprow":9785,"Ġserpent":9786,"Ġcontinual":9787,"Ġconquest":9788,"Ġunkind":9789,"kee":9790,"Ġalb":9791,"Ġbland":9792,"Ġconstruction":9793,"Ġbaxter":9794,"Ġpupil":9795,"Ġregiments":9796,"grown":9797,"Ġagitated":9798,"Ġassuredly":9799,"Ġyacht":9800,"Ġens":9801,"Ġsphere":9802,"cro":9803,"ties":9804,"Ġhare":9805,"Ġswed":9806,"Ġattempting":9807,"Ġinheritance":9808,"Ġharmon":9809,"Ġclimbing":9810,"Ġperplexed":9811,"Ġgoddess":9812,"Ġexciting":9813,"Ġinterposed":9814,"Ġmouse":9815,"Ġhera":9816,"Ġgrind":9817,"Ġscreamed":9818,"Ġcommit":9819,"Ġillustrations":9820,"alogue":9821,"Ġtruths":9822,"Ġepit":9823,"Ġthrill":9824,"Ġcautious":9825,"Ġwolves":9826,"Ġscound":9827,"Ġposts":9828,"Ġreprodu":9829,"Ġstamped":9830,"Ġhypothesis":9831,"Ġclat":9832,"Ġdrifted":9833,"Ġepo":9834,"Ġoppon":9835,"Ġloyalty":9836,"Ġmare":9837,"usively":9838,"Ġdeepest":9839,"please":9840,"Ġsnuff":9841,"Ġseparation":9842,"Ġscots":9843,"Ġmisunder":9844,"Ġwreat":9845,"Ġmerci":9846,"Ġfres":9847,"Ġoffspring":9848,"uk":9849,"Ġcalam":9850,"Ġintimacy":9851,"Ġrecess":9852,"Ġabuse":9853,"Ġduly":9854,"Ġmuseum":9855,"Ġconsulted":9856,"Ġpirates":9857,"Ġbreaks":9858,"Ġquoth":9859,"Ġprior":9860,"Ġfrog":9861,"Ġautom":9862,"Ġsuperstition":9863,"Ġsweeping":9864,"Ġclinging":9865,"Ġleague":9866,"skin":9867,"Ġinvolunt":9868,"Ġumbre":9869,"Ġgeor":9870,"Ġboers":9871,"Ġsubord":9872,"Ġdefic":9873,"Ġsimon":9874,"Ġspar":9875,"Ġmonkey":9876,"Ġvisiting":9877,"Ġsoftened":9878,"Ġafrican":9879,"Ġpunct":9880,"Ġleaping":9881,"oks":9882,"Ġrect":9883,"Ġfoliage":9884,"dro":9885,"ilton":9886,"Ġbutterf":9887,"Ġportions":9888,"Ġjail":9889,"imer":9890,"Ġcents":9891,"Ġoldest":9892,"Ġdish":9893,"Ġelevation":9894,"Ġlouder":9895,"Ġecst":9896,"ira":9897,"Ġsuccessive":9898,"36":9899,"both":9900,"Ġharmless":9901,"leg":9902,"Ġconsiderations":9903,"mot":9904,"Ġwool":9905,"Ġartists":9906,"utter":9907,"Ġshat":9908,"Ġbord":9909,"Ġliking":9910,"Ġchalk":9911,"bishop":9912,"Ġintolerable":9913,"Ġfailing":9914,"Ġembro":9915,"Ġpirate":9916,"Ġbounds":9917,"Ġtip":9918,"Ġtraced":9919,"Ġswing":9920,"Ġgermans":9921,"Ġsinner":9922,"Ġapartments":9923,"writing":9924,"Ġcasting":9925,"Ġroughly":9926,"uesday":9927,"tic":9928,"Ġ0":9929,"phia":9930,"eridge":9931,"Ġattendants":9932,"Ġtricks":9933,"Ġtrumpet":9934,"onies":9935,"Ġspray":9936,"Ġsuperinte":9937,"Ġinfli":9938,"Ġtranslation":9939,"Ġstrang":9940,"Ġceiling":9941,"Ġfulfil":9942,"Ġapology":9943,"Ġpouring":9944,"Ġsurvey":9945,"Ġpunished":9946,"Ġallowance":9947,"Ġingenious":9948,"Ġthyself":9949,"Ġballs":9950,"Ġpeasants":9951,"Ġprosec":9952,"ama":9953,"hil":9954,"Ġterrified":9955,"Ġsustained":9956,"psed":9957,"Ġpaces":9958,"Ġket":9959,"mpton":9960,"Ġalert":9961,"idelity":9962,"Ġcars":9963,"Ġejac":9964,"rain":9965,"Ġcaesar":9966,"Ġpurchased":9967,"respect":9968,"Ġpeer":9969,"Ġgild":9970,"Ġinstincts":9971,"Ġshelley":9972,"Ġseamen":9973,"Ġidentity":9974,"riot":9975,"Ġquad":9976,"Ġfiner":9977,"Ġmurray":9978,"Ġtastes":9979,"Ġcarpent":9980,"Ġnegroes":9981,"Ġepoch":9982,"udden":9983,"Ġdetermine":9984,"Ġborrowed":9985,"Ġviz":9986,"Ġferdinand":9987,"Ġdollar":9988,"ernest":9989,"Ġmartha":9990,"sses":9991,"Ġthirteen":9992,"Ġhandful":9993,"Ġtalks":9994,"bag":9995,"Ġheel":9996,"Ġmysteries":9997,"Ġmayor":9998,"Ġrevelation":9999}