{"<s>":0,"</s>":1,"<pad>":2,"<unk>":3,"<eos>":4,"<mask>":5,"!":6,"\"":7,"#":8,"$":9,"%":10,"&":11,"'":12,"(":13,")":14,"*":15,"+":16,",":17,"-":18,".":19,"/":20,"0":21,"1":22,"2":23,"3":24,"4":25,"5":26,"6":27,"7":28,"8":29,"9":30,":":31,";":32,"<":33,"=":34,">":35,"?":36,"@":37,"A":38,"B":39,"C":40,"D":41,"E":42,"F":43,"G":44,"H":45,"I":46,"J":47,"K":48,"L":49,"M":50,"N":51,"O":52,"P":53,"Q":54,"R":55,"S":56,"T":57,"U":58,"V":59,"W":60,"X":61,"Y":62,"Z":63,"[":64,"\\":65,"]":66,"^":67,"_":68,"`":69,"a":70,"b":71,"c":72,"d":73,"e":74,"f":75,"g":76,"h":77,"i":78,"j":79,"k":80,"l":81,"m":82,"n":83,"o":84,"p":85,"q":86,"r":87,"s":88,"t":89,"u":90,"v":91,"w":92,"x":93,"y":94,"z":95,"{":96,"|":97,"}":98,"~":99,"¡":100,"¢":101,"£":102,"¤":103,"¥":104,"¦":105,"§":106,"¨":107,"©":108,"ª":109,"«":110,"¬":111,"®":112,"¯":113,"°":114,"±":115,"²":116,"³":117,"´":118,"µ":119,"¶":120,"·":121,"¸":122,"¹":123,"º":124,"»":125,"¼":126,"½":127,"¾":128,"¿":129,"À":130,"Á":131,"Â":132,"Ã":133,"Ä":134,"Å":135,"Æ":136,"Ç":137,"È":138,"É":139,"Ê":140,"Ë":141,"Ì":142,"Í":143,"Î":144,"Ï":145,"Ð":146,"Ñ":147,"Ò":148,"Ó":149,"Ô":150,"Õ":151,"Ö":152,"×":153,"Ø":154,"Ù":155,"Ú":156,"Û":157,"Ü":158,"Ý":159,"Þ":160,"ß":161,"à":162,"á":163,"â":164,"ã":165,"ä":166,"å":167,"æ":168,"ç":169,"è":170,"é":171,"ê":172,"ë":173,"ì":174,"í":175,"î":176,"ï":177,"ð":178,"ñ":179,"ò":180,"ó":181,"ô":182,"õ":183,"ö":184,"÷":185,"ø":186,"ù":187,"ú":188,"û":189,"ü":190,"ý":191,"þ":192,"ÿ":193,"Ā":194,"ā":195,"Ă":196,"ă":197,"Ą":198,"ą":199,"Ć":200,"ć":201,"Ĉ":202,"ĉ":203,"Ċ":204,"ċ":205,"Č":206,"č":207,"Ď":208,"ď":209,"Đ":210,"đ":211,"Ē":212,"ē":213,"Ĕ":214,"ĕ":215,"Ė":216,"ė":217,"Ę":218,"ę":219,"Ě":220,"ě":221,"Ĝ":222,"ĝ":223,"Ğ":224,"ğ":225,"Ġ":226,"ġ":227,"Ģ":228,"ģ":229,"Ĥ":230,"ĥ":231,"Ħ":232,"ħ":233,"Ĩ":234,"ĩ":235,"Ī":236,"ī":237,"Ĭ":238,"ĭ":239,"Į":240,"į":241,"İ":242,"ı":243,"Ĳ":244,"ĳ":245,"Ĵ":246,"ĵ":247,"Ķ":248,"ķ":249,"ĸ":250,"Ĺ":251,"ĺ":252,"Ļ":253,"ļ":254,"Ľ":255,"ľ":256,"Ŀ":257,"ŀ":258,"Ł":259,"ł":260,"Ń":261,"Ġt":262,"he":263,"čĊ":264,"Ġa":265,"in":266,"Ġthe":267,"Ġs":268,"Ġw":269,"Ġo":270,"re":271,"nd":272,"ha":273,"er":274,"Ġb":275,"ou":276,"Ġm":277,"it":278,"is":279,"ed":280,"Ġf":281,"Ġc":282,"en":283,"on":284,"Ġof":285,"Ġand":286,"Ġto":287,"ing":288,"or":289,"es":290,"Ġd":291,"Ġp":292,"ĠĠ":293,"ll":294,"Ġh":295,"ar":296,"Ġl":297,"Ġin":298,"Ġhe":299,"an":300,"as":301,"at":302,"Ġn":303,"Ġha":304,"Ġi":305,"om":306,"Ġg":307,"hat":308,"Ġbe":309,"le":310,"ot":311,"ic":312,"ow":313,"ut":314,"st":315,"ve":316,"Ġe":317,"se":318,"Ġy":319,"ld":320,"ly":321,"Ġth":322,"Ġthat":323,"Ġit":324,"id":325,"gh":326,"Ġwas":327,"ent":328,"im":329,"ce":330,"ion":331,"Ġon":332,"Ġyou":333,"al":334,"the":335,"Ġre":336,"ver":337,"ay":338,"ith":339,"Ġu":340,"ir":341,"Ġwh":342,"Ġas":343,"ĠĠĠĠ":344,"Ġhis":345,"et":346,"Ġfor":347,"ur":348,"Ġwe":349,"Ġwith":350,"ad":351,"Ġr":352,"Ġst":353,"ght":354,"ac":355,"Ġis":356,"Ġan":357,"Ġnot":358,"Ġhad":359,"oo":360,"ould":361,"and":362,"ter":363,"am":364,"Ġat":365,"Ġher":366,"--":367,"ke":368,"ill":369,"ain":370,"ri":371,"ro":372,"ch":373,"Ġse":374,"'s":375,"Ġbut":376,"ct":377,"Ġme":378,"th":379,"Ġhim":380,"Ġsa":381,"ess":382,"red":383,"Ġsu":384,"Ġshe":385,"il":386,"ore":387,"Ġ\"":388,"Ġso":389,"ge":390,"ight":391,"pe":392,"Ġhave":393,"ich":394,"all":395,"her":396,"Ġk":397,"Ġde":398,"Ġfr":399,"ome":400,"Ġby":401,".\"":402,"qu":403,"Ġmy":404,"ul":405,"Ġall":406,"if":407,"Ġwhich":408,"Ġthey":409,"to":410,"Ġne":411,"Ġthis":412,"Ġor":413,"Ġwhe":414,"us":415,"Ġup":416,"Ġsh":417,"Ġv":418,"est":419,"ab":420,",\"":421,"Ġcon":422,"Ġdo":423,"Ġfrom":424,"res":425,"our":426,"Ġj":427,"ant":428,"Ġsaid":429,"pp":430,"ation":431,"ous":432,"ust":433,"un":434,"ard":435,"em":436,"Ġwere":437,"Ġman":438,"ind":439,"Ġno":440,"Ġex":441,"ers":442,"lf":443,"Ġwho":444,"very":445,"ĠĠĠĠĠĠĠĠ":446,"Ġthere":447,"Ġal":448,"ie":449,"ra":450,"Ġone":451,"os":452,"art":453,"out":454,"ong":455,"we":456,"ist":457,"ast":458,"Ġare":459,"Ġfe":460,"one":461,"ood":462,"han":463,"ther":464,"um":465,"ol":466,"Ġli":467,"Ġwould":468,"Ġthem":469,"Ġkn":470,"ate":471,"ame":472,"ound":473,"Ġgo":474,"Ġab":475,"ough":476,"Ġtheir":477,"Ġle":478,"'t":479,"Ġbeen":480,"pt":481,"ak":482,"Ġif":483,"Ġcom":484,"ig":485,"Ġwor":486,"own":487,"nt":488,"Ġwill":489,"Ġout":490,"ook":491,"Ġwhen":492,"itt":493,"ry":494,"ive":495,"ven":496,"ort":497,"Ġwhat":498,"self":499,"ost":500,"ag":501,"reat":502,"ck":503,"ose":504,"fe":505,"ity":506,"ure":507,"de":508,"ack":509,"Ġar":510,"Ġam":511,"Ġpro":512,"Ġpl":513,"Ġqu":514,"ace":515,"Ġcan":516,"te":517,"ake":518,"Ġun":519,"hed":520,"Ġyour":521,"Ġsp":522,"Ġtr":523,"Ġen":524,"Ġmore":525,"be":526,"Ġaf":527,"are":528,"au":529,"Ġany":530,"of":531,"Ġag":532,"Ġsome":533,"Ġbr":534,"Ġmr":535,"ies":536,"?\"":537,"ond":538,"op":539,"Ġcould":540,"ish":541,"ass":542,"able":543,"per":544,"Ġpr":545,"ine":546,"Ġch":547,"ime":548,"ide":549,"way":550,"ink":551,"pl":552,"Ġcl":553,"ved":554,"Ġinto":555,"ence":556,"Ġthen":557,"Ġvery":558,"el":559,"Ġnow":560,"ite":561,"ance":562,"hing":563,"Ġsha":564,"other":565,"Ġother":566,"Ġro":567,"Ġthan":568,"fore":569,"ittle":570,"Ġus":571,"urn":572,"Ġknow":573,"ice":574,"ought":575,"ment":576,"wn":577,"Ġ'":578,"Ġhas":579,"Ġlike":580,"ci":581,"Ġdid":582,"ade":583,"ally":584,"ep":585,"Ġtw":586,"age":587,"Ġgr":588,"Ġbo":589,"cc":590,"ble":591,"Ġbl":592,"Ġsee":593,"nder":594,"ings":595,"for":596,"Ġlittle":597,"Ġad":598,"Ġlook":599,"ĠĠĠ":600,"Ġour":601,"Ġtime":602,"ove":603,"Ġim":604,"Ġsay":605,"uch":606,"Ġabout":607,"Ġupon":608,"ap":609,"Ġshould":610,"ount":611,"that":612,"ick":613,"ire":614,"ne":615,"Ġte":616,"Ġpo":617,"ress":618,"Ġgreat":619,"Ġ_":620,"ree":621,"Ġtoo":622,"Ġdis":623,"ather":624,"Ġagain":625,"ert":626,"ile":627,"Ġhow":628,"wh":629,"Ġover":630,"ves":631,"ving":632,"ars":633,"Ġper":634,"ious":635,"Ġonly":636,"cl":637,"Ġhand":638,"bl":639,"act":640,"Ġcha":641,"ord":642,"Ġafter":643,"ife":644,"Ġdown":645,"Ġfl":646,"Ġday":647,"ary":648,"ions":649,"ue":650,"you":651,"ked":652,"ud":653,"Ġgood":654,"âĢ":655,"but":656,"ull":657,"ness":658,"ful":659,"Ġsc":660,"Ġthink":661,"Ġmay":662,"Ġmuch":663,"not":664,"Ġpe":665,"Ġits":666,"ward":667,"!\"":668,"ady":669,"Ġmust":670,"ps":671,"Ġtwo":672,"man":673,"Ġsuch":674,"Ġpart":675,"ied":676,"Ġbefore":677,"od":678,"ated":679,"Ġmade":680,"ild":681,"Ġoff":682,"Ġold":683,"irst":684,"Ġstr":685,"Ġthr":686,"ren":687,"ise":688,"Ġpre":689,"oll":690,"Ġthese":691,"Ġown":692,"Ġlong":693,"Ġwell":694,"ty":695,"Ġ1":696,"Ġway":697,"Ġsm":698,"Ġrem":699,"so":700,"Ġmar":701,"yes":702,"Ġbet":703,"Ġnever":704,"Ġcome":705,"Ġunder":706,"Ġhere":707,"Ġmen":708,"Ġspe":709,"ans":710,"Ġwhere":711,"Ġye":712,"rie":713,"orn":714,"Ġeven":715,"ber":716,"ĠĠĠĠĠĠĠĠĠĠĠĠĠĠĠĠ":717,"Ġgl":718,"iss":719,"ach":720,"ft":721,"Ġmight":722,"ect":723,"Ġfirst":724,"li":725,"Ġlet":726,"con":727,"Ġcame":728,"int":729,"Ġback":730,"gl":731,"anc":732,"old":733,"ave":734,"Ġevery":735,"ng":736,"Ġ(":737,"oss":738,"Ġdes":739,"Ġseem":740,"ried":741,"Ġbec":742,"ff":743,"Ġthought":744,"Ġfa":745,"ily":746,"ang":747,"Ġcont":748,"Ġhimself":749,"Ġhar":750,"ath":751,"ouse":752,"Ġres":753,"with":754,"less":755,"led":756,"sh":757,"no":758,"ple":759,"whe":760,"Ġjust":761,"Ġthose":762,"Ġcr":763,"me":764,"Ġget":765,"ark":766,"Ġke":767,"Ġshall":768,"ign":769,"Ġmost":770,"Ġbel":771,"Ġmake":772,"Ġlife":773,"ory":774,"pect":775,"ip":776,"Ġpass":777,"Ġdon":778,"omet":779,"ause":780,"Ġca":781,"Ġlast":782,"Ġwr":783,"iv":784,"fect":785,"riend":786,"Ġthrough":787,"Ġcons":788,".'":789,"Ġsl":790,"Ġpres":791,"Ġaway":792,"ater":793,"Ġbeing":794,"Ġstill":795,"Ġnew":796,"hes":797,"ition":798,"Ġbeg":799,"Ġwent":800,"Ġimp":801,"Ġap":802,"Ġcour":803,"oth":804,"ever":805,"Ġfar":806,"Ġjo":807,"atter":808,"Ġyet":809,"Ġturn":810,"ens":811,"Ġyoung":812,"ened":813,"Ġcall":814,"what":815,"Ġword":816,"ared":817,"Ġacc":818,"ted":819,"Ġcomm":820,"igh":821,"Ġob":822,"Ġhead":823,"Ġcar":824,"ase":825,"ock":826,"ian":827,"ons":828,"ible":829,"Ġmany":830,"my":831,"Ġtake":832,"Ġla":833,"was":834,"Ġret":835,"Ġop":836,"she":837,"ors":838,"Ġwithout":839,"ertain":840,"Ġtell":841,"Ġthough":842,"ople":843,"Ġwhile":844,"Ġfriend":845,"alk":846,"ener":847,"Ġchar":848,"ult":849,"com":850,"Ġeyes":851,"Ġear":852,"Ġcomp":853,"Ġwork":854,"Ġfound":855,"iz":856,"og":857,",'":858,"Ġwant":859,"thing":860,"aking":861,"Ġhouse":862,"Ġnat":863,"ret":864,"Ġsomet":865,"Ġever":866,"ru":867,"Ġright":868,"Ġend":869,"Ġser":870,"Ġwom":871,"med":872,"Ġatt":873,"ince":874,"Ġonce":875,"av":876,"Ġnothing":877,"ations":878,"'ll":879,"Ġent":880,"there":881,"Ġcount":882,"Ġput":883,"his":884,"Ġem":885,"ject":886,"pr":887,"Ġsir":888,"ex":889,"ting":890,"oment":891,"Ġapp":892,"Ġface":893,"ical":894,"well":895,"Ġmind":896,"Ġsame":897,"up":898,"sel":899,"Ġsupp":900,"by":901,"Ġplace":902,"ged":903,"ict":904,"owed":905,"Ġnor":906,"ently":907,"Ġind":908,"ced":909,"now":910,"ways":911,"su":912,"Ġpeople":913,"ner":914,"Ġdist":915,"most":916,"ower":917,"Ġmrs":918,"ished":919,"ank":920,"ia":921,"les":922,"..":923,"ope":924,"ction":925,"Ġac":926,"Ġfather":927,"Ġans":928,"Ġnight":929,"Ġkne":930,"ros":931,"Ġset":932,"den":933,"cha":934,"Ġanother":935,"ither":936,"Ġmoment":937,"Ġgot":938,"ms":939,"Ġsaw":940,"Ġpa":941,"Ġthings":942,"Ġheart":943,"ows":944,"Ġleft":945,"rest":946,"Ġfind":947,"ix":948,"lt":949,"Ġrep":950,"Ġple":951,"Ġworld":952,",--":953,"Ġgod":954,"they":955,"Ġinst":956,"ained":957,"br":958,"Ġlove":959,"Ġchan":960,"Ġsec":961,"Ġgu":962,"Ġinte":963,"ered":964,"Ġthing":965,"Ġfeel":966,"Ġlooked":967,"uth":968,"Ġlight":969,"Ġdif":970,"oy":971,"Ġpers":972,"Ġwar":973,"Ġgi":974,"ail":975,"ool":976,"Ġappe":977,"'d":978,"irl":979,"Ġthree":980,"cept":981,"Ġco":982,"Ġlady":983,"imes":984,"Ġsub":985,"vent":986,"Ġgive":987,"rew":988,"ual":989,"its":990,"Ġchild":991,"Ġbelie":992,"ined":993,"Ġsat":994,"Ġseemed":995,"Ġmiss":996,"Ġalways":997,"Ġfoll":998,"âĢĻ":999,"cess":1000,"ween":1001,"Ġdone":1002,"Ġtook":1003,"iness":1004,"Ġfell":1005,"ning":1006,"aught":1007,"ched":1008,"und":1009,"Ġengl":1010,"ross":1011,"Ġasked":1012,"this":1013,"Ġhapp":1014,"Ġgoing":1015,"ised":1016,"fr":1017,"ten":1018,"Ġbetter":1019,"Ġkind":1020,"Ġgener":1021,"Ġfew":1022,"land":1023,"Ġsur":1024,"Ġma":1025,"ial":1026,"Ġmo":1027,"Ġwa":1028,"Ġagainst":1029,"Ġsw":1030,"pped":1031,"air":1032,"Ġhard":1033,"vers":1034,"Ġreg":1035,"ph":1036,"Ġrel":1037,"Ġquite":1038,"Ġheard":1039,"Ġknew":1040,"Ġside":1041,"Ġreturn":1042,"Ġcertain":1043,"Ġboy":1044,"Ġtold":1045,"ular":1046,"had":1047,"Ġread":1048,"Ġlo":1049,"Ġdr":1050,"Ġposs":1051,"der":1052,"Ġlord":1053,"ters":1054,"haps":1055,"uck":1056,"Ġexp":1057,"gether":1058,"Ġdou":1059,"Ġsomething":1060,"oot":1061,"Ġhands":1062,"Ġhalf":1063,"men":1064,"Ġcol":1065,"ired":1066,"ited":1067,"ins":1068,"which":1069,"Ġcle":1070,"Ġbre":1071,"Ġwind":1072,"Ġyears":1073,"xt":1074,"Ġcourse":1075,"Ġrest":1076,"Ġsoon":1077,"ib":1078,"Ġenough":1079,"Ġmon":1080,"Ġste":1081,"Ġsil":1082,"Ġroom":1083,"ully":1084,"Ġseen":1085,"Ġamong":1086,"Ġmin":1087,"Ġeach":1088,"aken":1089,"mer":1090,"ier":1091,"ĠčĊ":1092,"bt":1093,"Ġround":1094,"ug":1095,"Ġrec":1096,"Ġbetween":1097,"osed":1098,"right":1099,"Ġinde":1100,"wards":1101,"Ġbecause":1102,"Ġnear":1103,"Ġgirl":1104,"selves":1105,"Ġmatter":1106,"'m":1107,"fl":1108,"Ġhome":1109,"gr":1110,"Ġact":1111,"Ġche":1112,"ks":1113,"Ġalso":1114,"Ġking":1115,"Ġmother":1116,"Ġocc":1117,"iet":1118,"Ġwoman":1119,"oice":1120,"ces":1121,"aut":1122,"du":1123,"Ġel":1124,"Ġ2":1125,"Ġhum":1126,"Ġhour":1127,"Ġwhole":1128,"Ġdoor":1129,"ason":1130,"Ġpur":1131,"rave":1132,"sp":1133,"Ġboth":1134,"af":1135,"Ġcur":1136,"ures":1137,"let":1138,"Ġname":1139,"Ġsou":1140,"any":1141,"ange":1142,"Ġwhom":1143,"Ġhel":1144,"ents":1145,"atch":1146,"aint":1147,"owing":1148,"ser":1149,"Ġsure":1150,"Ġcare":1151,"ye":1152,"Ġmean":1153,"ute":1154,"Ġadd":1155,"Ġpoint":1156,"do":1157,"att":1158,"Ġed":1159,"stand":1160,"orning":1161,"entle":1162,"ern":1163,"Ġkeep":1164,"Ġtre":1165,"Ġpoor":1166,"Ġconf":1167,"Ġbest":1168,"Ġass":1169,"then":1170,"ĠĠĠĠĠ":1171,"Ġdra":1172,"Ġwhy":1173,"Ġhaving":1174,"him":1175,"orr":1176,"Ġinter":1177,"Ġpleas":1178,"Ġalmost":1179,"'ve":1180,"Ġhigh":1181,"Ġdoes":1182,"how":1183,"Ġter":1184,"when":1185,"ating":1186,"Ġdel":1187,"aster":1188,"day":1189,"Ġbro":1190,"ĠĠĠĠĠĠ":1191,"Ġstand":1192,"Ġless":1193,"ering":1194,"oh":1195,"have":1196,"ably":1197,"Ġcapt":1198,"rent":1199,"Ġhowever":1200,"ense":1201,"Ġsmall":1202,"Ġcountry":1203,"nded":1204,"ton":1205,"ene":1206,"Ġbar":1207,"Ġph":1208,"Ġland":1209,"ung":1210,"Ġsince":1211,"Ġwater":1212,"Ġsk":1213,"Ġfact":1214,"Ġpresent":1215,"ream":1216,"ately":1217,"Ġmyself":1218,"Ġfam":1219,"over":1220,"ken":1221,"Ġpar":1222,"ling":1223,"Ġbus":1224,"als":1225,"Ġtill":1226,"fort":1227,"Ġfelt":1228,"Ġev":1229,"ief":1230,"tr":1231,"dy":1232,"Ġturned":1233,"Ġart":1234,"Ġdays":1235,"Ġsent":1236,"mr":1237,"Ġdear":1238,"Ġlar":1239,"Ġwords":1240,"Ġcalled":1241,"Ġdisc":1242,"Ġdark":1243,"pro":1244,"Ġhear":1245,"Ġunt":1246,"Ġrather":1247,"Ġindeed":1248,"oud":1249,"az":1250,"_,":1251,"ates":1252,"Ġperhaps":1253,"where":1254,"Ġopen":1255,"Ġ[":1256,"Ġvis":1257,"Ġmorning":1258,"cy":1259,"oney":1260,"Ġfore":1261,"Ġadv":1262,"amp":1263,"Ġtalk":1264,"king":1265,"wered":1266,"bod":1267,"Ġhope":1268,"Ġgre":1269,"Ġbegan":1270,"Ġquest":1271,"Ġes":1272,"ains":1273,"Ġnext":1274,"Ġwhite":1275,"oke":1276,"ger":1277,"ii":1278,"Ġgave":1279,"Ġstood":1280,"mon":1281,"Ġmet":1282,"fic":1283,"Ġsim":1284,"Ġgentle":1285,"ale":1286,"ubl":1287,"fully":1288,"Ġanything":1289,"Ġhon":1290,"Ġdoubt":1291,"ird":1292,"unt":1293,"Ġvoice":1294,"Ġref":1295,"ls":1296,"aw":1297,"Ġbelieve":1298,"Ġbu":1299,"cei":1300,"ments":1301,"wor":1302,"from":1303,"ott":1304,"Ġwond":1305,"Ġbrought":1306,"Ġsun":1307,"Ġcannot":1308,"used":1309,"Ġfall":1310,"Ġbeaut":1311,"Ġanswered":1312,"Ġlaw":1313,"ield":1314,"Ġuse":1315,"Ġadm":1316,"Ġperson":1317,"oun":1318,"Ġneed":1319,"body":1320,"Ġru":1321,"Ġspir":1322,"Ġbeh":1323,"Ġgone":1324,"Ġfull":1325,"Ġtaken":1326,"Ġpower":1327,"?'":1328,"ants":1329,"ah":1330,"gg":1331,"ressed":1332,"ities":1333,"Ġherself":1334,"Ġspeak":1335,"ider":1336,"ets":1337,"Ġtrue":1338,"Ġ18":1339,"----":1340,"Ġblack":1341,"iting":1342,"dden":1343,"Ġhor":1344,"read":1345,"Ġins":1346,"Ġtri":1347,"Ġuntil":1348,"Ġinterest":1349,"ured":1350,"Ġinc":1351,"ash":1352,"bed":1353,"aces":1354,"cle":1355,"rist":1356,"uring":1357,"itu":1358,"Ġcontin":1359,"._":1360,"Ġlay":1361,"Ġcond":1362,"Ġide":1363,"ances":1364,"ention":1365,"Ġrun":1366,"ceed":1367,"Ġaw":1368,"osition":1369,"wer":1370,"aring":1371,"Ġfour":1372,"Ġhelp":1373,"Ġair":1374,"Ġsudden":1375,"Ġbur":1376,"ane":1377,"ned":1378,"har":1379,"Ġforg":1380,"empt":1381,"eter":1382,"Ġleast":1383,"iled":1384,"ison":1385,"Ġwife":1386,"Ġstrong":1387,"Ġswe":1388,"ready":1389,"Ġtogether":1390,"Ġfire":1391,"ages":1392,"str":1393,"Ġothers":1394,"who":1395,"like":1396,"iver":1397,"iew":1398,"Ġdeath":1399,"Ġlau":1400,"Ġdiffe":1401,"sc":1402,"ister":1403,"Ġwhose":1404,"Ġalong":1405,"race":1406,"Ġsle":1407,"Ġsea":1408,"Ġplay":1409,"Ġthus":1410,"Ġext":1411,"aim":1412,"anger":1413,"Ġhold":1414,"Ġenglish":1415,"Ġremem":1416,"ached":1417,"though":1418,"Ġsort":1419,"Ġmoney":1420,"Ġmer":1421,"ually":1422,"Ġcried":1423,"Ġnature":1424,"Ġcaptain":1425,"Ġpri":1426,"vel":1427,"Ġint":1428,"Ġserv":1429,"Ġbook":1430,"Ġgiven":1431,"rence":1432,"Ġdire":1433,"ying":1434,"ides":1435,"Ġsy":1436,"Ġfin":1437,"ys":1438,"arr":1439,"Ġcase":1440,"gth":1441,"Ġpol":1442,"undred":1443,"plied":1444,"Ġform":1445,"Ġprop":1446,"ont":1447,"Ġgeneral":1448,"Ġmil":1449,"ster":1450,"Ġpassed":1451,"ific":1452,"Ġfeet":1453,"Ġlooking":1454,"hen":1455,"Ġthemselves":1456,"would":1457,"Ġshort":1458,"Ġreal":1459,"Ġfur":1460,"Ġsays":1461,"will":1462,"Ġlarge":1463,"akes":1464,"come":1465,"Ġleave":1466,"part":1467,"Ġreason":1468,"ided":1469,"Ġbehind":1470,"Ġ3":1471,"Ġdec":1472,"ines":1473,"Ġwhether":1474,"ley":1475,"Ġsing":1476,"Ġwish":1477,"Ġra":1478,"Ġdead":1479,"Ġill":1480,"ffect":1481,"Ġalone":1482,"Ġson":1483,"Ġred":1484,"lect":1485,"Ġclose":1486,"Ġopp":1487,"Ġquestion":1488,"Ġcor":1489,"Ġfair":1490,"Ġreally":1491,"Ġabove":1492,"Ġtown":1493,"Ġprom":1494,"Ġbrother":1495,"ches":1496,"Ġstart":1497,"'re":1498,"Ġthou":1499,"bert":1500,"Ġbed":1501,"hn":1502,"ceived":1503,"Ġir":1504,"ught":1505,"Ġ*":1506,"use":1507,"Ġcir":1508,"aced":1509,"here":1510,"Ġsound":1511,"ative":1512,"app":1513,"enty":1514,"val":1515,"Ġstate":1516,"ution":1517,"ards":1518,"were":1519,"illed":1520,"look":1521,"Ġdeep":1522,"Ġpat":1523,"Ġnum":1524,"chan":1525,"Ġunderstand":1526,"Ġbes":1527,"Ġletter":1528,"Ġoften":1529,"Ġpubl":1530,"Ġwood":1531,"Ġtry":1532,"Ġmis":1533,"Ġeas":1534,"Ġjohn":1535,"!'":1536,"Ġchrist":1537,"them":1538,"Ġexpect":1539,"son":1540,"Ġsecond":1541,"ility":1542,"tered":1543,"ham":1544,"Ġhundred":1545,"ued":1546,"Ġsign":1547,"alked":1548,"form":1549,"Ġground":1550,"Ġlad":1551,"Ġfear":1552,"Ġtruth":1553,"their":1554,"Ġabs":1555,"Ġreplied":1556,"ident":1557,"iful":1558,"ient":1559,"Ġsch":1560,"Ġmanner":1561,"side":1562,"ural":1563,"ames":1564,"Ġten":1565,"Ġwithin":1566,"Ġstre":1567,"cr":1568,"ote":1569,"--\"":1570,"Ġalready":1571,"Ġknown":1572,"ek":1573,"Ġcharac":1574,"Ġmad":1575,"Ġprof":1576,"iously":1577,"Ġcoming":1578,"Ġfort":1579,"aughter":1580,"Ġce":1581,"ience":1582,"cri":1583,".]":1584,"par":1585,"Ġmeet":1586,"after":1587,"Ġorder":1588,"Ġfriends":1589,"Ġsuppose":1590,"co":1591,"Ġwild":1592,"cul":1593,"under":1594,"Ġlow":1595,"Ġmount":1596,"Ġtimes":1597,"nor":1598,"Ġspirit":1599,"Ġtowards":1600,"ca":1601,"veral":1602,"Ġx":1603,"Ġdev":1604,"Ġdri":1605,"Ġyear":1606,"Ġexpl":1607,"Ġelse":1608,"go":1609,"00":1610,"some":1611,"Ġsubject":1612,"Ġitself":1613,"Ġsuff":1614,"Ġlear":1615,"Ġhur":1616,"Ġwalk":1617,"Ġlive":1618,"po":1619,"eth":1620,"Ġobser":1621,"Ġcap":1622,"head":1623,"cum":1624,"room":1625,"Ġarm":1626,"Ġge":1627,".--":1628,"Ġwall":1629,"Ġinv":1630,"eric":1631,"Ġbad":1632,"ism":1633,"pter":1634,"Ġjud":1635,"aid":1636,"Ġmeans":1637,"Ġlost":1638,"overed":1639,"Ġdro":1640,"Ġask":1641,"itted":1642,"ship":1643,"),":1644,"Ġwonder":1645,"Ġbusiness":1646,"your":1647,"Ġeffect":1648,"iter":1649,"pre":1650,"Ġthy":1651,"âĢľ":1652,"Ġmid":1653,"urch":1654,"ousand":1655,"Ġnecess":1656,"ats":1657,"Ġclear":1658,"ob":1659,"asion":1660,"Ġsum":1661,"Ġsix":1662,"Ġmere":1663,"ub":1664,"can":1665,"Ġused":1666,"Ġhuman":1667,"Ġbring":1668,"Ġeither":1669,"Ġtrou":1670,"Ġreturned":1671,"aven":1672,"Ġrose":1673,"Ġeye":1674,"Ġcast":1675,"light":1676,"Ġpret":1677,"Ġchildren":1678,"Ġbody":1679,"idence":1680,"Ġquiet":1681,"dle":1682,"Ġtherefore":1683,"cious":1684,"Ġprin":1685,"bit":1686,"Ġstep":1687,"Ġglad":1688,"âĢĿ":1689,"why":1690,"Ġvar":1691,"Ġlist":1692,"Ġearth":1693,"ney":1694,"gin":1695,"Ġmem":1696,"Ġperfect":1697,"ety":1698,"lled":1699,"Ġobject":1700,"Ġstrange":1701,"ury":1702,"Ġheld":1703,"Ġkept":1704,"Ġsense":1705,"rench":1706,"ising":1707,"Ġconsider":1708,"itting":1709,"dis":1710,"Ġhorse":1711,"Ġwon":1712,"band":1713,"ped":1714,"Ġanswer":1715,"Ġwomen":1716,"Ġexc":1717,"ression":1718,"Ġtom":1719,"Ġhus":1720,"Ġport":1721,"ny":1722,"Ġdut":1723,"Ġdu":1724,"Ġsight":1725,"ift":1726,"_.":1727,"Ġsqu":1728,"Ġmaster":1729,"more":1730,"Ġinf":1731,"Ġfamily":1732,"Ġcommon":1733,"ring":1734,"ians":1735,"night":1736,"une":1737,"ized":1738,"Ġgold":1739,"Ġcal":1740,"Ġfoot":1741,"orrow":1742,"Ġengland":1743,"Ġacross":1744,"Ġseveral":1745,"Ġfellow":1746,"Ġpast":1747,"Ġtem":1748,"Ġshow":1749,"ctor":1750,"Ġrespect":1751,"Ġappear":1752,"tend":1753,"ingly":1754,"Ġview":1755,"cons":1756,"bo":1757,"Ġje":1758,"Ġpain":1759,"outh":1760,"ccess":1761,"Ġmaking":1762,"Ġgover":1763,"rem":1764,"Ġlead":1765,"Ġyes":1766,"Ġcharacter":1767,"Ġconst":1768,"ination":1769,"ery":1770,"Ġcut":1771,"Ġdeal":1772,"Ġpossible":1773,"Ġroad":1774,"Ġevening":1775,"Ġtra":1776,"Ġstory":1777,"Ġmist":1778,"Ġut":1779,"Ġtou":1780,"che":1781,"cial":1782,"Ġbig":1783,"Ġdidn":1784,"Ġfive":1785,"Ġseems":1786,"Ġought":1787,"Ġfree":1788,"ones":1789,"Ġable":1790,"isf":1791,"Ġbit":1792,"iar":1793,"ices":1794,"Ġquick":1795,"ford":1796,"Ġexcept":1797,"Ġblood":1798,"Ġdiffic":1799,"Ġmur":1800,"Ġhill":1801,"Ġbecome":1802,"Ġthousand":1803,"Ġmag":1804,"Ġproper":1805,"uss":1806,"aged":1807,"Ġduring":1808,"Ġrock":1809,"Ġslow":1810,"Ġprob":1811,"Ġdecl":1812,"Ġidea":1813,"ondon":1814,"Ġremember":1815,"yond":1816,"inct":1817,"een":1818,"ush":1819,"owers":1820,"antly":1821,"ze":1822,"arent":1823,"orge":1824,"airs":1825,"Ġlea":1826,"Ġchurch":1827,"Ġcross":1828,"cour":1829,"Ġtable":1830,"icular":1831,"Ġarri":1832,"Ġho":1833,"Ġaccount":1834,"Ġfig":1835,"Ġbegin":1836,"tw":1837,"Ġcold":1838,"Ġready":1839,"arch":1840,"alth":1841,"ots":1842,"Ġcent":1843,"Ġeng":1844,"Ġsoul":1845,"Ġsurpr":1846,"Ġele":1847,"Ġdifferent":1848,"Ġbecame":1849,"Ġcoll":1850,"uct":1851,"irt":1852,"Ġest":1853,"utes":1854,"Ġsuddenly":1855,"Ġappro":1856,"sha":1857,"Ġwatch":1858,"ement":1859,"iment":1860,"Ġexcl":1861,"Ġpublic":1862,"pend":1863,"Ġspoke":1864,"Ġworth":1865,"uthor":1866,"Ġconc":1867,"Ġequ":1868,"tern":1869,"ality":1870,"Ġaround":1871,"Ġ.":1872,"Ġparty":1873,"Ġpay":1874,"Ġsometimes":1875,"pose":1876,"Ġriver":1877,"Ġbreak":1878,"Ġsto":1879,"Ġprodu":1880,"bled":1881,"Ġgentleman":1882,"itude":1883,"ives":1884,"Ġmod":1885,"ey":1886,"ased":1887,"Ġve":1888,"Ġsleep":1889,"miss":1890,"Ġheaven":1891,"Ġvi":1892,"ric":1893,"gu":1894,"Ġdraw":1895,"Ġheav":1896,"Ġpretty":1897,"Ġprov":1898,"Ġfav":1899,"ĠĠĠĠĠĠĠĠĠĠĠĠĠĠĠĠĠĠĠĠĠĠĠĠ":1900,"Ġmus":1901,"Ġcourt":1902,"ges":1903,"Ġ4":1904,"don":1905,"Ġarms":1906,"Ġmonth":1907,"Ġimag":1908,"chapter":1909,"Ġscar":1910,"Ġfollowed":1911,"Ġtrans":1912,"Ġdin":1913,"been":1914,"Ġoffic":1915,"Ġcommand":1916,"Ġdirect":1917,"ead":1918,"rel":1919,"Ġsecret":1920,"char":1921,"Ġran":1922,"Ġcity":1923,"Ġfight":1924,"Ġfeeling":1925,"Ġstra":1926,"Ġship":1927,"just":1928,"Ġstri":1929,"oof":1930,"Ġaff":1931,"attle":1932,"could":1933,"inter":1934,"house":1935,"Ġsol":1936,"gy":1937,"riage":1938,"Ġfine":1939,"Ġthee":1940,"Ġstud":1941,"Ġhen":1942,"Ġhusband":1943,"ledge":1944,"Ġbeautiful":1945,"uc":1946,"Ġhot":1947,"Ġdiv":1948,"Ġval":1949,"ging":1950,"Ġquar":1951,"Ġstay":1952,"Ġfrench":1953,"Ġpen":1954,"Ġhast":1955,"Ġleg":1956,"raid":1957,"Ġoccasion":1958,"Ġline":1959,"Ġcorn":1960,"ature":1961,"Ġself":1962,"Ġforward":1963,"medi":1964,"Ġdem":1965,"Ġameric":1966,"Ġdream":1967,"Ġpal":1968,"Ġmaj":1969,"than":1970,"ession":1971,"Ġvill":1972,"Ġchief":1973,"imp":1974,"Ġcomple":1975,"reed":1976,"Ġappeared":1977,"ancy":1978,"Ġnone":1979,"Ġdef":1980,"Ġlondon":1981,"Ġver":1982,"uff":1983,"Ġmove":1984,"cont":1985,"Ġbright":1986,"Ġbeyond":1987,"Ġphil":1988,"Ġsuccess":1989,"while":1990,"ament":1991,"Ġhair":1992,"ony":1993,"Ġexam":1994,").":1995,"idge":1996,"Ġadded":1997,"Ġsn":1998,"Ġcertainly":1999,"Ġsold":2000,"ists":2001,"Ġhappy":2002,"Ġdoing":2003,"cumst":2004,"Ġeverything":2005,"Ġarr":2006,"ior":2007,"essed":2008,"Ġled":2009,"Ġfaith":2010,"Ġmor":2011,"Ġord":2012,"about":2013,"ma":2014,"Ġexper":2015,"off":2016,"Ġsend":2017,"Ġcontinued":2018,"Ġtaking":2019,"ump":2020,"resent":2021,"ously":2022,"mp":2023,"inary":2024,"Ġmine":2025,"Ġgreen":2026,"lly":2027,"mar":2028,"ounded":2029,"Ġlate":2030,"resh":2031,"Ġfront":2032,"Ġgrand":2033,"aimed":2034,"Ġvol":2035,"hand":2036,"ggest":2037,"Ġhist":2038,"Ġtwenty":2039,"oe":2040,"Ġbene":2041,"otion":2042,"Ġrequ":2043,"together":2044,"Ġhat":2045,"good":2046,"Ġcomes":2047,"min":2048,"Ġsoft":2049,"itten":2050,"Ġaffect":2051,"Ġcarry":2052,"Ġfurther":2053,"Ġschool":2054,"Ġlaugh":2055,"appe":2056,"ics":2057,"Ġplain":2058,"Ġregard":2059,"rupt":2060,"âĢĶ":2061,"Ġdanger":2062,"Ġanim":2063,"Ġboys":2064,"ilt":2065,"Ġchange":2066,"Ġchance":2067,"Ġprot":2068,"Ġhours":2069,"ified":2070,"again":2071,"Ġopin":2072,"vol":2073,"aining":2074,"Ġnatural":2075,"Ġacqu":2076,"Ġvisit":2077,"ĠĠĠĠĠĠĠ":2078,"Ġauthor":2079,"Ġstreet":2080,"thr":2081,"ushed":2082,"Ġdet":2083,"Ġenem":2084,"Ġdog":2085,"usion":2086,"fered":2087,"Ġwat":2088,"get":2089,"Ġbreat":2090,"iam":2091,"iff":2092,"Ġtrust":2093,"orm":2094,"Ġimport":2095,"set":2096,"Ġdaughter":2097,"sm":2098,"Ġsad":2099,"Ġcompany":2100,"ossible":2101,"Ġpray":2102,"ounds":2103,"Ġcreat":2104,"Ġnumber":2105,"ening":2106,"cent":2107,"Ġcarried":2108,"isted":2109,"Ġwanted":2110,"Ġage":2111,"Ġlen":2112,"never":2113,"Ġyourself":2114,"should":2115,"Ġpie":2116,"Ġsal":2117,"anced":2118,"Ġwrong":2119,"ler":2120,"count":2121,"Ġbear":2122,"Ġcry":2123,"iling":2124,"Ġpict":2125,"Ġda":2126,"bers":2127,"oured":2128,"Ġwit":2129,"Ġboat":2130,".,":2131,"Ġdest":2132,"Ġlater":2133,"sequ":2134,"ours":2135,"Ġnearly":2136,"Ġsaying":2137,"Ġlonger":2138,"ize":2139,"Ġcause":2140,"Ġshad":2141,"Ġparticular":2142,"itions":2143,"irm":2144,"col":2145,"little":2146,"Ġsatisf":2147,"Ġsett":2148,"Ġdisp":2149,"que":2150,"Ġbill":2151,"Ġearly":2152,"Ġanx":2153,"Ġreached":2154,"certain":2155,"Ġforce":2156,"ius":2157,"Ġcomfort":2158,"Ġisland":2159,"kes":2160,"Ġafraid":2161,"upon":2162,"Ġwindow":2163,"Ġdelight":2164,"before":2165,"Ġtried":2166,"Ġhardly":2167,"Ġpriv":2168,"olog":2169,"Ġreceived":2170,"Ġfool":2171,"oint":2172,"joy":2173,"Ġcompan":2174,"long":2175,"Ġgard":2176,"Ġfif":2177,"Ġsweet":2178,"Ġeff":2179,"Ġsister":2180,"Ġwhis":2181,"Ġoh":2182,"Ġprince":2183,"cient":2184,"ceive":2185,"ask":2186,"ald":2187,"Ġhall":2188,"spe":2189,"Ġposition":2190,"Ġliving":2191,"ically":2192,"Ġsuper":2193,"Ġlab":2194,"bet":2195,"cies":2196,"did":2197,"Ġattempt":2198,"Ġneither":2199,"Ġrom":2200,"Ġtrave":2201,"Ġsilence":2202,"Ġremark":2203,"see":2204,"reg":2205,"Ġwalked":2206,"Ġmiles":2207,"Ġminutes":2208,"said":2209,"Ġger":2210,"Ġann":2211,"Ġchair":2212,"Ġtrouble":2213,"Ġuncle":2214,"Ġflo":2215,"flu":2216,"Ġslight":2217,"has":2218,"wise":2219,"fer":2220,"Ġspo":2221,"Ġinqu":2222,"Ġago":2223,"ustom":2224,"Ġpract":2225,"into":2226,"ries":2227,"Ġopened":2228,"Ġfast":2229,"onel":2230,"Ġdep":2231,"hood":2232,"dom":2233,"Ġbird":2234,"every":2235,"ron":2236,"Ġsuggest":2237,"Ġforth":2238,"ences":2239,"Ġlie":2240,"ues":2241,"lling":2242,"Ġdoctor":2243,"Ġgeorge":2244,"Ġpeace":2245,"rible":2246,"cially":2247,"Ġgrace":2248,"great":2249,"time":2250,"Ġrid":2251,"acy":2252,"ager":2253,"Ġprinci":2254,"Ġblue":2255,"Ġsmile":2256,"ume":2257,"ighb":2258,"des":2259,"Ġmeant":2260,"Ġmouth":2261,"Ġpost":2262,"pping":2263,"ax":2264,"Ġnecessary":2265,"icked":2266,"angu":2267,"car":2268,"ming":2269,"Ġcamp":2270,"new":2271,"olute":2272,"Ġaccord":2273,"mrs":2274,"Ġpurpose":2275,"oose":2276,"ply":2277,"Ġyouth":2278,"....":2279,"Ġlaid":2280,"foot":2281,"Ġmed":2282,"these":2283,"Ġav":2284,"Ġrepe":2285,"Ġstren":2286,"Ġpoet":2287,"Ġtor":2288,"action":2289,"ded":2290,"Ġscarce":2291,"Ġcontr":2292,"ixed":2293,"ĠĠĠĠĠĠĠĠĠĠĠĠĠĠĠĠĠĠĠĠĠĠĠĠĠĠĠĠĠĠĠĠ":2294,"Ġ5":2295,"Ġcra":2296,"Ġlength":2297,"Ġcircumst":2298,"vi":2299,"Ġpleasure":2300,"Ġnorth":2301,"Ġsens":2302,"ively":2303,"ghed":2304,"only":2305,"Ġden":2306,"Ġduty":2307,"may":2308,"Ġprobably":2309,"Ġgrave":2310,"nment":2311,"Ġsave":2312,"Ġthinking":2313,"Ġtreat":2314,"Ġslowly":2315,"Ġdie":2316,"Ġentered":2317,"orses":2318,"Ġdesp":2319,"ils":2320,"Ġcrow":2321,"hard":2322,"bar":2323,"face":2324,"Ġweek":2325,"stood":2326,"bel":2327,"Ġ17":2328,"Ġalthough":2329,"Ġdistance":2330,"ases":2331,"ogn":2332,"ips":2333,"gan":2334,"Ġheavy":2335,"Ġentire":2336,"Ġimmedi":2337,"Ġsin":2338,"Ġrich":2339,"know":2340,"Ġgall":2341,"Ġgetting":2342,"sem":2343,"Ġshar":2344,"Ġaccom":2345,"Ġwest":2346,"Ġbroken":2347,"asure":2348,"bs":2349,"comp":2350,"Ġdescri":2351,"Ġmark":2352,"Ġbank":2353,"Ġfield":2354,"iers":2355,"Ġjack":2356,"Ġstanding":2357,"ency":2358,"Ġwhatever":2359,"Ġeight":2360,"Ġori":2361,"Ġknows":2362,"ech":2363,"ustr":2364,"oes":2365,"bur":2366,"Ġlived":2367,"llow":2368,"Ġgun":2369,"Ġlips":2370,"even":2371,"Ġlu":2372,"Ġtrees":2373,"Ġburn":2374,"Ġjour":2375,"Ġhop":2376,"Ġtop":2377,"Ġexact":2378,"Ġstruck":2379,"Ġproceed":2380,"ference":2381,"Ġexclaimed":2382,"ching":2383,"gar":2384,"eterm":2385,"Ġhung":2386,"Ġeasy":2387,"Ġhig":2388,"Ġclass":2389,"Ġhappened":2390,"aded":2391,"Ġbrown":2392,"Ġmakes":2393,"somet":2394,"Ġsafe":2395,"father":2396,"bling":2397,"cell":2398,"Ġmary":2399,"bec":2400,"say":2401,"Ġprison":2402,"ivers":2403,"athe":2404,"ining":2405,"Ġopinion":2406,"Ġjoy":2407,"wood":2408,"oc":2409,"Ġknowledge":2410,"Ġbell":2411,"Ġdinner":2412,"Ġobl":2413,"Ġdrew":2414,"pit":2415,"Ġhonour":2416,"Ġdick":2417,"ciety":2418,"Ġcoun":2419,"Ġer":2420,"Ġarmy":2421,"Ġconv":2422,"Ġdress":2423,"Ġdied":2424,"Ġweak":2425,"Ġwritten":2426,"spect":2427,"Ġprep":2428,"Ġservice":2429,"ises":2430,"cience":2431,"ires":2432,"such":2433,"Ġqueen":2434,"Ġbott":2435,"kn":2436,"irty":2437,"noon":2438,"Ġfit":2439,"Ġwrite":2440,"Ġdeg":2441,"Ġstopped":2442,"Ġwis":2443,"Ġincl":2444,"Ġsouth":2445,"Ġpap":2446,"ples":2447,"eks":2448,"Ġbuild":2449,"Ġnarr":2450,"Ġboard":2451,"Ġmass":2452,"Ġmill":2453,"Ġexist":2454,"Ġremained":2455,"ivid":2456,"oom":2457,"Ġlim":2458,"amed":2459,"Ġinstead":2460,"sed":2461,"Ġpaper":2462,"Ġbeauty":2463,"na":2464,"Ġaccept":2465,"Ġcre":2466,"ories":2467,"place":2468,"pecially":2469,"Ġnote":2470,"Ġgaz":2471,"Ġbrit":2472,"ashion":2473,"sec":2474,"Ġconvers":2475,"Ġbelow":2476,"Ġsitting":2477,"Ġund":2478,"eness":2479,"Ġneighb":2480,"nothing":2481,"down":2482,"ts":2483,"Ġwait":2484,"happ":2485,"Ġcompl":2486,"Ġstone":2487,"Ġmess":2488,"ulty":2489,"Ġlaughed":2490,"Ġsam":2491,"Ġtone":2492,"Ġfle":2493,"Ġhistory":2494,"Ġsilent":2495,"mber":2496,"Ġmention":2497,"Ġcab":2498,"Ġrob":2499,"Ġintell":2500,"Ġfollowing":2501,"fast":2502,"yed":2503,"Ġshore":2504,"zz":2505,".)":2506,"Ġfigure":2507,"Ġty":2508,"ina":2509,"Ġresult":2510,"Ġhorses":2511,"Ġgen":2512,"Ġstraight":2513,"two":2514,"Ġbound":2515,"Ġsac":2516,"Ġtree":2517,"Ġfut":2518,"Ġsav":2519,"Ġrelig":2520,"io":2521,"Ġdom":2522,"unity":2523,"Ġshout":2524,";--":2525,"Ġsit":2526,"Ġlatter":2527,"rief":2528,"Ġaunt":2529,"pers":2530,"wr":2531,"Ġcaught":2532,"requ":2533,"Ġfrank":2534,"Ġthoughts":2535,"Ġusual":2536,"Ġseeing":2537,"Ġconcl":2538,"think":2539,"Ġfresh":2540,"Ġdifficult":2541,"Ġang":2542,"mn":2543,"vere":2544,"arer":2545,"pass":2546,"aching":2547,"Ġvan":2548,"Ġpolit":2549,"Ġben":2550,"Ġfollow":2551,"nding":2552,"Ġsnow":2553,"Ġstrength":2554,"Ġdesire":2555,"hel":2556,"Ġletters":2557,"Ġloved":2558,"Ġnews":2559,"zen":2560,"Ġforgot":2561,"Ġgrow":2562,"ston":2563,"Ġgoes":2564,"dered":2565,"ell":2566,"Ġpop":2567,"oved":2568,"inte":2569,"sy":2570,"cap":2571,"Ġ6":2572,"ibly":2573,"thought":2574,"Ġgrew":2575,"Ġwarm":2576,"iety":2577,"Ġmoved":2578,"Ġenjoy":2579,"Ġorigin":2580,"ploy":2581,"Ġwide":2582,"Ġsor":2583,"Ġthick":2584,"ored":2585,"uel":2586,"Ġbroke":2587,"Ġdrink":2588,"Ġgovernment":2589,"Ġeat":2590,"jo":2591,"Ġplan":2592,"Ġspot":2593,"Ġenemy":2594,"Ġformer":2595,"Ġglass":2596,"Ġii":2597,"Ġfing":2598,"himself":2599,"Ġsail":2600,"ision":2601,"Ġvict":2602,"bered":2603,"ishing":2604,"Ġadmir":2605,"cted":2606,"Ġdemand":2607,"bre":2608,"Ġforget":2609,"Ġant":2610,"Ġpull":2611,"itation":2612,"Ġdread":2613,"ouses":2614,"Ġinflu":2615,"osing":2616,"Ġsingle":2617,"Ġoccur":2618,"Ġsomewhat":2619,"nat":2620,"Ġmarried":2621,"Ġtoward":2622,"orted":2623,"Ġmonths":2624,"kind":2625,"Ġshowed":2626,"Ġcolonel":2627,"Ġattack":2628,"bles":2629,"teen":2630,"Ġgreater":2631,"Ġfal":2632,"Ġsociety":2633,"mit":2634,"ĠâĢľ":2635,"road":2636,"Ġlangu":2637,"iod":2638,"arm":2639,"othes":2640,"Ġfat":2641,"Ġoccup":2642,"iced":2643,"wel":2644,"Ġnoble":2645,"Ġplaced":2646,"Ġnation":2647,"esty":2648,"Ġfro":2649,"hold":2650,"Ġbelong":2651,"back":2652,"first":2653,"ocked":2654,"Ġladies":2655,"Ġguard":2656,"Ġattention":2657,"Ġbesides":2658,"ding":2659,"nest":2660,"Ġpresence":2661,"Ġscene":2662,"Ġrap":2663,"cape":2664,"Ġcou":2665,"Ġmerely":2666,"Ġexpected":2667,"Ã©":2668,"Ġevent":2669,"Ġplease":2670,"Ġimpossible":2671,"culiar":2672,"Ġdeterm":2673,"Ġstarted":2674,"ishment":2675,"Ġbroad":2676,"erv":2677,"Ġcomplete":2678,"Ġspr":2679,"Ġgra":2680,"Ġwaiting":2681,"ipp":2682,"unk":2683,"Ġid":2684,"Ġcat":2685,"Ġz":2686,"Ġmal":2687,"Ġremain":2688,"worth":2689,"Ġbab":2690,"Ġoffice":2691,"uous":2692,"abl":2693,"Ġappearance":2694,"Ġpleasant":2695,"Ġcloud":2696,"Ġmarch":2697,"Ġmarry":2698,"Ġviol":2699,"bly":2700,"Ġfancy":2701,"perhaps":2702,"reme":2703,"note":2704,"Ġlikely":2705,"Ġbreath":2706,"Ġgarden":2707,"Ġfavour":2708,"rodu":2709,"Ġbeat":2710,"ror":2711,"aff":2712,"Ġresol":2713,"icate":2714,"Ġdepart":2715,"through":2716,"Ġstream":2717,"Ġafterwards":2718,"much":2719,"Ġsimple":2720,"Ġbeside":2721,"hy":2722,"Ġsand":2723,"Ġeffort":2724,"Ġciv":2725,"Ġpeter":2726,"Ġneg":2727,"Ġsole":2728,"els":2729,"cceed":2730,"rop":2731,"Ġbooks":2732,"Ġthird":2733,"bes":2734,"Ġbattle":2735,"ners":2736,"urope":2737,"might":2738,"without":2739,"itary":2740,"Ġpassion":2741,"Ġplaces":2742,"Ġfuture":2743,"Ġwouldn":2744,"ork":2745,"Ġarrived":2746,"cil":2747,"Ġaltogether":2748,"Ġmoon":2749,"Ġtalking":2750,"Ġarch":2751,"Ġcircumstances":2752,"ented":2753,"Ġrecogn":2754,"ĠĠĠĠĠĠĠĠĠ":2755,"Ġsky":2756,"Ġutter":2757,"Ġdim":2758,"Ġsuffic":2759,"Ġstop":2760,"Ġshot":2761,"Ġvillage":2762,"Ġliter":2763,"Ġexpression":2764,"...":2765,"atic":2766,"pered":2767,"formed":2768,"gener":2769,"Ġworse":2770,"Ġisn":2771,"yal":2772,"Ġhun":2773,"Ġfly":2774,"Ġshook":2775,"Ġexpress":2776,"Ġmel":2777,"Ġspeaking":2778,"orough":2779,"Ġraised":2780,"Ġpath":2781,"Ġobserved":2782,"Ġminute":2783,"uge":2784,"ption":2785,"Ġspring":2786,"iding":2787,"Ġconsequ":2788,"Ġball":2789,"imate":2790,"Ġafternoon":2791,"uly":2792,"dist":2793,"oses":2794,"Ġkiss":2795,"Ġhang":2796,"Ġmyster":2797,"Ġforest":2798,"heart":2799,"rer":2800,"Ġ|":2801,"known":2802,"Ġgirls":2803,"Ġturning":2804,"Ġmart":2805,"anch":2806,"ays":2807,"Ġfilled":2808,"Ġleaving":2809,"Ġevil":2810,"Ġconne":2811,"Ġpet":2812,"Ġspecies":2813,"Ġsurprise":2814,"Ġcouldn":2815,"Ġpresently":2816,"Ġdry":2817,"Ġoutside":2818,"gress":2819,"Ġsorry":2820,"Ġgiving":2821,"Ġfun":2822,"Ġmain":2823,"Ġbeginning":2824,"Ġlou":2825,"Ġthank":2826,"Ġincre":2827,"ague":2828,"Ġsick":2829,"Ġig":2830,"Ġtears":2831,"ribut":2832,"morrow":2833,"take":2834,"still":2835,"Ġpock":2836,"Ġstrug":2837,"Ġcorner":2838,"Ġfamil":2839,"tended":2840,"ests":2841,"Ġbeneath":2842,"because":2843,"uded":2844,"Ġric":2845,"âĢĺ":2846,"Ġlives":2847,"looking":2848,"Ġgerman":2849,"Ġshut":2850,"Ġtroo":2851,"Ġhy":2852,"made":2853,"Ġtall":2854,"Ġduke":2855,"ayed":2856,"lord":2857,"supp":2858,"Ġmut":2859,"Ġemploy":2860,"Ġimmediately":2861,"iction":2862,"Ġsmo":2863,"Ġprev":2864,"Ġlooks":2865,"Ġperiod":2866,"Ġconversation":2867,"umed":2868,"Ġmaid":2869,"Ġneck":2870,"end":2871,"Ġbow":2872,"Ġespecially":2873,"Ġlean":2874,"Ġaction":2875,"port":2876,"aste":2877,"Ġunless":2878,"sl":2879,"antage":2880,"Ġescape":2881,"ora":2882,"Ġet":2883,"Ġgenerally":2884,"aled":2885,"Ġwrote":2886,"inite":2887,"Ġentirely":2888,"Ġtrying":2889,"Ġspeech":2890,"Ġscarcely":2891,"Ġapparent":2892,"Ġsword":2893,"Ġvarious":2894,"bing":2895,"call":2896,"must":2897,"dra":2898,"Ġeager":2899,"Ġdeclared":2900,"Ġpersons":2901,"Ġpaid":2902,"Ġfan":2903,"Ġmiddle":2904,"Ġ8":2905,"ille":2906,"Ġconduct":2907,"Ġpeculiar":2908,"chief":2909,"Ġabsolute":2910,"rif":2911,"Ġsake":2912,"Ġpale":2913,"tis":2914,"Ġeasily":2915,"law":2916,"Ġmir":2917,"Ġsymp":2918,"ract":2919,"Ġprivate":2920,"Ġenter":2921,"Ġ7":2922,"inst":2923,"urs":2924,"ital":2925,"Ġpiece":2926,"cal":2927,"Ġcost":2928,"Ġves":2929,"Ġcondition":2930,"Ġreply":2931,"Ġjourney":2932,"Ġjudge":2933,"Ġod":2934,"Ġoblig":2935,"Ġinstant":2936,"Ġquickly":2937,"Ġrate":2938,"retched":2939,"those":2940,"Ġfaint":2941,"Ġlearned":2942,"Ġmort":2943,"Ġparts":2944,"osop":2945,"Ġamerican":2946,"Ġtouch":2947,"isto":2948,"Ġprevent":2949,"Ġconcern":2950,"Ġlines":2951,"Ġcler":2952,"Ġvain":2953,"Ġstar":2954,"Ġcharge":2955,"Ġmajor":2956,"Ġrapid":2957,"seem":2958,"Ġchristian":2959,"ashed":2960,"Ã¦":2961,"Ġwise":2962,"stem":2963,"Ġdirection":2964,"lady":2965,"ites":2966,"cher":2967,"Ġhonest":2968,"Ġfood":2969,"ades":2970,"Ġcivil":2971,"Ġwand":2972,"Ġsummer":2973,"inde":2974,"Ġsli":2975,"Ġsmiled":2976,"Ġperfectly":2977,"Ġfrance":2978,"18":2979,"Ġsucceed":2980,"ear":2981,"Ġcastle":2982,"Ġur":2983,"Ġobt":2984,"Ġexactly":2985,"raph":2986,"Ġrepresent":2987,"clock":2988,"Ġkill":2989,"friend":2990,"Ġvall":2991,"Ġeurope":2992,"work":2993,"fortun":2994,"oon":2995,"Ġris":2996,"iles":2997,"iii":2998,"rig":2999,"eds":3000,"Ġterrible":3001,"itable":3002,"Ġgentlemen":3003,"Ġtur":3004,"pond":3005,"idered":3006,"wom":3007,"Ġlower":3008,"!--":3009,"Ġcompanion":3010,"Ġfloor":3011,"Ġpra":3012,"lected":3013,"view":3014,"arked":3015,"Ġemb":3016,"velop":3017,"Ġmarriage":3018,"Ġchanged":3019,"Ġfirm":3020,"Ġshadow":3021,"idently":3022,"Ġpun":3023,"Ġspoken":3024,"ram":3025,"ns":3026,"Ġextra":3027,"Ġdare":3028,"Ġsupposed":3029,"asp":3030,"Ġsimply":3031,"hum":3032,"Ġpit":3033,"ancing":3034,"Ġrepeated":3035,"Ġfer":3036,"ec":3037,"Ġfashion":3038,"Ġrunning":3039,"ication":3040,"Ġxx":3041,"Ġcous":3042,"stone":3043,"Ġarg":3044,"Ġcalm":3045,"Ġtrem":3046,"lend":3047,"Ġwished":3048,"ator":3049,"another":3050,"Ġlif":3051,"Ġfallen":3052,"Ġhes":3053,"Ġearnest":3054,"ument":3055,"Ġfright":3056,"Ġtender":3057,"por":3058,"Ġpursu":3059,"ection":3060,"iently":3061,"Ġsitu":3062,"Ġpleased":3063,"Ġham":3064,"ales":3065,"Ġexcell":3066,"Ġvirt":3067,"Ġgate":3068,"ste":3069,"Ġrain":3070,"field":3071,"Ġcurious":3072,"Ġwin":3073,"Ġjames":3074,"Ġvent":3075,"something":3076,"Ġproud":3077,"\"'":3078,"Ġmatters":3079,"osite":3080,"Ġbitter":3081,"ails":3082,"itor":3083,"Ġseven":3084,"yn":3085,"Ġunderstood":3086,"anted":3087,"Ġdi":3088,"Ġhealth":3089,"Ġfixed":3090,"Ġkilled":3091,"Ġnotice":3092,"Ġvessel":3093,"Ġhol":3094,"Ġears":3095,"Ġhath":3096,"ingu":3097,"Ġdifficulty":3098,"Ġcheer":3099,"ev":3100,"ividual":3101,"Ġpress":3102,"Ġsharp":3103,"Ġiron":3104,"Ġinfluence":3105,"--------":3106,"Ġfeelings":3107,"Ġmountain":3108,"Ġleaves":3109,"Ġconscious":3110,"Ġsong":3111,"Ġapart":3112,"Ġpure":3113,"Ġpi":3114,"Ġgro":3115,"Ġburst":3116,"turn":3117,"Ġwalls":3118,"ox":3119,"half":3120,"uit":3121,"Ġfier":3122,"Ġgrass":3123,"ral":3124,"Ġborn":3125,"cing":3126,"Ġven":3127,"Ġknight":3128,"Ġcrowd":3129,"Ġsteps":3130,"Ġmusic":3131,"Ġlot":3132,"cise":3133,"Ġdrawing":3134,"Ġhost":3135,"ibility":3136,"comm":3137,"Ġancient":3138,"Ġimportant":3139,"Ġlearn":3140,"Ġextreme":3141,"Ġpicture":3142,"Ġtemper":3143,"Ġstat":3144,"Ġmat":3145,"Ġfol":3146,"Ġdistinct":3147,"Ġphys":3148,"Ġstates":3149,"Ġanxious":3150,"Ġlying":3151,"wa":3152,"Ġallow":3153,"Ġexperience":3154,"pres":3155,"sir":3156,"gment":3157,"Ġdefe":3158,"ishop":3159,"Ġflowers":3160,"Ġwinter":3161,"ett":3162,"Ġroyal":3163,"Ġopport":3164,"Ġreach":3165,"Ġloud":3166,"Ġallowed":3167,"wing":3168,"cur":3169,"Ġharry":3170,"Ġworks":3171,"Ġeast":3172,"Ġrace":3173,"Ġtrain":3174,"ilar":3175,"Ġattend":3176,"Ġyours":3177,"Ġsilver":3178,"sur":3179,"Ġsepar":3180,"appoint":3181,"Ġbox":3182,"Ġbecom":3183,"oted":3184,"ien":3185,"antic":3186,"vation":3187,"Ġdam":3188,".âĢĿ":3189,"Ġbelieved":3190,"iant":3191,"Ġgar":3192,"Ġwel":3193,"Ġfifty":3194,"Ġfalse":3195,"Ġsusp":3196,"being":3197,"Ġstranger":3198,"Ġere":3199,"Ġfurn":3200,"ee":3201,"occ":3202,"bell":3203,"Ġthrew":3204,"rey":3205,"itive":3206,"Ġain":3207,"Ġpassage":3208,"Ġwonderful":3209,"Ġdarkness":3210,"Ġeld":3211,"Ġcrit":3212,"dif":3213,"Ġmurm":3214,"eper":3215,"Ġclaim":3216,"kin":3217,"Ġconsidered":3218,"round":3219,"acher":3220,"arily":3221,"hus":3222,"Ġhero":3223,"arest":3224,"Ġremarked":3225,"mother":3226,"Ġdesert":3227,"Ġpromise":3228,"Ġtong":3229,"Ġjustice":3230,"Ġspan":3231,"Ġswift":3232,"Ġdegree":3233,"Ġstro":3234,"Ġserious":3235,"Ġmot":3236,"Ġpassing":3237,"Ġmodern":3238,":--":3239,"Ġdifference":3240,"Ġlanguage":3241,"ieve":3242,"umb":3243,"itated":3244,"quest":3245,"Ġloss":3246,"Ġfortune":3247,"Ġyork":3248,"Ġadvent":3249,"Ġoffer":3250,"Ġseat":3251,"Ġquietly":3252,"Ġfond":3253,"Ġhouses":3254,"Ġclosed":3255,"Ġess":3256,"ann":3257,"Ġmemory":3258,"Ġwatched":3259,"yet":3260,"Ġwriting":3261,"Ġaccording":3262,"Ġgame":3263,"Ġwilliam":3264,"Ġglance":3265,"Ġways":3266,"Ġnobody":3267,"eav":3268,"shall":3269,"Ġfem":3270,"Ġconce":3271,"Ġvast":3272,"Ġange":3273,"Ġbold":3274,"life":3275,"Ġgrey":3276,"Ġourselves":3277,"Ġrevol":3278,"erve":3279,"Ġrise":3280,"Ġbritish":3281,"rose":3282,"Ġhabit":3283,"Ġdrawn":3284,"sing":3285,"tering":3286,"footnote":3287,"Ġmeth":3288,"Ġrough":3289,"Ġring":3290,"welve":3291,"Ġagree":3292,"Ġbirds":3293,"sub":3294,"Ġdue":3295,"eping":3296,"Ġguess":3297,"word":3298,"Ġcovered":3299,"Ġnod":3300,"rees":3301,"sat":3302,"Ġspite":3303,"eng":3304,"pet":3305,"Ġcrown":3306,"ify":3307,"Ġorders":3308,"Ġfate":3309,"ception":3310,"Ġjim":3311,"Ġformed":3312,"iring":3313,"last":3314,"Ġbull":3315,"Ġgrou":3316,"fall":3317,"Ġtalked":3318,"Ġcustom":3319,"ested":3320,"orne":3321,"boy":3322,"Ġdetermined":3323,"Ġimpro":3324,"Ġdeck":3325,"Ġappl":3326,"Ġpride":3327,"Ġcommun":3328,"Ġengaged":3329,"Ġdecided":3330,"Ġthin":3331,"uses":3332,"erable":3333,"Ġcreature":3334,"Ġcatch":3335,"Ġassist":3336,"mind":3337,"away":3338,"Ġpocket":3339,"put":3340,"Ġcand":3341,"god":3342,"Ġreck":3343,"Ġhenry":3344,"Ġsocial":3345,"Ġsympath":3346,"Ġshr":3347,"Ġheads":3348,"Ġoffered":3349,"war":3350,"bu":3351,"gi":3352,"Ġclothes":3353,"Ġdropped":3354,"Ġstation":3355,"Ġnarrow":3356,"appeared":3357,"idden":3358,"ival":3359,"Ġsurely":3360,"Ġsearch":3361,"Ġspent":3362,"Ġbeast":3363,"icated":3364,"three":3365,"ker":3366,"Ġaffection":3367,"Ġparis":3368,"Ġsystem":3369,"Ġindian":3370,"Ġreading":3371,"Ġthirty":3372,"Ġtit":3373,"Ġempt":3374,"Ġfail":3375,"Ġmagn":3376,"ky":3377,"exp":3378,"Ġholl":3379,"Ġwid":3380,"onder":3381,"aked":3382,"Ġdevil":3383,"Ġcolour":3384,"aly":3385,"ulous":3386,"Ġforms":3387,"osity":3388,"Ġluck":3389,"Ġcases":3390,"ounced":3391,"Ġreve":3392,"Ġrail":3393,"Ġblow":3394,"expect":3395,"reek":3396,"water":3397,"aret":3398,"Ġstick":3399,"fit":3400,"Ġhorr":3401,"Ġspread":3402,"Ġintrodu":3403,"pel":3404,"Ġpick":3405,"Ġproperty":3406,"Ġdesce":3407,"Ġblind":3408,"Ġcousin":3409,"people":3410,"Ġrank":3411,"Ġproduced":3412,"Ġphilosop":3413,"tell":3414,"Ġknowing":3415,"Ġquarter":3416,"Ġbottom":3417,"Ġholy":3418,"Ġdepend":3419,"Ġdiscovered":3420,"Ġfault":3421,"oul":3422,"Ġbreakfast":3423,"Ġband":3424,"child":3425,"Ġpersonal":3426,"mitted":3427,"Ġrising":3428,"urally":3429,"Ġstir":3430,"lo":3431,"formation":3432,"Ġpity":3433,"Ġwine":3434,"vis":3435,"Ġshoulder":3436,"mond":3437,"Ġtim":3438,"Ġliked":3439,"Ġvalley":3440,"Ġangry":3441,"llen":3442,"jud":3443,"Ġappre":3444,"Ġ16":3445,"Ġmoral":3446,"Ġmeeting":3447,"book":3448,"Ġimper":3449,"Ġestabl":3450,"Ġaston":3451,"Ġweather":3452,"Ġopposite":3453,"aterial":3454,"la":3455,"Ġlaws":3456,"Ġfrequ":3457,"Ġpoem":3458,"engl":3459,"Ġdan":3460,"Ġprepared":3461,"Ġones":3462,"Ġgreatest":3463,"Ġnice":3464,"Ġbrave":3465,"Ġsplend":3466,"Ġthro":3467,"ike":3468,"tic":3469,"oned":3470,"Ġwal":3471,"leg":3472,"ses":3473,"acing":3474,"Ġdust":3475,"Ġstudy":3476,"came":3477,"Ġpounds":3478,"hor":3479,"conf":3480,"Ġbra":3481,"Ġdoll":3482,"Ġ-":3483,"Ġhigher":3484,"oop":3485,"Ġhills":3486,"Ġadvantage":3487,"conscious":3488,"Ġaware":3489,"Ġofficer":3490,"present":3491,"Ġwaited":3492,"pri":3493,"Ġforgotten":3494,"iments":3495,"Ġignor":3496,"Ġcourage":3497,"pal":3498,"Ġsquare":3499,"Ġnames":3500,"Ġinno":3501,"thern":3502,"Ġevidence":3503,"Ġcruel":3504,"Ġdiscuss":3505,"Ġthrown":3506,"Ġsoldiers":3507,"ocks":3508,"Ġbreast":3509,"ading":3510,"Ġindividual":3511,"Ġdeli":3512,"Ġspace":3513,"Ġcop":3514,"Ġsurprised":3515,"acc":3516,"Ġbal":3517,"Ġdestro":3518,"Ġwear":3519,"000":3520,"Ġbir":3521,"wind":3522,"Ġder":3523,"Ġpair":3524,"ushing":3525,"ctions":3526,"Ġ9":3527,"course":3528,"Ġtea":3529,"capt":3530,"bury":3531,"Ġ10":3532,"Ġroll":3533,"Ġpack":3534,"Ġheight":3535,"ium":3536,"Ġcabin":3537,"Ġsettled":3538,"Ġofficers":3539,"Ġspirits":3540,"Ġnative":3541,"young":3542,"aves":3543,"Ġsan":3544,"Ġshare":3545,"Ġcow":3546,"Ġemp":3547,"leep":3548,"Ġfinished":3549,"itution":3550,"Ġsmoke":3551,"got":3552,"erved":3553,"fa":3554,",âĢĿ":3555,"four":3556,"Ġyellow":3557,"ude":3558,"oid":3559,"Ġfacts":3560,"hib":3561,"Ġbare":3562,"Ġaccomp":3563,"Ġlose":3564,"hest":3565,"Ġbread":3566,"Ġlisten":3567,"uted":3568,"lar":3569,"?--":3570,"Ġterms":3571,"Ġmountains":3572,"lin":3573,"Ġshown":3574,"Ġinterrupt":3575,"Ġfaces":3576,"Ġremembered":3577,"fact":3578,"nal":3579,"Ġhurt":3580,"Ġintended":3581,"iny":3582,"ables":3583,"Ġsolemn":3584,"Ġgreatly":3585,"illy":3586,"Ġaffairs":3587,"Ġordinary":3588,"Ġeduc":3589,"inted":3590,"Ġweeks":3591,"once":3592,"indeed":3593,"Ġmotion":3594,"Ġcred":3595,"Ġideas":3596,"Ġopportunity":3597,"Ġvalue":3598,"Ġtaste":3599,"Ġwasn":3600,"foll":3601,"istic":3602,"Ġcharles":3603,"Ġtwelve":3604,"Ġclim":3605,"Ġmajesty":3606,"Ġbag":3607,"ember":3608,"ordinary":3609,"gle":3610,"lection":3611,"Ġcoast":3612,"using":3613,"acious":3614,"Ġamount":3615,"found":3616,"Ġmeaning":3617,"Ġobliged":3618,"ected":3619,"Ġwalking":3620,"Ġholding":3621,"many":3622,"Ġlod":3623,"Ġhotel":3624,"isters":3625,"Ġharm":3626,"Ġsund":3627,"Ġtwice":3628,"anged":3629,"Ġservant":3630,"Ġprofess":3631,"Ġinstance":3632,"Ġsuspic":3633,"Ġgrad":3634,"Ġequal":3635,"ruction":3636,"cast":3637,"Ġreport":3638,"ailed":3639,"Ġquestions":3640,"dr":3641,"ification":3642,"Ġiv":3643,"pper":3644,"Ġ15":3645,"Ġproved":3646,"Ġreceive":3647,"Ġanimals":3648,"Ġwhispered":3649,"Ġjer":3650,"Ġendeav":3651,"Ġreader":3652,"ulation":3653,"athered":3654,"Ġotherwise":3655,"Ġscot":3656,"Ġtired":3657,"Ġkeeping":3658,"Ġaddress":3659,"Ġwoods":3660,"Ġsituation":3661,"Ġtroops":3662,"ially":3663,"having":3664,"Ġintellig":3665,"asons":3666,"Ġpointed":3667,"Ġregular":3668,"Ġhaven":3669,"quis":3670,"Ġoper":3671,"Ġevidently":3672,"Ġprove":3673,"Ġforced":3674,"things":3675,"Ġlies":3676,"Ġexistence":3677,"Ġwil":3678,"Ġ&":3679,"agement":3680,"Ġimm":3681,"Ġshame":3682,"Ġgrat":3683,"Ġaug":3684,"Ġinj":3685,"hens":3686,"Ġleap":3687,"Ġdar":3688,"Ġfill":3689,"Ġweight":3690,"Ġcrossed":3691,"orious":3692,"Ġflat":3693,"Ġcomb":3694,"Ġrode":3695,"Ġedge":3696,"Ġshoulders":3697,"Ġsuggested":3698,"Ġreligion":3699,"add":3700,"Ġfamiliar":3701,"theless":3702,"spir":3703,"aud":3704,"Ġrocks":3705,"too":3706,"Ġdign":3707,"Ġclean":3708,"eas":3709,"Ġbod":3710,"Ġlake":3711,"__":3712,"Ġlam":3713,"Ġaside":3714,"mend":3715,"Ġcook":3716,"Ġdav":3717,"Ġpaul":3718,"host":3719,"Ġhappiness":3720,"Ġdistant":3721,"Ġanimal":3722,"acle":3723,"Ġroof":3724,"Ġaffair":3725,"ardon":3726,"Ġgray":3727,"make":3728,"Ġalive":3729,"Ġapparently":3730,"igned":3731,"berty":3732,"Ġpapers":3733,"Ġtouched":3734,"bey":3735,"Ġworst":3736,"Ġgives":3737,"Ġ12":3738,"Ġspeed":3739,"inc":3740,"standing":3741,"Ġexample":3742,"Ġdrag":3743,"enance":3744,"Ġfingers":3745,"Ġheat":3746,"Ġcaused":3747,"Ġlegs":3748,"Ġwilling":3749,"Ġlog":3750,"thur":3751,"Ġtelling":3752,"give":3753,"Ġstock":3754,"Ġtakes":3755,"Ġshop":3756,"ainted":3757,"happy":3758,"Ġartic":3759,"Ġpromised":3760,"Ġgolden":3761,"Ġamerica":3762,"Ġtest":3763,"Ġwitness":3764,"Ġstern":3765,"iece":3766,"Ġsteam":3767,"Ġprocess":3768,"Ġtrade":3769,"Ġbas":3770,"Ġexplained":3771,"Ġpor":3772,"asant":3773,"Ġgloom":3774,"Ġdull":3775,"Ġbless":3776,"Ġcoat":3777,"interest":3778,"Ġrule":3779,"Ġdevelop":3780,"Ġcover":3781,"Ġarrange":3782,"Ġbent":3783,"Ġmethod":3784,"Ġforeign":3785,"Ġfinding":3786,"Ġtongue":3787,"Ġbay":3788,"stairs":3789,"Ġpalace":3790,"Ġforty":3791,"Ġble":3792,"Ġdistur":3793,"terday":3794,"Ġfarther":3795,"far":3796,"Ġfinally":3797,"Ġwatching":3798,"Ġsides":3799,"Ġbuilt":3800,"going":3801,"Ġhate":3802,"however":3803,"against":3804,"Ġcarriage":3805,"Ġrichard":3806,"Ġparent":3807,"Ġmac":3808,"Ġdistingu":3809,"five":3810,"Ġauthority":3811,"Ġstore":3812,"Ġconsiderable":3813,"Ġban":3814,"ferent":3815,"Ġcool":3816,"Ġagreed":3817,"del":3818,"Ġthreat":3819,"Ġinn":3820,"Ġsubst":3821,"reck":3822,"Ġhide":3823,"Ġeverybody":3824,"Ġride":3825,"oly":3826,"10":3827,"Ġhonor":3828,"Ġsuf":3829,"Ġshape":3830,"yle":3831,"Ġga":3832,"Ġimagine":3833,"Ġempty":3834,"Ġmighty":3835,"step":3836,"Ġwealth":3837,"ability":3838,"lessly":3839,"Ġpossess":3840,"Ġstreets":3841,"key":3842,"Ġhurried":3843,"between":3844,"mas":3845,"Ġconfidence":3846,"Ġsaved":3847,"Ġhither":3848,"Ġworking":3849,"Ġbishop":3850,"Ġthom":3851,"gled":3852,"order":3853,"Ġrow":3854,"quite":3855,"Ġfish":3856,"Ġputting":3857,"Ġpoints":3858,"Ġaud":3859,"Ġque":3860,"Ġexcellent":3861,"Ġspecial":3862,"Ġsufficient":3863,"aries":3864,"',":3865,"Ġpossession":3866,"respond":3867,"Ġsorrow":3868,"bus":3869,"čč":3870,"ville":3871,"Ġinteresting":3872,"17":3873,"Ġwants":3874,"Ġfarm":3875,"Ġpot":3876,"Ġnose":3877,"Ġunivers":3878,"Ġdoesn":3879,"Ġber":3880,"liament":3881,"Ġupper":3882,"Ġinstinct":3883,"aper":3884,"alous":3885,"Ġhappen":3886,"mission":3887,"Ġdrive":3888,"master":3889,"mean":3890,"serv":3891,"Ġorgan":3892,"board":3893,"Ġmam":3894,"Ġhom":3895,"Ġsaint":3896,"yer":3897,"ouring":3898,"Ġworthy":3899,"Ġodd":3900,"Ġ19":3901,"Ġpictures":3902,"fin":3903,"Ġsavage":3904,"Ġmentioned":3905,"adv":3906,"habit":3907,"Ġaut":3908,"Ġfellows":3909,"Ġvo":3910,"held":3911,"itement":3912,"Ġpage":3913,"Ġopening":3914,"Ġacquaint":3915,"Ġjudgment":3916,"poor":3917,"cir":3918,"nes":3919,"Ġthorough":3920,"Ġtale":3921,"always":3922,"Ġbrief":3923,"general":3924,"usted":3925,"ospit":3926,"Ġsupport":3927,"Ġmaterial":3928,"Ġmoments":3929,"ground":3930,"Ġfailed":3931,"Ġafford":3932,"Ġsimilar":3933,"Ġhandsome":3934,"cond":3935,"Ġstage":3936,"mo":3937,"Ġspect":3938,"Ġregret":3939,"ology":3940,"Ġyards":3941,"Ġfully":3942,"Ġwicked":3943,"acity":3944,"Ġmas":3945,"Ġescap":3946,"Ġpowers":3947,"woman":3948,"Ġfierce":3949,"sw":3950,"Ġgrown":3951,"Ġordered":3952,"Ġpolitical":3953,"Ġresp":3954,"Ġsoldier":3955,"Ġassu":3956,"Ġrobert":3957,"rance":3958,"Ġfortun":3959,"Ġglory":3960,"wild":3961,"ta":3962,"Ġstorm":3963,"Ġsex":3964,"Ġdozen":3965,"ograph":3966,"Ġbuilding":3967,"Ġbridge":3968,"feel":3969,"Ġhearts":3970,"Ġlat":3971,"Ġwed":3972,"Ġsettle":3973,"seen":3974,"Ġwindows":3975,"Ġnearer":3976,"ias":3977,"Ġsurface":3978,"Ġtruly":3979,"Ġrare":3980,"Ġoccurred":3981,"Ġrul":3982,"Ġappoint":3983,"Ġwore":3984,"Ġthrow":3985,"Ġlistened":3986,"Ġamb":3987,"Ġprogress":3988,"esh":3989,"Ġdwell":3990,"hant":3991,"Ġah":3992,"sure":3993,"Ġnoticed":3994,"Ġsatisfied":3995,"Ġsuffer":3996,"Ġkit":3997,"Ġvig":3998,"Ġcontent":3999,"ndered":4000,"lls":4001,"Ġpos":4002,"unch":4003,"Ġshoot":4004,"Ġproof":4005,"Ġanne":4006,"bits":4007,"bro":4008,"Ġsmiling":4009,"pur":4010,"erous":4011,"Ġsuspect":4012,"Ġbore":4013,"Ġmovement":4014,"rec":4015,"umber":4016,"ole":4017,"Ġbid":4018,"Ġabsolutely":4019,"--'":4020,"Ġrecord":4021,"Ġdisappoint":4022,"angers":4023,"Ġbon":4024,"Ġdrove":4025,"sil":4026,"Ġaid":4027,"abs":4028,"Ġanybody":4029,"better":4030,"ulf":4031,"Ġadvanced":4032,"Ġhuge":4033,"world":4034,"ublic":4035,"Ġfreed":4036,"kins":4037,"rap":4038,"necess":4039,"Ġshel":4040,"orous":4041,"Ġnaturally":4042,"Ġusually":4043,"Ġrelief":4044,"appear":4045,"enn":4046,"Ġdun":4047,"zy":4048,"attered":4049,"Ġgle":4050,"Ġnoise":4051,"stru":4052,"umn":4053,"Ġexplain":4054,"Ġbelief":4055,"tle":4056,"estic":4057,"iest":4058,"thus":4059,"Ġcouple":4060,"looked":4061,"expected":4062,"Ġscience":4063,"aker":4064,"Ġnine":4065,"Ġteeth":4066,"dou":4067,"Ġpu":4068,"Ġliberty":4069,"mount":4070,"Ġhurry":4071,"mal":4072,"Ġdemanded":4073,"met":4074,"Ġghost":4075,"Ġmercy":4076,"Ġdesper":4077,"Ġba":4078,"isc":4079,"Ġener":4080,"Ġtend":4081,"Ġequally":4082,"mad":4083,"ieved":4084,"\"--":4085,"Ġdriven":4086,"Ġadmitted":4087,"Ġmoving":4088,"Ġactually":4089,"country":4090,"Ġgrowing":4091,"Ġfavor":4092,"abel":4093,"Ġminds":4094,"Ġbusy":4095,"ustomed":4096,"Ġgift":4097,"15":4098,"Ġevents":4099,"gen":4100,"rs":4101,"Ġinside":4102,"Ġjoined":4103,"asped":4104,"Ġworked":4105,"inal":4106,"Ġwet":4107,"Ġseek":4108,"Ġearl":4109,"Ġstead":4110,"enth":4111,"win":4112,"ths":4113,"love":4114,"atures":4115,"Ġsooner":4116,"Ġexpressed":4117,"Ġpark":4118,"Ġpan":4119,"sch":4120,"Ġlaughing":4121,"Ġplants":4122,"Ġexer":4123,"since":4124,"lie":4125,"poss":4126,"Ġfranc":4127,"Ġdirectly":4128,"Ġjoin":4129,"Ġpaused":4130,"Ġappears":4131,"gentle":4132,"itiz":4133,"Ġdisg":4134,"Ġpersu":4135,"Ġassured":4136,"bted":4137,"Ġgrim":4138,"Ġmadame":4139,"Ġfoolish":4140,"fulness":4141,"Ġexec":4142,"Ġprice":4143,"Ġadvance":4144,"cer":4145,"Ġtail":4146,"Ġnur":4147,".[":4148,"Ġdoct":4149,"cor":4150,"Ġcarefully":4151,"Ġbos":4152,"inging":4153,"Ġadvice":4154,"chen":4155,"Ġfighting":4156,"Ġpieces":4157,"Ġservants":4158,"Ġportion":4159,"Ġgather":4160,"Ġing":4161,"Ġmile":4162,"Ġcup":4163,"ray":4164,"Ġyield":4165,"wick":4166,"Ġcapital":4167,"Ġentertain":4168,"gling":4169,"Ġtempt":4170,"Ġhence":4171,"Ġkeen":4172,"Ġships":4173,"Ġlifted":4174,"soci":4175,"Ġdangerous":4176,"Ġaccident":4177,"Ġtum":4178,"Ġdiscover":4179,"Ġsigh":4180,"Ġsuit":4181,"among":4182,"Ġawful":4183,"fam":4184,"Ġseized":4185,"moment":4186,"Ġplayed":4187,"Ġimportance":4188,"Ġpossibly":4189,"comfort":4190,"Ġceased":4191,"Ġbegun":4192,"Ġgri":4193,"Ġsympathy":4194,"Ġmarked":4195,"Ġleading":4196,"Ġconfess":4197,"Ġmistress":4198,"ustration":4199,"Ġtaught":4200,"asc":4201,"Ġmeasure":4202,"Ġdreadful":4203,"hon":4204,"Ġpriest":4205,"Ġunited":4206,"Ġprefer":4207,"suff":4208,"contin":4209,"Ġwounded":4210,"Ġadmit":4211,"Ġwag":4212,"Ġinquir":4213,"ental":4214,"Ġcott":4215,"went":4216,"Ġvir":4217,"Ġlouis":4218,"Ġ14":4219,"Ġdressed":4220,"Ġaugust":4221,"Ġbob":4222,"Ġwelcome":4223,"Ġflower":4224,"Ġcompar":4225,"Ġsuffered":4226,"eyes":4227,"rant":4228,"Ġdesign":4229,"Ġremarkable":4230,"verse":4231,"Ġice":4232,"Ġgathered":4233,"Ġremind":4234,"ĠâĢĺ":4235,"Ġnamed":4236,"Ġbirth":4237,"Ġhal":4238,"Ġattract":4239,"Ġoccupied":4240,"ldom":4241,"Ġclub":4242,"Ġtar":4243,"var":4244,"icious":4245,"ensive":4246,"Ġguns":4247,"Ġsupper":4248,"ustri":4249,"Ġrome":4250,"Ġterror":4251,"hal":4252,"Ġserve":4253,"Ġsuperior":4254,"Ġoriginal":4255,"Ġmistake":4256,"enough":4257,"Ġthinks":4258,"Ġsingular":4259,"Ġ13":4260,"ril":4261,"Ġlone":4262,"Ġsucceeded":4263,"Ġyesterday":4264,"ternal":4265,"Ġhearing":4266,"ws":4267,"Ġamaz":4268,"remon":4269,"Ġdespair":4270,"iosity":4271,"Ġseason":4272,"Ġresem":4273,"Ġhopes":4274,"gypt":4275,"ĠâĢĻ":4276,"Ġiii":4277,"Ġunfortun":4278,"Ġpier":4279,"Ġpopular":4280,"isher":4281,"aver":4282,"mense":4283,"Ġdouble":4284,"seemed":4285,"Ġpause":4286,"Ġregarded":4287,"Ġfruit":4288,"pless":4289,"Ġbuy":4290,"Ġmidst":4291,"Ġdaily":4292,"Ġknees":4293,"opp":4294,"olly":4295,"return":4296,"mes":4297,"Ġbrain":4298,"Ġrub":4299,"Ġpartly":4300,"Ġcentury":4301,"Ġimpat":4302,"Ġabsence":4303,"Ġcontro":4304,"umph":4305,"heard":4306,"ams":4307,"Ġshouted":4308,"Ġconcerned":4309,"mis":4310,"Ġplant":4311,"Ġgay":4312,"Ġchamber":4313,"bon":4314,"Ġpulled":4315,"Ġale":4316,"Ġelect":4317,"Ġkindly":4318,"Ġsize":4319,"line":4320,"Ġkingdom":4321,"play":4322,"Ġcountenance":4323,"etch":4324,"Ġinstantly":4325,"oring":4326,"pol":4327,"Ġindign":4328,"Ġimpression":4329,"Ġfalling":4330,"mist":4331,"Ġassem":4332,"Ġsplendid":4333,"ivered":4334,"Ġminister":4335,"Ġunknown":4336,"rich":4337,"Ġwes":4338,"ander":4339,"Ġcart":4340,"change":4341,"Ġbaby":4342,"Ġqual":4343,"ae":4344,"Ġprincess":4345,"Ġdrop":4346,"uce":4347,"Ġseated":4348,"Ġencour":4349,"Ġstands":4350,"joh":4351,"Ġconditions":4352,"Ġparliament":4353,"Ġcalling":4354,"Ġsche":4355,"Ġimagination":4356,"Ġproceeded":4357,"Ġow":4358,"Ġnecessity":4359,"Ġtask":4360,"Ġflesh":4361,"Ġtemple":4362,"Ġprospect":4363,"Ġintellect":4364,"Ġrequired":4365,"Ġlovely":4366,"Ġsevere":4367,"anything":4368,"aling":4369,"Ġcompanions":4370,"Ġvoy":4371,"ieur":4372,"coming":4373,"white":4374,"Ġfairly":4375,"erson":4376,"Ġremains":4377,"Ġglanced":4378,"Ġsought":4379,"Ġgroup":4380,"case":4381,"Ġcro":4382,"Ġexcitement":4383,"ik":4384,"john":4385,"Ġarthur":4386,"almost":4387,"Ġrefused":4388,"find":4389,"12":4390,"Ġrejo":4391,"consider":4392,"Ġstruggle":4393,"Ġassoci":4394,"enced":4395,"Ġstyle":4396,"Ġelder":4397,"themselves":4398,"vey":4399,"called":4400,"Ġvague":4401,"Ġcam":4402,"Ġstones":4403,"Ġproport":4404,"certainly":4405,"Ġep":4406,"Ġhoped":4407,"Ġpill":4408,"plic":4409,"door":4410,"Ġskin":4411,"Ġpowerful":4412,"uls":4413,"Ġfac":4414,"Ġstars":4415,"16":4416,"Ġchoose":4417,"Ġserved":4418,"icks":4419,"pted":4420,"Ġhut":4421,"Ġresolved":4422,"natural":4423,"Ġloose":4424,"Ġcurt":4425,"Ġparticularly":4426,"Ġeli":4427,"ulated":4428,"ighed":4429,"Ġweary":4430,"Ġvoices":4431,"Ġtot":4432,"Ġsatisfaction":4433,"Ġsen":4434,"Ġlion":4435,"Ġcorre":4436,"Ġly":4437,"Ġsunday":4438,"Ġfred":4439,"Ġcarrying":4440,"Ġcheck":4441,"Ġboats":4442,"Ġwaters":4443,"Ġrooms":4444,"Ġlin":4445,"Ġmood":4446,"Ġblank":4447,"Ġrecoll":4448,"Ġthomas":4449,"Ġroman":4450,"Ġwisdom":4451,"Ġconqu":4452,"Ġasleep":4453,"pret":4454,"Ġfreedom":4455,"hamed":4456,"Ġmach":4457,"Ġcomr":4458,"reason":4459,"mod":4460,"sa":4461,"Ġpolic":4462,"rate":4463,"Ġhighest":4464,"Ġhospit":4465,"lier":4466,"took":4467,"Ġcult":4468,"Ġwholly":4469,"Ġclearly":4470,"Ġchat":4471,"Ġdivine":4472,"Ġmurder":4473,"Ġros":4474,"Ġresist":4475,"Ġprinciple":4476,"Ġruin":4477,"Ġtrad":4478,"Ġexped":4479,"same":4480,"ilst":4481,"whether":4482,"dear":4483,"matter":4484,"inking":4485,"ara":4486,"Ġze":4487,"Ġamid":4488,"onsieur":4489,"iqu":4490,"atory":4491,"ints":4492,"sent":4493,"Ġsaf":4494,"captain":4495,"ext":4496,"cture":4497,"Ġcredit":4498,"Ġcig":4499,"Ġlevel":4500,"Ġdistr":4501,"va":4502,"Ġsevent":4503,"Ġdying":4504,"Ġado":4505,"Ġeducation":4506,"Ġbrill":4507,"Ġinformation":4508,"Ġprisoner":4509,"Ġpossessed":4510,"ims":4511,"Ġack":4512,"aches":4513,"net":4514,"Ġinterested":4515,"Ġrum":4516,"Ġstrike":4517,"Ġpoetry":4518,"Ġhell":4519,"Ġscott":4520,"aming":4521,"overy":4522,"Ġmult":4523,"christ":4524,"Ġcontem":4525,"Ġrelation":4526,"Ġetc":4527,"Ġsmith":4528,"udden":4529,"Ġpresented":4530,"Ġpardon":4531,"Ġrag":4532,"Ġenemies":4533,"Ġsomehow":4534,"ipped":4535,";\"":4536,"iation":4537,"Ġcontrary":4538,"Ġox":4539,"Ġextraordinary":4540,"tow":4541,"ashing":4542,"Ġlover":4543,"Ġcorrespond":4544,"Ġmud":4545,"Ġextent":4546,"Ġdollars":4547,"Ġbree":4548,"Ġfrag":4549,"Ġacknow":4550,"Ġexceed":4551,"beaut":4552,"nce":4553,"Ġpil":4554,"arse":4555,"Ġaccompl":4556,"Ġchapter":4557,"Ġretreat":4558,"urd":4559,"Ġhorn":4560,"Ġtrack":4561,"Ġasking":4562,"Ġpin":4563,"Ġdoors":4564,"gre":4565,"Ġjan":4566,"Ġconscience":4567,"Ġjes":4568,"Ġexcited":4569,"Ġease":4570,"Ġclouds":4571,"Ġmilitary":4572,"Ġhit":4573,"cean":4574,"Ġsomebody":4575,"Ġanger":4576,"ads":4577,"ission":4578,"Ġplenty":4579,"vention":4580,"Ġdescribed":4581,"Ġmurmured":4582,"Ġguide":4583,"inced":4584,"Ġclosely":4585,"unning":4586,"Ġcrew":4587,"bridge":4588,"osen":4589,"Ġvision":4590,"Ġvirtue":4591,"common":4592,"Ġnodded":4593,"Ġindians":4594,"hur":4595,"black":4596,"fee":4597,"Ġsprang":4598,"Ġphilip":4599,"Ġproduce":4600,"ena":4601,"Ġreasons":4602,"Ġacquaintance":4603,"Ġsmooth":4604,"Ġahead":4605,"Ġjul":4606,"fire":4607,"Ġkindness":4608,"pat":4609,"pelled":4610,"Ġdignity":4611,"Ġprofessor":4612,"Ġprofession":4613,"13":4614,"Ġdawn":4615,"Ġnevertheless":4616,"sudden":4617,"respect":4618,"Ġthrust":4619,"does":4620,"Ġgovernor":4621,"Ġwrit":4622,"anied":4623,"iance":4624,"ller":4625,"Ġgods":4626,"Ġcolle":4627,"oms":4628,"Ġcentre":4629,"Ġassert":4630,"Ġarrival":4631,"Ġconsequence":4632,"Ġcas":4633,"illa":4634,"Ġworn":4635,"Ġdogs":4636,"astic":4637,"Ġmessage":4638,"Ġuseful":4639,"non":4640,"vious":4641,"Ġtheory":4642,"Ġended":4643,"Ġflight":4644,"Ġfamous":4645,"morning":4646,"Ġexplan":4647,"taken":4648,"Ġcolor":4649,"Ġclever":4650,"Ġinquired":4651,"Ġfemale":4652,"Ġbaron":4653,"pher":4654,"break":4655,"question":4656,"ulse":4657,"born":4658,"oused":4659,"izing":4660,"Ġcomfortable":4661,"Ġbodies":4662,"Ġrapidly":4663,"Ġintention":4664,"Ġdor":4665,"Ġgrief":4666,"Ġmaint":4667,"14":4668,"Ġimmense":4669,"Ġgenius":4670,"Ġvolume":4671,"Ġburning":4672,"satisf":4673,"charac":4674,"Ġash":4675,"low":4676,"care":4677,"iable":4678,"Ġtreated":4679,"Ġcapable":4680,"quar":4681,"Ġfought":4682,"Ġ20":4683,"Ġrisk":4684,"Ġindif":4685,"acles":4686,"Ġinterrupted":4687,"Ġprim":4688,"Ġcareful":4689,"Ġdelicate":4690,"ateful":4691,"Ġsoftly":4692,"Ġcitiz":4693,"Ġrif":4694,"Ġlarger":4695,"Ġdeeply":4696,"Ġpressed":4697,"ris":4698,"rom":4699,"Ġ(_":4700,"Ġdesired":4701,"owned":4702,"Ġescaped":4703,"Ġperform":4704,"Ġvers":4705,"Ġcraw":4706,"Ġhorror":4707,"dire":4708,"Ġaccepted":4709,"Ġislands":4710,"Ġmate":4711,"Ġcompletely":4712,"Ġsacred":4713,"Ġtrail":4714,"Ġseldom":4715,"const":4716,"ators":4717,"usual":4718,"asing":4719,"Ġexcuse":4720,"uding":4721,"Ġnovel":4722,"Ġmont":4723,"Ġgradually":4724,"Ġmembers":4725,"both":4726,"Ġyounger":4727,"Ġpractice":4728,"Ġlit":4729,"acon":4730,"Ġstories":4731,"bid":4732,"anim":4733,"hall":4734,"het":4735,"illustration":4736,"Ġinnocent":4737,"Ġbuck":4738,"Ġwhisper":4739,"Ġsomewhere":4740,"iven":4741,"Ġfare":4742,"Ġreligious":4743,"Ġcritic":4744,"Ġprinciples":4745,"bour":4746,"sol":4747,"Ġnational":4748,"Ġrig":4749,"Ġneeded":4750,"Ġbehold":4751,"Ġinstru":4752,"Ġcuriosity":4753,"Ġrushed":4754,"Ġsounds":4755,"ref":4756,"mag":4757,"Ġconstant":4758,"Ġfields":4759,"pes":4760,"Ġobjects":4761,"oft":4762,"Ġjoe":4763,"Ġmeas":4764,"Ġvisible":4765,"Ġanxiety":4766,"sue":4767,"Ġunable":4768,"table":4769,"cho":4770,"Ġfled":4771,"Ġgained":4772,"Ġ[_":4773,"Ġstuff":4774,"Ġsafety":4775,"Ġrecall":4776,"Ġcliff":4777,"Ġstairs":4778,"stre":4779,"Ġmild":4780,"Ġhadn":4781,"Ġcord":4782,"uten":4783,"Ġfee":4784,"person":4785,"Ġevident":4786,"nel":4787,"ancholy":4788,"Ġtells":4789,"coun":4790,"Ġfo":4791,"urity":4792,"cut":4793,"ential":4794,"Ġlabour":4795,"Ġjob":4796,"Ġhidden":4797,"Ġrust":4798,"Ġgently":4799,"Ġhelped":4800,"bow":4801,"Ġspec":4802,"garet":4803,"rounded":4804,"Ġinfinite":4805,"Ġhighly":4806,"Ġtriumph":4807,"iday":4808,"Ġvic":4809,"je":4810,"name":4811,"Ġspare":4812,"lic":4813,"ration":4814,"Ġegypt":4815,"disc":4816,"Ġprotest":4817,"hip":4818,"armed":4819,"Ġchoice":4820,"umes":4821,"Ġamuse":4822,"Ġmiserable":4823,"Ġfigures":4824,"Ġmystery":4825,"Ġrefer":4826,"Ġpipe":4827,"Ġaccustomed":4828,"mat":4829,"Ġexhib":4830,"Ġutterly":4831,"Ġrolled":4832,"Ġfifteen":4833,"Ġthroat":4834,"alian":4835,"Ġcurrent":4836,"Ġashamed":4837,"years":4838,"ilities":4839,"Ġmars":4840,"uments":4841,"Ġbul":4842,"Ġfinger":4843,"Ġthunder":4844,"done":4845,"Ġsentiment":4846,"english":4847,"Ġinvol":4848,"lying":4849,"Ġbearing":4850,"strong":4851,"Ġunto":4852,"sim":4853,"Ġwhenever":4854,"Ġrecei":4855,"Ġmanif":4856,"conc":4857,"Ġcaval":4858,"eous":4859,"Ġstout":4860,"Ġlonely":4861,"nay":4862,"gone":4863,"Ġnav":4864,"Ġtight":4865,"Ġsheep":4866,"Ġaband":4867,"ization":4868,"Ġbrand":4869,"lot":4870,"Ġcontempt":4871,"Ġfold":4872,"Ġflag":4873,"prom":4874,"==":4875,"list":4876,"Ġgets":4877,"atively":4878,"Ġscorn":4879,"Ġfrightened":4880,"Ġdram":4881,"Ġsons":4882,"Ġplaying":4883,"appro":4884,"left":4885,"Ġstepped":4886,"rather":4887,"ds":4888,"ef":4889,"Ġliterature":4890,"Ġocean":4891,"power":4892,"Ġrush":4893,"Ġcircle":4894,"vo":4895,"Ġnewsp":4896,"anches":4897,"Ġindepend":4898,"Ġstiff":4899,"Ġrespons":4900,"Ġarranged":4901,"Ġneighbour":4902,"20":4903,"unted":4904,"chant":4905,"Ġpublished":4906,"Ġtent":4907,"rifice":4908,"Ġmanners":4909,"Ġkey":4910,"Ġsigns":4911,"keep":4912,"Ġblame":4913,"Ġling":4914,"gover":4915,"Ġadventure":4916,"Ġfaithful":4917,"Ġcouncil":4918,"Ġweap":4919,"Ġbought":4920,"Ġgrant":4921,"Ġrude":4922,"Ġremoved":4923,"Ġenthus":4924,"girl":4925,"Ġsour":4926,"Ġentrance":4927,"Ġirish":4928,"Ġflying":4929,"Ġobtained":4930,"Ġcrack":4931,"Ġspend":4932,"Ġinhabit":4933,"fle":4934,"Ġtal":4935,"utions":4936,"phe":4937,"wall":4938,"Ġfeatures":4939,"illing":4940,"Ġhole":4941,"Ġlest":4942,"Ġkings":4943,"Ġclo":4944,"Ġnay":4945,"Ġwondered":4946,"Ġproposed":4947,"Ġshade":4948,"Ġwashing":4949,"shine":4950,"Ġobserve":4951,"Ġnerv":4952,"others":4953,"Ġnotes":4954,"Ġ186":4955,"near":4956,"Ġparties":4957,"Ġmeal":4958,"rived":4959,"high":4960,"pir":4961,"Ġthoroughly":4962,"Ġsym":4963,"Ġshowing":4964,"Ġaddressed":4965,"Ġsar":4966,"Ġfriendly":4967,"Ġbosom":4968,"Ġapproached":4969,"utation":4970,"Ġgreet":4971,"19":4972,"soon":4973,"Ġbringing":4974,"Ġmankind":4975,"Ġforgive":4976,"Ġreckon":4977,"Ġmoreover":4978,"Ġpapa":4979,"Ġextremely":4980,"cks":4981,"Ġburied":4982,"tense":4983,"oqu":4984,"lla":4985,"believe":4986,"Ġsubjects":4987,"spr":4988,"Ġquality":4989,"Ġconsideration":4990,"asions":4991,"Ġcy":4992,"Ġsecure":4993,"Ġgreek":4994,"phil":4995,"ige":4996,"Ġwishes":4997,"Ġcard":4998,"Ġreflect":4999,"Ġwheel":5000,"Ġwo":5001,"Ġwaste":5002,"Ġtitle":5003,"icip":5004,"Ġhunt":5005,"Ġshock":5006,"Ġcottage":5007,"Ġunhappy":5008,"tar":5009,"rit":5010,"Ġwound":5011,"Ġcrim":5012,"mos":5013,"Ġ{":5014,"Ġjane":5015,"ounce":5016,"Ġspanish":5017,"Ġalarm":5018,"Ġjealous":5019,"boat":5020,"Ġerr":5021,"ais":5022,"erning":5023,"Ġthroughout":5024,"Ġswept":5025,"Ġplainly":5026,"Ġproportion":5027,"acqu":5028,"Ġsport":5029,"vil":5030,"Ġgrie":5031,"burg":5032,"erves":5033,"ivity":5034,"Ġchosen":5035,"Ġnumbers":5036,"Ġbecomes":5037,"Ġconclusion":5038,"Ġbrow":5039,"Ġunf":5040,"Ġruss":5041,"mark":5042,"Ġsus":5043,"Ġreward":5044,"Ġaspect":5045,"Ġ...":5046,"Ġdavid":5047,"Ġmatch":5048,"till":5049,"Ġscream":5050,"uries":5051,"Ġcho":5052,"pleasant":5053,"asted":5054,"za":5055,"abeth":5056,"Ġdoctr":5057,"Ġbecoming":5058,"plex":5059,"cles":5060,"Ġvoyage":5061,"thou":5062,"Ġdance":5063,"agger":5064,"Ġgain":5065,"turned":5066,"Ġapproach":5067,"Ġseries":5068,"Ġlucy":5069,"hist":5070,"Ġslightly":5071,"Ġhu":5072,"Ġmission":5073,"six":5074,"ores":5075,"Ġredu":5076,"each":5077,"Ġinclined":5078,"din":5079,"sus":5080,"Ġwhilst":5081,"Ġfleet":5082,"Ġprayer":5083,"therefore":5084,"Ġclergy":5085,"Ġbrothers":5086,"Ġreven":5087,"gs":5088,"upid":5089,"Ġrendered":5090,"Ġcheeks":5091,"Ġpractical":5092,"ixt":5093,"home":5094,"Ġreturning":5095,"eding":5096,"Ġsell":5097,"lebr":5098,"Ġslept":5099,"Ġsuppl":5100,"Ġdoubtless":5101,"Ġabsurd":5102,"Ġeverywhere":5103,"Ġuneas":5104,"Ġcharm":5105,"xx":5106,"rying":5107,"Ġnotion":5108,"iture":5109,"ishes":5110,"Ġages":5111,"Ġflung":5112,"Ġkitchen":5113,"Ġavoid":5114,"Ġspark":5115,"Ġsuffering":5116,"Ġconnected":5117,"Ġrev":5118,"Ġrage":5119,"Ġprecious":5120,"Ġcharacters":5121,"atched":5122,"Ġincreased":5123,"ares":5124,"Ġedward":5125,"real":5126,"Ġrepro":5127,"Ġcheek":5128,"Ġconfusion":5129,"Ġsolid":5130,"lle":5131,"Ġthanks":5132,"Ġpicked":5133,"Ġlaughter":5134,"Ġaver":5135,"Ġabroad":5136,"Ġolder":5137,"Ġdebt":5138,"sk":5139,"amb":5140,"Ġmartin":5141,"Ġslave":5142,"Ġgazed":5143,"gate":5144,"Ġhabits":5145,"Ġcharming":5146,"Ġimpress":5147,"Ġhers":5148,"ette":5149,"Ġbrig":5150,"Ġmour":5151,"Ġprevious":5152,"vy":5153,"rep":5154,"tem":5155,"Ġplat":5156,"_;":5157,"Ġcattle":5158,"ilty":5159,"Ġduties":5160,"herself":5161,"Ġactive":5162,"camp":5163,"Ġtype":5164,"Ġtrial":5165,"Ġpushed":5166,"Ġfever":5167,"Ġadmiration":5168,"Ġwing":5169,"thank":5170,"inate":5171,"Ġkissed":5172,"mir":5173,"Ġknock":5174,"everything":5175,"myself":5176,"Ġmysterious":5177,"fig":5178,"Ġlately":5179,"Ġtower":5180,"sal":5181,"Ġstrict":5182,"Ġblessed":5183,"utenant":5184,"Ġwings":5185,"sometimes":5186,"Ġaim":5187,"eless":5188,"Ġteach":5189,"Ġbreaking":5190,"Ġstared":5191,"Ġsouls":5192,"Ġlock":5193,"equ":5194,"Ġexha":5195,"offee":5196,"Ġargument":5197,"Ġphysical":5198,"Ġmale":5199,"Ġmerry":5200,"necessary":5201,"Ġstan":5202,"swe":5203,"Ġcreatures":5204,"Ġmember":5205,"Ġsteady":5206,"aks":5207,"Ġrad":5208,"Ġemotion":5209,"Ġlistening":5210,"Ġwhist":5211,"Ġquant":5212,"Ġintense":5213,"Ġdelighted":5214,"Ġproject":5215,"Ġdrift":5216,"Ġtravel":5217,"udes":5218,"Ġeaster":5219,"hast":5220,"ension":5221,"Ġblaz":5222,"nature":5223,"Ġmode":5224,"burn":5225,"Ġheap":5226,"pen":5227,"brought":5228,"Ġemployed":5229,"Ġconcerning":5230,"van":5231,"Ġemer":5232,"ese":5233,"Ġasce":5234,"enger":5235,"point":5236,"plain":5237,"Ġming":5238,"Ġprobable":5239,"Ġbase":5240,"Ġpurcha":5241,"achel":5242,"Ġdreams":5243,"ids":5244,"inks":5245,"uable":5246,"twenty":5247,"isions":5248,"Ġdig":5249,"Ġire":5250,"Ġaccompanied":5251,"urance":5252,"ulted":5253,"Ġtheat":5254,"Ġliterary":5255,"Ġfox":5256,"trans":5257,"dri":5258,"lim":5259,"Ġstriking":5260,"Ġchest":5261,"ulate":5262,"Ġbarbar":5263,"Ġmamma":5264,"Ġhollow":5265,"character":5266,"Ġstrongly":5267,"during":5268,"ums":5269,"enes":5270,"Ġlack":5271,"Ġdisappeared":5272,"Ġay":5273,"wers":5274,"prise":5275,"prin":5276,"Ġoccasionally":5277,"nds":5278,"exper":5279,"Ġlux":5280,"ago":5281,"Ġapt":5282,"Ġsom":5283,"Ġhind":5284,"otes":5285,"words":5286,"Ġcloth":5287,"Ġward":5288,"whom":5289,"Ġends":5290,"----\"":5291,"hands":5292,"second":5293,"Ġdiscovery":5294,"icted":5295,"Ġmagnific":5296,"taking":5297,"Ġmonsieur":5298,"ache":5299,"Ġfeared":5300,"rences":5301,"Ġsinging":5302,"tom":5303,"Ġspl":5304,"Ġprincipal":5305,"Ġafric":5306,"Ġquarrel":5307,"Ġraise":5308,"bird":5309,"understand":5310,"Ġshows":5311,"Ġrelations":5312,"Ġlights":5313,"Ġgaze":5314,"maid":5315,"Ġconstitution":5316,"Ġpraise":5317,"Ġscotland":5318,"Ġhitherto":5319,"Ġrear":5320,"small":5321,"Ġprotect":5322,"Ġrestr":5323,"hill":5324,"Ġenergy":5325,"Ġcrime":5326,"retch":5327,"Ġaddition":5328,"Ġnove":5329,"Ġpolice":5330,"Ġfrancis":5331,"rier":5332,"hearted":5333,"Ġbowed":5334,"Ġpros":5335,"Ġriding":5336,"saw":5337,"Ġliber":5338,"Ġdistress":5339,"Ġdesperate":5340,"Ġplans":5341,"Ġindul":5342,"Ġwidow":5343,"alph":5344,"worthy":5345,"Ġbol":5346,"Ġ25":5347,"ele":5348,"Ġdistinguished":5349,"rid":5350,"Ġhunting":5351,"Ġwhence":5352,"onsense":5353,"Ġawa":5354,"Ġtro":5355,"Ġqueer":5356,"Ġforehead":5357,"Ġimmediate":5358,"dark":5359,"Ġnatives":5360,"Ġphr":5361,"Ġtext":5362,"Ġpuzz":5363,"Ġdece":5364,"Ġindia":5365,"arded":5366,"perfect":5367,"Ġarose":5368,"Ġappreci":5369,"othe":5370,"Ġmelancholy":5371,"Ġthrone":5372,"Ġnations":5373,"riot":5374,"Ġunconscious":5375,"exc":5376,"bol":5377,"Ġpatience":5378,"ault":5379,"Ġlan":5380,"Ġbrook":5381,"making":5382,"Ġneeds":5383,"Ġintim":5384,",âĢĻ":5385,"Ġwretched":5386,"Ġframe":5387,"Ġmic":5388,"Ġchap":5389,"Ġhistor":5390,"next":5391,"Ġfrequently":5392,"Ġskill":5393,"Ġprepar":5394,"Ġsufficiently":5395,"bye":5396,"Ġorn":5397,"Ġnumerous":5398,"Ġfriendship":5399,"Ġconven":5400,"Ġvirgin":5401,"Ġrang":5402,"Ġinfer":5403,"Ġhaw":5404,"whose":5405,"Ġcalls":5406,"coll":5407,"dem":5408,"Ġprofound":5409,"Ġeffects":5410,"Ġsteep":5411,"Ġinfant":5412,"prob":5413,"past":5414,"Ġaffected":5415,"Ġterm":5416,"Ġralph":5417,"Ġknife":5418,"Ġchiefly":5419,"ule":5420,"Ġmanaged":5421,"Ġexplanation":5422,"Ġinterview":5423,"Ġrender":5424,"Ġcontinue":5425,"doubt":5426,"ological":5427,"Ġviolent":5428,"ĠÂ":5429,"cientific":5430,"Ġshining":5431,"Ġsees":5432,"Ġconvinced":5433,"Ġmisery":5434,"Ġconsent":5435,"Ġweakness":5436,"Ġfinal":5437,"rous":5438,"also":5439,"sea":5440,"Ġarrest":5441,"Ġpatient":5442,"Ġegg":5443,"Ġsupply":5444,"Ġassistance":5445,"Ġobst":5446,"whole":5447,"umped":5448,"Ġcorrect":5449,"peare":5450,"Ġ30":5451,"nation":5452,"Ġmadam":5453,"liness":5454,"Ġsuspicion":5455,"west":5456,"wit":5457,"close":5458,"Ġped":5459,"Ġdomestic":5460,"Ġparents":5461,"iot":5462,"ulgar":5463,"Ġdelay":5464,"Ġmagic":5465,"Ġmounted":5466,"Ġax":5467,"arms":5468,"Ġunfortunate":5469,"conom":5470,"Ġperceived":5471,"yard":5472,"sey":5473,"Ġartist":5474,"Ġillustr":5475,"Ġworship":5476,"Ġuttered":5477,"except":5478,"Ġplate":5479,"Ġgenerous":5480,"Ġsank":5481,"Ġabrupt":5482,"Ġedition":5483,"bb":5484,"Ġhelpless":5485,"until":5486,"Ġpred":5487,"geon":5488,"iel":5489,"Ġenorm":5490,"Ġleaned":5491,"Ġviews":5492,"peror":5493,"Ġrab":5494,"Ġlap":5495,"Ġattitude":5496,"Ġturns":5497,"Ġswell":5498,"arrass":5499,"speak":5500,"Ġrope":5501,"Ġgest":5502,"Ġunderstanding":5503,"Ġlamp":5504,"effect":5505,"court":5506,"30":5507,"position":5508,"Ġimage":5509,"Ġinterests":5510,"Ġprompt":5511,"cied":5512,"Ġpretend":5513,"Ġgent":5514,"Ġobsc":5515,"ĠĠĠĠĠĠĠĠĠĠĠ":5516,"Ġsetting":5517,"cts":5518,"Ġpropos":5519,"Ġhastily":5520,"Ġaccur":5521,"phere":5522,"irs":5523,"Ġscr":5524,"told":5525,"Ġunion":5526,"Ġinformed":5527,"Ġleaf":5528,"shire":5529,"Ġwestern":5530,"ura":5531,"otted":5532,"enter":5533,"Ġshake":5534,"Ġprecise":5535,"Ġrefuse":5536,"Ġpreced":5537,"lay":5538,"fur":5539,"Ġactual":5540,"hope":5541,"post":5542,"days":5543,"children":5544,"uced":5545,"Ġcollect":5546,"Ġken":5547,"fortune":5548,"Ġarmed":5549,"suddenly":5550,"Ġhorrible":5551,"Ġrecom":5552,"Ġregiment":5553,"edy":5554,"hind":5555,"Ġmental":5556,"Ġtroubles":5557,"Ġrevolution":5558,"Ġwriter":5559,"Ġram":5560,"---":5561,"Ġlawyer":5562,"Ġprisoners":5563,"Ġleaning":5564,"stra":5565,"agree":5566,"Ġtu":5567,"Ġshelter":5568,"Ġuseless":5569,"Ġefforts":5570,"Ġbones":5571,"Ġidle":5572,"ante":5573,"Ġ't":5574,"idering":5575,"inent":5576,"Ġacquainted":5577,"Ġopinions":5578,"Ġtrembling":5579,"thy":5580,"oyal":5581,"forth":5582,"Ġtransl":5583,"Ġignorant":5584,"ique":5585,"ada":5586,"Ġdescription":5587,"Ġresumed":5588,"Ġhanging":5589,"Ġprosper":5590,"inity":5591,"Ġaven":5592,"Ġintelligence":5593,"Ġunexpected":5594,"vest":5595,"Ġstretched":5596,"Ġtreasure":5597,"opes":5598,"Ġannounced":5599,"Ġvac":5600,"Ġceremon":5601,"Ġangel":5602,"engers":5603,"Ġmuttered":5604,"Ġpainted":5605,"ode":5606,"Ġamongst":5607,"Ġdiam":5608,"Ġshru":5609,"ape":5610,"Ġeagerly":5611,"Ġwarning":5612,"money":5613,"stri":5614,"Ġrange":5615,"Ġug":5616,"Ġdisposed":5617,"Ġhanded":5618,"Ġaccordingly":5619,"gles":5620,"prof":5621,"osure":5622,"Ġguest":5623,"Ġdelightful":5624,"chester":5625,"Ġclerk":5626,"Ġlibr":5627,"success":5628,"Ġfatal":5629,"Ġwra":5630,"Ġflew":5631,"Ġwalter":5632,"Ġshadows":5633,"Ġpope":5634,"talk":5635,"force":5636,"pture":5637,"Ġsquire":5638,"Ġnegro":5639,"Ġwreck":5640,"Ġcomposed":5641,"jour":5642,"Ġwaist":5643,"Ġrequest":5644,"Ġstupid":5645,"coat":5646,"Ġfarmer":5647,"Ġlighted":5648,"Ġcopy":5649,"lor":5650,"Ġsurrounded":5651,"acted":5652,"Ġdave":5653,"Ġdomin":5654,"Ġperpet":5655,"Ġrights":5656,"Ġexception":5657,"Ġlikewise":5658,"Ġventure":5659,"Ġlands":5660,"vity":5661,"Ġutmost":5662,"although":5663,"smith":5664,"Ġprovided":5665,"lau":5666,"letter":5667,"cross":5668,"account":5669,"Ġjesus":5670,"idly":5671,"Ġcommission":5672,"Ġbranches":5673,"Ġours":5674,"Ġwinds":5675,"Ġbeach":5676,"fell":5677,"Ġguilty":5678,"Ġexert":5679,"Ġappeal":5680,"olet":5681,"obser":5682,"Ġscheme":5683,"Ġbrilliant":5684,"Ġmeat":5685,"Ġdiscour":5686,"Ġvictory":5687,"Ġitalian":5688,"inction":5689,"ban":5690,"Ġhesitated":5691,"Ġdared":5692,"Ġwave":5693,"lands":5694,"Ġfired":5695,"within":5696,"Ġbeha":5697,"Ġgates":5698,"fellow":5699,"Ġchin":5700,"Ġglorious":5701,"Ġresc":5702,"Ġlabor":5703,"Ġbottle":5704,"Ġhumble":5705,"Ġborne":5706,"Ġpig":5707,"Ġexercise":5708,"Ġcoffee":5709,"glass":5710,"affect":5711,"Ġintent":5712,"Ġwarri":5713,"diffic":5714,"Ġcollege":5715,"rold":5716,"Ġfourth":5717,"Ġnurse":5718,"aging":5719,"Ġyard":5720,"Ġcries":5721,"Ġguests":5722,"Ġretired":5723,"tri":5724,"Ġhousehold":5725,"Ġfeather":5726,"Ġach":5727,"Ġspiritual":5728,"business":5729,"Ġestate":5730,"Ġtax":5731,"Ġeve":5732,"Ġalike":5733,"Ġeternal":5734,"Ġitaly":5735,"Ġchanges":5736,"Ġwaves":5737,"live":5738,"Ġboots":5739,"Ġrequire":5740,"Ġshouldn":5741,"ula":5742,"Ġslipped":5743,"Ġbark":5744,"brother":5745,"omin":5746,"rific":5747,"Ġinstr":5748,"Ġappointed":5749,"Ġwi":5750,"kward":5751,"tree":5752,"Ġeliz":5753,"Ġ24":5754,"Ġcelebr":5755,"ocr":5756,"itate":5757,"Ġflood":5758,"Ġinhabitants":5759,"Ġdeny":5760,"Ġarab":5761,"Ġsorts":5762,"true":5763,"Ġbanks":5764,"full":5765,"Ġdeliber":5766,"utter":5767,"11":5768,"Ġdefence":5769,"Ġcraft":5770,"walk":5771,"Ġridic":5772,"ĠĠĠĠĠĠĠĠĠĠĠĠĠĠĠĠĠĠĠĠĠĠĠĠĠĠĠĠĠĠĠĠĠĠĠĠĠĠĠĠ":5773,"Ġlane":5774,"Ġanywhere":5775,"Ġnearest":5776,"Ġobtain":5777,"horse":5778,"mus":5779,"Ġnin":5780,"vin":5781,"Ġbride":5782,"gard":5783,"iform":5784,"Ġacted":5785,"uary":5786,"import":5787,"Ġsighed":5788,"Ġkinds":5789,"Ġoct":5790,"best":5791,"Ġfollows":5792,"cript":5793,"Ġgrasp":5794,"Ġcoach":5795,"really":5796,"Ġvariety":5797,"Ġintr":5798,"Ġmax":5799,"Ġrecovered":5800,"Ġsisters":5801,"Ġassure":5802,"Ġcalcul":5803,"Ġpow":5804,"Ġtide":5805,"Ġengine":5806,"Ġestablished":5807,"lu":5808,"liest":5809,"knew":5810,"ships":5811,"Ġbrid":5812,"acob":5813,"Ġmarket":5814,"Ġanch":5815,"Ġgiant":5816,"Ġcauses":5817,"mere":5818,"aunt":5819,"Ġdate":5820,"Ġpisto":5821,"Ġmargaret":5822,"Ġseas":5823,"remember":5824,"athol":5825,"abled":5826,"Ġshaking":5827,"Ġscattered":5828,"olation":5829,"Ġsuccessful":5830,"Ġpainful":5831,"hour":5832,"Ġtroubled":5833,"sign":5834,"Ġsne":5835,"human":5836,"grand":5837,"pa":5838,"Ġsacrifice":5839,"Ġinvest":5840,"Ġpoems":5841,"Ġpartic":5842,"Ġremarks":5843,"onds":5844,"Ġincrease":5845,"Ġconsist":5846,"kerchief":5847,"Ġdivided":5848,"Ġpresident":5849,"Ġmistaken":5850,"hem":5851,"Ġnervous":5852,"ington":5853,"Ġdescended":5854,"Ġdegrees":5855,"eight":5856,"oston":5857,"offic":5858,"ĠĠĠĠĠĠĠĠĠĠ":5859,"Ġsecretary":5860,"Ġconcluded":5861,"Ġswall":5862,"open":5863,"----------------":5864,"Ġoak":5865,"cip":5866,"atives":5867,"Ġdevoted":5868,"Ġflame":5869,"Ġcave":5870,"intell":5871,"Ġwooden":5872,"Ġalice":5873,"Ġwondering":5874,"Ġsovere":5875,"gage":5876,"wart":5877,"Ġvanished":5878,"Ġcher":5879,"Ġgoods":5880,"Ġbush":5881,"piece":5882,"pic":5883,"Ġforces":5884,"Ġbert":5885,"death":5886,"yr":5887,"Ġreference":5888,"sight":5889,"Ġdeb":5890,"Ġgroan":5891,"poses":5892,"Ġcheerful":5893,"Ġmans":5894,"25":5895,"thel":5896,"exam":5897,"Ġshone":5898,"Ġnorthern":5899,"Ġoccasions":5900,"Ġdifficulties":5901,"Ġparted":5902,"steps":5903,"imag":5904,"Ġconnection":5905,"Ġsunshine":5906,"Ġseparate":5907,");":5908,"mary":5909,"regular":5910,"grat":5911,"Ġfreely":5912,"Ġthousands":5913,"posed":5914,"Ġdeparture":5915,"Ġdrunk":5916,"Ġproperly":5917,"dro":5918,"Ġsailor":5919,"Ġattended":5920,"aughters":5921,"Ġbeheld":5922,"Ġattached":5923,"Ġfolks":5924,"Ġcondem":5925,"mosphere":5926,"forward":5927,"ball":5928,"mouth":5929,"Ġimprove":5930,"accord":5931,"Ġbegged":5932,"large":5933,"Ġtrace":5934,"Ġlearning":5935,"Ġpron":5936,"Ġdetails":5937,"Ġfancied":5938,"ifying":5939,"emed":5940,"apped":5941,"Ġthine":5942,"othy":5943,"Ġmarble":5944,"Ġses":5945,"produ":5946,"Ġideal":5947,"Ġcared":5948,"quisite":5949,"Ġwolf":5950,"othing":5951,"Ġident":5952,"Ġju":5953,"dig":5954,"Ġemperor":5955,"passed":5956,"Ġalas":5957,"Ġcomplex":5958,"subject":5959,"Ġinsisted":5960,"Ġearlier":5961,"run":5962,"Ġanyone":5963,"Ġcultiv":5964,"Ġobe":5965,"Ġhated":5966,"Ġscri":5967,"Ġloves":5968,"Ġprivile":5969,"Ġpoison":5970,"circumst":5971,"Ġtied":5972,"Ġrenew":5973,"'.":5974,"Ġoffe":5975,"Ġpermitted":5976,"changed":5977,"Ġstephen":5978,"Ġsleeping":5979,"Ġcircumstance":5980,"Ġstaring":5981,"Ġugly":5982,"Ġmeanwhile":5983,"Ġsensible":5984,"].":5985,"keeper":5986,"Ġprud":5987,"inger":5988,"Ġjune":5989,"Ġclay":5990,"want":5991,"aph":5992,"leton":5993,"Ġjones":5994,"Ġspecul":5995,"Ġconsciousness":5996,"start":5997,"Ġintroduced":5998,"Ġhaste":5999,"towards":6000,"Ġrib":6001,"Ġpir":6002,"blem":6003,"Ġcrying":6004,"hundred":6005,"cannot":6006,"Ġleader":6007,"Ġdirected":6008,"isure":6009,"Ġnest":6010,"Ġcounsel":6011,"scar":6012,"isation":6013,"Ġinvent":6014,"apers":6015,"ienced":6016,"appearance":6017,"mid":6018,"Ġcountries":6019,"Ġjun":6020,"Ġqualities":6021,"eman":6022,"Ġnaked":6023,"Ġtrick":6024,"Ġgravely":6025,"Ġshell":6026,"Ġcommanded":6027,"Ġloving":6028,"Ġgrandfather":6029,"Ġimagined":6030,"Ġgallant":6031,"box":6032,"Ġlift":6033,"Ġpages":6034,"Ġfolly":6035,"town":6036,"Ġdemon":6037,"super":6038,"Ġapproaching":6039,"fashion":6040,"Ġenjoyed":6041,"Ġsteadily":6042,"Ġgran":6043,"Ġrifle":6044,"Ġtoler":6045,"gest":6046,"isk":6047,"Ġshakes":6048,"Ġcontempl":6049,"Ġflore":6050,"dest":6051,"mor":6052,"itch":6053,"Ġviolence":6054,"Ġstronger":6055,"Ġgrateful":6056,"Ġhungry":6057,"Ġstruct":6058,"Ġknocked":6059,"Ġprotection":6060,"Ġsharply":6061,"Ġsoil":6062,"Ġtear":6063,"cence":6064,"Ġrepublic":6065,"Ġempire":6066,"**":6067,"sum":6068,"prot":6069,"Ġslaves":6070,"Ġeconom":6071,"ho":6072,"ipper":6073,"hael":6074,"pert":6075,"gers":6076,"Ġseriously":6077,"Ġresults":6078,"class":6079,"Ġaloud":6080,"Ġslope":6081,"vert":6082,"Ġoath":6083,"henom":6084,"Ġmanage":6085,"oser":6086,"Ġadmire":6087,"Ġwake":6088,"Ġincident":6089,"Ġchim":6090,"sued":6091,"Ġstatement":6092,"Ġsore":6093,"Ġyonder":6094,"Ġfears":6095,"Ġfre":6096,"Ġacknowled":6097,"Ġray":6098,"Ġcontained":6099,"lessness":6100,"Ġeleven":6101,"greg":6102,"Ġignorance":6103,"Ġhid":6104,"ailing":6105,"Ġtorn":6106,"Ġbreeze":6107,"Ġunusual":6108,"Ġ182":6109,"Ġmortal":6110,"Ġreign":6111,"Ġarticle":6112,"Ġvisited":6113,"suppose":6114,"Ġdestroyed":6115,"already":6116,"Ġalle":6117,"Ġsteel":6118,"Ġcrept":6119,"Ġgazing":6120,"Ġbath":6121,"Ġmovements":6122,"Ġcanoe":6123,"compl":6124,"Ġreality":6125,"Ġlibrary":6126,"geant":6127,"Ġuniversal":6128,"Ġelizabeth":6129,"Ġstamp":6130,"Ġfil":6131,"bler":6132,"Ġglo":6133,"Ġportra":6134,"ere":6135,"Ġofficial":6136,"cest":6137,"Ġbade":6138,"Ġfame":6139,"rim":6140,"Ġwashington":6141,"plicity":6142,"Ġinher":6143,"Ġsincere":6144,"given":6145,"Ġlieutenant":6146,"iveness":6147,"Ġecho":6148,"rick":6149,"Ġroar":6150,"Ġnights":6151,"Ġacts":6152,"Ġphilosophy":6153,"Ġrested":6154,"Ġpursued":6155,"Ġthence":6156,"behind":6157,"wonder":6158,"mel":6159,"Ġelement":6160,"rers":6161,"Ġcounter":6162,"Ġcompre":6163,"Ġswim":6164,"friends":6165,"gain":6166,"wife":6167,"cipl":6168,"ata":6169,"Ġthrowing":6170,"Ġfix":6171,"Ġpurple":6172,"Ġsmaller":6173,"Ġdish":6174,"Ġagreeable":6175,"____":6176,"Ġsept":6177,"short":6178,"oos":6179,"Ġobed":6180,"Ġsupre":6181,"headed":6182,"Ġpall":6183,"Ġsilk":6184,"Ġslightest":6185,"iasm":6186,"Ġvulgar":6187,"bear":6188,"Ġneat":6189,"Ġsentence":6190,"Ġconviction":6191,"ba":6192,"vals":6193,"Ġtos":6194,"Ġouter":6195,"Ġrollo":6196,"Ġireland":6197,"Ġseam":6198,"Ġenglishman":6199,"Ġfolk":6200,"Ġattempted":6201,"gged":6202,"Ġ--":6203,"voice":6204,"Ġbyron":6205,"Ġmead":6206,"Ġimpl":6207,"expl":6208,"ĠĠĠĠĠĠĠĠĠĠĠĠĠĠĠĠĠĠĠĠĠ":6209,"Ġpace":6210,"Ġheavily":6211,"Ġcolon":6212,"Ġrud":6213,"Ġfamilies":6214,"Ġenormous":6215,"aving":6216,"Ġfirmly":6217,"da":6218,"Ġplun":6219,"bor":6220,"Ġvisitor":6221,"zed":6222,"Ġdistrict":6223,"creat":6224,"Ġawake":6225,"Ġcompass":6226,"ran":6227,"Ġinquiry":6228,"Ġdus":6229,"Ġdefend":6230,"Ġconsult":6231,"Ġrecognized":6232,"omed":6233,"bal":6234,"Ġlun":6235,"Ġren":6236,"Ġbelonged":6237,"aine":6238,"Ġrecover":6239,"Ġmixed":6240,"olen":6241,"chair":6242,"spirit":6243,"Ġchristmas":6244,"Ġluc":6245,"Ġtowns":6246,"Ġcrowded":6247,"Ġwilder":6248,"Ġquantity":6249,"Ġcareer":6250,"Ġ26":6251,"gie":6252,"occasion":6253,"Ġdancing":6254,"Ġchose":6255,"ributed":6256,"Ġobvious":6257,"Ġbetr":6258,"americ":6259,"Ġobserv":6260,"Ġdelivered":6261,"particular":6262,"bac":6263,"Ġdoctrine":6264,"Ġ29":6265,"Ġwithdra":6266,"Ġresolution":6267,"Ġrent":6268,"Ġjose":6269,"ems":6270,"Ġast":6271,"idents":6272,"Ġfalls":6273,"Ġimpulse":6274,"Ġsins":6275,"bra":6276,"whatever":6277,"Ġmilk":6278,"Ġobservation":6279,"Ġlocal":6280,"Ġshed":6281,"eral":6282,"Ġawkward":6283,"different":6284,"porary":6285,"Ġsmell":6286,"Ġmechan":6287,"Ġfinds":6288,"Ġsixty":6289,"withstanding":6290,"Ġdur":6291,"Ġgrin":6292,"quiet":6293,"Ġpaint":6294,"Ġabund":6295,"Ġ23":6296,"Ġscientific":6297,"ober":6298,"Ġwha":6299,"Ġexpedition":6300,"Ġdeliver":6301,",[":6302,"Ġvaluable":6303,"Ġsouthern":6304,"mem":6305,"Ġswear":6306,"asket":6307,"Ġsurround":6308,"Ã¨":6309,"Ġcoo":6310,"ands":6311,"won":6312,"Ġlads":6313,"Ġnoon":6314,"Ġbloom":6315,"Ġmanifest":6316,"Ġfeast":6317,"ifted":6318,"Ġleaped":6319,"closed":6320,"jack":6321,"Ġdearest":6322,"dec":6323,"Ġstrangers":6324,"othed":6325,"pract":6326,"lets":6327,"Ġbutter":6328,"Ġstartled":6329,"Ġrepresented":6330,"Ġcontrol":6331,"Ġdriving":6332,"Ġ27":6333,"Ġinsp":6334,"Ġstayed":6335,"Ġowing":6336,"Ġbranch":6337,"strange":6338,"Ġsob":6339,"Ġastonishment":6340,"ingham":6341,"Ġlanded":6342,"Ġconstantly":6343,"possible":6344,"felt":6345,"Ġhumour":6346,"Ġpom":6347,"hot":6348,"Ġfulf":6349,"agon":6350,"Ġfairy":6351,"Ġjump":6352,"front":6353,"Ġfarewell":6354,"riedrich":6355,"trou":6356,"Ġdeserted":6357,"Ġhint":6358,"Ġquarters":6359,"mill":6360,"several":6361,".âĢĻ":6362,"ieties":6363,"Ġapartment":6364,"Ġeating":6365,"england":6366,"Ġgos":6367,"Ġbeard":6368,"Ġfavourite":6369,"nut":6370,"Ġgarr":6371,"Ġdoth":6372,"Ġinse":6373,"Ġadam":6374,"Ġselfish":6375,"cra":6376,"leave":6377,"manner":6378,"Ġ28":6379,"women":6380,"Ġdutch":6381,"Ġsax":6382,"chance":6383,"Âł":6384,"Ġsalt":6385,"Ġlords":6386,"Ġeastern":6387,"itz":6388,"llers":6389,"Ġalex":6390,"chess":6391,"Ġcolours":6392,"Ġcirc":6393,"presently":6394,"Ġau":6395,"gentleman":6396,"Ġmock":6397,"Ġspani":6398,"Ġperplex":6399,"suffic":6400,"Ġflour":6401,"Ġastonished":6402,"Ġpointing":6403,"beautiful":6404,"Ġloyal":6405,"Ġdisposition":6406,"Ġoli":6407,"umbled":6408,"Ġgratitude":6409,"vii":6410,"pleasure":6411,"ressing":6412,"fair":6413,"Ġconceal":6414,"Ġbi":6415,"Ġlee":6416,"gram":6417,"times":6418,"Ġdischar":6419,"orse":6420,"Ġanno":6421,"Ġpoured":6422,"Ġrighteous":6423,"Ġdesir":6424,"Ġdragged":6425,"Ġdefinite":6426,"flict":6427,"Ġded":6428,"blood":6429,"Ġurged":6430,"school":6431,"Ġhan":6432,"Ġsignal":6433,"itute":6434,"Ġclasses":6435,"Ġgal":6436,"Ġnon":6437,"Ġdise":6438,"usions":6439,"Ġwandering":6440,"hun":6441,"Ġpink":6442,"few":6443,"along":6444,"Ġapplied":6445,"Ġmagnificent":6446,"pton":6447,"mur":6448,"Ġstair":6449,"Ġscru":6450,"Ġmidnight":6451,"Ġdil":6452,"Ġsenses":6453,"ino":6454,"Ġprec":6455,"mons":6456,"rels":6457,"orable":6458,"Ġflash":6459,"Ġbeasts":6460,"Ġmaiden":6461,"Ġlordship":6462,"ribly":6463,"ician":6464,"Ġchain":6465,"Ġashore":6466,"Ġmeantime":6467,"Ġvivid":6468,"Ġearnestly":6469,"vous":6470,"Ġbust":6471,"wed":6472,"fav":6473,"placed":6474,"tra":6475,"Ġembarrass":6476,"Ġstag":6477,"Ġobjection":6478,"feeling":6479,"Ġbun":6480,"Ġdestroy":6481,"omb":6482,"Ġsafely":6483,"Ġsovereign":6484,"Ġdisturbed":6485,"green":6486,"lear":6487,"Ġcounty":6488,"Ġfanny":6489,"ouch":6490,"Ġcheap":6491,"Ġcell":6492,"irk":6493,"Ġeh":6494,"Ġsummon":6495,"Ġsang":6496,"Ġtele":6497,"Ġcock":6498,"Ġ22":6499,"Ġbat":6500,"Ġknee":6501,"Ġlimbs":6502,"Ġbenefit":6503,"Ġrele":6504,"houses":6505,"Ġtort":6506,"rog":6507,"sid":6508,"Ġarticles":6509,"Ġcommer":6510,"Ġgrounds":6511,"Ġfed":6512,"Ġspain":6513,"Ġdecision":6514,"urday":6515,"Ġbilly":6516,"Ġanticip":6517,"die":6518,"Ġrout":6519,"Ġsuggestion":6520,"Ġpropri":6521,"lad":6522,"justice":6523,"ĠĠĠĠĠĠĠĠĠĠĠĠĠ":6524,"Ġdeclare":6525,"arson":6526,"Ġperceive":6527,"Ġshoes":6528,"Ġjuly":6529,"Ġhoriz":6530,"Ġdeeper":6531,"Ġswiftly":6532,"Ġboston":6533,"erate":6534,"zan":6535,"bott":6536,"amation":6537,"icken":6538,"hear":6539,"thousand":6540,"Ġjacob":6541,"Ġteacher":6542,"none":6543,"Ġuncertain":6544,"Ġtremend":6545,"faced":6546,"Ġsed":6547,"Ġsolitary":6548,"Ġobey":6549,"Ġassumed":6550,"Ġuniform":6551,"Ġverse":6552,"Ġcompared":6553,"Ġ183":6554,"occup":6555,"Ġsailed":6556,"george":6557,"Ġunlike":6558,"Ġinner":6559,"broken":6560,"Ġperil":6561,"comple":6562,"Ġpoets":6563,"50":6564,"hers":6565,"gent":6566,"gold":6567,"Ġshortly":6568,"object":6569,"build":6570,"usive":6571,"grim":6572,"Ġburned":6573,"actory":6574,"Ġtick":6575,"Ġwhit":6576,"Ġexamined":6577,"Ġbushes":6578,"uncle":6579,"Ġpolitics":6580,"ĠĠĠĠĠĠĠĠĠĠĠĠĠĠĠĠĠĠĠ":6581,"Ġcommitted":6582,"Ġstated":6583,"Ġcavalry":6584,"Ġcathol":6585,"sun":6586,"Ġreflection":6587,"Ġremaining":6588,"Ġentering":6589,"bank":6590,"Ġleisure":6591,"maj":6592,"Ġburden":6593,"Ġfury":6594,"besides":6595,"Ġscenes":6596,"either":6597,"Ġbadly":6598,"Ġlocked":6599,"sar":6600,"Ġprinted":6601,"Ġwrath":6602,"iverse":6603,"Ġsaddle":6604,"Ġada":6605,"burgh":6606,"Ġascertain":6607,"Ġexcess":6608,"Ġtouching":6609,"Ġna":6610,"asked":6611,"Ġextended":6612,"hab":6613,"lix":6614,"Ġsmoking":6615,"Ġdestruction":6616,"Ġdescend":6617,"Ġinch":6618,"Ġconsidering":6619,"Ġjon":6620,"gra":6621,"itors":6622,"Ġancest":6623,"Ġmarched":6624,"Ġsilly":6625,"Ġcot":6626,"Ġcontinually":6627,"Ġfrequent":6628,"Ġpool":6629,"Ġprejud":6630,"Ġhumanity":6631,"Ġlightly":6632,"Ġnap":6633,"akened":6634,"Ġcunning":6635,"Ġmischief":6636,"church":6637,"Ġbatt":6638,"Ġbeings":6639,"Ġcandle":6640,"Ġrelieved":6641,"lock":6642,"stead":6643,"Ġrot":6644,"Ġbud":6645,"alone":6646,"compan":6647,"Ġruth":6648,"Ġatmosphere":6649,"Ġgesture":6650,"Ġcompet":6651,"Ġdrank":6652,"Ġyer":6653,"Ġinches":6654,"Ġgardens":6655,"Ġzeal":6656,"Ġconfident":6657,"abor":6658,"umin":6659,"Ġromance":6660,"Ġwanting":6661,"hol":6662,"Ġarchite":6663,"daughter":6664,"isy":6665,"Ġshrie":6666,"Ġgree":6667,"roll":6668,"faith":6669,"trees":6670,"Ġservices":6671,"least":6672,"quick":6673,"Ġgig":6674,"Ġpup":6675,"Ġpursuit":6676,"Ġhed":6677,"Ġmonarch":6678,"above":6679,"Ġdaughters":6680,"vas":6681,"comfortable":6682,"Ġate":6683,"Ġcompelled":6684,"Ġmasters":6685,"?âĢĿ":6686,"corn":6687,"willing":6688,"Ġarrangement":6689,"Ġshirt":6690,"began":6691,"Ġsavages":6692,"author":6693,"Ġjest":6694,"Ġspeaks":6695,"andy":6696,"Ġjoke":6697,"Ġgang":6698,"Ġstrain":6699,"Ġbatter":6700,"need":6701,"Ġslip":6702,"Ġvessels":6703,"Ġcoward":6704,"Ġschol":6705,"Ġdining":6706,"Ġabsor":6707,"Ġsending":6708,"Ġcountess":6709,"Ġexperiment":6710,"scri":6711,"Ġsmart":6712,"Ġeloqu":6713,"tending":6714,"Ġcleared":6715,"Ġrailway":6716,"Ġremote":6717,"Ġexquisite":6718,"Ġowe":6719,"Ġelsewhere":6720,"Ġfailure":6721,"Ġdeed":6722,"sett":6723,"Ġaudience":6724,"Ġintellectual":6725,"Ġclam":6726,"Ġharsh":6727,"ctive":6728,"Ġeditor":6729,"ĠĠĠĠĠĠĠĠĠĠĠĠĠĠĠĠĠ":6730,"Ġrolling":6731,"deep":6732,"fight":6733,"Ġingen":6734,"ez":6735,"eff":6736,"aws":6737,"Ġcentral":6738,"istocr":6739,"Ġreject":6740,"viii":6741,"Ġsubstance":6742,"Ġnonsense":6743,"Ġabsent":6744,"Ġdeparted":6745,"pict":6746,"row":6747,"Ġpurposes":6748,"Ġlesson":6749,"Ġpunishment":6750,"Ġruns":6751,"Ġgermany":6752,"Ġpolicy":6753,"itating":6754,"Ġinvited":6755,"Ġwherever":6756,"Ġ11":6757,"Ġfires":6758,"otions":6759,"Ġjean":6760,"ouched":6761,"Ġjimmy":6762,"Ġreadily":6763,"Ġcaut":6764,"Ġdaylight":6765,"Ġrus":6766,"ari":6767,"Ġpine":6768,"Ġabstr":6769,"--_":6770,"lest":6771,"ola":6772,"Ġdistinctly":6773,"resist":6774,"Ġswung":6775,"Ġcontrast":6776,"Ġcad":6777,"urred":6778,"Ġscore":6779,"Ġrespectable":6780,"Ġalter":6781,"Ġgoodness":6782,"Ġinspect":6783,"hension":6784,"castle":6785,"Ġsuspected":6786,"arl":6787,"bacco":6788,"Ġcomment":6789,"Ġmarks":6790,"Ġromantic":6791,"rated":6792,"Ġdeer":6793,"Ġphenom":6794,"agreeable":6795,"Ġdismiss":6796,"ifully":6797,"Ġpopulation":6798,"squ":6799,"Ġdart":6800,"Ġconfused":6801,"prov":6802,"Ġdevelopment":6803,"Ġdrinking":6804,"Ġprocl":6805,"Ġbri":6806,"Ġles":6807,"Ġdelic":6808,"Ġsie":6809,"Ġindifferent":6810,"Ġharold":6811,"Ġveget":6812,"often":6813,"Ġowner":6814,"itself":6815,"Ġvex":6816,"fol":6817,"Ġmissed":6818,"Ġtribe":6819,"neither":6820,"bad":6821,"Ġrelated":6822,"boys":6823,"asper":6824,"Ġadmiral":6825,"Ġbewild":6826,"wering":6827,"ogue":6828,"Ġcities":6829,"spring":6830,"bright":6831,"vill":6832,"Ġseparated":6833,"rily":6834,"Ġdirty":6835,"Ġharmon":6836,"drew":6837,"Ġpad":6838,"Ġrules":6839,"inqu":6840,"acks":6841,"ofty":6842,"lyn":6843,"Ġbegins":6844,"eyed":6845,"Ġdisturb":6846,"Ġandrew":6847,"Ġgeneration":6848,"gun":6849,"oise":6850,"Ġfain":6851,"played":6852,"Ġdisappointed":6853,"Ġspecim":6854,"hered":6855,"Ġdecor":6856,"ita":6857,"Ġhook":6858,"Ġessential":6859,"antages":6860,"uine":6861,"umption":6862,"Ġwives":6863,"Ġrecollect":6864,"Ġplot":6865,"ero":6866,"dog":6867,"Ġthither":6868,"Ġextr":6869,"Ġfrost":6870,"Ġcollected":6871,"Ġdisgu":6872,"Ġcharged":6873,"haw":6874,"Ġsurre":6875,"icle":6876,"div":6877,"aps":6878,"Ġrecent":6879,"Ġsailors":6880,"Ġchamp":6881,"Ġtones":6882,"resses":6883,"Ġtoil":6884,"immedi":6885,"Ġshy":6886,"Ġ184":6887,"hin":6888,"conven":6889,"Ġabruptly":6890,"Ġhaz":6891,"Ġtin":6892,"dead":6893,"veyed":6894,"Ġned":6895,"Ġmodest":6896,"Ġhunter":6897,"Ġheavens":6898,"Ġnephe":6899,"Ġmast":6900,"Ġsupreme":6901,"Ġphrase":6902,"Ġglow":6903,"proper":6904,"Ġflorence":6905,"Ġseed":6906,"Ġexposed":6907,"Ġheartily":6908,"Ġliqu":6909,"pled":6910,"Ġdisgrace":6911,"Ġprofit":6912,"Ġsignific":6913,"Ġkate":6914,"Ġtraged":6915,"gall":6916,"emy":6917,"umps":6918,"apping":6919,"Ġted":6920,"Ġjew":6921,"Ġtrusted":6922,"Ġroger":6923,"Ġcurse":6924,"watch":6925,"Ġnoted":6926,"Ġsounded":6927,"Ġstraw":6928,"Ġsheet":6929,"Ġrefuge":6930,"cat":6931,"tes":6932,"lers":6933,"Ġlively":6934,"Ġhelen":6935,"shad":6936,"Ġreflected":6937,"Ġsunset":6938,"Ġexceedingly":6939,"pot":6940,"Ġbuff":6941,"ana":6942,"ica":6943,",)":6944,"ov":6945,"unless":6946,"Ġgranted":6947,"Ġdiscussion":6948,"Ġclock":6949,"convers":6950,"Ġgloomy":6951,"Ġinsist":6952,"Ġult":6953,"Ġfetch":6954,"Ġhay":6955,"Ġstructure":6956,"Ġmuse":6957,"Ġsergeant":6958,"Ġshud":6959,"Ġmul":6960,"verted":6961,"Ġopposition":6962,"especially":6963,"Ġmerchant":6964,"Ġtour":6965,"Ġparad":6966,"Ġgale":6967,"Ġsober":6968,"Ġreputation":6969,"state":6970,"ulars":6971,"Ġsust":6972,"Ġenthusiasm":6973,"ties":6974,"Ġreduced":6975,"Ġfurnished":6976,"year":6977,"bru":6978,"Ġprayers":6979,"iated":6980,"Ġprime":6981,"Ġchuck":6982,"Ġendure":6983,"Ġinev":6984,"Ġexpense":6985,"gave":6986,"Ġacting":6987,"Ġwedding":6988,"Ġ187":6989,"guard":6990,"Ġflow":6991,"Ġcomrades":6992,"Ġrug":6993,"Ġ180":6994,"trave":6995,"blance":6996,"avery":6997,"Ġventured":6998,"Ġmingled":6999,"uv":7000,"Ġviolet":7001,"bound":7002,"Ġlaying":7003,"Ġtheatre":7004,"Ġdiff":7005,"Ġpolite":7006,"Ġafterward":7007,"Ġentreat":7008,"Ġregion":7009,"Ġbible":7010,"Ġmarquis":7011,"vag":7012,"Ġtravelling":7013,"ufact":7014,"mine":7015,"Ġtid":7016,"Ġstarting":7017,"london":7018,"ipping":7019,"ĠĠĠĠĠĠĠĠĠĠĠĠĠĠ":7020,"viour":7021,"Ġconsequences":7022,"anda":7023,"uously":7024,"Ġsteamer":7025,"orig":7026,"ben":7027,"pos":7028,"Ġadventures":7029,"ooped":7030,"isl":7031,"Ġreasonable":7032,"Ġaccompany":7033,"Ġparish":7034,"Ġthread":7035,"Ġcris":7036,"Ġbarn":7037,"Ġcrossing":7038,"Ġnewspaper":7039,"Ġkeeps":7040,"evening":7041,"Ġsunk":7042,"Ġdarling":7043,"fere":7044,"def":7045,"fif":7046,"Ġtriump":7047,"Ġstuck":7048,"Ġpossibility":7049,"grace":7050,"meet":7051,"probably":7052,"Ġpant":7053,"decl":7054,"Ġdecide":7055,"Ġfount":7056,"rified":7057,"Ġfund":7058,"Ġimpr":7059,"Ġreaders":7060,"Ġlandlord":7061,"Ġlikes":7062,"Ġarrive":7063,"Ġmedic":7064,"bene":7065,"Ġbeaten":7066,"Ġpuzzled":7067,"Ġamused":7068,"Ġmant":7069,"Ġsensation":7070,"Ġagony":7071,"heaven":7072,"xic":7073,"Ġacquired":7074,"Ġeuropean":7075,"Ġjumped":7076,"Ġsilently":7077,"Ġroads":7078,"Ġindignation":7079,"Ġgrowth":7080,"Ġexhausted":7081,"Ġshield":7082,"Ġfinish":7083,"Ġselection":7084,"Ġerror":7085,"earth":7086,"Ġstor":7087,"circumstances":7088,"Ġmoonlight":7089,"Ġdre":7090,"Ġneighbor":7091,"hu":7092,"Ġfisher":7093,"Ġbrings":7094,"Ġpermit":7095,"sac":7096,"yl":7097,"Ġfet":7098,"Ġrival":7099,"\";":7100,"Ġmos":7101,"Ġfasc":7102,"Ġgas":7103,"atherine":7104,"continued":7105,"Ġruined":7106,"uming":7107,"Ġdesk":7108,"party":7109,"Ġdirections":7110,"Ġraising":7111,"luck":7112,"Ġimmort":7113,"Ġwandered":7114,"igation":7115,"Ġforever":7116,"Ġapril":7117,"family":7118,"Ġamusement":7119,"truth":7120,"Ġnamely":7121,"Ġinsult":7122,"Ġprevented":7123,"begin":7124,"Ġporter":7125,"tre":7126,"Ġcloser":7127,"Ġdescribe":7128,"hair":7129,"Ġjoseph":7130,"stud":7131,"ĠĠĠĠĠĠĠĠĠĠĠĠĠĠĠĠĠĠĠĠĠĠ":7132,"Ġfurniture":7133,"Ġniece":7134,"Ġblew":7135,"Ġwy":7136,"pop":7137,"Ġpasses":7138,"Ġheels":7139,"Ġpropose":7140,"Ġinform":7141,"Ġtrip":7142,"Ġmessenger":7143,"Ġpatron":7144,"Ġadmin":7145,"Ġexecution":7146,"sell":7147,"Ġstrangely":7148,"Ġcommenced":7149,"achment":7150,"jac":7151,"Ġengagement":7152,"counter":7153,"Ġmillion":7154,"clear":7155,"ulties":7156,"help":7157,"please":7158,"Ġtremendous":7159,"ioned":7160,"Ġtiny":7161,"eve":7162,"sold":7163,"Ġglen":7164,"contr":7165,"Ġwarn":7166,"ittee":7167,"pray":7168,"Ġdoubtful":7169,"Ġfeeble":7170,"Ġrespects":7171,"Ġfert":7172,"Ġfanc":7173,"Ġprize":7174,"gon":7175,"oubted":7176,"Ġpositive":7177,"Ġsuperst":7178,"Ġaltern":7179,"Ġscale":7180,"ĠĠĠĠĠĠĠĠĠĠĠĠĠĠĠĠĠĠĠĠĠĠĠ":7181,"Ġaltered":7182,"Ġgracious":7183,"Ġfearful":7184,"Ġrisen":7185,"Ġvictor":7186,"Ġcarol":7187,"company":7188,"pent":7189,"aign":7190,"Ġfeels":7191,"scape":7192,"Ġteaching":7193,"inations":7194,"Ġmachine":7195,"Ġpond":7196,"Ġheed":7197,"Ġ185":7198,"Ġafrica":7199,"ipe":7200,"Ġreview":7201,"dev":7202,"Ġactions":7203,"wal":7204,"Ġincred":7205,"Ġmerit":7206,"uits":7207,"Ġreminded":7208,"Ġtales":7209,"Ġum":7210,"Ġlofty":7211,"top":7212,"cribed":7213,"crow":7214,"Ġsem":7215,"Ġhugh":7216,"Ġproc":7217,"Ġambition":7218,"Ġknights":7219,"Ġot":7220,"ilight":7221,"Ġoutward":7222,"Ġarts":7223,"Ġpains":7224,"Ġaccomplished":7225,"inf":7226,"Ġfitted":7227,"Ġholds":7228,"dam":7229,"eys":7230,"Ġintimate":7231,"Ġperman":7232,"ĠĠĠĠĠĠĠĠĠĠĠĠĠĠĠĠĠĠĠĠ":7233,"Ġhappens":7234,"Ġlust":7235,"Ġfog":7236,"Ġloc":7237,"Ġrepeat":7238,"Ġdimin":7239,"didn":7240,"Ġhundreds":7241,"comes":7242,"Ġfathers":7243,"Ġmusk":7244,"conce":7245,"Ġcloak":7246,"incl":7247,"Ġagent":7248,"iana":7249,"Ġfortunate":7250,"Ġautumn":7251,"fear":7252,"Ġlanding":7253,"Ġpenet":7254,"Ġwhereas":7255,"Ġnut":7256,"Ġstudied":7257,"Ġ179":7258,"Ġxxx":7259,"borough":7260,"Ġconceive":7261,"Ġintend":7262,"fare":7263,"Ġnephew":7264,"Ġjar":7265,"Ġgallop":7266,"Ġdisappointment":7267,"Ġadopted":7268,"Ġmarve":7269,"Ġwars":7270,"Ġsource":7271,"Ġdistinction":7272,"Ġdepth":7273,"Ġconcealed":7274,"sense":7275,"Ġvel":7276,"iner":7277,"anqu":7278,"Ġjolly":7279,"Ġcharity":7280,"sens":7281,"Ġpile":7282,"Ġupstairs":7283,"Ġcomrade":7284,"feet":7285,"Ġdivision":7286,"minded":7287,"Ġcutting":7288,"Ġwilderness":7289,"writing":7290,"Ġrav":7291,"Ġsway":7292,"Ġgoin":7293,"Ġconquer":7294,"Ġcoal":7295,"cas":7296,"Ġbrut":7297,"eenth":7298,"irmed":7299,"itty":7300,"Ġperformed":7301,"Ġornament":7302,"Ġobeyed":7303,"Ġelectric":7304,"Ġrivers":7305,"Ġfeed":7306,"seeing":7307,"Ġalf":7308,"Ġsweep":7309,"represent":7310,"Ġdashed":7311,"Ġpatter":7312,"Ġard":7313,"Ġmerc":7314,"Ġgathering":7315,"itively":7316,"Ġattacked":7317,"Ġmajority":7318,"Ġprecisely":7319,"Ġpip":7320,"Ġcru":7321,"slow":7322,"pretty":7323,"Ġruff":7324,"Ġprophe":7325,"Ġprovisions":7326,"Ġanchor":7327,"Ġrhy":7328,"Ġsoph":7329,"dick":7330,"french":7331,"Ġ:":7332,"ashes":7333,"Ġstirred":7334,"azz":7335,"Ġlatin":7336,"ado":7337,"inson":7338,"Ġcitizen":7339,"Ġscand":7340,"Ġplays":7341,"Ġissue":7342,"Ġrealized":7343,"Ġattent":7344,"Ġtrifle":7345,"Ġbelonging":7346,"mil":7347,"Ġneighbourhood":7348,"Ġpover":7349,"Ġethel":7350,"Ġbund":7351,"Ġpriests":7352,"Ġflatter":7353,"Ġscra":7354,"giving":7355,"Ġpoverty":7356,"Ġraces":7357,"quet":7358,"consequ":7359,"Ġnic":7360,"Ġamy":7361,"24":7362,"Ġaccounts":7363,"Ġmotive":7364,"Ġmaybe":7365,"Ġmoss":7366,"Ġ\"_":7367,"street":7368,"asy":7369,"command":7370,"Ġgil":7371,"Ġdeveloped":7372,"Ġoil":7373,"Ġpluck":7374,"thinking":7375,"rical":7376,"answer":7377,"Ġduchess":7378,"Ġvictim":7379,"Ġmah":7380,"mont":7381,"Ġcalmly":7382,"Ġseeking":7383,"Ġclara":7384,"whel":7385,"Ġgenuine":7386,"Ġdetect":7387,"Ġcreated":7388,"ived":7389,"allel":7390,"Ġflashed":7391,"angle":7392,"ements":7393,"Ġexisted":7394,".'\"":7395,"Ġmasses":7396,"followed":7397,"Ġfoul":7398,"alled":7399,"Ġintervals":7400,"Ġdrum":7401,"rian":7402,"Ġresting":7403,"across":7404,"Ġbeating":7405,"Ġbears":7406,"Ġleather":7407,"Ġcharacteristic":7408,"Ġhandkerchief":7409,"impse":7410,"leness":7411,"Ġcommander":7412,"Ġrat":7413,"erted":7414,"Ġtommy":7415,"ooping":7416,"rice":7417,"aments":7418,"Ġbeloved":7419,"Ġfriedrich":7420,"Ġsadly":7421,"Ġadmirable":7422,"Ġabandoned":7423,"Ġdocum":7424,"secret":7425,"Ġbrass":7426,"Ġclergyman":7427,"bot":7428,"uity":7429,"Ġjournal":7430,"neighb":7431,"Ġhonourable":7432,"Ġshan":7433,"Ġeggs":7434,"Ġnorman":7435,"Ġthir":7436,"Ġconception":7437,"Ġusing":7438,"ustace":7439,"num":7440,"Ġeaten":7441,"Ġaverage":7442,"exist":7443,"ella":7444,"Ġgroups":7445,"Ġindependent":7446,"len":7447,"ĠĠĠĠĠĠĠĠĠĠĠĠĠĠĠĠĠĠ":7448,"office":7449,"Ġvanity":7450,"eration":7451,"itudes":7452,"Ġfortnight":7453,"Ġeighteen":7454,"Ġbetray":7455,"Ġresent":7456,"Ġeste":7457,"spo":7458,"berg":7459,"regard":7460,"Ġchase":7461,"Ġblessing":7462,"Ġinferior":7463,"Ġslain":7464,"Ġminor":7465,"Ġexamine":7466,"erton":7467,"Ġtobacco":7468,"Ġenabled":7469,"Ġsimplicity":7470,"wis":7471,"reath":7472,"Ġeleg":7473,"husband":7474,"Ġwash":7475,"ka":7476,"Ġbedroom":7477,"exact":7478,"Ġfaded":7479,"conne":7480,"Ġsaturday":7481,"Ġrevenge":7482,"Ġshakespeare":7483,"Ġsaints":7484,"Ġoctober":7485,"government":7486,"Ġtomb":7487,"Ġduck":7488,"Ġgraceful":7489,"Ġtendency":7490,"rage":7491,"Ġpreserved":7492,"Ġcrest":7493,"Ġhiding":7494,"olate":7495,"icable":7496,"det":7497,"Ġbows":7498,"brown":7499,"Ġguards":7500,"Ġcuriously":7501,"Ġspell":7502,"pended":7503,"viously":7504,"Ġtrump":7505,"Ġprint":7506,"Ġcontents":7507,"Ġheir":7508,"Ġanyway":7509,"Ġavo":7510,"ga":7511,"Ġchur":7512,"Ġstaff":7513,"Ġdevotion":7514,"Ġtreas":7515,"Ġveil":7516,"Ġscotch":7517,"Ġcenturies":7518,"else":7519,"Ġmagaz":7520,"Ġstole":7521,"coloured":7522,"Â§":7523,"orus":7524,"Ġwhirl":7525,"aston":7526,"Ġwrought":7527,"Ġexamination":7528,"cked":7529,"Ġdoorway":7530,"sole":7531,"Ġproblem":7532,"Ġelements":7533,"Ġlaura":7534,"amy":7535,"geance":7536,"iency":7537,"Ġhopeless":7538,"Ġproposition":7539,"Ġrejoined":7540,"coln":7541,"grad":7542,"Ġinquire":7543,"Ġceremony":7544,"Ġscul":7545,"Ġrepent":7546,"Ġmoor":7547,"Ġextrem":7548,"ĠĠĠĠĠĠĠĠĠĠĠĠ":7549,"fts":7550,"Ġgarrison":7551,"Ġdamp":7552,"Ġparting":7553,"answered":7554,"Ġcigar":7555,"umbling":7556,"Ġconfessed":7557,"itan":7558,"Ġcease":7559,"Ġkid":7560,"colonel":7561,"Ġthreatened":7562,"princi":7563,"covered":7564,"Ġdeadly":7565,"Ġridiculous":7566,"Ġcel":7567,"glas":7568,"Ġbritain":7569,"Ġpassions":7570,"Ġarrangements":7571,"Ġseptember":7572,"Ġ188":7573,"Ġcorrupt":7574,"Ġoxford":7575,"eries":7576,"knowledge":7577,"Ġta":7578,"delight":7579,"Ġsuccession":7580,"inburgh":7581,"Ġstu":7582,"Ġpistol":7583,"Ġvii":7584,"illery":7585,"essie":7586,"deal":7587,"Ġreluct":7588,"ulations":7589,"Ġflushed":7590,"Ġclimb":7591,"iences":7592,"intellig":7593,"Ġroused":7594,"Ġwrites":7595,"Ġshepher":7596,"Ġdetail":7597,"Ġbuildings":7598,"Ġlegal":7599,"Ġinstrument":7600,"ilda":7601,"Ġexperienced":7602,"natured":7603,"anx":7604,"Ġbitterly":7605,"sle":7606,"Ġnecessarily":7607,"olutely":7608,"Ġbind":7609,"Ġnick":7610,"Ġsecurity":7611,"Ġreaching":7612,"rob":7613,"Ġsupported":7614,"iah":7615,"owl":7616,"ineas":7617,"Ġblows":7618,"Ġchances":7619,"Ġbeds":7620,"Ġmould":7621,"Ġrover":7622,"bery":7623,"Ġcorp":7624,"Ġaffectionate":7625,"arrow":7626,"Ġtradition":7627,"Ġreproach":7628,"Ġexchange":7629,"Ġtenderness":7630,"impossible":7631,"Ġsits":7632,"itled":7633,"Ġrachel":7634,"ensity":7635,"Ġdepos":7636,"angled":7637,"Ġcolumn":7638,"shot":7639,"Ġburnt":7640,"Ġmultitude":7641,"Ġconfined":7642,"Ġclimbed":7643,"Ġsolic":7644,"Ġretire":7645,"aneous":7646,"Ġcommunication":7647,"Ġpartner":7648,"mund":7649,"jah":7650,"blue":7651,"Ġpaying":7652,"treat":7653,"Ġdumb":7654,"Ġglit":7655,"Ġpolly":7656,"Ġinterior":7657,"ivering":7658,"Ġcapacity":7659,"Ġpassages":7660,"Ġmurmur":7661,"Ġinduced":7662,"Ġsally":7663,"Ġinfl":7664,"hend":7665,"relig":7666,"sn":7667,"ichol":7668,"Ġchina":7669,"Ġguy":7670,"commun":7671,"Ġcannon":7672,"Ġcompliment":7673,"Ġhospital":7674,"welt":7675,"Ġtragedy":7676,"Ġtun":7677,"Ġsink":7678,"acked":7679,"acts":7680,"grave":7681,"Ġlunch":7682,"Ġnerves":7683,"23":7684,"rive":7685,"Ġcitizens":7686,"remark":7687,"cause":7688,"Ġaristocr":7689,"Ġunpleasant":7690,"beyond":7691,"Ġcareless":7692,"igs":7693,"Ġblock":7694,"Ġapolog":7695,"Ġdisgust":7696,"march":7697,"Ġawe":7698,"Ġbeck":7699,"Ġangels":7700,"third":7701,"Ġemily":7702,"Ġcommunity":7703,"Ġsolitude":7704,"Ġsusan":7705,"Ġlege":7706,"sort":7707,"Ġthirst":7708,"pain":7709,"bill":7710,"priv":7711,"Ġhorizon":7712,"Ġweapons":7713,"Ġinvitation":7714,"Ġprem":7715,"Ġletting":7716,"Ġavail":7717,"Ġresidence":7718,"Ġstroke":7719,"Ġ\"'":7720,"Ġcham":7721,"Ġoffence":7722,"itations":7723,"uscript":7724,"ooner":7725,"returned":7726,"gthen":7727,"vet":7728,"Ġdiscipl":7729,"Ġovercome":7730,"Ġcatholic":7731,"Ġbalance":7732,"Ġuniverse":7733,"Ġnarrative":7734,"Ġmond":7735,"Ġsettlement":7736,"Ġenable":7737,"Ġbetrayed":7738,"oiselle":7739,"forms":7740,"umm":7741,"Ġbrush":7742,"Ġmeasures":7743,"frey":7744,"Ġclaims":7745,"Ġliberal":7746,"Ġcontrad":7747,"opin":7748,"Ġconsequently":7749,"Ġbasket":7750,"Ġvenice":7751,"Ġleon":7752,"free":7753,"Ġfatig":7754,"Ġeasier":7755,"Ġdepends":7756,"offrey":7757,"Ġsubsequ":7758,",_":7759,"Ġlosing":7760,"rude":7761,"Ġwot":7762,"Ġrecon":7763,"prison":7764,"Ġmorr":7765,"Ġcompleted":7766,"Ġmillions":7767,"Ġcaution":7768,"Ġreef":7769,"rael":7770,"umble":7771,"Ġreferred":7772,"elt":7773,"Ġprovidence":7774,"Ġdine":7775,"Ġtreatment":7776,"oard":7777,"arian":7778,"city":7779,"Ġformerly":7780,"Ġaust":7781,"27":7782,"danger":7783,"fold":7784,"Ġneglect":7785,"icing":7786,"Ġoliver":7787,"esy":7788,"Ġcares":7789,"Ġcryst":7790,"Ġuneasy":7791,"Ġtwilight":7792,"Ġsi":7793,"Ġalarmed":7794,"itious":7795,"Ġwaved":7796,"Ġdoubts":7797,"Ġlimited":7798,"mot":7799,"Ġpatriot":7800,"Ġridge":7801,"suggest":7802,"Ġdeeds":7803,"lou":7804,"rat":7805,"Ġdecent":7806,"era":7807,"Ġlance":7808,"Ġanton":7809,"hedral":7810,"athetic":7811,"cription":7812,"history":7813,"lines":7814,"icking":7815,"Ġputs":7816,"gging":7817,"flo":7818,"Ġcaptured":7819,"yourself":7820,"Ġsofa":7821,"Ġvice":7822,"Ġgown":7823,"prince":7824,"Ġreceiving":7825,"Ġlearnt":7826,"Ġsecured":7827,"Ġmaria":7828,"bring":7829,"public":7830,"usually":7831,"bishop":7832,"Ġaustri":7833,"Ġwearing":7834,"Ġbeer":7835,"orders":7836,"Ġportrait":7837,"Ġwalks":7838,"Ġreported":7839,"Ġanxiously":7840,"Ġdemonstr":7841,"Ġster":7842,"ribution":7843,"Ġexerc":7844,"Ġlily":7845,"Ġrestored":7846,"pson":7847,"Ġenterprise":7848,"Ġlucky":7849,"Ġgallery":7850,"Ġshooting":7851,"peter":7852,"Ġbehalf":7853,"dut":7854,"Ġwages":7855,"Ġwriters":7856,"Ġcontented":7857,"Ġclut":7858,"Ġvirtues":7859,"Ġinterfere":7860,"Ġoccasional":7861,"Ġpassengers":7862,"Ġlur":7863,"proceed":7864,"Ġscarlet":7865,"Ġimperfect":7866,"Ġanyhow":7867,"Ġgross":7868,"ĠĠĠĠĠĠĠĠĠĠĠĠĠĠĠĠĠĠĠĠĠĠĠĠĠ":7869,"Ġnotwithstanding":7870,"fish":7871,"Ġtrot":7872,"Ġmisfortune":7873,"gings":7874,"Ġsubtle":7875,"Ġstruggling":7876,"_--":7877,"olution":7878,"seven":7879,"Ġske":7880,"further":7881,"Ġskipper":7882,"Ġquestioned":7883,"idity":7884,"Ġdemocr":7885,"Ġsubl":7886,"Ġtig":7887,"Ġpressure":7888,"Ã±":7889,"Ġquit":7890,"Ġstandard":7891,"Ġisabel":7892,"aug":7893,"complete":7894,"polit":7895,"Ġwarned":7896,"Ġwilt":7897,"Ġvisitors":7898,"written":7899,"Ġfri":7900,"Ġrevel":7901,"Ġfastened":7902,"surely":7903,"Ġtwink":7904,"means":7905,"Ġpowder":7906,"Ġclimate":7907,"Ġcommittee":7908,"Ġdwelling":7909,"Ġfishing":7910,"Ġidol":7911,"Ġinterval":7912,"Ġforb":7913,"lost":7914,"mart":7915,"Ġglimpse":7916,"Ġrushing":7917,"Ġpole":7918,"Ġchapel":7919,"Ġburg":7920,"Ġsigned":7921,"Ġwashed":7922,"become":7923,"try":7924,"cel":7925,"concl":7926,"Ġhastings":7927,"Ġpersuaded":7928,"Ġplatform":7929,"Ġstring":7930,"Ġdisplay":7931,"Ġdressing":7932,"Ġsymbol":7933,"Ġgifts":7934,"phan":7935,"Ġsails":7936,"Ġweapon":7937,"Ġoperation":7938,"'--":7939,"stren":7940,"Ġresistance":7941,"oughs":7942,"Ġphot":7943,"idel":7944,"Ġcriticism":7945,"Ġboast":7946,"Ġcyn":7947,"Ġpled":7948,"Ġgorge":7949,"Ġcomparison":7950,"Ġupright":7951,"Ġmourn":7952,"Ġesc":7953,"Ġald":7954,"admir":7955,"Ġlantern":7956,"alog":7957,"conv":7958,"Ġincome":7959,"Ġapple":7960,"dale":7961,"Ġclare":7962,"Ġguilt":7963,"Ġbench":7964,"wait":7965,"Ġfant":7966,"letters":7967,"ibilities":7968,"Ġell":7969,"Ġconvention":7970,"Ġmanufact":7971,"afterwards":7972,"illings":7973,"Ġbargain":7974,"Ġinward":7975,"Ġcounted":7976,"Ġlament":7977,"famil":7978,"mort":7979,"Ġdew":7980,"Ġgam":7981,"encies":7982,"Ġpha":7983,"Ġconceived":7984,"frank":7985,"Ġcomplaint":7986,"Ġdisease":7987,"Ġpp":7988,"ida":7989,"says":7990,"Ġbrute":7991,"onstr":7992,"Ġregarding":7993,"Ġ40":7994,"lk":7995,"rol":7996,"Ġafore":7997,"Ġload":7998,"Ġadmired":7999,"Ġdiver":8000,"books":8001,"heav":8002,"Ġchairs":8003,"Ġos":8004,"Ġrebell":8005,"Ġjoan":8006,"Ġmob":8007,"Ġrescue":8008,"Ġthorn":8009,"Ġseventy":8010,"Ġprodig":8011,"married":8012,"Ġpitch":8013,"Ġfest":8014,"Ġguessed":8015,"Ġforbid":8016,"Ġtram":8017,"important":8018,"Ġroot":8019,"Ġcelebrated":8020,"Ġadvancing":8021,"Ġparl":8022,"Ġspear":8023,"Ġestablishment":8024,"Ġcurtain":8025,"Ġpac":8026,"Ġhug":8027,"glad":8028,"bruary":8029,"Ġcontaining":8030,"Ġdenied":8031,"Ġdivers":8032,"Ġtreacher":8033,"Ġtribes":8034,"Ġcampaign":8035,"quarters":8036,"Ġspaniards":8037,"Ġfrown":8038,"emoiselle":8039,"Ġverses":8040,"Ġdreamed":8041,"26":8042,"omach":8043,"vir":8044,"Ġimpressed":8045,"Ġhesitation":8046,"Ġtie":8047,"Ġslavery":8048,"====":8049,"Ġton":8050,"Ġwhar":8051,"Ġchron":8052,"Ġwitch":8053,"Ġmorn":8054,"Ġinstances":8055,"immediately":8056,"sters":8057,"Ġinquiries":8058,"dream":8059,"prep":8060,"chard":8061,"Ġpuff":8062,"Ġpockets":8063,"stock":8064,"places":8065,"Ġappet":8066,"sound":8067,"inence":8068,"Ġhob":8069,"Ġdean":8070,"Ġhoney":8071,"ceiving":8072,"Ġhalted":8073,"Ġbloss":8074,"Ġalb":8075,"Ġful":8076,"laugh":8077,"Ġobedience":8078,"Ġsongs":8079,"Ġresour":8080,"Ġhearty":8081,"Ġcollection":8082,"Ġraw":8083,"Ġlincoln":8084,"Ġprey":8085,"Ġhumor":8086,"Ġshouting":8087,"oleon":8088,"Ġfootsteps":8089,"ili":8090,"Ġtrunk":8091,"Ġbrisk":8092,"Ġratt":8093,"Ġtrembled":8094,"Ġassembled":8095,"Ġnovember":8096,"Ġmun":8097,"window":8098,"pan":8099,"ridge":8100,"Ġsale":8101,"Ġlawn":8102,"Ġcoarse":8103,"Ġopposed":8104,"Ġelev":8105,"Ġintelligent":8106,"Ġpermission":8107,"Ġstopping":8108,"rise":8109,"Ġlamb":8110,"Ġschools":8111,"Ġdiscourse":8112,"imony":8113,"Ġwhither":8114,"Ġmostly":8115,"Ġpy":8116,"Ġstolen":8117,"Ġgovern":8118,"Ġwander":8119,"Ġwont":8120,"Ġpassionate":8121,"nie":8122,"Ġfloating":8123,"Ġrevealed":8124,"anks":8125,"Ġtramp":8126,"riages":8127,"conversation":8128,"Ġrepose":8129,"isible":8130,"olent":8131,"Ġchill":8132,"Ġretorted":8133,"Ġfaintly":8134,"Ġrecommend":8135,"zing":8136,"Ġlightning":8137,"Ġhorrid":8138,"Ġhideous":8139,"enote":8140,"Ġfelix":8141,"Ġneighbours":8142,"Ġpreferred":8143,"advantage":8144,"aur":8145,"Ġimpatient":8146,"scarce":8147,"sidenote":8148,"Ġlandscape":8149,"doing":8150,"Ġproceedings":8151,"Ġwarmth":8152,"strous":8153,"Ġviv":8154,"Ġsid":8155,"40":8156,"Ġcape":8157,"received":8158,"Ġrelative":8159,"getting":8160,"carried":8161,"pros":8162,"Ġgoss":8163,"entered":8164,"Ġeldest":8165,"Ġinstructions":8166,"soever":8167,"Ġva":8168,"wels":8169,"eling":8170,"berry":8171,"Ġmonk":8172,"Ġleads":8173,"Ġdwelt":8174,"Ġshaw":8175,"Ġborder":8176,"keness":8177,"Ġfunny":8178,"Ġmaintain":8179,"ody":8180,"parent":8181,"around":8182,"Ġfifth":8183,"Ġsacrific":8184,"skin":8185,"rene":8186,"alem":8187,"liter":8188,"Ġseats":8189,"oration":8190,"Ġmyst":8191,"ĠĠĠĠĠĠĠĠĠĠĠĠĠĠĠĠĠĠĠĠĠĠĠĠĠĠ":8192,"Ã¡":8193,"Ġbrood":8194,"longed":8195,"Ġbreathing":8196,"Ġwrapped":8197,"sto":8198,"story":8199,"thren":8200,"Ġjos":8201,"._]":8202,"Ġtraveller":8203,"establ":8204,"iquity":8205,"Ġfoe":8206,"bag":8207,"Ġpersec":8208,"Ġoft":8209,"Ġglim":8210,"Ġranks":8211,"Ġrespond":8212,"determ":8213,"Ġconvenient":8214,"Ġemployment":8215,"Ġpenny":8216,"Ġarise":8217,"beat":8218,"attempt":8219,"ustry":8220,"Ġartific":8221,"Ġdorothy":8222,"path":8223,"altogether":8224,"oubtedly":8225,"28":8226,"Ġade":8227,"Ġrecognised":8228,"arts":8229,"Ġsummit":8230,"Ġshaken":8231,"orrid":8232,"Ġhoarse":8233,"show":8234,"former":8235,"eye":8236,"Ġworry":8237,"instead":8238,"Ġirregular":8239,"Ġgospel":8240,"Ġcu":8241,"Ġboldly":8242,"Ġgleam":8243,"Ġbern":8244,"Ġgrows":8245,"Ġrailroad":8246,"Ġplunged":8247,"Ġchallen":8248,"ifications":8249,"Ġdaring":8250,"sex":8251,"Ġreverence":8252,"sav":8253,"Ġfaced":8254,"Ġirr":8255,"Ġproposal":8256,"Ġgasped":8257,"Ġadvantages":8258,"Ġacknowledged":8259,"Ġsatisfy":8260,"Ġsubs":8261,"Ġprepare":8262,"oa":8263,"Ġsupplied":8264,"\"_":8265,"Ġadminist":8266,"number":8267,"roy":8268,"Ġlaun":8269,"brance":8270,"Ġreform":8271,"Ġperfection":8272,"Ġassume":8273,"influ":8274,"Ġaltar":8275,"cold":8276,"Ġhaul":8277,"Ġtotal":8278,"Ġglancing":8279,"peace":8280,"Ġfounded":8281,"fert":8282,"Ġconvent":8283,"Ġattracted":8284,"Ġhasn":8285,"move":8286,"Ġkin":8287,"Ġdismay":8288,"Ġbloody":8289,"........":8290,"Ġrand":8291,"Ġexisting":8292,"notes":8293,"Ġincluding":8294,"fallen":8295,"Ġrestless":8296,"Ġprinces":8297,"ĠĠĠĠĠĠĠĠĠĠĠĠĠĠĠĠĠĠĠĠĠĠĠĠĠĠĠ":8298,"Ġjerry":8299,"Ġcotton":8300,"Ġcards":8301,"Ġenjoyment":8302,"Ġoffering":8303,"Ġfollowers":8304,"ĠĠĠĠĠĠĠĠĠĠĠĠĠĠĠĠĠĠĠĠĠĠĠĠĠĠĠĠ":8305,"Ġmoo":8306,"Ġthoughtful":8307,"north":8308,"ĠĠĠĠĠĠĠĠĠĠĠĠĠĠĠĠĠĠĠĠĠĠĠĠĠĠĠĠĠ":8309,"29":8310,"Ġseconds":8311,"rock":8312,"ulating":8313,"rooms":8314,"Ġabandon":8315,"Ġpruss":8316,"Ġlegisl":8317,"sam":8318,"Ġlass":8319,"Ġroses":8320,"Ġdepths":8321,"Ġbond":8322,"Ġpound":8323,"Ġdict":8324,"Ġseeds":8325,"Ġruins":8326,"iations":8327,"Ġpalm":8328,"Ġbelongs":8329,"recogn":8330,"Ġawakened":8331,"Ġmotives":8332,"Ġjustified":8333,"Ġhatred":8334,"Ġhandle":8335,"Ġpretended":8336,"became":8337,"Ġstores":8338,"Ġrabbit":8339,"Ġcongrat":8340,"Ġmap":8341,"Ġcomparatively":8342,"concern":8343,"Ġcommonly":8344,"Ġecc":8345,"herent":8346,"Ġvengeance":8347,"Ġstam":8348,"Ġsugar":8349,"aux":8350,"itutions":8351,"ona":8352,"nevertheless":8353,"Ġpressing":8354,"Ġneglected":8355,"distance":8356,"Ġgrain":8357,"Ġdoubted":8358,"Ġpul":8359,"Ġfurious":8360,"Ġreserve":8361,"Ġobscure":8362,"aying":8363,"Ġstub":8364,"ications":8365,"Ġcommons":8366,"Ġmethods":8367,"Ġvest":8368,"Ġindividuals":8369,"ribute":8370,"Ġwasted":8371,"Ġembr":8372,"Ġfolded":8373,"Ġyielded":8374,"Ġparticulars":8375,"oral":8376,"Ġpush":8377,"Ġsaving":8378,"Ġindicated":8379,"Ġassurance":8380,"Ġ189":8381,"Ġjews":8382,"tur":8383,"Ġmexic":8384,"Ġdesires":8385,"Ġinduce":8386,"Ġproceeding":8387,"Ġconducted":8388,"Ġsailing":8389,",--\"":8390,"silence":8391,"Ġhunger":8392,"Ġindifference":8393,"apan":8394,"rington":8395,"consist":8396,"cre":8397,"Ġslender":8398,"Ġpractically":8399,"Ġlecture":8400,"ictions":8401,"Ġexagger":8402,"civil":8403,"Ġdriver":8404,"shop":8405,"Ġillness":8406,"Ġowned":8407,"Ġdeserve":8408,"Ġsubmit":8409,"apparent":8410,"enses":8411,"chers":8412,"agle":8413,"Ġcritical":8414,"Ġhappily":8415,"Ġshrew":8416,"Ġdrowned":8417,"struck":8418,"pock":8419,"Ġ$":8420,"Ġunjust":8421,"unken":8422,"teenth":8423,"uthors":8424,"Ġperformance":8425,"poet":8426,"gal":8427,"Ġchannel":8428,"Ġink":8429,"Ġrein":8430,"Ġcanvas":8431,"Ġentitled":8432,"Ġtorment":8433,"retion":8434,"Ġemotions":8435,"Ġfinest":8436,"Ġupward":8437,"Ġapost":8438,"Ġattempts":8439,"Ġlip":8440,"oster":8441,"Ġrefr":8442,"grown":8443,"Ġrash":8444,"ama":8445,"Ġconfession":8446,"Ġparadise":8447,"expression":8448,"Ġdad":8449,"seems":8450,"Ġmutual":8451,"Ġswords":8452,"Ġvener":8453,"Ġchecked":8454,"straight":8455,"Ġtables":8456,"Ġawoke":8457,"pest":8458,"Ġjohnson":8459,"Ġincreasing":8460,"Ġthrong":8461,"Ġresign":8462,"sister":8463,"sin":8464,"Ġmotionless":8465,"Ġrh":8466,"Ġthankful":8467,"Ġextravag":8468,"wish":8469,"Ġdifferences":8470,"Ġbone":8471,"ieu":8472,"Ġmurdered":8473,"cend":8474,"pow":8475,"avement":8476,"Ġmanuscript":8477,"gro":8478,"icholas":8479,"Ġ----":8480,"Ġpreparations":8481,"isms":8482,"river":8483,"Ġrarely":8484,"isn":8485,"Ġtip":8486,"aning":8487,"Ġspared":8488,"hung":8489,"opened":8490,"nobody":8491,"Ġvisits":8492,"Ġwoe":8493,"Ġbrick":8494,"express":8495,"Ġoverwhel":8496,"Ġbutler":8497,"Ġmichael":8498,"Ġmonday":8499,"Ġsullen":8500,"dled":8501,"Ġgenerations":8502,"Ġcant":8503,"Ġthief":8504,"Ġcoloured":8505,"Ġmadness":8506,"Ġparson":8507,"Ġplains":8508,"Ġpainter":8509,"Ġincap":8510,"Ġfence":8511,"Ġconvey":8512,"page":8513,"Ġsurv":8514,"Ġrocky":8515,"Ġtriumphant":8516,"vern":8517,"Ġtravelled":8518,"Ġprair":8519,"crit":8520,"Ġjeff":8521,"Ġmaintained":8522,"Ġwarriors":8523,"eur":8524,"Ġissued":8525,"Ġvarieties":8526,"Ġpainting":8527,"Ġvillages":8528,"pleased":8529,"ography":8530,"understood":8531,"Ġstaying":8532,"Ġselected":8533,"following":8534,"Ġinjury":8535,"pence":8536,"Ġpersuade":8537,"inge":8538,"ĠĠĠĠĠĠĠĠĠĠĠĠĠĠĠ":8539,"Ġlovers":8540,"Ġinvisible":8541,"Ġgerald":8542,"Ġholiday":8543,"cry":8544,"attention":8545,"Ġbelieving":8546,"twas":8547,"Ġsteal":8548,"Ġhud":8549,"iast":8550,"Ġmol":8551,"Ġfragments":8552,"late":8553,"Ġhomes":8554,"fool":8555,"Ġwink":8556,"ria":8557,"Ġsiege":8558,"Ġfoundation":8559,"Ġstudent":8560,"obl":8561,"Ġlug":8562,"Ġhans":8563,"fal":8564,"nearly":8565,"Ġhyp":8566,"Ġcigaret":8567,"Ġtrim":8568,"Ġanswers":8569,"zes":8570,"Ġdislike":8571,"Ġrussian":8572,"kept":8573,"service":8574,"Ġsummoned":8575,"azed":8576,"Ġmurde":8577,"Ġmail":8578,"Ġministers":8579,"Ġphilosoph":8580,"Ġcure":8581,"Ġbelt":8582,"Ġraven":8583,"gue":8584,"Ġapply":8585,"Ġsixteen":8586,"speaking":8587,"Ġcorps":8588,"Ġpreparing":8589,"Ġchristians":8590,"Ġvolumes":8591,"mac":8592,"sis":8593,"Ġviolently":8594,"gil":8595,"Ġmagist":8596,"Ġamericans":8597,"vived":8598,"gentlemen":8599,"Ġchildhood":8600,"lab":8601,"Ġdiffer":8602,"stop":8603,"Ġcathedral":8604,"Ġviii":8605,"Ġbutt":8606,"eches":8607,"Ġappropri":8608,"Ġoccupation":8609,"racted":8610,"Ġchimney":8611,"ois":8612,"Ġtravellers":8613,"fashioned":8614,"udge":8615,"Ġvon":8616,"ferred":8617,"!_":8618,"organ":8619,"Ġrebe":8620,"Ġskirt":8621,"cheon":8622,"lead":8623,"Ġcontact":8624,"offin":8625,"Ġpronounced":8626,"exactly":8627,"Ġschooner":8628,"Ġbells":8629,"christian":8630,"Ġaught":8631,"Ġaustr":8632,"Ġthereby":8633,"Ġsinking":8634,"Ġherbert":8635,"Ġdat":8636,"Ġpresents":8637,"Ġtrap":8638,"Ġbald":8639,"paper":8640,"isle":8641,"Ġendless":8642,"purpose":8643,"Ġmeek":8644,"Ġconstru":8645,"extra":8646,"Ġtheirs":8647,"Ġcertainty":8648,"early":8649,"Ġdame":8650,"doctor":8651,"Ġimpart":8652,"Ġashes":8653,"Ġisa":8654,"aration":8655,"Ġtempted":8656,"ational":8657,"Ġretain":8658,"Ġstret":8659,"nant":8660,"appre":8661,"ym":8662,"inv":8663,"iano":8664,"Ġpresume":8665,"Ġlimits":8666,"ustrious":8667,"Ġpromptly":8668,"Ġvaried":8669,"Ġyourselves":8670,"Ġshores":8671,"uttered":8672,"Ġinvolved":8673,"ilised":8674,"Ġformal":8675,"Ġgarments":8676,"Ġintroduction":8677,"Ġpositively":8678,"condition":8679,"Ġdrops":8680,"Ġoperations":8681,"Ġselect":8682,"Ġcrimson":8683,"Ġstudies":8684,"ixture":8685,"Ġwax":8686,"Ġarrested":8687,"Ġlonging":8688,"Ġexpecting":8689,"Ġcompare":8690,"ungle":8691,"Ġgladstone":8692,"Ġtumult":8693,"Ġpleasures":8694,"Ġspeaker":8695,"Ġderived":8696,"mounted":8697,"olence":8698,"Ġaboard":8699,"Ġshalt":8700,"Ġlessons":8701,"big":8702,"Ġcontinent":8703,"Ġpicturesque":8704,"Ġterrit":8705,"Ġwagon":8706,"advent":8707,"cott":8708,"laid":8709,"Ġseal":8710,"Ġactivity":8711,"Ġbapt":8712,"awn":8713,"hole":8714,"Ġclung":8715,"Ġrecently":8716,"Ġengage":8717,"Ġnaught":8718,"cop":8719,"Ġclust":8720,"Ġblown":8721,"Ġyea":8722,"Ġrod":8723,"sail":8724,"Ġape":8725,"Ġcorrespondence":8726,"direct":8727,"Ġstately":8728,"unte":8729,"Ġassembly":8730,"sufficient":8731,"Ġbars":8732,"entire":8733,"ieves":8734,"Ġdisagreeable":8735,"Ġglasses":8736,"orial":8737,"apsed":8738,"cipit":8739,"Ġwip":8740,"Ġuncommon":8741,"Ġsolemnly":8742,"cloth":8743,"Ġpersist":8744,"ggy":8745,"Ġnigh":8746,"mended":8747,"Ġinjured":8748,"Ġenvy":8749,"Ġdescent":8750,"Ġforming":8751,"mers":8752,"Ġpeaceful":8753,"Ġpilgrim":8754,"Ġ35":8755,"Ġrises":8756,"Ġwheels":8757,"Ġrighteousness":8758,"dan":8759,"Ġkent":8760,"Ġstretch":8761,"gory":8762,"pie":8763,"Ġtranqu":8764,"Ġlargely":8765,"Ġpeasant":8766,"Ġremorse":8767,"living":8768,"Ġassault":8769,"Ġresponsibility":8770,"Ġregions":8771,"Ġfourteen":8772,"Ġfortunes":8773,"Ġsets":8774,"Ġbonnet":8775,"Ġbart":8776,"Ġhastened":8777,"Ġroots":8778,"loc":8779,"inda":8780,"Ġblowing":8781,"Ġdeceived":8782,"Ġflames":8783,"Ġremove":8784,"conduct":8785,"pool":8786,"introdu":8787,"shore":8788,"Ġjanuary":8789,"horses":8790,"Ġwaving":8791,"Ġrealize":8792,"Ġchurches":8793,"Ġheroic":8794,"Ġpeep":8795,"Ġtraining":8796,"Ġgravity":8797,"Ġlodge":8798,"Ġcopper":8799,"bable":8800,"hardly":8801,"resp":8802,"Ġtrades":8803,"apart":8804,"icket":8805,"Ġprocession":8806,"Ġblanc":8807,"enery":8808,"combe":8809,"Ġchanging":8810,"Ġhistorical":8811,"Ġdropping":8812,"esar":8813,"Ġjohnny":8814,"Ġspectacle":8815,"Ġdishon":8816,"american":8817,"Ġarrow":8818,"Ġdecember":8819,"Ġfountain":8820,"cro":8821,"slight":8822,"Ġmedicine":8823,"'\"":8824,"Ġprivilege":8825,"Ġquaint":8826,"dued":8827,"Ġanswering":8828,"bby":8829,"rus":8830,"ini":8831,"Ġms":8832,"olph":8833,"brows":8834,"Ġamazement":8835,"Ġfid":8836,"Ġopenly":8837,"Ġ21":8838,"Ġhealthy":8839,"sweet":8840,"brit":8841,"imately":8842,"Ġparallel":8843,"Ġabbey":8844,"Ġladyship":8845,"Ġdefeat":8846,"Ġweep":8847,"Ġstomach":8848,"Ġteleg":8849,"Ġrobin":8850,"Ġerect":8851,"symp":8852,"Ġpoo":8853,"Ġharbour":8854,"Ġrecollection":8855,"Ġlend":8856,"Ġsurrender":8857,"Ġarguments":8858,"Ġfitz":8859,"mun":8860,"Ġromans":8861,"Ġuniversity":8862,"james":8863,"ighted":8864,"Ġsaxon":8865,"Ġplum":8866,"Ġplac":8867,"Ġappar":8868,"Ġindis":8869,"trouble":8870,"kers":8871,"whis":8872,"Ġwarrant":8873,"Ġleaders":8874,"Ġflora":8875,"Ġdouglas":8876,"Ġstreams":8877,"forgot":8878,"Ġhenri":8879,"vict":8880,"Ġdisplayed":8881,"dess":8882,"Ġdiscipline":8883,"Ġmason":8884,"Ġamusing":8885,"Ġneedn":8886,"according":8887,"uated":8888,"throp":8889,"Ġeustace":8890,"Ġnewspapers":8891,"Ġpercy":8892,"Ġmustn":8893,"sitting":8894,"Ġinex":8895,"ousers":8896,"Ġimperial":8897,"inated":8898,"aned":8899,"Ġbend":8900,"ensions":8901,"Ġaccess":8902,"idable":8903,"usalem":8904,"Ġnet":8905,"Ġreception":8906,"inine":8907,"Ġcruelty":8908,"iary":8909,"Ġoffices":8910,"Ġprophet":8911,"satisfied":8912,"Ġjealousy":8913,"Ġbrains":8914,"Ġthoughtfully":8915,"Ġmissing":8916,"Ġinspired":8917,"Ġelbow":8918,"Ġcorners":8919,"Ġsentiments":8920,"Ġinevitable":8921,"bull":8922,"fan":8923,"Ġtore":8924,"Ġincluded":8925,"Ġfaults":8926,"Ġflock":8927,"Ġconsisted":8928,"Ġamiable":8929,"Ġfools":8930,"Ġpersonally":8931,"Ġdreary":8932,"Ġweeping":8933,"Ġpurchase":8934,"ordered":8935,"Ġdeaf":8936,"ulus":8937,"Ġrays":8938,"Ġrightly":8939,"Ġsketch":8940,"ppers":8941,"Ġpulling":8942,"Ġstruggled":8943,"experience":8944,"Ġswore":8945,"22":8946,"Ġlasted":8947,"Ġtarzan":8948,"Ġintercourse":8949,"Ġjudged":8950,"Ġrecalled":8951,"perfectly":8952,"jim":8953,"Ġthet":8954,"Ġgladly":8955,"Ġresponsible":8956,"Ġyouthful":8957,"Ġcos":8958,"Ġgoth":8959,"send":8960,"illes":8961,"Ġsteward":8962,"Ġstatue":8963,"Ġfeathers":8964,"keys":8965,"Ġsever":8966,"Ġexal":8967,"Ġbackward":8968,"Ġchanced":8969,"excl":8970,"Ġmedical":8971,"Ġawhile":8972,"Ġmodel":8973,"Ġregards":8974,"Ġcreation":8975,"Ġcapture":8976,"Ġphenomena":8977,"noble":8978,"Ġadvise":8979,"Ġtap":8980,"remem":8981,"urious":8982,"turning":8983,"Ġbullet":8984,"Ġoars":8985,"Ġtool":8986,"Ġconj":8987,"!âĢĿ":8988,"Ġsher":8989,"Ġbrethren":8990,"saying":8991,"Ġmansion":8992,"Ġlic":8993,"Ġwhip":8994,"Ġprose":8995,"orter":8996,"Ġwillingly":8997,"forced":8998,"oting":8999,"Ġfrankly":9000,"Ġdangers":9001,"Ġey":9002,"Ġedinburgh":9003,"Ġdepartment":9004,"Ġcliffs":9005,"aus":9006,"isa":9007,"Ġseize":9008,"Ġcomplain":9009,"Ġfiercely":9010,"Ġtemptation":9011,"Ġwherefore":9012,"Ġeffic":9013,"dinner":9014,"Ġclosing":9015,"Ġperpetual":9016,"opport":9017,"dal":9018,"Ġboot":9019,"Ġflies":9020,"ffe":9021,"Ġprovin":9022,"Ġafforded":9023,"figure":9024,"mess":9025,"Ġvote":9026,"tim":9027,"Ġborr":9028,"Ġdiscern":9029,"Ġsatisfactory":9030,"Ġsaith":9031,"Ġdrama":9032,"uzz":9033,"Ġaged":9034,"Ġcharlie":9035,"Ġoriginally":9036,"Ġstrictly":9037,"Ġpony":9038,"ĠÂ£":9039,"Ġlem":9040,"Ġscottish":9041,"Ġpreviously":9042,"Ġwept":9043,"fred":9044,"Ġsho":9045,"Ġsupposing":9046,"Ġpursue":9047,"Ġentertained":9048,"Ġconquered":9049,"Ġshillings":9050,"Ġskull":9051,"publ":9052,"Ġearn":9053,"phant":9054,"lit":9055,"Ġ33":9056,"Ġstable":9057,"incre":9058,"Ġaccum":9059,"Ġsuitable":9060,"Ġavenue":9061,";'":9062,"Ġmonstrous":9063,"Ġarmies":9064,"Ġwounds":9065,"Ġdash":9066,"inese":9067,"Ġcrook":9068,"Ġacknowledge":9069,"east":9070,"Ġcove":9071,"iate":9072,"cker":9073,"Ġmetal":9074,"Ġladder":9075,"Ġlud":9076,"Ġhasty":9077,"uing":9078,"Ġelection":9079,"nold":9080,"reement":9081,"Ġlowered":9082,"Ġcabinet":9083,"fine":9084,"Ġhardy":9085,"major":9086,"Ġindustry":9087,"anded":9088,"Ġloaded":9089,"Ġscant":9090,"Ġvicar":9091,"inery":9092,"Ġcollar":9093,"Ġvillain":9094,"Ġfiery":9095,"gus":9096,"assad":9097,"Ġauthors":9098,"Ġguardian":9099,"stein":9100,"Ġapplication":9101,"Ġdeserved":9102,"iser":9103,"accept":9104,"Ġhearth":9105,"Ġfuneral":9106,"Ġabsorbed":9107,"cia":9108,"Ġaxe":9109,"Ġtreaty":9110,"Ġinfantry":9111,"observed":9112,"Ġ50":9113,"meant":9114,"Ġdispute":9115,"Ġauthorities":9116,"educ":9117,"Ġvary":9118,"Ġpic":9119,"Ġwheat":9120,"Ġnotions":9121,"hil":9122,"lantic":9123,"Ãł":9124,"adel":9125,"inder":9126,"Ġcolumb":9127,"Ġearthly":9128,"Ġinval":9129,"Ġupset":9130,"Ġconspic":9131,"ordon":9132,"reshold":9133,"Ġcreed":9134,"Ġnobles":9135,"Ġrespecting":9136,"Ġcandid":9137,"Ġwholes":9138,"Ġpreserve":9139,"Ġpour":9140,"Ġconflict":9141,"reading":9142,"Ġsurprising":9143,"yled":9144,"Ġ100":9145,"izes":9146,"Ġelabor":9147,"vial":9148,"wanted":9149,"Ġsuited":9150,"agues":9151,"Ġsmiles":9152,"llo":9153,"atus":9154,"Ġstare":9155,"bi":9156,"Ġfemales":9157,"Ġinsects":9158,"gence":9159,"moved":9160,"gered":9161,"Ġcontain":9162,"hable":9163,"Ġample":9164,"fling":9165,"content":9166,"Ġresemblance":9167,"Ġimpatience":9168,"added":9169,"Ġlikeness":9170,"Ġwishing":9171,"faces":9172,"ituted":9173,"Ġfug":9174,"aire":9175,"Ġinherit":9176,"Ġdiscussed":9177,"Ġmaterials":9178,"Ġ`":9179,"Ġtha":9180,"umns":9181,"Ġspoil":9182,"Ġdraught":9183,"cloud":9184,"sels":9185,"fra":9186,"main":9187,"Ġix":9188,"Ġvigorous":9189,"listen":9190,"alo":9191,"interested":9192,"lotte":9193,"Ġteam":9194,"Ġartillery":9195,"Ġmemories":9196,"riff":9197,"works":9198,"hours":9199,"tender":9200,"Ġflor":9201,"Ġvirginia":9202,"Ġprovince":9203,"Ġupwards":9204,"considerable":9205,"Ġwol":9206,"Ġoz":9207,"Ġjudges":9208,"asants":9209,"garden":9210,"icism":9211,"usal":9212,"45":9213,"Ġwoo":9214,"star":9215,"Ġsnap":9216,"voy":9217,"antial":9218,"Ġobserving":9219,"Ġprayed":9220,"search":9221,"Ġvine":9222,"Ġproduction":9223,"minster":9224,"Ġdetermination":9225,"Ġdistinguish":9226,"Ġtune":9227,"Ġflu":9228,"Ġparlour":9229,"winter":9230,"Ġterrace":9231,"Ġgraham":9232,"Ġastr":9233,"Ġpurse":9234,"Ġsanct":9235,"Ġcreek":9236,"Ġcongress":9237,"Ġbron":9238,"Ġcontract":9239,"Ġbutton":9240,"Ġloudly":9241,"pin":9242,"org":9243,"Ġdeclined":9244,"Ġjewels":9245,"Ġbills":9246,"Ġremo":9247,"Ġroared":9248,"Ġtidings":9249,"Ġding":9250,"employ":9251,"portion":9252,"fat":9253,"Ġextend":9254,"Ġunwilling":9255,"Ġwherein":9256,"Ġrenewed":9257,"';":9258,"Ġhighness":9259,"Ġgeoffrey":9260,"Ġimproved":9261,"Ġinnocence":9262,"pun":9263,"Ġthanked":9264,"Ġwilson":9265,"Ġeveryone":9266,"comb":9267,"Ġcheerfully":9268,"Ġmanly":9269,"Ġwithdrew":9270,"haired":9271,"Ġkilling":9272,"hig":9273,"mighty":9274,"Ġerrand":9275,"birds":9276,"Ġcens":9277,"Ġtrained":9278,"Ġwildly":9279,"Ġcombat":9280,"fly":9281,"shar":9282,"Ġdanced":9283,"Ġimmortal":9284,"Ġsalvation":9285,"Ġcatching":9286,"Ġjulia":9287,"Ġhaunted":9288,"Ġhoping":9289,"Ġeducated":9290,"liked":9291,"Ġchiefs":9292,"oust":9293,"Ġomn":9294,"gins":9295,"Ġtrop":9296,"Ġmorris":9297,"Ġtyr":9298,"Ġcourtesy":9299,"Ġendeavoured":9300,"philosop":9301,"Ġdefect":9302,"Ġbreed":9303,"erity":9304,"athy":9305,"Ġcarpet":9306,"Ġsmallest":9307,"gic":9308,"Ġcouch":9309,"etta":9310,"Ġcondemned":9311,"Ġtops":9312,"Ġninet":9313,"Ġcic":9314,"Ġdense":9315,"lived":9316,"fron":9317,"Ġprosperity":9318,"icians":9319,"Ġlent":9320,"Ġcreep":9321,"Ġvenet":9322,"ients":9323,"anne":9324,"finished":9325,"Ġportug":9326,"Ġpoliceman":9327,"Ġcomposition":9328,"Ġragged":9329,"Ġ36":9330,"gery":9331,"Ġgrove":9332,"Ġhalt":9333,"Ġjapan":9334,"Ġverd":9335,"soft":9336,"Ġpious":9337,"Ġsack":9338,"compar":9339,"Ġestim":9340,"slowly":9341,"rust":9342,"Ġlowest":9343,"oofs":9344,"Ġlang":9345,"Ġcontrived":9346,"Ġmanager":9347,"Ġscout":9348,"21":9349,"Ġendeavour":9350,"ciation":9351,"Ġaccused":9352,"keeping":9353,"wes":9354,"pier":9355,"Ġpatch":9356,"Ġlink":9357,"Ġexult":9358,"oebe":9359,"Ġcharley":9360,"Ġeighty":9361,"stream":9362,"Ġclasped":9363,"Ġstim":9364,"wixt":9365,"Ġoffended":9366,"Ġmagazine":9367,"Ġwoke":9368,"Ġdined":9369,"Ġmack":9370,"Ġdod":9371,"Ġadvised":9372,"Ġseeming":9373,"Ġadvoc":9374,"Ġalfred":9375,"Ġspy":9376,"Ġwhistle":9377,"Ġdried":9378,"actions":9379,"thoughts":9380,"aved":9381,"icles":9382,"nine":9383,"thirty":9384,"aude":9385,"trust":9386,"Ġfrozen":9387,"oops":9388,"later":9389,"reve":9390,"Ġpear":9391,"Ġjanet":9392,"Ġpas":9393,"Ġsecrets":9394,"Ġalexander":9395,"langu":9396,"acre":9397,"Ġencouraged":9398,"_.\"":9399,"Ġost":9400,"Ġgulf":9401,"Ġaffl":9402,"spoken":9403,"mic":9404,"Ġwiser":9405,"Ġmales":9406,"Ġdownstairs":9407,"Ġbrows":9408,"Ġfiction":9409,"Ġsul":9410,"Ġfavourable":9411,"Ġgap":9412,"utor":9413,"Ġdeemed":9414,"possession":9415,"Ġwire":9416,"Ġhaught":9417,"Ġreturns":9418,"Ġsurrounding":9419,"Ġwits":9420,"Ġbacks":9421,"Ġpropriet":9422,"Ġbewildered":9423,"Ġfiring":9424,"ills":9425,"Ġlonged":9426,"Ġcrushed":9427,"erick":9428,"pul":9429,"sou":9430,"reached":9431,"Ġhired":9432,"aternal":9433,"Ġpurely":9434,"Ġbending":9435,"Ġperf":9436,"Ġearliest":9437,"Ġfortunately":9438,"Ġbax":9439,"Ġisrael":9440,"Ġbitterness":9441,"Ġhood":9442,"Ġperse":9443,"chamber":9444,"Ġluxury":9445,"Ġheroes":9446,"Ġdisguise":9447,"Ġconsiderably":9448,"Ġappetite":9449,"Ġmarian":9450,"pole":9451,"Ġcivilization":9452,"Ġpermanent":9453,"Ġinfinitely":9454,"Ġelderly":9455,"san":9456,"Ġnapoleon":9457,"Ġscent":9458,"Ġsnake":9459,"Ġlimit":9460,"Ġgossip":9461,"Ġchildish":9462,"Ġsunlight":9463,"Ġsimpl":9464,"eh":9465,"Ġsection":9466,"Ġfruits":9467,"depart":9468,"Ġtemporary":9469,"Ġprofessional":9470,"Ġaffections":9471,"Ġarrows":9472,"rod":9473,"Ġadding":9474,"Ġbreathed":9475,"Ġseverely":9476,"Ġolive":9477,"Ġspeedily":9478,"Ġobservations":9479,"Ġprevailed":9480,"Ġhog":9481,"length":9482,"emb":9483,"Ġglowing":9484,"happened":9485,"Ġtast":9486,"Ġwarrior":9487,"Ġadorn":9488,"Ġspecially":9489,"beginning":9490,"Ġcourts":9491,"stro":9492,"borne":9493,"Ġencounter":9494,"Ġhappier":9495,"asping":9496,"nin":9497,"Ġplanted":9498,"Ġtestimony":9499,"Ġreadiness":9500,"via":9501,"entially":9502,"Ġdesirable":9503,"orts":9504,"Ġbundle":9505,"health":9506,"igate":9507,"Ġinspir":9508,"inkled":9509,"Ġannounce":9510,"Ġchristianity":9511,"Ġisle":9512,"Ġwretch":9513,"Ġblast":9514,"anging":9515,"Ġtalent":9516,"Ġchambers":9517,"Ġthor":9518,"uting":9519,"Ġbarr":9520,"meanwhile":9521,"generally":9522,"safe":9523,"Ġshine":9524,"Ã¢":9525,"Ġsexes":9526,"ules":9527,"Ġmeasured":9528,"Ġphotograph":9529,"Ġjustly":9530,"Ġbreathe":9531,"strength":9532,"Ġfebruary":9533,"somewhat":9534,"Ġtam":9535,"passion":9536,"Ġcub":9537,"Ġjen":9538,"Ġblunt":9539,"Ġconject":9540,"Ġobviously":9541,"buck":9542,"onies":9543,"Ġgreeted":9544,"respons":9545,"filled":9546,"handed":9547,"Ġjungle":9548,"Ġharder":9549,"Ġmerits":9550,"Ġprett":9551,"leaving":9552,"yours":9553,"Ġtowers":9554,"Ġangle":9555,"Ġavoided":9556,"Ġoutline":9557,"acht":9558,"wrong":9559,"Ġwhale":9560,"Ġrelax":9561,"Ġdost":9562,"soul":9563,"Ġdissol":9564,"Ġprotested":9565,"Ġsear":9566,"Ġembrace":9567,"Ġmirror":9568,"folk":9569,"meaning":9570,"Ġphilosopher":9571,"ai":9572,"countered":9573,"occupied":9574,"Ġforests":9575,"Ġetern":9576,"Ġnowhere":9577,"clothes":9578,"mered":9579,"Ġspin":9580,"Ġundoubtedly":9581,"longer":9582,"Ġorange":9583,"Ġchival":9584,"Ġterribly":9585,"Ġnicholas":9586,"favour":9587,"lings":9588,"Ġanaly":9589,"Ġconsented":9590,"Ġlarry":9591,"guish":9592,"Ġrecognize":9593,"Ġcultivated":9594,"erving":9595,"Ġbou":9596,"ione":9597,"Ġasks":9598,"Ġwordsworth":9599,"Ġshouts":9600,"ping":9601,"Ġunc":9602,"south":9603,"Ġglittering":9604,"Ġmonot":9605,"remained":9606,"Ġmarvell":9607,"Ġaddressing":9608,"ware":9609,"Ġveins":9610,"cock":9611,"Ġinconven":9612,"Ġcontains":9613,"Ġbriefly":9614,"Ġbaggage":9615,"aneously":9616,"minutes":9617,"Ġconclude":9618,"Ġpreacher":9619,"Ġwinding":9620,"Ġterr":9621,"Ġdickens":9622,"Ġhaunt":9623,"iforn":9624,"Ġliver":9625,"blest":9626,"ceptible":9627,"couldn":9628,"Ġmc":9629,"Ġpend":9630,"william":9631,"Ġtransport":9632,"Ġscandal":9633,"Ġsorr":9634,"olved":9635,"Ġblaze":9636,"Ġfriday":9637,"Ġjustify":9638,"cler":9639,"excell":9640,"Ġconcent":9641,"Ġlouise":9642,"Ġreports":9643,"wouldn":9644,"Ġturk":9645,"],":9646,"Ġconveyed":9647,"bab":9648,"Ġmend":9649,"Ġemphas":9650,"Ġlodgings":9651,"Ġbour":9652,"Ġguarded":9653,"unities":9654,"pra":9655,"Ġambit":9656,"Ġintoler":9657,"mate":9658,"Ġporch":9659,"everybody":9660,"Ġsermon":9661,"Ġsternly":9662,"Ġwaiter":9663,"fn":9664,"atha":9665,"Ġweigh":9666,"honour":9667,"Ġbrandy":9668,"Ġvap":9669,"idea":9670,"opinion":9671,"society":9672,"presence":9673,"Ġgab":9674,"Ġcommence":9675,"Ġleonard":9676,"Ġfab":9677,"Ġpleasing":9678,"Ġholes":9679,"harry":9680,"Ġtimber":9681,"aired":9682,"Ġdelicious":9683,"allow":9684,"plom":9685,"sidered":9686,"Ġlyd":9687,"direction":9688,"Ġpag":9689,"Ġnewly":9690,"Ġamazed":9691,"Ġescort":9692,"Ġmonster":9693,"Ġheavenly":9694,"satisfaction":9695,"moon":9696,"uk":9697,"interesting":9698,"Ġdale":9699,"queen":9700,"Ġvital":9701,"Ġfeature":9702,"afraid":9703,"Ġexpectation":9704,"happiness":9705,"Ġmiracle":9706,"familiar":9707,"obt":9708,"ocation":9709,"Ġdesolate":9710,"Ġconspir":9711,"Ġshudder":9712,"Ġbeggar":9713,"Ġvolunte":9714,"Ġinnum":9715,"Ġlinen":9716,"Ġfern":9717,"Ġdoom":9718,"Ġmademoiselle":9719,"Ġmusical":9720,"Ġcrisis":9721,"35":9722,"press":9723,"sad":9724,"alas":9725,"Ġintentions":9726,"Ġtwisted":9727,"Ġagitation":9728,"Ġsheer":9729,"Ġcompassion":9730,"Ġjury":9731,"Ġprobability":9732,"Ġtrousers":9733,"fford":9734,"Ġshrewd":9735,"Ġattain":9736,"passing":9737,"Ġsticks":9738,"burst":9739,"waiting":9740,"reasonable":9741,"Ġpoly":9742,"desp":9743,"Ġexists":9744,"Ġyell":9745,"Ġowen":9746,"ctic":9747,"Ġbetty":9748,"Ġmiller":9749,"Ġimprovement":9750,"Ġdazz":9751,"Ġsatan":9752,"aware":9753,"Ġlifting":9754,"Ġadopt":9755,"myster":9756,"drawing":9757,"Ġbred":9758,"Ġburns":9759,"Ġimpatiently":9760,"Ġpsy":9761,"yers":9762,"enjoy":9763,"imer":9764,"Ġstirring":9765,"urbed":9766,"heads":9767,"Ġpacked":9768,"Ġamidst":9769,"dinand":9770,"thew":9771,"Ġfaster":9772,"Ġsubdued":9773,"ĠĠĠĠĠĠĠĠĠĠĠĠĠĠĠĠĠĠĠĠĠĠĠĠĠĠĠĠĠĠ":9774,"lasting":9775,"Ġpreceding":9776,"sleep":9777,"Ġshaft":9778,"dress":9779,"alia":9780,"Ġadditional":9781,"lia":9782,"inating":9783,"ĠĠčĊ":9784,"scene":9785,"Ġsprings":9786,"pay":9787,"Ġpines":9788,"Ġhart":9789,"Ġhorns":9790,"Ġimprison":9791,"Ġinnumerable":9792,"sen":9793,"Ġpromises":9794,"poral":9795,"Ġlots":9796,"Ġdelicacy":9797,"xter":9798,"inton":9799,"Ġcriminal":9800,"gments":9801,"Ġcash":9802,"Ġthereof":9803,"affection":9804,"Ġprairie":9805,"Ġshallow":9806,"Ġcoldly":9807,"Ġarchitecture":9808,"_.--":9809,"ernal":9810,"outside":9811,"cile":9812,"Ġtermin":9813,"Ġdemands":9814,"empl":9815,"Ġwidely":9816,"Ġdestiny":9817,"Ġunworthy":9818,"Ġmarvel":9819,"Ġez":9820,"Ġserene":9821,"Ġalan":9822,"Ġability":9823,"asso":9824,"phys":9825,"Ġawfully":9826,"Ġpenn":9827,"Ġsensitive":9828,"Ġras":9829,"Ġassented":9830,"Ġdismal":9831,"Ġsearching":9832,"Ġbodily":9833,"36":9834,"ripp":9835,"considered":9836,"Ġarmour":9837,"Ġcarl":9838,"Ġ37":9839,"dor":9840,"Ġundertake":9841,"Ġrecognition":9842,"Ġaccommod":9843,"Ġoccupy":9844,"Ġdirt":9845,"Ġfavorite":9846,"pens":9847,"vertis":9848,"pha":9849,"unks":9850,"Ġshocked":9851,"Ġnois":9852,"Ġhereafter":9853,"Ġdares":9854,"Ġprecaut":9855,"inement":9856,"Ġdramatic":9857,"Ġroaring":9858,"Ġtomorrow":9859,"Ġcustoms":9860,"Ġshepherd":9861,"cab":9862,"Ġunfortunately":9863,"urable":9864,"cular":9865,"rum":9866,"Ġmyth":9867,"Ġmilton":9868,"Ġechoed":9869,"hastly":9870,"scarcely":9871,"greek":9872,"Ġaren":9873,"neath":9874,"Ġment":9875,"Ġappointment":9876,"Ġscenery":9877,"ios":9878,"Ġprovision":9879,"Ġremembrance":9880,"Ġprovide":9881,"Ġrequires":9882,"save":9883,"Ġsteven":9884,"Ġenglishmen":9885,"Ġunseen":9886,"Ġperish":9887,"equal":9888,"Ġjuan":9889,"Ġdismissed":9890,"Ġhet":9891,"Ġexternal":9892,"Ġremainder":9893,"Ġfoam":9894,"horn":9895,"Ġsurgeon":9896,"boats":9897,"Ġfrontier":9898,"Ġpierre":9899,"Ġtact":9900,"Ġflee":9901,"Ġmit":9902,"neys":9903,"Ġwonderfully":9904,"Ġnovels":9905,"Ġvacant":9906,"icating":9907,"marriage":9908,"Ġsupplies":9909,"mass":9910,"Ġmarie":9911,"Ġdru":9912,"Ġreserved":9913,"Ġcostume":9914,"Ġced":9915,"Ġdamned":9916,"Ġmothers":9917,"Ġformidable":9918,"miles":9919,"Ġremonstr":9920,"Ġsyl":9921,"Ġrobbed":9922,"Ġcharms":9923,"Ġrobes":9924,"Ġsublime":9925,"Ġmanagement":9926,"dened":9927,"Ġneighborhood":9928,"Ġ=":9929,"quer":9930,"Ġassisted":9931,"Ġprotestant":9932,"Ġmaud":9933,"Ġfie":9934,"Ġsomeone":9935,"Ġcovering":9936,"Ġimagin":9937,"Ġshrill":9938,"Ġcorrid":9939,"Ġgrasped":9940,"Ġtread":9941,"Ġfloated":9942,"Ġchinese":9943,"Ġvelvet":9944,"Ġec":9945,"agu":9946,"Ġtravers":9947,"nib":9948,"uttering":9949,"Ġcommands":9950,"Ġcolumns":9951,"companion":9952,"Ġbits":9953,"Ġflush":9954,"Ġhelping":9955,"Ġcombined":9956,"Ġbehaved":9957,"Ġlegend":9958,"tingu":9959,"Ġblush":9960,"agers":9961,"Ġcursed":9962,"Ġ38":9963,"lam":9964,"tor":9965,"asty":9966,"Ġeagle":9967,"henry":9968,"Ġsire":9969,"onse":9970,"Ġgreatness":9971,"Ġdilig":9972,"Ġelegant":9973,"Ġpavement":9974,"Ġnerve":9975,"Ġimpressions":9976,"sick":9977,"smo":9978,"warf":9979,"hetic":9980,"lton":9981,"Ġconfirmed":9982,"Ġdealt":9983,"Ġthreshold":9984,"iron":9985,"icy":9986,"Ġfilling":9987,"Ġsunny":9988,"jan":9989,"chants":9990,"Ġlamps":9991,"Ġfist":9992,"Ġfacing":9993,"Ġscre":9994,"cession":9995,"Ġmorrow":9996,"._)":9997,"pocket":9998,"rane":9999,"Ġmull":10000,"jam":10001,"Ġphant":10002,"naturally":10003,"Ġmainly":10004,"Ġtossed":10005,"Ġseaman":10006,"Ġconsists":10007,"Ġreckless":10008,"Ġancestors":10009,"Ġnom":10010,"richard":10011,"Ġfaculty":10012,"urre":10013,"Ġretained":10014,"Ġassociation":10015,"Ġslumber":10016,"Ġrelieve":10017,"ivable":10018,"Ġtimid":10019,"habited":10020,"tru":10021,"Ġnob":10022,"follow":10023,"eat":10024,"enched":10025,"Ġencamp":10026,"Ġstillness":10027,"log":10028,"Ġbug":10029,"Ġshells":10030,"version":10031,"ferences":10032,"Ġmoderate":10033,"Ġsecretly":10034,"Ġincapable":10035,"reet":10036,"Ġpillow":10037,"Ġclearing":10038,"Ġrebellion":10039,"Ġhedge":10040,"othesis":10041,"deck":10042,"Ġmoist":10043,"Ġdispos":10044,"Ġuncomfortable":10045,"Ġshared":10046,"Ġallan":10047,"Ġangrily":10048,"bas":10049,"Ġmak":10050,"Ġfret":10051,"Ġeffected":10052,"Ġstrikes":10053,"Ġintroduce":10054,"Ġprimitive":10055,"Ġbarren":10056,"Ġcomplexion":10057,"Ġcolony":10058,"Ġtraitor":10059,"fright":10060,"Ġlodging":10061,"Ġdeliberately":10062,"wich":10063,"Ġworldly":10064,"ursday":10065,"Ġpang":10066,"Ġjam":10067,"Ġalongside":10068,"charles":10069,"Ġheathen":10070,"Ġindignant":10071,"Ġinsens":10072,"Ġdusk":10073,"stones":10074,"Ġdrunken":10075,"eled":10076,"Ġboxes":10077,"Ġindependence":10078,"difficulty":10079,"Ġrings":10080,"Ġsickness":10081,"Ġeconomy":10082,"event":10083,"Ġunnecessary":10084,"Ġheights":10085,"summer":10086,"rad":10087,"arers":10088,"Ġcaps":10089,"Ġestablish":10090,"Ġvaguely":10091,"furn":10092,"ĠcÃ¦":10093,"Ġacad":10094,"Ġgib":10095,"aye":10096,"Ġscram":10097,"Ġ34":10098,"Ġcrazy":10099,"Ġdiss":10100,"cart":10101,"Ġpreparation":10102,"inj":10103,"verend":10104,"Ġcrash":10105,"Ġapprehension":10106,"Ġbru":10107,"separ":10108,"Ġfaculties":10109,"Ġdivide":10110,"Ġcapit":10111,"Ġcatherine":10112,"Ġinjustice":10113,"Ġhighland":10114,"distingu":10115,"zel":10116,"Ġaroused":10117,"iage":10118,"Ġ39":10119,"prepared":10120,"Ġholmes":10121,"!)":10122,"Ġtempest":10123,"Ġrue":10124,"dozen":10125,"Ġwiz":10126,"Ġabstract":10127,"Ġgust":10128,"Ġmomentary":10129,"spoke":10130,"Ġfurnish":10131,"Ġcalculated":10132,"Ġreasoning":10133,"Ġmeadow":10134,"Ġbelle":10135,"Ġlil":10136,"Ġabode":10137,"Ġtroop":10138,"Ġcommercial":10139,"Ġresponded":10140,"ethe":10141,"Ġclothing":10142,"Ġsuspicious":10143,"ilton":10144,"Ġedgar":10145,"Ġfrightful":10146,"Ġharmony":10147,"Ġbee":10148,"stay":10149,"Ġgrip":10150,"Ġattractive":10151,"Ġtru":10152,"Ġswam":10153,"Ġminist":10154,"Ġstrongest":10155,"revol":10156,"Ġmuff":10157,"Ġeyebrows":10158,"Ġplacing":10159,"Ġachieve":10160,"lorn":10161,"Ġoverhead":10162,"Ġdora":10163,"Ġgy":10164,"Ġcordial":10165,"Ġ190":10166,"Ãª":10167,"Ġsandy":10168,"Ġwist":10169,"Ġwig":10170,"peculiar":10171,"Ġimages":10172,"Ġspeeches":10173,"Ġwarmly":10174,"situ":10175,"Ġeagerness":10176,"Ġjerusalem":10177,"Ġdischarge":10178,"Ġcaroline":10179,"ato":10180,"idences":10181,"Ġworsh":10182,"Ġghosts":10183,"sie":10184,"riel":10185,"Ġlargest":10186,"Ġpleaded":10187,"worn":10188,"Ġranch":10189,"servant":10190,"Ġrugged":10191,"bread":10192,"Ġcargo":10193,"Ġchoo":10194,"Ġesmond":10195,"Ġhypo":10196,"Ġvile":10197,"Ġplates":10198,"untary":10199,"Ġnig":10200,"grow":10201,"Ġhurriedly":10202,"Ġmoses":10203,"Ġxi":10204,"engaged":10205,"Ġrou":10206,"Ġcommod":10207,"Ġorg":10208,"bred":10209,"kee":10210,"Ġclar":10211,"Ġmix":10212,"Ġphysician":10213,"cong":10214,"ques":10215,"Ġprudence":10216,"Ġkick":10217,"hero":10218,"Ġanna":10219,"Ġbidding":10220,"Ġrupert":10221,"Ġegyptian":10222,"Ġrussia":10223,"Ġconsolation":10224,"ladies":10225,"influence":10226,"uation":10227,"Ġrepair":10228,"Ġirresist":10229,"Ġpayment":10230,"Ġcautiously":10231,"Ġfancies":10232,"wealth":10233,"Ġgn":10234,"Ġbestowed":10235,"prec":10236,"ettle":10237,"repe":10238,"Ġmarching":10239,"Ġartificial":10240,"Ġwitnesses":10241,"compre":10242,"Ġpencil":10243,"Ġlimb":10244,"iastic":10245,"Ġexamples":10246,"apparently":10247,"Ġfoes":10248,"thony":10249,"Ġstaircase":10250,"Ġconspicuous":10251,"Ġfir":10252,"Ġdug":10253,"ico":10254,"Ġhats":10255,"Ġjackson":10256,"Ġsoci":10257,"Ġstrengthen":10258,"Ġmirth":10259,"Ġscare":10260,"Ġcontest":10261,"Ġcambridge":10262,"Ġluke":10263,"Ġrans":10264,"Ġrows":10265,"individual":10266,"pull":10267,"Ġtheod":10268,"Ġremembering":10269,"Ġvigil":10270,"Ġgroaned":10271,"Ġunnatural":10272,"Ġbliss":10273,"overing":10274,"sor":10275,"Ġathen":10276,"Ġclad":10277,"Ġliterally":10278,"Ġregularly":10279,"Ġnavy":10280,"paul":10281,"ingle":10282,"qual":10283,"afternoon":10284,"Ġkins":10285,"Ġsham":10286,"Ġmargin":10287,"Ġmarrying":10288,"Ġcurtains":10289,"Ġmaggie":10290,"greater":10291,"distinct":10292,"plend":10293,"Ġcommanding":10294,"Ġrestore":10295,"Ġscared":10296,"Ġlazy":10297,"Ġante":10298,"Ġbeautifully":10299,"Ġcigarette":10300,"esc":10301,"Ġtraces":10302,"eridge":10303,"Ġcoin":10304,"Ġbulk":10305,"devil":10306,"Ġclothed":10307,"Ġprecipit":10308,"Ġedmund":10309,"ernest":10310,"Ġexpressions":10311,"Ġmeadows":10312,"stan":10313,"temper":10314,"Ġpacific":10315,"text":10316,"Ġdestined":10317,"Ġtorrent":10318,"Ġringing":10319,"Ġfitting":10320,"Ġwool":10321,"Ġrebu":10322,"Ġhonestly":10323,"Ġshrugged":10324,"Ġhears":10325,"species":10326,"Ġenjoying":10327,"idelity":10328,"stretched":10329,"Ġshapes":10330,"Ġglare":10331,"Ġsworn":10332,"Ġcaptive":10333,"37":10334,"Ġmedium":10335,"Ġmoore":10336,"Ġdreaming":10337,"Ġmachinery":10338,"joice":10339,"Ġmouths":10340,"Ġprudent":10341,"ani":10342,"Ġkat":10343,"Ġtaver":10344,"ervation":10345,"Ġsprung":10346,"Ġsubsequent":10347,"broad":10348,"Ġbacon":10349,"Ġdoings":10350,"ggs":10351,"Ġtotally":10352,"mam":10353,"jer":10354,"Ġgor":10355,"Ġchorus":10356,"Ġcecil":10357,"holding":10358,"entirely":10359,"Ġyawn":10360,"Ġquoted":10361,"Ġquarre":10362,"drawn":10363,"Ġlace":10364,"Ġcircul":10365,"subst":10366,"Ġmask":10367,"elia":10368,"jul":10369,"rot":10370,"Ġjacket":10371,"Ġpunish":10372,"Ġnu":10373,"Ġdusty":10374,"Ġconsol":10375,"Ġcarp":10376,"Ġcoral":10377,"ooke":10378,"pling":10379,"Ġpractised":10380,"Ġhunters":10381,"brew":10382,"Ġlingered":10383,"tried":10384,"hey":10385,"Ġpiano":10386,"omy":10387,"Ġjoint":10388,"Ġdocument":10389,"Ġenqu":10390,"Ġextensive":10391,"intend":10392,"Ġrecorded":10393,"Ġpomp":10394,"fles":10395,"Ġcongreg":10396,"Ġspur":10397,"ouching":10398,"Ġuses":10399,"Ġrational":10400,"Ġstake":10401,"surpr":10402,"claim":10403,"Ġexclamation":10404,"sit":10405,"beauty":10406,"Ġtoday":10407,"Ġvalleys":10408,"Ġhospitality":10409,"Ġesteem":10410,"itimate":10411,"Ġmixture":10412,"Ġalar":10413,"Ġhanged":10414,"national":10415,"Ġhunted":10416,"tin":10417,"Ġflowing":10418,"shaw":10419,"Ġtorture":10420,"Ġsult":10421,"usively":10422,"result":10423,"Ġexhibited":10424,"forgotten":10425,"Ġrend":10426,"Ġford":10427,"Ġ178":10428,"talking":10429,"Ġtiger":10430,"Ġaz":10431,"Ġdies":10432,"Ġrespected":10433,"meas":10434,"grateful":10435,"Ġinterpret":10436,"prove":10437,"Ġfrenchman":10438,"quarter":10439,"Ġowed":10440,"Ġellen":10441,"Ġanguish":10442,"woods":10443,"Âł.":10444,"Ġgrowled":10445,"Ġessay":10446,"Ġliquor":10447,"Ġinvention":10448,"Ġcountrymen":10449,"Ġdarwin":10450,"Ġ0":10451,"disappoint":10452,"uesday":10453,"Ġliable":10454,"Ġmuscles":10455,"Ġfrancisco":10456,"Ġvenerable":10457,"broke":10458,"Ġspecimen":10459,"tone":10460,"Ġnun":10461,"Ġrous":10462,"Ġbreach":10463,"develop":10464,"Ġinstitution":10465,"Ġvigor":10466,"rising":10467,"Ġvit":10468,"ficial":10469,"________":10470,"eg":10471,"Ġcul":10472,"Ġassent":10473,"ulsion":10474,"Ġangl":10475,"ials":10476,"hom":10477,"omon":10478,"ceptions":10479,"Ġbarely":10480,"Ġdragon":10481,"Ġboughs":10482,"Ġfelic":10483,"ĠĠĠĠĠĠĠĠĠĠĠĠĠĠĠĠĠĠĠĠĠĠĠĠĠĠĠĠĠĠĠ":10484,"interrupt":10485,"stat":10486,"Ġtelegraph":10487,"Ġdevils":10488,"Ġpenal":10489,"Ġdecidedly":10490,"Ġquoth":10491,"Ġrobe":10492,"wonderful":10493,"Ġpartial":10494,"Ġcourte":10495,"Ġattained":10496,"understanding":10497,"confidence":10498,"Ġeloquence":10499,"Ġtack":10500,"Ġsung":10501,"unction":10502,"determined":10503,"gree":10504,"yne":10505,"aside":10506,"Ġpleasantly":10507,"lson":10508,"Ġtrifling":10509,"assured":10510,"Ġlag":10511,"plan":10512,"Ġdrown":10513,"60":10514,"bin":10515,"cad":10516,"Ġarnold":10517,"ignant":10518,"Ġdiamond":10519,"quate":10520,"Ġfeud":10521,"Ġbackground":10522,"Ġtenderly":10523,"Ġbehaviour":10524,"imply":10525,"Ġpushing":10526,"Ġginger":10527,"Ġspots":10528,"Ġshops":10529,"Ġcommerce":10530,"Ġroute":10531,"Ġgothic":10532,"Ġclaimed":10533,"Ġsque":10534,"Ġpersisted":10535,"Ġmute":10536,"bless":10537,"nam":10538,"mates":10539,"Ġpolished":10540,"ricult":10541,"Ġdespite":10542,"Ġbasis":10543,"inch":10544,"Ġstove":10545,"Ġnell":10546,"eves":10547,"geons":10548,"discovered":10549,"Ġtod":10550,"Ġsuspicions":10551,"Ġanalog":10552,"Ġbigger":10553,"Ġlaure":10554,"ouncing":10555,"arrange":10556,"Ġformation":10557,"Ġascended":10558,"Ġisaac":10559,"Ġmall":10560,"Ġsports":10561,"Ġcows":10562,"Ġassociated":10563,"Ġguided":10564,"acquaint":10565,"Ġxii":10566,"Ġplead":10567,"Ġartistic":10568,"Ġfeminine":10569,"Ġmusket":10570,"Ġbetwixt":10571,"Ġsweetness":10572,"suspect":10573,"Ġplague":10574,"Ġconfirm":10575,"Ġdealing":10576,"Ġmorality":10577,"?âĢĻ":10578,"inth":10579,"Ġmorton":10580,"Ġcorpse":10581,"Ġfoster":10582,"Ġbees":10583,"ifies":10584,"Ġslack":10585,"Ġcrystal":10586,"ila":10587,"Ġsket":10588,"Ġrosy":10589,"hi":10590,"oping":10591,"Ġfunction":10592,"Ġghastly":10593,",\"--":10594,"Ġproducing":10595,"Ġlatest":10596,"Ġswallowed":10597,"Ġbrace":10598,"atching":10599,"Ġgames":10600,"swift":10601,"Ġsucc":10602,"Ġsympathetic":10603,"Ġappreciate":10604,"Ġfatigue":10605,"Ġbother":10606,"isons":10607,"Ġrider":10608,"Ġhonesty":10609,"raised":10610,"Ġbenevol":10611,"robert":10612,"Ġcarved":10613,"Ġhammer":10614,"Ġcardinal":10615,"proof":10616,"flowers":10617,"Ġtribut":10618,"Ġawaken":10619,"fortunes":10620,"Ġdiamonds":10621,"Ġcanada":10622,"Ġcrus":10623,"Ġpaths":10624,"Ġdimly":10625,"Ġrubbed":10626,"Ġinspiration":10627,"Ġduly":10628,"Ġarchie":10629,"Ġsituated":10630,"Ġgloves":10631,"Ġstudents":10632,"silver":10633,"Ġbot":10634,"Ġchains":10635,"Ġhare":10636,"Ġfrog":10637,"Ġpeculiarly":10638,"dav":10639,"Ġsolution":10640,"Ġlawrence":10641,"Ġbaxter":10642,"Ġinterpre":10643,"Ġtongues":10644,"Ġgilbert":10645,"Ġasserted":10646,"oles":10647,"Ġexchanged":10648,"Ġaccus":10649,"Ġoffers":10650,"joined":10651,"Ġfantastic":10652,"dar":10653,"yan":10654,"battle":10655,"Ġdwarf":10656,"Ġpadd":10657,"frequ":10658,"och":10659,"Ġgordon":10660,"Ġshift":10661,"Ġengra":10662,"dles":10663,"Ġambassad":10664,"Ġgreeting":10665,"Ġaffirm":10666,"Ġswallow":10667,"Ġsheets":10668,"Ġneighbors":10669,"bation":10670,"Ġatlantic":10671,"Ġguid":10672,"Ġemerged":10673,"Ġshadowy":10674,"untarily":10675,"Ġhermit":10676,"istics":10677,"Ġenchan":10678,"Ġtwist":10679,"Ġdisd":10680,"Ġsimon":10681,"Ġhounds":10682,"rah":10683,"Ġcousins":10684,"Ġbattles":10685,"picture":10686,"Ġprovo":10687,"imper":10688,"Ġsands":10689,"Ġbernard":10690,"remembered":10691,"ounding":10692,"breakfast":10693,"Ġmiriam":10694,"icker":10695,"Ġexperiments":10696,"Ġaccomplish":10697,"pine":10698,"wond":10699,"ithe":10700,"oped":10701,"fortunately":10702,"itably":10703,"Ġinstitutions":10704,"kno":10705,"maker":10706,"Ġol":10707,"Ġglobe":10708,"Ġfors":10709,"Ġabundance":10710,"bul":10711,"Ġscreamed":10712,"europe":10713,"Ġaccent":10714,"Ġhymn":10715,"Ġgreeks":10716,"chet":10717,"Ġrepresentative":10718,"Ġpert":10719,"cheer":10720,"opportunity":10721,"Ġmare":10722,"liber":10723,"Ġdecay":10724,"Ġholland":10725,"Ġexplos":10726,"meth":10727,"Ġstooped":10728,"Ġallies":10729,"Ġexcurs":10730,"Ġsquee":10731,"absolutely":10732,"cam":10733,"anor":10734,"leaves":10735,"utive":10736,"Ġyoungest":10737,"succeed":10738,"Ġneighbouring":10739,"lfare":10740,"Ġdignified":10741,"Ġseventeen":10742,"island":10743,"Ġrigid":10744,"Ġscholar":10745,"chal":10746,"Ġhesitate":10747,"Ġpsych":10748,"Ġyacht":10749,"gues":10750,"Ġgrandmother":10751,"Ġcrimes":10752,"Ġbreathless":10753,"Ġwad":10754,"Ġhail":10755,"neg":10756,"Ġcarelessly":10757,"Ġferv":10758,"Ġinterposed":10759,"Ġdepended":10760,"Ġencountered":10761,"ishly":10762,"Ġsculpt":10763,"Ġleve":10764,"Ġfaithfully":10765,"Ġwritings":10766,"Ġrejected":10767,"cus":10768,"Ġrede":10769,"Ġunkind":10770,"extreme":10771,"song":10772,"Ġowners":10773,"magn":10774,"ittered":10775,"amental":10776,"toward":10777,"Ġpattern":10778,"cous":10779,"attering":10780,"Ġinvari":10781,"Ġcreeping":10782,"Ġsingularly":10783,"Ġwitnessed":10784,"Ġculture":10785,"Ġannoy":10786,"weather":10787,"Ġsphere":10788,"Ġmatt":10789,"Ġpam":10790,"udent":10791,"Ġgigantic":10792,"heavy":10793,"Ġbast":10794,"Ġjail":10795,"Ġprotected":10796,"write":10797,"pardon":10798,"Ġdisorder":10799,"Ġtruths":10800,"....\"":10801,"Ġthrill":10802,"Ġcaliforn":10803,"dread":10804,"Ġmes":10805,"Ġhurrying":10806,"bbing":10807,"Ġabuse":10808,"joining":10809,"Ġillustrated":10810,"Ġpupil":10811,"existence":10812,"istle":10813,"Ġboers":10814,"poch":10815,"nesday":10816,"lucky":10817,"Ġcents":10818,"Ġscots":10819,"Ġinvented":10820,"Ġgoddess":10821,"Ġhostile":10822,"Ġenlight":10823,"beneath":10824,"fut":10825,"Ġxiv":10826,"difference":10827,".;":10828,"accustomed":10829,"Ġextremity":10830,"Ġmouse":10831,"Ġprior":10832,"Ġbreaks":10833,"ulsive":10834,"Ġwolves":10835,"vall":10836,"arrived":10837,"Ġinvariably":10838,"Ġappearing":10839,"Ġtenn":10840,"Ġarter":10841,"charge":10842,"abouts":10843,"ux":10844,"walked":10845,"ilian":10846,"Ġdecline":10847,"Ġestates":10848,"Ġbomb":10849,"udence":10850,"kiss":10851,"Ġhab":10852,"Ġleague":10853,"Ġserpent":10854,"wreck":10855,"welcome":10856,"Ġdistrust":10857,"Ġprejudice":10858,"private":10859,"Ġcommit":10860,"running":10861,"Ġejac":10862,"otherwise":10863,"Ġdeepest":10864,"Ġcharlotte":10865,"Ġswed":10866,"Ġmarvellous":10867,"tie":10868,"Ġbounds":10869,"weed":10870,"Ġcomprom":10871,"igel":10872,"Ġherd":10873,"Ġpeer":10874,"Ġdoctors":10875,"Ġrestraint":10876,"munition":10877,"nove":10878,"surprise":10879,"Ġdum":10880,"Ġtalks":10881,"ppy":10882,"Ġbrad":10883,"Ġchalk":10884,"Ġmuseum":10885,"fixed":10886,"Ġfen":10887,"Ġwonders":10888,"noticed":10889,"Ġstartling":10890,"Ġbattery":10891,"Ġspecimens":10892,"Ġincredible":10893,"tit":10894,"ciences":10895,"supposed":10896,"hurst":10897,"Ġrepl":10898,"Ġconstable":10899,"Ġsuspe":10900,"Ġ45":10901,"Ġdiplom":10902,"assist":10903,"Ġdefin":10904,"Ġreleased":10905,"Ġscept":10906,"chie":10907,"Ġmayor":10908,"Ġinclination":10909,"agraph":10910,"Ġbelieves":10911,"Ġballs":10912,"ras":10913,"Ġsinner":10914,"Ġbreadth":10915,"unting":10916,"Ġterritory":10917,"Ġpeop":10918,"Ġthyself":10919,"Ġdeclaration":10920,"Ġswing":10921,"Ġrefresh":10922,"Ġfiner":10923,"Ġdrifted":10924,"merely":10925,"Ġoldest":10926,"Ġmonkey":10927,"Ġveh":10928,"stopped":10929,"fronted":10930,"Ġblade":10931,"Ġleaping":10932,"Ġlouder":10933,"Ġsuperiority":10934,"!âĢĻ":10935,"Ġcush":10936,"forget":10937,"Ġsentimental":10938,"Ġallen":10939,"fertilised":10940,"Ġath":10941,"youth":10942,"Ġexecuted":10943,"ja":10944,"Ġloo":10945,"Ġpaces":10946,"smile":10947,"Ġstamped":10948,"di":10949,"dim":10950,"ourselves":10951,"Ġtraced":10952,"Ġmonument":10953,"Ġsnuff":10954,"34":10955,"Ġcaesar":10956,"Ġriv":10957,"cting":10958,"Ġconquest":10959,"rons":10960,"Ġsel":10961,"Ġsag":10962,"otesque":10963,"Ġstevenson":10964,"dressed":10965,"zie":10966,"Ġbaff":10967,"undered":10968,"Ġdiscretion":10969,"velope":10970,"Ġencouragement":10971,"Ġgild":10972,"Ġepoch":10973,"Ġvind":10974,"Ġcolonies":10975,"Ġfaire":10976,"bows":10977,"Ġfragment":10978,"tail":10979,"knowing":10980,"Ġpirate":10981,"ifice":10982,"Ġknelt":10983,"village":10984,"Ġincidents":10985,"Ġpathetic":10986,"Ġexamining":10987,"Ġcampbell":10988,"inarily":10989,"Ġdow":10990,"uese":10991,"Ġforgetting":10992,"Ġascend":10993,"Ġperplexed":10994,"Ġloyalty":10995,"'-":10996,"Ġswinging":10997,"Ġexpenses":10998,"building":10999,"Ġwhoever":11000,"lod":11001,"thrown":11002,"Ġmartha":11003,"Ġattendant":11004,"mits":11005,"Ġincess":11006,"craft":11007,"Ġliking":11008,"Ġagitated":11009,"mast":11010,"Ġtents":11011,"Ġexpressing":11012,"Ġpirates":11013,"Ġcasting":11014,"oeuv":11015,"madame":11016,"rand":11017,"ĠĠĠĠĠĠĠĠĠĠĠĠĠĠĠĠĠĠĠĠĠĠĠĠĠĠĠĠĠĠĠĠĠ":11018,"Ġwholesome":11019,"Ġsympt":11020,"Ġhelm":11021,"Ġdefiance":11022,"Ġpetty":11023,"ranny":11024,"Ġsincer":11025,"Ġinit":11026,"Ġviz":11027,"Ġwarren":11028,"throw":11029,"cou":11030,"Ġexh":11031,"cru":11032,"belief":11033,"urrection":11034,"Ġalert":11035,"Ġane":11036,"persons":11037,"Ġfalsehood":11038,"piration":11039,"enet":11040,"Ġtoken":11041,"Ġsurvey":11042,"Ġexciting":11043,"Ġclimbing":11044,"Ġsant":11045,"Ġlect":11046,"Ġgrind":11047,"Ġprecip":11048,"settled":11049,"Ġorgans":11050,"doll":11051,"raction":11052,"._,":11053,"amount":11054,"cible":11055,"grass":11056,"courage":11057,"Ġdub":11058,"Ġepit":11059,"Ġdollar":11060,"Ġrector":11061,"Ġsweeping":11062,"inged":11063,"station":11064,"Ġquer":11065,"Ġseamen":11066,"Ġfow":11067,"Ġagreement":11068,"isen":11069,"Ġaloft":11070,"Ġfailing":11071,"august":11072,"rail":11073,"Ġroughly":11074,"Ġsuspended":11075,"Ġtremble":11076,"athan":11077,"Ġbland":11078,"Ġsincerity":11079,"Ġshower":11080,"carry":11081,"Ġscrew":11082,"Ġintensity":11083,"Ġoppress":11084,"Ġsoftened":11085,"Ġgriff":11086,"creature":11087,"Ġpouring":11088,"gerald":11089,"Ġfoliage":11090,"Ġgrimly":11091,"Ġgreece":11092,"Ġcautious":11093,"Ġforbidden":11094,"Ġblake":11095,"Ġevolution":11096,"Ġburke":11097,"Ġstrip":11098,"Ġspectacles":11099,"Ġcontinual":11100,"Ġfulfil":11101,"Ġwan":11102,"Ġthumb":11103,"Ġirre":11104,"difficult":11105,"warm":11106,"Ġtelegram":11107,"Ġresources":11108,"Ġbite":11109,"Ġgermans":11110,"Ġafrican":11111,"rates":11112,"working":11113,"Ġargued":11114,"Ġmathe":11115,"Ġsummons":11116,"Ġharmless":11117,"Ġassuredly":11118,"corner":11119,"Ġscold":11120,"Ġrect":11121,"Ġknot":11122,"Ġtrumpet":11123,"Ġoppon":11124,"believed":11125,"Ġblazing":11126,"concerned":11127,"Ġreverend":11128,"Ġessentially":11129,"Ġintimacy":11130,"wide":11131,"Ġproofs":11132,"ĠĠĠĠĠĠĠĠĠĠĠĠĠĠĠĠĠĠĠĠĠĠĠĠĠĠĠĠĠĠĠĠĠĠ":11133,"Ġstalk":11134,"Ġclinging":11135,"Ġmurray":11136,"Ġadvers":11137,"Ġpoll":11138,"Ġremedy":11139,"Ġsends":11140,"Ġferdinand":11141,"Ġresentment":11142,"Ġdisaster":11143,"Ġign":11144,"ifting":11145,"Ġacute":11146,"bitter":11147,"fing":11148,"Ġflowed":11149,"Ġgenial":11150,"caught":11151,"Ġstur":11152,"Ġvisiting":11153,"popular":11154,"dling":11155,"Ġfres":11156,"Ġscrap":11157,"Ġpunished":11158,"Ġnegroes":11159,"snow":11160,"Ġperception":11161,"Ġsteer":11162,"Ġtragic":11163,"Ġbrutal":11164,"Ġjove":11165,"Ġartists":11166,"ua":11167,"Ġbaker":11168,"Ġdegr":11169,"Ġregiments":11170,"Ġexperiences":11171,"Ġceiling":11172,"leby":11173,"Ġeth":11174,"Ġcasual":11175,"Ġrecess":11176,"Ġconserv":11177,"Ġapology":11178,"Ġpilot":11179,"Ġconsulted":11180,"Ġremarkably":11181,"Ġtracks":11182,"Ġexhaust":11183,"Ġtastes":11184,"trem":11185,"Ġbarbara":11186,"ĠcÃ¦sar":11187,"arn":11188,"Ġropes":11189,"rift":11190,"_)":11191,"Ġdaw":11192,"Ġlocks":11193,"thee":11194,"Ġtricks":11195,"Ġoffspring":11196,"Ġportions":11197,"Ġsmoked":11198,"earnest":11199,"Ġjasper":11200,"journey":11201,"haven":11202,"Ġcalam":11203,"Ġattempting":11204,"encer":11205,"Ġvow":11206,"Ġhandful":11207,"Ġscound":11208,"shut":11209,"Ġthirteen":11210,"ĠÃ¦":11211,"Ġheath":11212,"Ġpunct":11213,"terrible":11214,"Ġcomfortably":11215,"comed":11216,"yon":11217,"Ġkenn":11218,"Ġdespise":11219,"Ġdresses":11220,"Ġrifles":11221,"Ġreflections":11222,"Ġjonas":11223,"ulously":11224,"Ġspears":11225,"terior":11226,"Ġsage":11227,"brook":11228,"spread":11229,"evidently":11230,"replied":11231,"Ġgit":11232,"Ġdesigns":11233,"Ġsearched":11234,"latter":11235,"Ġbin":11236,"forest":11237,"erer":11238,"Ġglances":11239,"Ġsquad":11240,"Ġdebts":11241,"Ġidentity":11242,"athed":11243,"Ġinstruction":11244,"Ġdreaded":11245,"Ġshelley":11246,"nic":11247,"Ġrefined":11248,"Ġtug":11249,"Ġripp":11250,"rolled":11251,"Ġdeceive":11252,"Ġjaw":11253,"Ġingenious":11254,"Ġhypothesis":11255,"ees":11256,"Ġtan":11257,"below":11258,"Ġopera":11259,"riv":11260,"Ġcanal":11261,".--_":11262,"Ġdamn":11263,"mentioned":11264,"Ġbub":11265,"Ġturf":11266,"Ġargue":11267,"fields":11268,"ieving":11269,"Ġmonks":11270,"Ġterrified":11271,"fru":11272,"lat":11273,"Ġshat":11274,"Ġshove":11275,"akers":11276,"week":11277,".\"--":11278,"Ġedith":11279,"cried":11280,"Ġcanoes":11281,"Ġshrank":11282,"Ġpitt":11283,"Ġcharges":11284,"Ġtemperament":11285,"philip":11286,"weak":11287,"Ġfashionable":11288,"Ġapplause":11289,"Ġcandles":11290,"Ġumbre":11291,"Ġtub":11292,"Ġneedful":11293,"Ġcommunicated":11294,"iantly":11295,"Ġskies":11296,"jected":11297,"Ġwealthy":11298,"rain":11299,"Ġheel":11300,"Ġbeef":11301,"Ġwaking":11302,"atra":11303,"allowed":11304,"Ġcolors":11305,"33":11306,"ano":11307,"Ġantagon":11308,"bone":11309,"Ġcarries":11310,"Ġlions":11311,"storm":11312,"Ġapartments":11313,"oria":11314,"_:":11315,"Ġpel":11316,"darkness":11317,"Ġandy":11318,"Ġslim":11319,"Ġmelted":11320,"honest":11321,"Ġtavern":11322,"cca":11323,"Ġcombination":11324,"Ġsplit":11325,"cases":11326,"wil":11327,"Ġeminent":11328,"successful":11329,"Ġvigour":11330,"Ġinstruments":11331,"Ġreprodu":11332,"Ġvisions":11333,"atches":11334,"Ġfrail":11335,"Ġseparation":11336,"Ġautom":11337,"Ġsorrows":11338,"Ġgene":11339,"Ġonward":11340,"alling":11341,"Ġpeasants":11342,"Ġfrederick":11343,"mach":11344,"Ġbonds":11345,"feelings":11346,"Ġsixth":11347,"mountain":11348,"Ġborrowed":11349,"Ġallusion":11350,"Ġharding":11351,"Ġtyrant":11352,"Ġbands":11353,"Ġdefic":11354,"Ġwisely":11355,"Ġfarmers":11356,"months":11357,"dust":11358,"Ġcircum":11359,"prevent":11360,"Ġallied":11361,"Ġmysteries":11362,"Ġthreatening":11363,"--------------------------------":11364,"Ġmurderer":11365,"Ġharvest":11366,"Ġparlor":11367,"Ġrejoice":11368,"Ġshilling":11369,"Ġmanhood":11370,"Ġpicking":11371,"Ġvolcan":11372,"Ġerected":11373,"Ġpump":11374,"Ġdespised":11375,"orney":11376,"Ġhue":11377,"Ġpatiently":11378,"Ġperiods":11379,"consciousness":11380,"Ġpreach":11381,"Ġobjected":11382,"Ġallowance":11383,"Ġgoose":11384,"Ġpurity":11385,"Ġgraves":11386,"iffe":11387,"Ġvin":11388,"Ġbluff":11389,"Ġconstruction":11390,"Ġcustomary":11391,"affected":11392,"cand":11393,"idious":11394,"._--":11395,"Ġdetermine":11396,"Ġunconsciously":11397,"Ġsincerely":11398,"bie":11399,"thro":11400,"likely":11401,"Ġpurchased":11402,"arthur":11403,"Ġinstincts":11404,"avering":11405,"Ġtuck":11406,"_).":11407,"Ġdante":11408,"Ġ60":11409,"Ġnurs":11410,"Ġsuccessive":11411,"Ġslopes":11412,"Ġtemples":11413,"Ġcrowned":11414,"finger":11415,"Ġsubscri":11416,"Ġillustrations":11417,"Ġmaxim":11418,"oct":11419,"cended":11420,"ira":11421,"uthbert":11422,"Ġstem":11423,"Ġprosec":11424,"contents":11425,"built":11426,"ranean":11427,"[_":11428,"Ġmoust":11429,"Ġgravel":11430,"fresh":11431,"eliz":11432,"Ġflank":11433,"ainty":11434,"property":11435,"Ġsustained":11436,"Ġdeter":11437,"Ġhered":11438,"Ġvilla":11439,"Ġbursting":11440,"ushes":11441,"ignor":11442,"Ġstrained":11443,"thanks":11444,"vering":11445,"Ġunusually":11446,"ilet":11447,"Ġcrab":11448,"easy":11449,"Ġtreasures":11450,"Ġstudying":11451,"Ġgaunt":11452,"Ġtab":11453,"Ġfawn":11454,"Ġdesirous":11455,"learned":11456,"Ġhinted":11457,"Ġinheritance":11458,"roar":11459,"Ġkirk":11460,"Ġprolonged":11461,"Ġchic":11462,"Ġarriving":11463,"Ġtranslation":11464,"Ġsly":11465,"acies":11466,"Ġrecords":11467,"Ġattendants":11468,"various":11469,"breed":11470,"ki":11471,"loved":11472,"single":11473,"Ġreckoned":11474,"Ġker":11475,"Ġstaggered":11476,"lys":11477,"Ġwhir":11478,"Ġresolute":11479,"Ġsufferings":11480,"Ġecst":11481,"Ġimitation":11482,"Ġcoinc":11483,"lan":11484,"Ġprospects":11485,"nday":11486,"Ġwestward":11487,"makes":11488,"Ġplunder":11489,"Ġadjust":11490,"Ġkeys":11491,"Ġconvince":11492,"Ġeffective":11493,"Ġsquir":11494,"Ġembro":11495,"floor":11496,"Ġriot":11497,"lips":11498,"cow":11499,"Ġquad":11500,"particularly":11501,"ench":11502,"Ġelephant":11503,"Ġhae":11504,"Ġresolve":11505,"bun":11506,"Ġmig":11507,"Ġbunch":11508,"showed":11509,"looks":11510,"Ġcritics":11511,"Ġabundant":11512,"Ġrelease":11513,"riment":11514,"enemy":11515,"Ġforlorn":11516,"Ġseizing":11517,"Ġendured":11518,"Ġwinning":11519,"Ġfrig":11520,"Ġgregory":11521,"carriage":11522,"Ġstrove":11523,"Ġmerchants":11524,"Ġlogic":11525,"Ġrevelation":11526,"Ġhetty":11527,"Ġbeam":11528,"period":11529,"proved":11530,"Ġmassive":11531,"Ġidiot":11532,"zar":11533,"Ġgodfrey":11534,"personal":11535,"Ġknocking":11536,"fancy":11537,"Ġpropriety":11538,"pictures":11539,"remain":11540,"Ġanimated":11541,"Ġshades":11542,"tong":11543,"Ġrip":11544,"ders":11545,"Ġdexter":11546,"umsy":11547,"Ġtame":11548,"aren":11549,"Ġcicero":11550,"dry":11551,"Ġappealed":11552,"girls":11553,"Ġinherited":11554,"Ġadapted":11555,"Ġhem":11556,"Ġsoothing":11557,"Ġprow":11558,"Ġbeatrice":11559,"Ġsubmitted":11560,"Ġcaptains":11561,".),":11562,"pap":11563,"Ġapproval":11564,"Ġdryden":11565,"Ġlid":11566,"lem":11567,"Ġeverlasting":11568,"Ġconfounded":11569,"Ġscholars":11570,"Ġnobility":11571,"Ġoutrage":11572,"Ġspreading":11573,"Ġyon":11574,"chn":11575,"ibus":11576,"Ġneedle":11577,"support":11578,"Ġalluded":11579,"witness":11580,"Ġstealing":11581,"ito":11582,"Ġelevation":11583,"Ġmodified":11584,"iders":11585,"Ġlighter":11586,"laws":11587,"Ġmoves":11588,"profess":11589,"Ġwithdraw":11590,"Ġthieves":11591,"Ġgoverness":11592,"beside":11593,"Ġarchbishop":11594,"Ġencourage":11595,"Ġtherein":11596,"blind":11597,"finally":11598,"Ġtreason":11599,"Ġrever":11600,"Ġalien":11601,"Ġsuperstition":11602,"depend":11603,"Ġrecognise":11604,"Ġpickwick":11605,"Ġhazard":11606,"Ġdock":11607,"Ġdesigned":11608,"Ġmaur":11609,"Ġdarkened":11610,"Ġdefeated":11611,"pieces":11612,"wine":11613,"weight":11614,"Ġquitted":11615,"bearing":11616,"Ġwickedness":11617,"Ġintolerable":11618,"Ġgill":11619,"desire":11620,"fathers":11621,"Ġdamage":11622,"fro":11623,"Ġnab":11624,"Ġserving":11625,"Ġvirtuous":11626,"Ġhomer":11627,"promise":11628,"breath":11629,"Ġreverse":11630,"thia":11631,"Ġworried":11632,"mann":11633,"Ġsuppressed":11634,"Ġessence":11635,"Ġestimate":11636,"regarded":11637,"Ġcrawley":11638,"Ġelaborate":11639,"Ġpiled":11640,"Ġfraud":11641,"Ġlastly":11642,"Ġdependent":11643,"hush":11644,"mars":11645,"Ġphoebe":11646,"Ġbrightness":11647,"Ġprevail":11648,"Ġvexed":11649,"Ġhey":11650,"Ġanticipated":11651,"religion":11652,"_,\"":11653,"Ġconverted":11654,"Ġcoven":11655,"phone":11656,"Ġresponse":11657,"Ġsombre":11658,"Ġwizard":11659,"social":11660,"Ġexertion":11661,"language":11662,"Ġbolt":11663,"Ġcoleridge":11664,"stick":11665,"Ġslay":11666,"intended":11667,"Ġblankets":11668,"Ġeloquent":11669,"Ġabbot":11670,"ptions":11671,"bourne":11672,"Ġtreachery":11673,"Ġtools":11674,"Ġattending":11675,"Ġenerget":11676,"Ġgorgeous":11677,"kim":11678,"Ġlung":11679,"correspond":11680,"matters":11681,"inently":11682,"ignific":11683,"duty":11684,"Ġgenerosity":11685,"Ġentertainment":11686,"Ġarea":11687,"Ġflav":11688,"Ġlabours":11689,"Ġwelfare":11690,"hanging":11691,"blems":11692,"ordinate":11693,"mountains":11694,"inous":11695,"Ġgram":11696,"ieth":11697,"Ġsnatched":11698,"Ġherr":11699,"hart":11700,"harine":11701,"Ġtumbled":11702,"uminous":11703,"Ġtraff":11704,"soldiers":11705,"70":11706,"sand":11707,"iors":11708,"visit":11709,"british":11710,"crim":11711,"Ġassistant":11712,"olated":11713,"Ġcompens":11714,"Ġconfer":11715,"endeav":11716,"Ġcats":11717,"Ġweighed":11718,"Ġstool":11719,"shoulder":11720,"thor":11721,"(_":11722,"kne":11723,"Ġank":11724,"Ġpipes":11725,"Ġdownward":11726,"ggling":11727,"Ġlimp":11728,"Ġvag":11729,"Ġboom":11730,"Ġconsiderations":11731,"Ġcoolly":11732,"Ġmike":11733,"ggle":11734,"acit":11735,"Ġmotor":11736,"Ġluncheon":11737,"Ġabys":11738,"Ġyelled":11739,"Ġbackwards":11740,"knows":11741,"Ġcorridor":11742,"Ġhurled":11743,"Ġbowl":11744,"ishers":11745,"Ġblanket":11746,"stable":11747,"Ġpeters":11748,"Ġexhibition":11749,"Ġfath":11750,"Ġadvertis":11751,"arg":11752,"sery":11753,"Ġinternal":11754,"instant":11755,"silent":11756,"Ġpollen":11757,"unders":11758,"ride":11759,"Ã´":11760,"Ġgau":11761,"othered":11762,"Ġwider":11763,"Ġconsul":11764,"Ġvicinity":11765,"Ġsic":11766,"eded":11767,"officers":11768,"Ġalbert":11769,"Ġdescending":11770,"Ġbravely":11771,"Ġbully":11772,"Ġrevolver":11773,"Ġaccurate":11774,"phy":11775,"obed":11776,"Ġwhatsoever":11777,"Ġdistressed":11778,"Ġbaronet":11779,"Ġgird":11780,"Ġopens":11781,"Ġrefres":11782,"Ġhorseback":11783,"splend":11784,"oning":11785,"Ġbehave":11786,"urous":11787,"unned":11788,"Ġstretching":11789,"Ġswimming":11790,"Ġhoofs":11791,"Ġtyranny":11792,"Ġannoyed":11793,"Ġbachel":11794,"Ġflashing":11795,"psy":11796,"Ġquivering":11797,"Ġswamp":11798,"Ġpromising":11799,"simple":11800,"xton":11801,"Ġridden":11802,"Ġconstr":11803,"Ġpublication":11804,"Ġpoetical":11805,"Ġsarah":11806,"Ġgriev":11807,"Ġmines":11808,"mitting":11809,"entertain":11810,"univers":11811,"Ġassertion":11812,"Ġmechanical":11813,"agne":11814,"shoot":11815,"Ġsuspense":11816,"Ġvane":11817,"Ġimpass":11818,"Ġhostess":11819,"diss":11820,"Ġsenior":11821,"Ġgert":11822,"france":11823,"flies":11824,"Ġerrors":11825,"Ġchoked":11826,"Ġmule":11827,"Ġvault":11828,"franc":11829,"Ġninety":11830,"Ġcomprehend":11831,"inno":11832,"seau":11833,"Ġsheriff":11834,"Ġcounting":11835,"Ġsecl":11836,"Ġmissionary":11837,"Ġpretence":11838,"Ġrotten":11839,"Ġlawyers":11840,"Ġscripture":11841,"Ġtalents":11842,"Ġawaiting":11843,"Ġcompliments":11844,"Ġabol":11845,"suit":11846,"dism":11847,"lies":11848,"exec":11849,"Ġultimate":11850,"Ġcircles":11851,"Ġvolta":11852,"Ġcompanies":11853,"Ġrajah":11854,"Ġinfect":11855,"origin":11856,"Ġearnestness":11857,"Ġgratified":11858,"Ġtough":11859,"Ġdial":11860,"icide":11861,"washing":11862,"Ġforemost":11863,"Ġcontrovers":11864,"Ġelevated":11865,"Ġresigned":11866,"Ġdraws":11867,"virt":11868,"Ġcage":11869,"shed":11870,"Ġtrunks":11871,"Ġwithered":11872,"Ġwhispering":11873,"mical":11874,"yards":11875,"Ġimpet":11876,"Ġkeenly":11877,"Ġawaited":11878,"Ġappropriate":11879,"adays":11880,"Ġintently":11881,"Ġquart":11882,"Ġscal":11883,"Ġsleepy":11884,"ipps":11885,"connected":11886,"renched":11887,"Ġheaded":11888,"Ġattachment":11889,"Ġforgiven":11890,"Ġstrife":11891,"38":11892,"erset":11893,"antine":11894,"Ġagents":11895,"Ġbesie":11896,"crown":11897,"Ġlogs":11898,"Ġrecommended":11899,"Ġwaistcoat":11900,"hospit":11901,"Ġnoisy":11902,"assed":11903,"ensed":11904,"Ġdetected":11905,"Ġcarriages":11906,"Ġtightly":11907,"abol":11908,"forty":11909,"Ġmorals":11910,"Ġchallenge":11911,"Ġindicate":11912,"Ġapprove":11913,"Ġpoetic":11914,"Ġthursday":11915,"Ġjug":11916,"olis":11917,"Ġacquies":11918,"Ġtranslated":11919,"Ġpersonage":11920,"Ġtouches":11921,"simply":11922,"Ġkicked":11923,"Ġobstinate":11924,"kit":11925,"Ġparagraph":11926,"Ġcommunicate":11927,"Ġlingering":11928,"bold":11929,"Ġcake":11930,"Ġchil":11931,"iless":11932,"Ġlandlady":11933,"rophe":11934,"Ġpacket":11935,"Ġruled":11936,"Ġeternity":11937,"Ġpatrick":11938,"Ġaccounted":11939,"instinct":11940,"Ġcob":11941,"Ġspringing":11942,"Ġinconsist":11943,"Ġbeth":11944,"Ġoverboard":11945,"Ġstrang":11946,"Ġrounded":11947,"Ġspray":11948,"accordingly":11949,"Ġfuss":11950,"Ġhousekeeper":11951,"Ġhorsemen":11952,"political":11953,"Ġsnug":11954,"Ġplanned":11955,"Ġdaniel":11956,"Ġornaments":11957,"Ġpartners":11958,"Ġinterven":11959,"shaped":11960,"Ġtravels":11961,"Ġnegot":11962,"Ġmartyr":11963,"situation":11964,"Ġlain":11965,"Ġobjections":11966,"Ġrelatives":11967,"boot":11968,"escape":11969,"thin":11970,"Ġdischarged":11971,"Ġpledge":11972,"Ġaft":11973,"Ġconcerns":11974,"Ġdesperately":11975,"Ġbower":11976,"Ġhonoured":11977,"Ġnegative":11978,"Ġembarrassment":11979,"finite":11980,"trying":11981,"stained":11982,"Ġprominent":11983,"cass":11984,"grey":11985,"Ġlind":11986,"fifty":11987,"excellent":11988,"hended":11989,"Ġpud":11990,"Ġhack":11991,"yellow":11992,"Ġbrigade":11993,"Ġron":11994,"aciously":11995,"thick":11996,"Ġstepping":11997,"Ġprofessed":11998,"extraordinary":11999,"lifted":12000,"yson":12001,"Ġriches":12002,"Ġcrooked":12003,"Ġstif":12004,"royal":12005,"ograp":12006,"Ġsensations":12007,"produced":12008,"emp":12009,"Ġmagnet":12010,"Ġfuriously":12011,"Ġrim":12012,"Ġshots":12013,"Ġthrice":12014,"Ġpanic":12015,"Ġuneasiness":12016,"Ġpanting":12017,"mens":12018,"hent":12019,"shout":12020,"duke":12021,"crossed":12022,"Ġdetective":12023,"Ġcass":12024,"Ġsecre":12025,"Ġattendance":12026,"Ġbuffalo":12027,"Ġmagistrate":12028,"nels":12029,"uction":12030,"maybe":12031,"Ġbuzz":12032,"Ġappearances":12033,"knife":12034,"Ġadministration":12035,"Ġfeeding":12036,"questions":12037,"Ġcooking":12038,"started":12039,"Ġpupils":12040,"Ġgrate":12041,"Ġhopeful":12042,"Ġlark":12043,"Ġblushed":12044,"Ġflint":12045,"Ġhumility":12046,"Ġevils":12047,"Ġexcite":12048,"zzie":12049,"verb":12050,"judge":12051,"Ġlump":12052,"brid":12053,"Ġmalice":12054,"knight":12055,"ancient":12056,"Ġextingu":12057,"yesterday":12058,"Ġunderneath":12059,"Ġbacked":12060,"Ġacquire":12061,"Ġrascal":12062,"atoes":12063,"Ġshoe":12064,"Ġagricult":12065,"Ġstealth":12066,"Ġcenter":12067,"quickly":12068,"Ġeyel":12069,"eld":12070,"Ġpartially":12071,"Ġkeeper":12072,"Ġengineer":12073,"Ġplough":12074,"Ġhonorable":12075,"xxx":12076,"Ġdeliberate":12077,"rup":12078,"Ġopportunities":12079,"Ġbeet":12080,"Ġdispers":12081,"Ġeric":12082,"Ġkneeling":12083,"Ġcoron":12084,"Ġspeculation":12085,"Ġhumbly":12086,"Ġstrolled":12087,"discuss":12088,"Ġborrow":12089,"Ġfits":12090,"pleas":12091,"Ġadds":12092,"Ġasia":12093,"Ġprosperous":12094,"material":12095,"aters":12096,"Ġrattle":12097,"Ġearned":12098,"meeting":12099,"Ġascertained":12100,"39":12101,"Ġphysi":12102,"Ġmourning":12103,"Ġemphasis":12104,"Ġmow":12105,"Ġcable":12106,"sevent":12107,"Ġsamuel":12108,"Ġsexual":12109,"possibly":12110,"Ġjulian":12111,"leigh":12112,"Ġul":12113,"Ġannie":12114,"Ġbrew":12115,"Ġpsal":12116,"Ġweb":12117,".\"--_":12118,"Ġambitious":12119,"Ġberlin":12120,"Ġaye":12121,"Ġsealed":12122,"future":12123,"wo":12124,"una":12125,"Ġsyll":12126,"Ġgrandeur":12127,"Ġassigned":12128,"Ġtyp":12129,"somebody":12130,"fortunate":12131,"lower":12132,"Ġgrieved":12133,"isive":12134,"enon":12135,"Ġexile":12136,"Ġprostr":12137,"Ġirresistible":12138,"defe":12139,"Ġxv":12140,"Ġdol":12141,"prim":12142,"contented":12143,"Ġrequested":12144,"Ġsplendour":12145,"Ġsignificance":12146,"louis":12147,"Ġwiped":12148,"died":12149,"seat":12150,"Ġammunition":12151,"tyard":12152,"Ġcivilized":12153,"aron":12154,"./":12155,"Ġbeams":12156,"Ġfulfilled":12157,"Ġwales":12158,"Ġapproved":12159,"Ġbottles":12160,"worse":12161,"intellect":12162,"Ġboss":12163,"Ġbarrel":12164,"Ġbury":12165,"Ġprincip":12166,"Ġurge":12167,"anthrop":12168,"adle":12169,"thom":12170,"Ġstrat":12171,"month":12172,"Ġenvelope":12173,"Ġgrotesque":12174,"opposite":12175,"mistress":12176,"Ġconverse":12177,"Ġ175":12178,"modern":12179,"thorough":12180,"Ġphineas":12181,"Ġpersonality":12182,"Ġhush":12183,"Ġmoors":12184,"goes":12185,"Ġcrawled":12186,"Ġbrim":12187,"Ġcavern":12188,"bir":12189,"elect":12190,"oblig":12191,"Ġencl":12192,"published":12193,"wyn":12194,"Ġnaval":12195,"Ġinterference":12196,"Ġblossom":12197,"speech":12198,"Ġsinners":12199,"Ġschemes":12200,"Ġlakes":12201,"Ġdove":12202,"izz":12203,"Ġwhereupon":12204,"Ġlame":12205,"Ġallowing":12206,"Ġacres":12207,"nings":12208,"sept":12209,"Ġstab":12210,"Ġdemean":12211,"shr":12212,"Ġsimult":12213,"Ġstrode":12214,"rud":12215,"mans":12216,"Ġcolored":12217,"stranger":12218,"walking":12219,"Ġhuts":12220,"authority":12221,"Ġhypocr":12222,"wand":12223,"acknow":12224,"Ġjoys":12225,"Ġconcert":12226,"Ġcane":12227,"odes":12228,"Ġimaginary":12229,"imagination":12230,"test":12231,"oneliness":12232,"Ġreceipt":12233,"shadow":12234,"Ġpainfully":12235,"possessed":12236,"Ġroy":12237,"Ġwatson":12238,"Ġinfluences":12239,"Ġoccurs":12240,"Ġsolely":12241,"iller":12242,"Ġxiii":12243,"Ġpigs":12244,"chin":12245,"Ġhighway":12246,"middle":12247,"Ġnoiseless":12248,"bug":12249,"Ġnigel":12250,"Ġardent":12251,"Ġsignificant":12252,"Ġdoomed":12253,"Ġwrist":12254,"ocity":12255,"Ġrobinson":12256,"nibal":12257,"eager":12258,"Ġdeclaring":12259,"curious":12260,"lon":12261,"Ġtart":12262,"entric":12263,"Ġevenings":12264,"Ġskins":12265,"minute":12266,"saf":12267,"Ġdyn":12268,"Ġmeals":12269,"Ġsadness":12270,"aphys":12271,"Ġharbor":12272,"Ġtuesday":12273,"Ġsweat":12274,"Ġcreate":12275,"Ġexercised":12276,"Ġagatha":12277,"Ġdevote":12278,"Ġjoyous":12279,"similar":12280,"Ġportuguese":12281,"Ġeffectually":12282,"Ġrepeating":12283,"Ġconclusions":12284,"nonsense":12285,"Ġhire":12286,"Ġoccurrence":12287,"Ġcoats":12288,"tos":12289,"Ġunw":12290,"Ġherald":12291,"Ġplunge":12292,"Ġassail":12293,"Ġdaybreak":12294,"Ġrelate":12295,"Ġdragging":12296,"paid":12297,"custom":12298,"Ġamend":12299,"Ġunity":12300,"Ġsolomon":12301,"colm":12302,"Ġhesitating":12303,"Ġivory":12304,"Ġpillars":12305,"Ġcrum":12306,"Ġroofs":12307,"ĠseÃ±":12308,"Ġslid":12309,"Ġreplaced":12310,"Ġabomin":12311,"Ġharness":12312,"Ġshawl":12313,"Ġclumsy":12314,"Ġantiqu":12315,"drink":12316,"cup":12317,"fun":12318,"Ġbrowning":12319,"holy":12320,"Ġwrest":12321,"Ġsaloon":12322,"\",":12323,"attend":12324,"Ġladen":12325,"Ġsnapped":12326,"recoll":12327,"Ġwithdrawn":12328,"Ġseasons":12329,"Ġalt":12330,"Ġpleases":12331,"Ġdeem":12332,"Ġemma":12333,"Ġacid":12334,"Ġbarrier":12335,"Ġrichmond":12336,"Ġdishes":12337,"Ġexplaining":12338,"Ġvainly":12339,"Ġpest":12340,"servants":12341,"creatures":12342,"Ġalliance":12343,"Ġspending":12344,"Ġglac":12345,"importance":12346,"bottom":12347,"acquaintance":12348,"ributes":12349,"Ġshorter":12350,"Ġagin":12351,"Ġprodigious":12352,"Ġseverity":12353,"Ġeg":12354,"Ġdusky":12355,"iry":12356,"Ġrack":12357,"bottle":12358,"Ġpraised":12359,"bent":12360,"Ġstain":12361,"Ġknox":12362,"colour":12363,"Ġconfidential":12364,"Ġfren":12365,"oper":12366,"evidence":12367,"monsieur":12368,"itative":12369,"ptuous":12370,"Ġpoles":12371,"Ġtypes":12372,"Ġachieved":12373,"Ġwither":12374,"Ġhagg":12375,"Ġchick":12376,"Ġdefended":12377,"cot":12378,"risto":12379,"Ġtus":12380,"Ġspectators":12381,"Ġadvocate":12382,"hement":12383,"Ġaided":12384,"Ġattacks":12385,"original":12386,"mock":12387,"irect":12388,"Ġcarr":12389,"Ġextending":12390,"Ġresemble":12391,"anxious":12392,"Ġglor":12393,"Ġprivately":12394,"Ġbertram":12395,"cook":12396,"Ġcoffin":12397,"Ġnothin":12398,"Ġobtaining":12399,"Ġscrut":12400,"Ġtoast":12401,"gown":12402,"Ġanthony":12403,"Ġfooting":12404,"belong":12405,"appears":12406,"adventure":12407,"Ġditch":12408,"Ġcarn":12409,")--":12410,"Ġembarrassed":12411,"parliament":12412,"Ġmcc":12413,"Ġperished":12414,"Ġdarted":12415,"ihil":12416,"sli":12417,"wear":12418,"Ġintensely":12419,"nets":12420,"vid":12421,"aby":12422,"Ġbestow":12423,"Ġcopies":12424,"appl":12425,"Ġversion":12426,"Ġdagger":12427,"Ġdisappro":12428,"Ġmiser":12429,"ographical":12430,"Ġaustralia":12431,"accompl":12432,"Ġkitty":12433,"declared":12434,"Ġsez":12435,"Ġamazing":12436,"Ġdolly":12437,"draw":12438,"Ġacquaintances":12439,"Ġsparkling":12440,"due":12441,"ishable":12442,"neck":12443,"flag":12444,"Ġcripp":12445,"Ġcorresponding":12446,"Ġissu":12447,"trad":12448,"holl":12449,"Ġcough":12450,"Ġsuffice":12451,"Ġvariation":12452,"Ġexcellency":12453,"Ġhamilton":12454,"Ġdainty":12455,"century":12456,"lesiast":12457,"Ġhorace":12458,"Ġultimately":12459,"Ġmodes":12460,"Ġimpressive":12461,"Ġnelson":12462,"evil":12463,"leans":12464,"Ġending":12465,"Ġenters":12466,"killed":12467,"Ġarbit":12468,"Ġcheese":12469,"Ġutterance":12470,"Ġloung":12471,"Ġinvalid":12472,"Ġpetition":12473,"Ġproves":12474,"lives":12475,"Ġmodesty":12476,"officer":12477,"Ġpitched":12478,"Ġcream":12479,"army":12480,"Ġvoc":12481,"eline":12482,"Ġoppressed":12483,"iliation":12484,"alls":12485,"hills":12486,"31":12487,"idays":12488,"instantly":12489,"Ġbridle":12490,"Ġanec":12491,"thorne":12492,"ops":12493,"ishness":12494,"Ġdeserves":12495,"Ġ31":12496,"Ġchancell":12497,"Ġrejoiced":12498,"Ġclarence":12499,"Ġattorney":12500,"Ġsenate":12501,"Ġwharf":12502,"telling":12503,"Ġlawful":12504,"Ġreddy":12505,"Ġvictims":12506,"Ġrubb":12507,"oric":12508,"serious":12509,"changing":12510,"barked":12511,"hunting":12512,"Ġanecd":12513,"lace":12514,"Ġtink":12515,"Ġomin":12516,"Ġripe":12517,"composed":12518,"Ġcomplicated":12519,"Ġpistols":12520,"marked":12521,"Ġbalcon":12522,"Ġregretted":12523,"tery":12524,"zo":12525,"inea":12526,"Ġworkman":12527,"system":12528,"Ġballad":12529,"Ġbisc":12530,"Ġuntr":12531,"bare":12532,"Ġleo":12533,"Ġposts":12534,"Ġ+":12535,"Ġinquis":12536,"beth":12537,"cult":12538,"Ġglist":12539,"intention":12540,"Ġspoiled":12541,"Ġspecific":12542,"possess":12543,"uke":12544,"Ġrags":12545,"Ġloos":12546,"penny":12547,"Ġchampion":12548,"75":12549,"Ġernest":12550,"Ġil":12551,"Ġkindred":12552,"proportion":12553,"Ġresembled":12554,"Ġcanst":12555,"Ġappend":12556,"Ġcars":12557,"Ġinhabited":12558,"Ġrebel":12559,"Ġorphan":12560,"fton":12561,"cester":12562,"Ġarabs":12563,"Ġshabby":12564,"scot":12565,"Ġmeetings":12566,"Ġdreadfully":12567,"surprised":12568,"Ġlumber":12569,"Ġedges":12570,"Ġtermed":12571,"margaret":12572,"Ġweariness":12573,"Ġhenceforth":12574,"Ġdebate":12575,"Ġperilous":12576,"Ġcurve":12577,"Ġbanner":12578,"Ġscreen":12579,"lev":12580,"ometer":12581,"Ġtearing":12582,"Ġinterruption":12583,"easily":12584,"onous":12585,"uther":12586,"Ġcomedy":12587,"Ġrevenue":12588,"threat":12589,"iard":12590,"Ġnour":12591,"Ġtheme":12592,"Ġposted":12593,"Ġfranklin":12594,"independ":12595,"Ġlined":12596,"Ġsubmission":12597,"Ġdeprived":12598,"Ġadmiring":12599,"Ġjaws":12600,"Ġattributed":12601,"Ġeb":12602,"Ġdrows":12603,"passage":12604,"Ġnursery":12605,"fits":12606,"Ġmanufacture":12607,"Ġrestaur":12608,"hampton":12609,"relation":12610,"mediate":12611,"Ġblanche":12612,"Ġhaughty":12613,"Ġtribute":12614,"Ġmethinks":12615,"raw":12616,"mering":12617,"Ġphrases":12618,"Ġcalifornia":12619,"Ġnan":12620,"Ġshew":12621,"Ġpatri":12622,"Ġorganic":12623,"Ġmulti":12624,"clim":12625,"flower":12626,"Ġannual":12627,"Ġexpressive":12628,"čččč":12629,"Ġtailor":12630,"Ġembraced":12631,"emen":12632,"Ġswan":12633,"Ġshrink":12634,"Ġtint":12635,"Ġworkmen":12636,"Ġexclaim":12637,"pending":12638,"Ġrepublican":12639,"veying":12640,"verley":12641,"Ġwears":12642,"osa":12643,"aze":12644,"Ġinfirm":12645,"80":12646,"pill":12647,"Ġobserver":12648,"Ġcommonplace":12649,"\".":12650,"Ġdal":12651,"Ġexpensive":12652,"Ġrecovery":12653,"Ġsubstantial":12654,"Ġscanty":12655,"Ġoppose":12656,"Ġbrightly":12657,"countenance":12658,"gill":12659,"Ġsoup":12660,"Ġxxiii":12661,"Ġhereditary":12662,"Ġbounded":12663,"Ġcert":12664,"raham":12665,"Ġbrighter":12666,"Ġpossessions":12667,"Ġlewis":12668,"Ġinvite":12669,"Ġnobleman":12670,"Ġaudible":12671,"inia":12672,"Ġcompact":12673,"Ġtrivial":12674,"Ġwallace":12675,"Ġarchitect":12676,"Ġuna":12677,"Ġemphat":12678,"Ġhebrew":12679,"ulu":12680,"powder":12681,"Ġsturdy":12682,"bri":12683,"gency":12684,"Ġdot":12685,"vered":12686,"nedy":12687,"locked":12688,"Ġharris":12689,"Ġdearly":12690,"Ġcivilisation":12691,"Ġcontemplation":12692,"odox":12693,"Ġillumin":12694,"Ġpierced":12695,"Ġexalted":12696,"32":12697,"rect":12698,"Ġloft":12699,"Ġaccordance":12700,"Ġwelcomed":12701,"raged":12702,"shoulders":12703,"instru":12704,"finding":12705,"yll":12706,"Ġbased":12707,"enzie":12708,"Ġagnes":12709,"Ġstatues":12710,"Ġdaresay":12711,"ptures":12712,"Ġfortress":12713,"Ġseventh":12714,"Ġprocured":12715,"Ġpeak":12716,"ignity":12717,"istol":12718,"Ġinvestigation":12719,"Ġchivalry":12720,"cousin":12721,"opatra":12722,"Ġproprietor":12723,"citiz":12724,"Ġtoes":12725,"Ġtopic":12726,"lane":12727,"Ġpatent":12728,"Ġwalker":12729,"Ġpursuing":12730,"Ġbasin":12731,"Ġenthusiastic":12732,"Ġministry":12733,"Ġrequis":12734,"Ġsteadfast":12735,"constitution":12736,"Ġsuits":12737,"Ġdeposited":12738,"iac":12739,"Ġafar":12740,"dun":12741,"moral":12742,"Ġdoctrines":12743,"aum":12744,"rating":12745,"Ġdistribution":12746,"Ġskil":12747,"Ġbasil":12748,"styled":12749,"tops":12750,"Ġexplo":12751,"Ġbreeding":12752,"Ġshriek":12753,"Ġtooth":12754,"Ġmeg":12755,"Ġcausing":12756,"barbar":12757,"Ġgleaming":12758,"Ġpinch":12759,"Ġtonight":12760,"eron":12761,"Ġanon":12762,"Ġhamlet":12763,"Ġeastward":12764,"Ġapprehens":12765,"eau":12766,"Ġprelim":12767,"Ġwells":12768,"ucer":12769,"Ġdetached":12770,"bob":12771,"Ġmim":12772,"apse":12773,"Ġpearl":12774,"printed":12775,"Ġastonishing":12776,"arri":12777,"Ġresort":12778,"ernation":12779,"handsome":12780,"hire":12781,"acting":12782,"Ġpeb":12783,"Ġinstructed":12784,"Ġali":12785,"Ġfearing":12786,"dish":12787,"icting":12788,"utt":12789,".\"[":12790,"Ġambassador":12791,"Ġmelt":12792,"windows":12793,"Ġhawk":12794,"Ġprivileges":12795,"Ġumbrella":12796,"Ġreco":12797,"anton":12798,"Ġgenerals":12799,"ubb":12800,"moreover":12801,"Ġappreciation":12802,"Ġrecovering":12803,"Ġalternative":12804,"excuse":12805,"Ġheadlong":12806,"restr":12807,"Ġsleeve":12808,"paris":12809,"notice":12810,"Ġapples":12811,"Ġfloat":12812,"Ġtacit":12813,"kered":12814,"shell":12815,"progress":12816,"Ġdifferently":12817,"dney":12818,"Ġxvi":12819,"Ġoccasioned":12820,"marry":12821,"fighting":12822,"Ġfertile":12823,"Ġmerciful":12824,"Ġdidst":12825,"syl":12826,"pensable":12827,"explained":12828,"Ġrepentance":12829,"Ġthicket":12830,"Ġrubbing":12831,"Ġfinan":12832,"Ġcivilised":12833,"Ġinland":12834,"lee":12835,"Ġadmission":12836,"greatest":12837,"profession":12838,"Ġsemi":12839,"Ġshares":12840,"Ġcondes":12841,"itia":12842,"Ġdiana":12843,"otto":12844,"Ġsabb":12845,"Ġrealised":12846,"Ġwestminster":12847,"Ġlanc":12848,"Ġchau":12849,"Ġfavoured":12850,"Ġbeau":12851,"Ġcomposure":12852,"itually":12853,"Ġlanguages":12854,"watching":12855,"Ġexceeding":12856,"square":12857,"Ġextravagant":12858,"Ġlav":12859,"sax":12860,"Ġforbear":12861,"astrophe":12862,"Ġdisposal":12863,"states":12864,"Ġbronze":12865,"fem":12866,"afford":12867,"matical":12868,"bones":12869,"Ġcum":12870,"Ġrepet":12871,"Ġransom":12872,"Ġbored":12873,"Ġboards":12874,"Ġdelayed":12875,"Ġrefusal":12876,"Ġundertaking":12877,"zza":12878,"Ġfaltered":12879,"Ġdiscussing":12880,"Ġaqu":12881,"information":12882,".\"]":12883,"Ġpere":12884,"Ġjudging":12885,"Ġrescued":12886,"Ġdisdain":12887,"Ġfidelity":12888,"Ġvale":12889,"jamin":12890,"nigh":12891,"section":12892,"Ġenlar":12893,"Ġhinder":12894,"Ġslaughter":12895,"Ġstewart":12896,"Ġcurled":12897,"Ġassass":12898,"Ġthickly":12899,"matic":12900,"uled":12901,"Ġpenit":12902,"Ġpalaces":12903,"Ġrepresentation":12904,"expressed":12905,"consideration":12906,"Ġawait":12907,"forgive":12908,"gray":12909,"train":12910,"Ġwednesday":12911,"sword":12912,"Ġspencer":12913,"Ġgenus":12914,"Ġorchard":12915,"Ġja":12916,"Ġnormal":12917,"Ġwondrous":12918,"Ġsecondly":12919,"Ġverge":12920,"Ġshattered":12921,"Ġimplied":12922,"control":12923,"Ġodious":12924,"Ġodds":12925,"indif":12926,"affairs":12927,"Ġshaped":12928,"Ġseemingly":12929,"Ġturner":12930,"doors":12931,"Ġvenus":12932,"Ġll":12933,"Ġlull":12934,"Ġsheltered":12935,"Ġemig":12936,"Ġhumorous":12937,"Ġextinct":12938,"mamma":12939,"dep":12940,"Ġdarker":12941,"lights":12942,"Ġrespectful":12943,"Ġpraying":12944,"Ġprocure":12945,"Ġchancellor":12946,"Ġequality":12947,"smoke":12948,"Ġobstin":12949,"Ġresignation":12950,"bos":12951,"fier":12952,"Ġblushing":12953,"Ġactor":12954,"Ġticket":12955,"gow":12956,"Ġbail":12957,"Ġpreface":12958,"Ġparcel":12959,"hence":12960,"spirits":12961,"fellows":12962,"plant":12963,"avoid":12964,"Ġfrock":12965,"instance":12966,"Ġprices":12967,"Ġparaly":12968,"Ġhudson":12969,"Ġretreated":12970,"etime":12971,"Ġrealise":12972,"xion":12973,"cival":12974,"Ġpreaching":12975,"Ġentry":12976,"ethro":12977,"Ġvibr":12978,"Ġselling":12979,"Ġstarve":12980,"hither":12981,"Ġreads":12982,"Ġsunrise":12983,"doubtless":12984,"Ġauld":12985,"Ġblunder":12986,"Ġpositions":12987,"Ġcuthbert":12988,"ete":12989,"plate":12990,"Ġglided":12991,"Ġsenator":12992,"vain":12993,"itory":12994,"unciation":12995,"Ġproclaimed":12996,"Ġhull":12997,"Ġnowadays":12998,"Ġaccidents":12999,"Ġmonte":13000,"Ġconvenience":13001,"decided":13002,"Ġtren":13003,"Ġoffensive":13004,"consequence":13005,"ollen":13006,"Ġrecru":13007,"Ġhabitual":13008,"Ġwalt":13009,"Ġrecl":13010,"ateur":13011,"Ġcontinuous":13012,"Ġirrit":13013,"Ġjewel":13014,"Ġskirts":13015,":--\"":13016,"Ġgaily":13017,"Ġindulge":13018,"motion":13019,"Ġbass":13020,"offer":13021,"fo":13022,"aman":13023,"Ġtransp":13024,"Ġhusbands":13025,"Ġbustle":13026,"Ġmoustache":13027,"Ġstumbled":13028,"anders":13029,"Ġspurs":13030,"enser":13031,"Ġtorch":13032,"Ġmelod":13033,"Ġsources":13034,"chat":13035,"Ġtasted":13036,"Ġhil":13037,"pecial":13038,"Ġjake":13039,"Ġurgent":13040,"Ġinstinctively":13041,"Ġunexpectedly":13042,"Ġmum":13043,"Ġaccuracy":13044,"Ġprejudices":13045,"Ġmaids":13046,"animals":13047,"Ġsneer":13048,"niff":13049,"named":13050,"tall":13051,"Ġhound":13052,"Ġascent":13053,"Ġperchance":13054,"shel":13055,"Ġstriving":13056,"Ġcrop":13057,"Ġexcepting":13058,"Ġther":13059,"Ġtheories":13060,"Ġconform":13061,"Ġnewman":13062,"Ġhend":13063,"48":13064,"49":13065,"Ġpots":13066,"maduke":13067,"mud":13068,"rough":13069,"Ġrowed":13070,"happily":13071,"Ġcolumbus":13072,"Ġsums":13073,"abella":13074,"Ġcharmed":13075,"Ġelapsed":13076,"Ġbuying":13077,"Ġbeauties":13078,"Ġramp":13079,"indian":13080,"Ġmemorable":13081,"46":13082,"Ġknives":13083,"Ġconscient":13084,"Ġmeets":13085,"Ġcourtyard":13086,"Ġgoat":13087,"grims":13088,"excitement":13089,"Ġpassionately":13090,"Ġkissing":13091,"Ġfiend":13092,"Ġlyn":13093,"alice":13094,"Ġgaining":13095,"lyle":13096,"Ġsahib":13097,"Ġloaf":13098,"Ġrogue":13099,"Ġentr":13100,"Ġsentine":13101,"Ġbabe":13102,"Ġabide":13103,"Ġtay":13104,"ali":13105,"Ġcommend":13106,"handkerchief":13107,"Ġkisses":13108,"Ġberth":13109,"Ġharp":13110,"Ġhonours":13111,"archy":13112,"Ġlogical":13113,"Ġsped":13114,"Ġsme":13115,"hames":13116,"Ġnodding":13117,"Ġdemocracy":13118,"Ġcourteous":13119,"Ġtraffic":13120,"cost":13121,"Ġfag":13122,"onia":13123,"Ġcracked":13124,"Ġpars":13125,"chus":13126,"Ġairs":13127,"companions":13128,"Ġgabriel":13129,"Ġstanley":13130,"Ġpausing":13131,"Ġcoco":13132,"Ġtries":13133,"parts":13134,"Ġwearied":13135,"Ġsall":13136,"Ġworm":13137,"Ġexertions":13138,"wid":13139,"wished":13140,"Ġtemperature":13141,"Ġgloss":13142,"Ġdiscreet":13143,"Ġfergus":13144,"itives":13145,"riers":13146,"nell":13147,"Ġlodged":13148,"bath":13149,"Ġhints":13150,"Ġdisappear":13151,"Ġpreference":13152,"Ġ(\"":13153,"uate":13154,"Ġhailed":13155,"leading":13156,"Ġpamph":13157,"Ġcounc":13158,"aband":13159,"icester":13160,"settle":13161,"colored":13162,"Ġgardener":13163,"Ġteddy":13164,"Ġgir":13165,"ican":13166,"Ġinfernal":13167,"Ġgalley":13168,"occasionally":13169,"sacrifice":13170,"cred":13171,"Ġwreath":13172,"Ġfrighten":13173,"established":13174,"Ġtas":13175,"celot":13176,"Ġpatches":13177,"touch":13178,"ialect":13179,"Ġworlds":13180,"Ġvein":13181,"Ġpropositions":13182,"Ġmournful":13183,"Ġelected":13184,"Ġbrink":13185,"Ġbutcher":13186,"hensible":13187,"walls":13188,"oman":13189,"pective":13190,"legs":13191,"grandfather":13192,"Ġfelicity":13193,"las":13194,"Ġponder":13195,"adm":13196,"Ġsaviour":13197,"Ġspake":13198,"Ġrefusing":13199,"Ġobligation":13200,"Ġchatter":13201,"loo":13202,"tan":13203,"Ġhappening":13204,"Ġhorribly":13205,"Ġrapidity":13206,"Ġbags":13207,"conditions":13208,"Ġheaps":13209,"Ġoffend":13210,"Ġpearls":13211,"fed":13212,"Ġprophecy":13213,"Ġdit":13214,"Ġyan":13215,"Ġquarrels":13216,"Ġdrifting":13217,"Ġdocuments":13218,"Ġcomparative":13219,"Ġtraditions":13220,"Ġattentive":13221,"========":13222,"false":13223,"vice":13224,"Ġcit":13225,"Ġpreached":13226,"Ġslug":13227,"exer":13228,"Ġmotions":13229,"onson":13230,"valent":13231,"Ġgarment":13232,"Ġbor":13233,"exped":13234,"Ġclement":13235,"Ġcomplained":13236,"Ġhauled":13237,"Ġdefined":13238,"Ġsweetest":13239,"Ġrichly":13240,"Ġrevolt":13241,"Ġsympathies":13242,"Ġphilosophers":13243,"ĠÂ§":13244,"david":13245,"jar":13246,"rev":13247,"omwell":13248,"Ġsettling":13249,"Ġpreceded":13250,"Ġverdict":13251,"resem":13252,"Ġforgiveness":13253,"Ġantiquity":13254,"Ġflattered":13255,"Ġpiety":13256,"Ġrevived":13257,"Ġrice":13258,"desper":13259,"carefully":13260,"Ġfolds":13261,"Ġsurroundings":13262,"Ġliquid":13263,"Ġconspiracy":13264,"Ġpav":13265,"foreign":13266,"Ġburton":13267,"gars":13268,"sear":13269,"Ġsculpture":13270,"Ġfrances":13271,"Ġarisen":13272,"Ġtrials":13273,"news":13274,"Ġcellar":13275,"Ġbeforehand":13276,"angs":13277,"fted":13278,"Ġpuritan":13279,"Ġsentences":13280,"Ġproudly":13281,"Ġshroud":13282,"truly":13283,"Ġacademy":13284,"Ġhyster":13285,"putting":13286,"Ġtolerably":13287,"Ġnabob":13288,"Ġbrushed":13289,"Ġinsignific":13290,"pointed":13291,"Ġsabbath":13292,"icit":13293,"Ġeman":13294,"Ġfrowned":13295,"Ġintending":13296,"accident":13297,"Ġravine":13298,"Ġmu":13299,"Ġlizzie":13300,"Ġbegging":13301,"Ġwarfare":13302,"Ġware":13303,"Ġleagues":13304,"Ġconfed":13305,"elizabeth":13306,"wright":13307,"Ġexasper":13308,"Ġarches":13309,"Ġcongregation":13310,"Ġenergetic":13311,"Ġharr":13312,"beast":13313,"Ġillustrious":13314,"Ġsights":13315,"Ġreveal":13316,"june":13317,"twelve":13318,"Ġhomeward":13319,"Ġwelsh":13320,"Ġhorrors":13321,"animity":13322,"Ġnasty":13323,"Ġadjoining":13324,"Ġperv":13325,"Ġsanction":13326,"Ġpotent":13327,"Ġbirthday":13328,"Ġshuddered":13329,"Ġsacrificed":13330,"chievous":13331,"Ġhillside":13332,"Ġimpert":13333,"Ġejaculated":13334,"Ġtedious":13335,"Ã¼":13336,"persu":13337,"Ġproportions":13338,"sorry":13339,"Ġbrist":13340,"Ġhelmet":13341,"Ġoblige":13342,"sky":13343,"Ġomitted":13344,"Ġensued":13345,"Ġtenants":13346,"Ġstubborn":13347,"Ġgul":13348,"Ġdesolation":13349,"stricken":13350,"laughing":13351,"som":13352,"impression":13353,"calm":13354,"Ġfinn":13355,"Ġeleanor":13356,"Ġmirac":13357,"namely":13358,"Ġgrinned":13359,"Ġantony":13360,"Ġvehicle":13361,"Ġreins":13362,"Ġweren":13363,"attack":13364,"Ġequip":13365,"Ġbishops":13366,"Ġroberts":13367,"Ġbard":13368,"enna":13369,"Ġlime":13370,"pels":13371,"Ġlev":13372,"ooks":13373,"coast":13374,"Ġproperties":13375,"Ġwithal":13376,"Ġexhibit":13377,"Ġfetched":13378,"offered":13379,"Ġwhereof":13380,"Ġliverpool":13381,"Ġsultan":13382,"obe":13383,"Ġgroom":13384,"Ġangles":13385,"Ġwhisky":13386,"luc":13387,"Ġbould":13388,"Ġsequ":13389,"deacon":13390,"Ġclient":13391,"Ġblocks":13392,"Ġsurf":13393,"curt":13394,"Ġbanquet":13395,"Ġgrieve":13396,"cabin":13397,"Ġinspector":13398,"Ġbachelor":13399,"Ġhilda":13400,"Ġwrongs":13401,"compet":13402,"Ġsouthward":13403,"Ġnovelty":13404,"Ġrusty":13405,"ilion":13406,"feather":13407,"Ġterence":13408,"preced":13409,"Ġcontradict":13410,"isse":13411,"Ġconfronted":13412,"Ġundertaken":13413,"Ġqueried":13414,"sides":13415,"Ġpard":13416,"Ġcarpenter":13417,"igne":13418,"Ġoxen":13419,"Ġsymptoms":13420,"olds":13421,"Ġattraction":13422,"gam":13423,"gies":13424,"Ġloneliness":13425,"accur":13426,"uelly":13427,"Ġvariations":13428,"Ġradiant":13429,"Ġdiminished":13430,"Ġdubl":13431,"Ġdepl":13432,"proud":13433,"Ġindulged":13434,"Ġprussian":13435,"Ġconstructed":13436,"Ġvices":13437,"icely":13438,"Ġsuccessfully":13439,"Ġcrowds":13440,"pure":13441,"Ġgur":13442,"Ġbuoy":13443,"mina":13444,"minister":13445,"Ġpoliteness":13446,"Ġphilosophical":13447,"adelph":13448,"thorn":13449,"Ġtrader":13450,"Ġpretending":13451,"Ġsubur":13452,"suspic":13453,"Ġbowing":13454,"Ġmabel":13455,"iro":13456,"trade":13457,"!...":13458,"Ġfamine":13459,"Ġledge":13460,"Ġplanet":13461,"tears":13462,"Ġclenched":13463,"Ġtended":13464,"Ġdistracted":13465,"Ġprofits":13466,"Ġsubjected":13467,"Ġruler":13468,"Ġneatly":13469,"america":13470,"Ġvegetation":13471,"Ġneut":13472,"Ġconference":13473,"Ġminded":13474,"Ġgait":13475,"Ġaustrian":13476,"Ġnas":13477,"Ġalmighty":13478,"Ġresume":13479,"Ġpossibilities":13480,"chest":13481,"Ġenchanted":13482,"Ġcust":13483,"Ġabhor":13484,"cled":13485,"cliff":13486,"Ġscor":13487,"Ġaffecting":13488,"xim":13489,"Ġlungs":13490,"pick":13491,"Ġmantle":13492,"inisc":13493,"outer":13494,"Ġleop":13495,"Ġshelf":13496,"Ġharvey":13497,"Ġmistakes":13498,"guess":13499,"Ġdomest":13500,"aiser":13501,"directly":13502,"Ġlectures":13503,"Ġgrub":13504,"Ġsucceeding":13505,"quietly":13506,"):":13507,"65":13508,"vings":13509,"wark":13510,"anna":13511,"Ġxxiv":13512,"pale":13513,"Ġimposed":13514,"Ġguar":13515,"Ġpolish":13516,"itzer":13517,"ecess":13518,"loss":13519,"Ġorth":13520,"bee":13521,"Ġbleeding":13522,"Ġwade":13523,"Ġreass":13524,"Ġenclosed":13525,"Ġveter":13526,"ropri":13527,"Ġrestrain":13528,"Ġteachers":13529,"Ġexaggerated":13530,"Ġstripped":13531,"Ġvalued":13532,"Ġlabou":13533,"Ġepis":13534,"urt":13535,"Ġvicious":13536,"Ġcontinues":13537,"Ġcircus":13538,"Ġprovinces":13539,"Ġdublin":13540,"stir":13541,"Ġ48":13542,"Ġsniff":13543,"Ġnorthward":13544,"Ġindulgence":13545,"Ġlac":13546,"Ġshaggy":13547,"Ġchicago":13548,"reput":13549,"hap":13550,"Ġkettle":13551,"Ġtruck":13552,"Ġincor":13553,"Ġindies":13554,"Ġvehement":13555,"Ġrosam":13556,"Ġrustic":13557,"Ġstages":13558,"Ġunreasonable":13559,"clad":13560,"steady":13561,"Ġprofoundly":13562,"Ġidleness":13563,"Ġturkey":13564,"mistak":13565,"Ġnostri":13566,"spot":13567,"Ġpitiful":13568,"Ġmarsh":13569,"cos":13570,"faint":13571,"utable":13572,"Ġrely":13573,"Ġexcellence":13574,"Ġconventional":13575,"Ġfoss":13576,"season":13577,"Ġforfe":13578,"Ġadvert":13579,"Ġlighting":13580,"Ġrests":13581,"Ġhangs":13582,"legged":13583,"Ġassociations":13584,"acquainted":13585,"lucy":13586,"Ġech":13587,"Ġfork":13588,"Ġunlucky":13589,"Ġkend":13590,"surface":13591,"Ġfabric":13592,"tical":13593,"eties":13594,"Ġvoid":13595,"Ġpotatoes":13596,"Ġaugustus":13597,"enthus":13598,"growing":13599,"breaking":13600,"Ġdefinition":13601,"Ġbabies":13602,"Ġtroublesome":13603,"90":13604,"Ġfewer":13605,"arranged":13606,"explan":13607,"remarkable":13608,"Ġowl":13609,"Ġconsisting":13610,"Ġperplexity":13611,"Ġalley":13612,"Ġjem":13613,"Ġsatire":13614,"Ġfireplace":13615,"footnotes":13616,"friendly":13617,"Ġhenrietta":13618,"Ġfrantic":13619,"Ġoverfl":13620,"Ġpepper":13621,"rub":13622,"Ġgenera":13623,"clean":13624,"Ġcells":13625,"Ġtelephone":13626,"Ġdated":13627,"staff":13628,"Ġconsumed":13629,"Ġinvasion":13630,"Ġgoverned":13631,"Ġpostp":13632,"Ġcompetition":13633,"sentiment":13634,"Ġraging":13635,"Ġgasp":13636,"Ġstockings":13637,"Ġclerks":13638,"Ġmaurice":13639,"47":13640,"elf":13641,"Ġmand":13642,"Ġstained":13643,"Ġspont":13644,"Ġfling":13645,"Ġsalary":13646,"Ġdeput":13647,"Ġstops":13648,"ivalent":13649,"Ġsomerset":13650,"principles":13651,"Ġtib":13652,"raoh":13653,"Ġapron":13654,"Ġviewed":13655,"visible":13656,"papa":13657,"Ġreigned":13658,"Ġunbroken":13659,"Ġcamels":13660,"Ġillustration":13661,"cribe":13662,"Ġphenomenon":13663,"Ġstorms":13664,"Ġrebels":13665,"Ġjoining":13666,"Ġbatteries":13667,"Ġcynthia":13668,"Ġturkish":13669,"pipe":13670,"Ġnails":13671,"Ġskeleton":13672,"igan":13673,"Ġamen":13674,"anybody":13675,"limited":13676,"Ġadapt":13677,"gering":13678,"Ġstump":13679,"Ġclaude":13680,"Ġwhistling":13681,"sharp":13682,"Ġindefinite":13683,"Ġassumption":13684,"Ġdissip":13685,"takes":13686,"Ġfishes":13687,"washed":13688,"Ġscreaming":13689,"dangerous":13690,"pierre":13691,"egypt":13692,"Ġhowling":13693,"Ġurs":13694,"Ġessays":13695,"Ġcircuit":13696,"Ġhod":13697,"...\"":13698,"Ġvalent":13699,"religious":13700,"kill":13701,"oons":13702,"bray":13703,"Ġadvis":13704,"Ġspaniard":13705,"soldier":13706,"whenever":13707,"moving":13708,"Ġstormy":13709,"Ġgains":13710,"Ġsuperintend":13711,"Ġendeavouring":13712,"Ġluggage":13713,"pack":13714,"onic":13715,"Ġstooping":13716,"ivities":13717,"Ġhomely":13718,"Ġarray":13719,"lass":13720,"Ġsta":13721,"amen":13722,"Ġsurm":13723,"Ġbarbarous":13724,"Ġdevout":13725,"Â·":13726,"Ġdome":13727,"Ġstony":13728,"Ġesqu":13729,"Ġrealm":13730,"special":13731,"Ġstreaming":13732,"Ġstruggles":13733,"Ġconsistent":13734,"Ġrushes":13735,"pound":13736,"Ġblasp":13737,"actually":13738,"Ġparas":13739,"Ġairy":13740,"Ġbiggest":13741,"Ġdetest":13742,"Ġchaplain":13743,"Ġpassenger":13744,"Ġadmirably":13745,"Ġsobbing":13746,"Ġvegetable":13747,"Ġtenth":13748,"Ġcontemporary":13749,"Ġtony":13750,"Ġbessie":13751,"Ġgraces":13752,"Ġproduces":13753,"calcul":13754,"music":13755,"ended":13756,"Ġclavering":13757,"brand":13758,"Ġpays":13759,"Ġvanish":13760,"mare":13761,"ima":13762,"Ġasp":13763,"Ġnoblest":13764,"mented":13765,"iley":13766,"Ġcurate":13767,"somewhere":13768,"Ġ177":13769,"suffering":13770,"Ġribs":13771,"suggested":13772,"Ġnoises":13773,"Ġunfit":13774,"rett":13775,"Ġgradual":13776,"Ġtropical":13777,"distinguished":13778,"Ġtract":13779,"worked":13780,"Ġleapt":13781,"Ġprecaution":13782,"assem":13783,"Ġclive":13784,"Ġinquiring":13785,"Ġmatthew":13786,"oirs":13787,"wend":13788,"Ġwatches":13789,"Ġsupernatural":13790,"distant":13791,"lieutenant":13792,"Ġnostrils":13793,"cun":13794,"thest":13795,"uben":13796,"rome":13797,"inn":13798,"Ġsuck":13799,"Ġapoll":13800,"Ġlaunch":13801,"Ġcomplac":13802,"stephen":13803,"Ġrousseau":13804,"Ġindirect":13805,"Ġorderly":13806,"Ġdivisions":13807,"impat":13808,"Ġeyed":13809,"Ġmisfortunes":13810,"conscience":13811,"Ġmalcolm":13812,"Ġimmensely":13813,"gor":13814,"Ġbount":13815,"Ġsting":13816,"commission":13817,"Ġrepresenting":13818,"grew":13819,"range":13820,"Ġfile":13821,"Ġrewarded":13822,"behold":13823,"wasn":13824,"Ġtranquil":13825,"oult":13826,"Ġcontribut":13827,"Ã©e":13828,"Ġnineteen":13829,"isance":13830,"Ġdiet":13831,"Ġweeds":13832,"Ġenvelop":13833,"Ġbrooke":13834,"prit":13835,"Ġpunch":13836,"Ġbattal":13837,"Ġconjecture":13838,"Ġinfluenced":13839,"governor":13840,"Ġkennedy":13841,"ĠseÃ±or":13842,"Ġhector":13843,"secr":13844,"Ġnewcome":13845,"Ġcurls":13846,"Ġbullets":13847,"Ġyielding":13848,"Ġcovenant":13849,"science":13850,"istinct":13851,"Ġshrine":13852,"Ġindignantly":13853,"Ġdominion":13854,"Ġjumping":13855,"gradually":13856,"Ġcalamity":13857,"_{":13858,"Ġvoll":13859,"Ġtrains":13860,"ogene":13861,"german":13862,"Ġinsin":13863,"Ġtrusting":13864,"Ġgrasping":13865,"iche":13866,"Ġrouse":13867,"cling":13868,"capable":13869,"vig":13870,"Ġmug":13871,"Ġsmote":13872,"Ġlegitimate":13873,"judgment":13874,"Ġdescendants":13875,"Ġvoltaire":13876,"degree":13877,"Ġmiracles":13878,"Ġinvestig":13879,"superior":13880,"Ġprecipice":13881,"Ġoar":13882,"riet":13883,"Ġpeac":13884,"Ġchurchyard":13885,"Ġaccepting":13886,"Ġjonathan":13887,"height":13888,"Ġeug":13889,"ulses":13890,"Ġshivered":13891,"Ġnobler":13892,"Ġtechn":13893,"sunday":13894,"Ġboyhood":13895,"Ġacceptance":13896,"Ġheroine":13897,"Ġsorely":13898,"Ġfisherman":13899,"Ġcorruption":13900,"Ġvarying":13901,"groom":13902,"Ġrural":13903,"Ġstarving":13904,"Ġannouncement":13905,"Ġgiles":13906,"Ġreaction":13907,"Ġarc":13908,"Ġplank":13909,"Ġdrawer":13910,"Ġmarshal":13911,"aria":13912,"Ġpainters":13913,"Ġtransferred":13914,"promised":13915,"Ġdeceit":13916,"dropped":13917,"Ġsobbed":13918,"Ġreverent":13919,"Ġimaginative":13920,"Ġmoll":13921,"Ġpulse":13922,"opening":13923,"Ġsmug":13924,"myth":13925,"Ġsweetly":13926,"Ġstatements":13927,"Ġcanad":13928,"Ġchaff":13929,"Ġcorporal":13930,"Ġmuddy":13931,"Ġblot":13932,"Ġswar":13933,"Ġcyril":13934,"Ġmau":13935,"Ġfib":13936,"otent":13937,"altern":13938,"Ġweird":13939,"mult":13940,"wrote":13941,"Ġmules":13942,"Ġapprent":13943,"ifer":13944,"gently":13945,"Ġgull":13946,"Ġbese":13947,"Ġexclusively":13948,"Ġida":13949,"Ġhomage":13950,"illustr":13951,"Ġsof":13952,"Ġclue":13953,"Ġespecial":13954,"Ġneedless":13955,"contempt":13956,"Ġforthwith":13957,"Ġotter":13958,"hearing":13959,"Ġmerton":13960,"Ġhoward":13961,"Ġ170":13962,"Ġfavorable":13963,"market":13964,"Ġrestrained":13965,"Ġpagan":13966,"Ġsanta":13967,"Ġdey":13968,"Ġtwit":13969,"notwithstanding":13970,"irling":13971,"Ġsteed":13972,"Ġresembling":13973,"adelphia":13974,"Ġboyish":13975,"Ġrecur":13976,"greatly":13977,"grav":13978,"lesiastical":13979,"fail":13980,"vision":13981,"abilities":13982,"becoming":13983,"Ġricher":13984,"animal":13985,"mut":13986,"!\"--":13987,"odd":13988,"Ġmused":13989,"Ġapes":13990,"Ġbreeds":13991,"Ġmetaphys":13992,"Ġperpetually":13993,"rd":13994,"scott":13995,"Ġraft":13996,"ĠĠĠĠĠĠĠĠĠĠĠĠĠĠĠĠĠĠĠĠĠĠĠĠĠĠĠĠĠĠĠĠĠĠĠ":13997,"Ġspectator":13998,"inhabit":13999,"Ġplent":14000,"Ġlays":14001,"twice":14002,"Ġdivor":14003,"bree":14004,"Ġcheered":14005,"Ġdelights":14006,"Ġcircular":14007,"anter":14008,"Ġdissent":14009,"Ġearthqu":14010,"Ġtransparent":14011,"auld":14012,"Ġparade":14013,"Ġxxv":14014,"Ġsolemnity":14015,"Ġdashing":14016,"andah":14017,"throughout":14018,"Ġguidance":14019,"breat":14020,"otic":14021,"Ġproceeds":14022,"Ġthreats":14023,"narrow":14024,"Ġborders":14025,"Ġstables":14026,"Ġresisted":14027,"Ġassuming":14028,"Ġrobber":14029,"Ġalexand":14030,"sop":14031,"Ġbash":14032,
[...]
