[PAD]
[UNK]
[CLS]
[SEP]
[MASK]
!
"
#
$
%
&
'
(
)
*
+
,
-
.
/
0
1
2
3
4
5
6
7
8
9
:
;
<
=
>
?
@
[
\
]
^
_
`
a
b
c
d
e
f
g
h
i
j
k
l
m
n
o
p
q
r
s
t
u
v
w
x
y
z
{
|
}
~
¢
£
¤
¦
§
©
«
¯
°
±
²
´
µ
¶
·
¹
º
»
¼
½
¾
¿
×
ß
æ
ð
ø
ł
œ
ſ
ʒ
ʹ
˘
α
β
γ
δ
ε
ζ
η
θ
ι
κ
λ
μ
ν
ξ
ο
π
ρ
ς
σ
τ
υ
φ
χ
ψ
ω
ϛ
ϝ
ϲ
а
б
в
г
д
е
ж
з
и
к
л
м
н
о
п
р
с
т
у
ф
х
ц
ч
ш
ъ
ы
ь
э
ю
я
ђ
і
ј
ѣ
җ
א
ב
ג
ד
ה
ו
ז
ח
י
כ
ל
ם
מ
ן
נ
ס
ע
פ
צ
ק
ר
ש
ת
ᵉ
ᵐ
ᵒ
ᵗ
᾽
᾿
῾
‐
–
—
‘
’
‛
“
”
…
′
″
⁂
℞
℥
⅓
⅔
⅛
│
┐
┘
##a
##r
##p
##e
##t
##o
##q
##u
##z
##s
##m
##g
##y
##h
##d
##n
##i
##l
##c
##b
##k
##w
##v
##f
##æ
##0
##ι
##γ
##λ
##α
##x
##8
##1
##9
##3
##4
##η
##ν
##2
##j
##7
##υ
##θ
##ε
##ρ
##5
##τ
##ψ
##°
##ω
##6
##ו
##ן
##ο
##ξ
##π
##σ
##μ
##φ
##ς
##½
##œ
##χ
##и
##н
##к
##е
##в
##ч
##а
##р
##¢
##ſ
##£
##ד
##κ
##δ
##ж
##я
##у
##ъ
##¾
##º
##ł
##´
##б
##л
##с
##о
##м
##²
##ζ
##¦
##д
##ϲ
##×
##β
##ы
##і
##х
##г
##т
##א
##ר
##ש
##ѣ
##ш
##э
##©
##י
##ת
##ц
##п
##з
##¤
##¼
##᾽
##ј
##ð
##ז
##ʹ
##ь
##⅔
##ϛ
##ק
##ß
##ф
##ᵒ
##ø
##ב
##ה
##ᵐ
##җ
##±
##ᵉ
##⅛
##ג
##ם
##מ
##ל
##כ
##⅓
##ю
##ᵗ
##נ
##᾿
##ע
##¹
##ђ
##צ
th
the
##er
##nd
##in
##ed
##ou
##at
##en
of
and
##on
##or
##es
to
##is
##ar
##ing
##an
##it
in
##ll
##as
##re
wh
##om
be
he
ha
##le
##ot
##ic
##ow
that
it
##ut
##ld
##ly
##ve
##se
you
sh
was
##gh
##id
on
##et
##ent
##st
##im
##ion
##ce
##ith
as
for
##ir
##al
his
##ay
##ur
with
st
##ch
re
##ad
##ver
##ter
an
her
is
not
had
##ght
at
##am
##ould
##ct
##oo
##her
but
##ess
fr
se
we
pr
##ain
##ill
su
sa
him
she
me
so
##ere
##all
##ight
have
##ke
de
##il
ch
##ich
##est
by
my
all
they
##pe
which
li
##ome
ne
##ore
con
or
##ck
this
##ge
##ul
do
up
##th
from
##ard
##ri
##ra
no
ex
there
##os
##ie
##us
man
said
##ant
##ble
were
al
##pp
##ation
who
##ous
##ust
##and
one
##ers
##em
fe
##our
##ast
are
##lf
would
##ind
them
en
##art
kn
##ate
go
##ist
if
##un
##ong
##ol
le
com
their
##ap
##ood
when
##ame
##um
wor
##out
br
un
ab
been
##if
what
##ound
will
out
##ough
##ak
##op
##one
##ish
int
tr
##ig
ar
##ook
##la
##itt
##own
am
fa
qu
##ort
##ery
##ven
##ost
mr
##ose
##ive
af
sp
##self
your
##reat
can
##el
##ity
ag
some
more
any
##ence
##fe
then
##ure
##ther
##ry
could
##ake
ro
##nder
now
##pt
##qu
tim
##ies
cl
very
##ag
##ance
tw
##au
##od
into
other
than
ever
like
##ine
##able
##ass
know
ad
##oun
us
##ink
##iv
##cc
im
did
##wn
##ite
has
look
##urn
gr
##way
how
##ell
##ittle
co
po
see
##ci
little
##ep
##ice
##ide
##ach
##ade
##ack
our
##fore
##ought
##tain
dis
per
time
about
should
lo
##hing
##ment
##ally
upon
say
##ud
great
again
str
##ab
##other
after
##ings
over
day
mar
too
well
bo
hand
##ather
only
##ved
##oss
pro
##age
##ick
##ord
mu
car
good
down
##ree
##ire
##ile
thr
fl
off
##pl
##ber
pl
pe
sc
before
bl
cr
part
may
think
fir
##ars
such
two
much
must
pre
its
##ions
ind
##ang
made
##ious
##ue
these
##ked
##pr
old
rem
##ward
where
fo
##ness
bet
##ful
never
##ied
here
##ount
sm
##ull
come
under
##ady
##per
long
##ft
##ated
spe
##ath
##ac
let
way
own
##ving
##ild
even
men
##orn
gl
ho
##ary
##ty
##ect
##led
res
every
first
might
##ise
bec
##ves
des
##ans
back
##ff
ob
dr
came
ye
ey
pla
##ered
seem
himself
thought
##ip
##ced
cont
##iss
comp
don
##ces
just
##co
##we
##ted
##oth
those
cons
bel
##igh
##llow
wr
pass
##ily
shall
get
most
life
pres
ke
jo
##ouse
##ried
make
##ave
through
##are
comm
still
##iff
acc
##atter
em
last
being
att
la
beg
inter
wat
new
away
##ction
ap
som
##ens
##ory
##ign
head
##ng
##ark
yet
call
##man
though
sl
##ons
turn
went
##ether
young
char
without
eng
mo
house
while
##pect
word
##iend
somet
te
ret
take
op
tell
##ause
##ase
many
ser
##les
friend
nat
nothing
##ition
work
ear
cour
far
##ened
##iz
gen
app
##ared
mrs
##air
found
##ian
##ew
count
eyes
cap
##ently
##ro
wom
end
##less
right
want
night
##int
sir
##cl
##ub
once
##ible
supp
##ors
##red
place
##alk
dist
##aking
mind
peop
put
gra
##te
##land
##sw
ll
##ult
people
face
nor
same
another
heart
father
##fect
ac
##ations
arm
imp
inst
##av
ple
##gg
##ject
things
set
mom
##ertain
##ict
sub
##ical
diff
moment
answ
god
room
gu
##ange
why
##ace
##sel
pers
##thing
form
sin
war
world
find
got
##ia
##ting
left
##ank
appe
saw
miss
love
three
##ways
feel
lady
sw
ma
light
##ished
gener
thing
ass
ve
##ix
looked
near
##ling
##ower
##ner
child
##augh
wa
belie
##ph
give
sur
sat
##ever
##iver
always
##ody
high
col
seemed
##ey
##ock
happ
certain
ph
##ither
better
prop
inf
##uth
##oub
##den
##ents
going
tra
against
poss
something
done
reg
conf
rel
##aps
bre
kind
##cy
ev
##ple
hard
vo
took
quite
because
el
##orm
ord
follow
lord
gre
yes
##og
asked
return
side
##cept
inde
few
boy
##ret
half
read
del
mon
##ual
##ool
cle
##orr
heard
##ters
##ched
wind
##irl
min
##most
par
hands
##so
knew
##ib
sil
##ween
##ined
##lt
rest
hum
##iness
between
among
enough
told
##cess
es
id
occ
##ised
##press
years
adv
##ning
course
matter
soon
cur
##act
##oke
act
##ove
mother
round
pur
ref
each
ste
##ps
##ial
##pped
##uck
seen
beh
girl
##ress
ed
dre
##end
king
home
##ense
hour
woman
##ush
##wards
poor
##ular
also
##aken
door
rep
hel
##not
##ier
keep
##ott
##aut
ter
both
tre
##ale
##ail
##haps
sure
##und
perhaps
whole
oh
dra
prin
dear
name
##ond
add
having
##ited
##ows
mean
##xt
whom
pleas
##ully
har
unt
bar
##ash
almost
however
##its
ins
##selves
gent
##osed
stand
##ru
does
##ute
country
best
##ern
##iet
##ained
bla
wo
water
doub
indeed
sk
##eng
sou
land
##sh
##ason
morn
##ying
present
fam
##ures
less
small
art
inc
##ged
myself
##ks
till
lar
called
sent
##ton
stre
##ene
fact
hear
##ired
rather
turned
##lish
quest
days
##owed
dark
morning
vis
white
gentle
underst
exc
bu
felt
since
law
consid
che
##aster
open
care
sim
anything
##ating
18
hon
talk
##oud
next
##rib
##amp
adm
##ife
met
words
hope
point
##vel
gi
began
doubt
##ably
##ention
##ung
believe
ext
spir
stood
##ately
beaut
##oy
##tered
##als
four
sn
gave
##ief
looking
person
voice
##ates
##aint
brought
red
interest
unc
aw
cond
##ured
black
##lic
hor
fall
differ
contin
herself
sun
cannot
##ok
power
laugh
sch
sud
##oney
compan
need
forg
speak
true
use
sudden
full
gone
taken
ill
book
mer
until
captain
suff
##ins
##ember
bus
answered
chr
wonder
tog
thus
##med
inv
run
together
##ird
general
##ering
##ches
##ants
##fully
##ont
##ude
ide
wish
swe
fire
help
strong
##ceiv
lay
##tle
sy
##ren
sec
english
##ments
serv
ra
others
air
hold
whose
##ets
foot
##ances
##ued
dire
sle
death
least
play
pol
themselves
nature
rec
##up
det
##ield
wife
money
fin
##odu
bur
sever
sea
along
##hn
##ities
##fort
whether
##ten
##iting
obs
##ii
mil
pat
ent
##iled
##akes
deep
dec
remember
##ead
case
given
pa
##uring
ir
sort
cir
fur
##ength
tem
opp
##ceed
christ
real
##used
##osition
##body
##men
passed
##ater
short
fellow
thou
sing
reason
fair
aff
prom
leave
ask
behind
large
brother
question
##aring
john
bes
##ison
mis
##cious
feet
express
##ert
really
##iew
bed
circ
##ually
cried
understand
says
##cond
ele
##cover
##unt
##ned
dead
reach
alone
close
mad
##az
abs
##ages
##ane
##ne
pub
start
town
above
charac
##vers
##oc
letter
son
num
##anger
ground
second
wood
##essed
##ister
chap
prof
often
known
##enty
sound
##ides
expect
fort
##ught
hund
state
##plied
hundred
sign
##laim
disc
##ready
##ific
ge
##ley
##esh
lad
eas
pap
dev
ten
show
within
already
manner
coming
mod
tri
##ffect
truth
fear
expl
suppose
##ided
obser
ru
friends
dep
spirit
dri
##mm
##mb
towards
##old
subject
##ines
wild
six
jud
##gn
times
hur
meet
necess
five
wall
##ching
clear
business
##cted
wal
ship
walk
##ape
year
itself
var
lear
##ek
##li
replied
lea
const
##ceived
therefore
effect
else
mid
low
pain
##ient
natur
order
##ench
consider
bra
master
##ames
##ution
du
##eth
##br
##illed
##oken
##imes
list
children
##son
pret
bad
fell
means
lost
fan
##ives
dem
##vern
bring
cast
either
##ative
##ross
##ger
##ility
mere
human
thy
step
respect
##iful
horse
soul
er
strange
##ote
live
port
past
rich
##here
##rew
used
object
returned
rose
##ism
chur
earth
quiet
##ident
character
occas
est
squ
##ience
except
cat
##lly
eye
cal
##arr
making
body
sense
exp
glad
appear
pet
women
england
boat
won
several
sight
common
mag
def
arr
table
family
during
gold
spr
answer
kept
prob
##cul
diffic
dut
cut
##iously
##ards
held
possible
across
##be
mist
##iter
##itted
river
soci
sit
##use
##empt
offic
##cing
lead
sus
##ug
evening
##ys
ut
chapter
partic
blood
perfect
##eric
road
ah
quick
didn
thous
mur
thousand
##airs
hea
cra
hill
##opped
tou
sometimes
conc
coll
view
suddenly
doct
ca
##ouble
bit
deal
fig
story
##owing
free
stra
##ony
##ham
cent
cross
##idence
seems
decl
ought
prev
become
hus
big
trans
certainly
slow
##ety
rock
##ney
arri
church
account
##ny
draw
##oon
##ts
begin
able
prov
##ising
surpr
##oura
##aught
##itting
auth
govern
cor
proper
enter
##rie
sleep
##ury
##by
##ized
gentleman
daugh
produ
succ
##wh
lu
##nded
break
equ
quar
##ians
imag
cold
ready
idea
phil
party
##ms
ann
public
self
command
##orrow
##een
##ah
vi
mus
##ndon
div
scar
arms
heaven
became
##me
fav
different
everything
##band
##ots
worth
din
##ingly
##iar
around
corn
chief
pretty
beautiful
feeling
occasion
##ination
##gr
##ountain
##ship
##antly
pay
followed
americ
twenty
val
##anged
stri
rid
secret
pen
ran
comple
spoke
stud
##isf
##ented
heav
hist
maj
month
exam
plain
esc
husband
french
none
##utes
exper
purp
pal
line
discover
appro
leg
##une
hot
success
fight
##ones
disp
london
forward
hast
vill
mem
conv
##inct
repr
stay
##outh
appeared
bey
##ased
##uss
##orge
##erm
##umb
city
grand
fine
dream
win
vol
green
faith
##alth
sold
ce
beyond
taking
##ement
fre
##dle
summ
##tern
continued
move
acqu
##ices
mor
school
bene
thee
rev
remain
##iment
##lled
doing
reco
fore
court
import
prot
requ
creat
prep
hair
tom
happy
##ime
front
##ested
##itude
da
##ior
pie
exist
##ality
added
##bed
send
anim
mine
author
bear
##cri
##der
further
natural
bright
satisf
pray
danger
sal
particular
circum
number
regard
street
##ope
daughter
carry
opin
pict
soft
##uct
##well
late
##ize
led
dest
bat
##side
change
chance
##app
boys
##oof
##inted
mat
comes
breat
trust
company
hours
mountain
##ences
##riage
yourself
super
ver
visit
##ump
enem
17
ang
bill
direct
fif
##gy
carried
##anced
##ledge
gard
comfort
sad
##pend
cause
##00
burn
sweet
wanted
try
rom
neither
delight
shad
dog
priv
news
##bert
cry
##where
##ric
anx
##day
hat
nearly
accord
sail
##ession
flo
##ler
wrong
window
##owers
sol
saying
##medi
george
pract
early
hall
received
island
cre
later
##raid
bird
lab
alth
longer
eff
post
prince
age
circumst
hardly
although
position
whis
##cies
sister
reached
uncle
remark
princi
##ously
##inary
force
##ushed
attempt
cover
silence
afraid
##ipp
sugg
fool
living
##otion
contr
##ues
tried
##irt
lie
##laimed
west
##bit
blue
##itten
whate
trouble
eight
med
inqu
necessary
##aged
doctor
camp
##uff
alt
##aw
slight
av
mouth
peace
##olog
minutes
north
##ified
##ster
grace
##gar
miles
probably
whatever
tal
bound
opened
##ugg
fast
##ics
main
##usion
length
##iam
den
sla
##ls
walked
colour
immedi
##ament
sens
mark
jack
accom
desp
meant
##ening
purpose
class
##ilt
forth
scarce
##ob
cloth
thinking
trees
poet
inn
treat
##ended
pleasure
field
gall
smile
breath
ago
entered
##ius
##itions
shar
repe
##lu
youth
distance
##sequ
chair
##ists
lim
slowly
jour
##itch
##ift
standing
ger
##iest
exact
entire
save
mary
emb
laid
brown
getting
##eless
strength
crow
south
broken
proceed
##cient
bank
##ald
##ceive
##els
dick
die
gun
duty
watch
##let
top
knowledge
cas
admir
week
##ically
thank
heavy
##ounded
##ats
##hood
##tained
struck
##ored
##idge
neigh
tree
##ustom
convers
##iling
##crib
coun
build
lived
lang
##dd
enc
prison
dress
##onel
arch
ant
##amed
sav
bell
##ply
bott
born
mill
hop
happened
##rible
##eness
##val
hung
##aded
##ager
intell
dinner
knows
und
note
incl
thir
neighb
glass
##ume
written
resol
opinion
##icked
##ee
##amb
##ging
##oom
##ries
ast
##cially
board
service
lips
sho
##oose
instead
rap
##que
approach
history
rob
easy
wait
safe
##arch
##ges
appar
makes
imposs
imm
hors
joy
paper
##ixed
dom
##rupt
queen
##ming
sitting
weak
brit
je
narr
##igin
relig
accept
deg
mention
stone
remained
mess
grave
frank
following
seeing
besides
polit
mass
inform
##iving
hen
honour
difficult
government
letters
exclaimed
fit
stopped
straight
write
sam
beauty
army
##ency
van
##ively
pop
ty
died
concl
determ
##yal
drew
##asp
fresh
##form
origin
cab
figure
horses
garden
fle
enj
path
##ounds
gaz
bro
##wise
##mp
colonel
ii
thoughts
below
##ils
##ustr
##ina
##ann
##king
##isted
aunt
result
crowd
##fer
impress
warm
espe
please
silent
drink
influ
##par
##erv
##ork
vict
fut
##iers
impossible
suffic
##uc
extra
##ze
##ature
caught
##ma
latter
##ron
##what
tone
office
presently
shout
fing
sor
compl
intr
laughed
##ining
circumstances
occup
##uit
fash
wit
somewhat
usual
impr
eat
hun
march
loved
thick
married
guard
##ection
langu
obl
##reme
address
##fection
mal
desire
appearance
attention
single
neg
forget
cloud
society
nation
former
wide
une
whisper
pull
third
##read
plan
grow
##urs
peter
afterwards
gather
##ories
greater
##ask
complete
##dom
toward
presence
##ech
enemy
dan
moved
##cience
belong
##nding
beat
fal
demand
fat
goes
##ises
attack
scene
spot
purs
expected
##cial
##oop
train
conn
ladies
books
months
showed
##eks
grew
altog
waiting
##unk
altogether
##de
placed
viol
##mer
yell
civ
broke
stop
bab
noble
consequ
fancy
##ivid
broad
liter
merely
especially
unless
pleasant
##ected
earn
depart
expression
repres
places
isn
ven
##cell
##olute
##orth
commun
wouldn
##he
fashion
recogn
speaking
pros
learn
##io
ball
##mn
clock
hy
snow
started
mel
hu
honest
passion
##uel
aftern
##pic
##ourage
marry
##pping
sand
##zz
##rief
##aped
battle
immediately
shot
cou
likely
couldn
effort
talking
beside
sole
turning
conversation
simple
pock
incre
favour
##lling
arrived
fly
shore
utter
##ibly
leaving
##acy
spring
dim
beginning
refle
et
afternoon
##iety
outside
future
##itation
journey
village
##bs
##iced
occur
strugg
##gress
meas
sick
observed
absolute
species
stream
famil
morrow
fun
maid
##light
ign
giving
##ital
lift
trave
filled
enjoy
exh
worse
##dy
surprise
corr
arg
##anch
##cked
##gan
dread
##osing
##under
peri
##ouses
minute
moon
raised
middle
girls
rate
empl
##oved
##uous
teach
kiss
forest
star
box
##mpath
beneath
generally
sky
##teen
##erable
##cript
##mon
corner
##orted
##yn
piece
hes
shut
fish
american
##cil
pecul
scarcely
dry
temper
liber
bow
##res
condition
christian
mir
exactly
conscious
##str
major
sorry
hid
entirely
hero
sympath
gentlemen
mut
##atic
evil
##uly
peculiar
rain
##ford
period
eur
##ples
tears
perfectly
seven
advant
##ec
mort
lives
10
shook
employ
civil
##oe
##ivers
##ision
sett
tur
tall
duke
action
persons
direction
##come
looks
various
##zen
private
16
tender
escape
##ract
##cks
ves
trying
ur
cler
lean
speech
xx
loud
sword
wise
pale
concern
tast
##ror
ben
wand
eager
oblig
hol
pun
james
companion
declared
suc
lines
instant
succeed
mart
marriage
europe
easily
##ument
shr
quickly
touch
ere
##itary
##uted
##oses
wrote
##otten
learned
##ulty
kill
excell
ow
judge
##fast
disg
capt
ay
##ission
castle
terrible
clim
france
cost
fright
paid
##uded
summer
silver
describ
supposed
bitter
charge
rapid
floor
affect
delic
##eds
situ
faint
##orough
spoken
parts
##jo
houses
running
sake
vall
gate
##arked
cous
difficulty
east
##ring
simply
##rel
15
earnest
pi
##itable
##anc
changed
perm
vent
dar
opport
influence
reply
important
understood
food
lower
shadow
experience
##ax
press
vain
dam
phys
illustr
yours
drawing
cheer
firm
ris
harry
fer
deser
nobody
leaves
surely
habit
health
pleased
hang
matters
apart
virt
##elve
##set
distinct
song
fallen
##pan
##ett
##ains
iron
proud
vessel
wished
##osp
feelings
##lished
gar
neck
german
curious
according
mount
12
picture
extreme
##oph
##ole
repeated
wid
stat
##esty
earl
opportun
fla
##aled
valley
smiled
##ners
separ
##ora
furn
##iction
killed
calm
##oned
fol
##ashed
ess
gh
##action
considered
sharp
ine
inj
##umed
notice
grass
jim
##raph
attend
knight
wonderful
flowers
crit
whe
wel
ancient
tow
advent
winter
sigh
hath
covered
##kes
##ays
works
conduct
##inite
##gged
resp
walls
william
becom
royal
fixed
music
anxious
rail
swift
darkness
believed
lying
allow
revol
writing
ears
##ipped
host
states
storm
fifty
difference
magn
allowed
##lend
steps
lou
stranger
burst
listen
justice
introdu
ain
birds
crown
##retched
priest
meth
tong
rough
estab
thirty
trad
language
ourselves
dare
fortune
ring
passing
passage
false
wis
seat
race
harm
defe
##reh
modern
suggest
henry
##ille
##oured
refer
promise
ber
serious
determined
grey
closed
pocket
eld
##ayed
philos
##appe
span
drawn
formed
wear
##ites
neighbour
british
##wood
affection
clothes
assist
##velop
creature
devil
claim
dism
degree
stick
##idently
individ
remarked
fem
footnot
##aff
agre
quietly
station
cand
11
##how
threw
york
gree
quarter
##ival
bull
alar
memory
jew
offer
custom
watched
agree
render
glance
ways
##stem
reading
murm
bal
desce
##ator
discovered
heads
troub
imper
social
game
##oted
##my
guess
##iently
##ores
breakfast
orders
reck
engaged
bold
##enced
iv
property
decided
##af
pick
deb
rever
stir
loss
luck
prec
##osite
spread
stock
grou
vast
knowing
system
rise
recover
aston
indian
bottom
tit
ange
depend
##ding
offered
personal
weather
individual
blind
ende
fond
conce
frequ
beast
forgotten
oper
empt
talked
dropped
unf
produced
##ingu
horr
narrow
rising
spite
shoulder
19
cousin
bag
fate
doll
thin
##nday
##lin
pride
##bo
educ
surf
poem
disapp
##ibility
fail
perform
bir
##ium
cases
uns
splend
meeting
ignor
##like
advantage
lot
opposite
##itated
##roy
cop
charles
cla
##over
cott
##ishop
paris
##oops
laws
##ague
prepared
forms
pure
mot
knock
moral
soldiers
accompan
##ilar
spent
grad
remembered
band
roll
discuss
##ara
blow
tis
opportunity
greatest
##etic
##anted
##ctions
meaning
##head
evidence
courage
rank
##itor
wil
officer
intellig
14
trib
##go
##itive
##ests
nay
##vation
officers
aug
holy
13
dust
due
surprised
yellow
der
##attered
##ishment
fault
hills
bread
##bur
square
kne
cho
comb
pity
mountains
wine
drop
##ires
bod
pot
deck
pack
finished
breast
##to
otherwise
pounds
##iant
nice
spirits
servant
brave
liked
smoke
##enn
higher
smo
##yr
##gment
##pected
existence
cabin
profess
grat
suspic
interrupt
thrown
jer
shame
wasn
study
intended
ordinary
cow
angry
##ral
constit
##umph
lod
footnote
apparently
##amber
evidently
gri
cruel
ash
height
dav
affairs
walking
ones
innoc
sty
names
aside
endeav
faces
surr
inh
labour
settled
di
questions
motion
bush
holding
keeping
cred
shop
paul
space
situation
waited
tea
bas
twelve
greatly
everybody
##umn
##ify
coast
native
hotel
solemn
unh
lat
aware
mater
instance
share
##vey
haven
religion
triumph
##enth
possession
develop
##bing
scot
facts
ep
distingu
san
animals
tail
deliver
##antic
majesty
rub
amount
weight
##aly
twice
##iii
familiar
happiness
bless
terms
ideas
regular
##osity
coat
pointed
shoulders
prete
report
bare
##imate
explain
obliged
taste
suffer
##aked
##oint
##fortun
##por
considerable
page
weeks
mac
value
receive
fier
shown
cook
witness
confidence
arrange
##uses
clean
unk
lose
bri
dign
interv
##ulous
crossed
represent
##ounced
unw
suggested
equal
proved
tired
finally
##ulation
built
fill
##rop
##icated
##aces
reader
subst
artic
forty
inquir
##ointed
woods
gray
distant
telling
animal
murder
prefer
troops
forced
richard
ren
##arily
stern
carriage
distur
roof
whispered
working
disappe
##esp
test
hurt
##ishing
authority
america
acquaint
sufficient
affair
dozen
##ached
finding
process
fortun
##race
exer
prove
example
design
touched
##hern
rocks
progress
speed
trade
bent
watching
pit
papers
##com
reb
willing
foreign
thom
organ
fingers
interesting
##nds
threat
promised
excellent
lies
edge
golden
##ike
univers
legs
alive
grown
explained
ble
sele
instinct
mentioned
##sy
spect
nine
##uls
##ception
pictures
pra
##unch
conqu
##iments
##gen
gives
sacri
caused
##road
hom
mam
method
##iles
hither
lake
possess
worst
##bers
##arther
takes
aud
##pir
farther
##cer
##cent
##eer
putting
absolutely
##ushing
thorough
##oid
bay
pair
sides
bid
##gin
##stone
myst
rode
tongue
streets
exec
gloom
##ams
palace
doesn
material
political
##reg
destroy
##enance
hide
honor
imagine
##tering
wealth
##hip
bon
points
building
row
anne
prevent
##iny
por
##istic
##mond
shape
bishop
##bury
special
farm
satisfied
rejo
support
dull
empty
hurried
rule
mas
fellows
##asm
pos
handsome
ride
##erous
agreed
judgment
saint
naturally
mighty
catch
sorrow
windows
sen
##isters
wed
opening
savage
saved
##min
truly
search
cath
##oat
pard
instru
detail
hate
similar
madame
ham
upper
scr
treas
##ification
drive
##gs
bridge
worthy
##ially
surface
trem
settle
##field
happen
##chief
ordered
pu
nob
wicked
iii
wants
ga
dun
tremb
##ena
sacrif
nose
afford
##asc
regret
pan
dwell
moments
record
##oll
tale
anybody
##att
##orious
odd
myster
20
powers
stage
tor
content
failed
yards
novel
vig
occurred
lands
fierce
compar
proof
steam
##theless
##ades
movement
##rey
smiling
louis
shock
inhab
shel
nevertheless
##pet
august
cit
brief
##ker
##oes
dressed
throw
desper
hearts
cool
nearer
glory
##ension
fully
relief
science
listened
##ables
##asons
aid
noticed
unfortun
extraord
rul
ol
usually
##using
sac
advanced
ale
amb
bob
actually
possibly
servants
liberty
ban
ly
growing
freed
hal
sex
laughing
mercy
exerc
tar
soldier
expressed
stead
directly
diss
skin
moving
importance
arth
hurry
rare
persu
chamber
fighting
gle
yester
assured
sev
hence
ener
belief
shoot
carefully
asse
##con
ghost
##quis
pieces
accident
##acle
hell
##uced
parli
equally
yesterday
##now
mach
##ication
convin
driven
dangerous
##acc
##kin
mistress
wore
marked
aut
plants
inside
favor
worked
wag
foolish
events
capital
drove
advance
admitted
##usted
rooms
vir
scre
teeth
obey
benef
huge
##night
tempt
##ensive
seek
##ulf
##ology
couple
cup
loc
mile
##aval
chang
iss
welcome
remarkable
satisfaction
keen
sympathy
noise
sum
ships
century
excit
exte
jump
arthur
##eping
bos
##aries
joined
##oci
franc
##na
resem
sooner
##ural
park
particularly
##illy
##cription
instantly
appears
imagination
superior
##alous
confess
demanded
minds
countenance
travel
##ograph
despair
bore
birth
intellect
grim
leading
parliament
measure
portion
entr
yield
##pper
wet
indign
price
##uce
subm
occupied
original
dreadful
advice
philip
nodd
busy
succeeded
contain
suffered
popular
robert
awful
pier
gathered
wounded
suit
named
horn
proport
impat
philosoph
impression
flat
taught
plant
singular
##aud
##ability
conditions
supper
##key
associ
##ky
ice
hearing
recoll
played
qual
##erve
fet
companions
vic
betr
lifted
concerned
united
jul
remind
excitement
season
rh
##acity
double
##ette
seized
group
join
fred
stones
stairs
voy
amaz
paused
contem
ceased
rome
splendid
##iance
unkn
flesh
corresp
correspond
##ville
smith
guns
terror
fruit
club
minister
excl
necessity
daily
partly
smooth
##hold
wes
begun
mistake
##iding
extraordinary
regarded
kingdom
cult
shell
flor
flower
lin
possessed
elect
princess
pin
##aming
jan
somebody
powerful
ack
tot
calling
prospect
##zy
absence
admit
undert
seated
thinks
ment
buy
exped
required
ros
unknown
thomas
level
sunday
##bid
information
feat
corre
proceeded
##isc
serve
falling
##angers
hosp
dish
baby
struggle
accompl
education
##orous
acknow
pardon
event
brain
unhapp
blank
mont
25
##ainted
##oos
carrying
lone
acquaintance
##estic
hopes
resolved
worn
##ffe
resist
kindly
pill
##ode
princip
pause
interested
##ik
remains
scott
cam
mult
##for
size
principle
caut
##get
tele
knees
comr
ara
barb
rush
temple
brill
midst
curi
##iffer
refused
##gl
stands
pulled
doors
fairly
etern
greek
000
clever
useful
##erved
conscience
##thus
bree
exceed
roman
interp
distress
##ustomed
##lied
lovely
gain
frag
sought
profession
##asped
thunder
color
gay
polic
somehow
severe
##with
pil
presented
lion
choose
##rant
voices
##leep
style
cliff
consequence
clearly
freedom
vague
hut
prisoner
##illing
citiz
asleep
cart
indiffer
waters
served
desert
##hen
##bits
##ae
comfortable
elder
explan
weary
described
shouted
gro
loose
##oul
schem
military
wisdom
##ancing
governor
amid
##ading
divine
glanced
##umber
excuse
highest
cig
saf
poetry
memb
task
contrary
hoped
dor
etc
##racted
strike
kindness
ox
retreat
hole
prim
enemies
professor
30
##rent
##llen
wholly
fare
stars
mood
assemb
credit
##ourse
dollars
##ases
tend
excited
rag
clouds
mons
##uments
behold
plenty
##father
boats
##right
##ocr
intention
colle
##aker
##ulated
dying
ruin
illustration
gradually
principles
proc
indians
somewhere
obv
jes
closely
thrust
##ruction
drunk
dogs
withd
fields
dignity
##oly
completely
##stand
extent
##ss
relie
lover
mud
##urd
##ldom
##ustri
sar
##nes
reasons
vision
produce
asking
ta
distr
21
buck
wash
##istr
relations
##gypt
respons
treated
arrival
##ois
virtue
independ
##pap
##wick
lam
##elt
washing
delicate
thanks
religious
egypt
##abel
burning
national
volume
critic
immense
##isher
vers
anger
##iot
message
curiosity
##bb
centre
flight
rig
##ov
lawy
genius
baron
##astic
heat
craw
whenever
practice
ease
sprang
guide
theory
unex
gods
trif
constant
ahead
capable
famous
##iable
desired
bodies
sentiment
joe
lit
ze
accepted
moreover
careful
rapidly
published
crew
stuff
cord
avoid
contempt
aver
female
manage
protest
forgive
##mber
islands
escaped
ach
innocent
log
obtain
spec
##cip
bearing
notes
##ef
pressed
##ourable
literature
rif
hollow
enthus
##plic
mate
enthusi
accustomed
dawn
job
22
wheel
##ieur
members
horror
##omm
stories
fought
consideration
##erson
ended
eliz
##aling
##iber
manif
softly
sink
frightened
24
##oms
stan
exch
##oring
evident
spo
haw
infinite
larger
##mas
miserable
whil
faithful
sacred
grief
infer
##ours
deeply
david
invol
##ller
##cts
oce
hadn
aband
younger
bew
interrupted
##asing
fifteen
fold
anxiety
seldom
doubtless
exhib
visible
murmured
objects
parties
scen
ling
resemb
##reci
sup
yard
inquired
amuse
inhabit
trail
needed
engage
recall
newspap
rum
##kind
throughout
creatures
handed
lucy
##kins
trick
fro
merch
obst
playing
kitch
##asant
aim
hidden
dram
proportion
pipe
##while
##iation
##irm
##atory
sounds
establish
writ
nodded
##nal
finger
unable
thoroughly
prompt
figures
##erning
jane
conclusion
safety
utterly
##igned
risk
arranged
fled
env
uncom
##win
##alian
gently
fee
rust
##oking
flying
asham
store
suffering
circle
##iven
bul
gained
monsieur
rushed
mild
papa
##ien
##inging
crim
uncons
everywhere
##ales
ashamed
##lessly
caval
highly
throat
scorn
unus
extremely
23
##stairs
##ashing
returning
features
mystery
bath
manners
helped
addressed
approached
pad
186
spare
card
entrance
sheep
title
nerv
key
##ential
rolled
bringing
council
obtained
choice
adop
showing
martin
whilst
subjects
jac
sell
##iqu
clo
depth
grate
proposed
observe
hunting
##ointment
tells
bran
edward
occasionally
kitchen
meanwhile
lest
##utation
wing
friendly
practical
##arse
characters
reckon
##lace
voyage
kings
ral
friendship
bought
leap
relation
##iece
fever
stiff
ocean
sour
removed
##aks
stout
breaking
hit
compe
lonely
apr
tent
weap
irish
##osen
grant
wondered
labor
connected
jealous
mankind
sha
reve
russ
prepar
buried
dece
greet
restr
tight
plat
admiration
spanish
unhappy
displ
##omp
mission
stepped
quality
brothers
constitution
negle
concerning
##izing
easter
bord
increased
unconscious
forgot
doctr
sport
##pless
coach
confusion
##ox
grie
chosen
mysterious
sons
cottage
signs
hunt
distinguished
##uing
blame
##bor
##enger
becoming
##utions
worship
ba
##cher
sid
careless
##ulse
ech
slightly
swept
numbers
##oused
reven
magnific
##uding
##rees
becomes
rendered
laughter
gets
charming
plainly
feather
accordingly
knife
blessed
disappeared
secure
alas
clergy
##ators
dance
inclined
##fulness
bosom
reward
quant
mamma
##pire
lights
wishes
cigar
meal
indul
orn
dw
wound
rude
accompanied
##acles
##opping
precious
abst
entertain
glim
eth
supply
previous
shade
waste
##inal
alarm
cere
absurd
dig
##ips
project
literary
uneas
aspect
##eter
tower
physical
wra
cattle
whist
spark
182
rad
listening
lieut
delighted
purch
appreci
prayer
sufficiently
yo
understanding
histor
##cr
emer
##illa
fleet
match
prosper
##ids
##inder
series
strict
melanch
cheeks
xv
slave
mour
hers
drift
ward
charm
od
habits
##xed
unto
oct
steady
argument
##rif
##istol
plate
##cture
hyp
hitherto
abroad
conven
theat
cheek
##abeth
abb
nur
employed
##oqu
##off
emotion
angel
unb
lux
##vere
margar
##eding
picked
brow
notion
##iture
discovery
pred
singing
active
duties
flung
intense
fourth
frequently
##ta
ralph
probable
26
protect
subs
lately
steep
##ancy
afric
madam
melancholy
solid
charl
ming
##ese
##urity
cell
addition
scotland
##house
bol
queer
slept
ages
principal
brig
member
patience
older
dreams
intim
hint
pushed
whence
revolution
type
riding
strongly
##iday
trial
male
explanation
column
merry
##onstr
precise
lan
preach
interview
##umes
elizabeth
assistance
faced
##room
ends
conver
immediate
##ived
kissed
fert
spend
stup
francis
unfortunate
wretched
##ped
margaret
27
desperate
##isions
##acon
wings
commission
rage
virgin
##eous
forehead
intelligence
collect
lock
exha
##ander
inher
nap
perse
##ization
##pher
##inent
ped
ax
##ailed
quarrel
gazed
rab
appreh
##atively
informed
phr
souls
effects
natives
lieuten
domestic
brook
established
profound
praise
nin
consciousness
armed
numerous
asc
brand
##net
beard
affected
nort
block
chiefly
##udd
leaf
sacrifice
##ption
western
##rich
description
suspicion
bones
correct
shows
continue
nations
police
convinced
lamp
feared
base
##chan
28
cele
weakness
awa
puzz
spl
fox
smell
##rem
propos
interests
energy
##ken
eh
lack
domin
stret
craft
raise
rope
stared
##pse
managed
unexpected
##geon
perceived
term
composed
india
##onic
helpless
mounted
wre
frame
##umbled
prisoners
intend
parents
violent
infant
29
landl
plans
alice
widow
##agger
##ivity
##fall
crime
consent
surrounded
shining
##ims
enorm
generous
repub
troubles
##board
attitude
patient
walter
bottle
disposed
acquainted
transl
delightful
181
abrupt
##of
preced
provided
trembling
##gu
obsc
##ceiving
clerk
luc
grandfather
##eem
os
horrible
egg
artist
scra
text
throne
setting
quarters
experi
painted
apt
max
ignorant
##bre
misery
cher
hanging
stretched
swell
rang
lighted
asce
rear
instit
calls
gaze
perpet
writer
striking
##unted
deliber
aven
skill
dave
##uries
diam
exception
regiment
##ounce
june
defence
guil
poems
opinions
reform
union
gest
##icip
uttered
bowed
household
ken
engine
##bly
beach
##very
needs
spiritual
inhabitants
sang
instr
arose
183
shake
amongst
outl
##inate
##va
##isp
boots
leaning
magic
##ixt
hastily
chest
recomm
desir
coloured
appointed
##char
delay
calcul
nurse
image
control
##ulate
terr
current
unl
curtain
actual
repro
mental
##owned
scient
turns
squire
difficulties
brilliant
arab
celebr
proph
branches
tax
invest
libr
lordship
views
exercise
shelter
waist
vac
likewise
efforts
pow
##icate
anywhere
edition
announced
final
sees
pope
useless
##gue
ridic
stupid
##ault
drag
##itate
pig
stephen
sept
##ffee
attract
##ubb
shadows
sher
##ilities
dir
emper
farmer
range
president
warning
republic
victory
refuse
shakes
intent
##ads
##port
italian
lawyer
eagerly
anch
meat
guest
valu
market
lieutenant
unm
glorious
college
coffee
rat
sunsh
provin
venture
vul
successful
##zed
encoun
ard
leaned
winds
nons
bark
sank
rights
washington
##iform
##udes
shaking
warri
guilty
##leness
shouldn
scheme
##eld
brid
sax
request
##worth
changes
lane
##achel
consist
scattered
negro
secretary
jesus
resumed
gates
loving
sovere
sovereign
cultiv
##urance
italy
##ulted
appeal
track
parl
tide
interf
eternal
improve
mans
##aph
##ipping
sout
fatal
##col
##ston
resc
ju
estate
au
guests
##ghter
require
borne
swall
idle
ours
variety
gift
recovered
contempl
banks
eve
##za
chin
utmost
convey
##bridge
sisters
##lers
retired
humble
##otes
approaching
connection
##bour
descended
complex
loft
humour
heir
circumstance
irr
flash
hesitated
bride
pron
fired
unp
condem
##ums
##opher
inex
thousands
specul
cries
chim
lunch
slipped
fanci
##acious
gran
flood
follows
##aining
dared
increase
alike
waves
##ological
date
nearest
departure
acknowled
reference
occasions
##lict
##iel
wolf
vanished
contained
arist
marsh
concluded
tort
nervous
muttered
ug
troubled
ident
wi
bost
protection
causes
jose
##alt
##jud
flew
introduced
oak
painful
grasp
learning
hearted
sunshine
clar
recon
nonsense
##rier
non
remarks
acted
devoted
properly
patri
oppress
mistaken
divided
##edy
northern
privile
##ram
##uge
cheerful
pistol
bye
pac
separate
jones
adventure
sorts
farewell
poison
##olic
forbid
sinc
permitted
uniform
attended
##apt
goods
degrees
rib
directed
assure
attached
prud
kinds
cru
contri
sleeping
ire
##peare
nav
countries
qualities
ens
alex
inse
toler
struct
##eps
observ
forces
giant
seriously
pir
##more
##liness
lap
refr
gallant
compreh
##ws
contrast
dur
violence
sensible
staring
official
##conom
manifest
econom
counter
freely
deny
##zing
##ouring
##arrass
wooden
rollo
cave
naked
cheap
seas
flame
philosophy
##lies
##standing
emperor
marble
details
fancied
acts
crying
disci
ideal
july
nest
##cast
clay
imagined
throwing
folks
ignorance
renew
##atched
commanded
offe
destroyed
observation
##inity
counsel
fac
headed
tu
englishman
slaves
parted
movements
##sey
feast
wake
colon
coo
earlier
gracious
portra
scientific
folk
yonder
anyone
insisted
suspect
stronger
universal
tied
ath
##ura
agreeable
sighed
christmas
groan
beheld
steadily
incident
##eman
leader
towns
cy
mechan
##atch
breeze
assert
conviction
butter
##ares
gif
sket
wilder
fried
statement
ray
##uits
dearest
fil
adam
compass
grateful
##eg
surround
cared
##cest
expedition
aloud
shone
##engers
results
pall
haste
fanny
sailor
element
enjoyed
cock
om
##nat
overt
eastern
sear
##osure
hungry
trace
byron
proble
gravely
recognized
##ella
represented
obed
awake
gazing
righteous
##bon
consult
pointing
thine
##pended
begged
knocked
astonishment
wondering
eleven
##lest
embarrass
ot
families
ugly
withdra
meantime
treasure
district
hated
##othing
##otted
slightest
copy
stamp
pages
thence
gal
attempted
empire
##etr
loves
eating
##rick
considering
library
torn
bloom
constantly
resolution
vulgar
sharply
article
##che
reality
lee
cann
rifle
sincere
atm
##ha
##inction
jun
toss
##unning
unusual
eyed
magnificent
visited
atmosp
glo
apartment
disposition
ireland
##ipper
bask
grounds
southern
abund
echo
surv
shed
enormous
quantity
strangers
folly
thorn
unre
##uf
##uary
steel
belonged
sentence
dancing
maybe
heath
purple
##rence
nights
ner
flour
smaller
jimmy
delivered
salt
swim
paint
anticip
mead
awk
31
rud
tear
mortal
##rous
serge
slope
inquiry
soil
flag
defend
heavily
canoe
crack
##edge
propri
##chester
seam
rested
crowded
ded
awkward
reign
dischar
valuable
perple
##erate
confident
##agg
reproach
fears
doctrine
sixty
pursued
##pent
deserted
nut
neat
driving
rele
gratitude
apparent
garr
visitor
wave
##low
plun
mah
harold
favourite
pink
oath
silk
destruction
dil
selfish
##burg
namely
clos
spani
ses
curs
ruth
fulf
##ds
grin
startled
pant
uncertain
billy
classes
dise
owing
chain
roar
career
dus
##olation
##itating
outer
##vert
colours
prose
commer
admiral
milk
local
obvious
astonished
wandering
impulse
##arsh
tum
tick
firmly
cad
##uine
entering
intellectual
archite
branch
fed
185
crept
fix
shortly
shoes
##elle
conceal
adj
falls
tyr
attrib
hunter
fame
inch
printed
mode
dutch
stoop
ell
##mes
contrib
touching
disturbed
les
tremend
##opes
mixed
##ache
accur
swear
jon
##sm
enterpr
stair
definite
suggestion
##can
##ray
boston
objection
bade
print
##atives
continually
##och
masters
gos
pace
##umbling
satur
##pel
mock
##omin
contents
saddle
jean
landed
sie
fairy
articles
committed
bushes
##attering
##uch
chose
##ula
compet
sof
prejud
##rim
hook
earnestly
##kerchief
tomb
sob
population
sore
wander
examined
##iveness
ascertain
finds
april
##rand
development
absor
maiden
hay
##ante
arrangement
barn
nurs
whit
atmosphere
hind
loyal
handkerchief
respectable
batt
stayed
encoura
applied
horiz
##enom
dragged
leaped
incon
##ifying
184
exquis
reflection
politics
decision
wherever
##othy
##ington
##rels
sins
mich
ancest
midnight
hamm
musc
frequent
bun
murd
signal
compared
bust
drinking
beasts
descend
spain
minded
mul
##isation
smoking
lords
gardens
barbar
andrew
senses
poured
##ctor
fid
remaining
noon
benefit
veget
pars
gang
solitary
perceive
county
assumed
exquisite
##abled
schol
##isure
ingen
compelled
vivid
disappointed
unlike
locked
daughters
rout
elsewhere
humanity
fires
vessels
check
ashore
recollect
##itz
helen
swiftly
distinctly
extended
doth
jacob
excess
lads
experiment
mischief
burned
bewild
safely
maintain
##isy
##grat
relieved
duch
grav
purposes
##ari
signific
countess
##liest
surre
parad
marks
scenes
ned
sed
goodness
peril
cunning
sober
punishment
precip
verse
alb
leisure
romance
##eral
bert
beaten
reflect
phenom
services
187
urged
deeper
monarch
editor
fel
180
generation
dining
candle
flow
florence
beings
decor
substance
sailed
impl
dismiss
lightly
champ
daylight
eloqu
bi
unple
##amm
##ata
superst
stated
##ational
exceedingly
sheet
exert
limbs
declare
suspected
cavalry
kate
parish
poets
fores
gig
knee
consequences
coward
savages
pool
merchant
glit
separated
failure
wanting
inner
##ols
##inks
veh
romantic
##ada
nich
germany
central
audience
pup
yer
dart
inches
##plicity
##bow
tempor
badly
comment
specim
essential
pilgr
burden
silly
32
achie
departed
diamond
rolling
reject
lesson
admin
##cel
sergeant
pursuit
railway
furnished
pear
sending
jest
cleared
doc
marched
confused
absent
smart
ruff
ult
alter
collected
disturb
journal
enthusiasm
disgrace
footst
deed
disag
flock
debt
disgu
reputation
deer
gover
zeal
##pes
deem
wrath
##ais
weigh
crossing
##olen
thither
gesture
buff
disappointment
neph
35
lamb
autumn
discussion
possibility
owner
inev
frost
remote
harsh
score
parent
travelling
policy
sust
heavens
##idents
invited
indignation
strain
wy
fisher
40
opposition
medic
seed
tob
barg
drank
abruptly
ted
brush
readily
gown
structure
adventures
merc
afterward
precisely
joseph
##greg
pine
roads
##omb
fury
roger
speaks
acting
starting
jar
machine
traged
examination
plot
##vering
haz
hugh
neighbor
philosopher
##withstanding
cities
charged
criticism
applic
notwithstanding
emph
missed
soph
chann
exposed
curse
##olet
saturday
tour
growth
warn
xxx
nephew
slip
victor
citizens
boast
rand
##keep
brick
european
friedrich
sailors
reasonable
straw
related
##ieties
review
joke
selection
runs
179
pitch
##oot
fasc
engagement
wives
supreme
trusted
shakespeare
fain
tribe
##isk
modest
##inger
ram
nove
reflected
##orse
33
liqu
coin
heartily
ate
phrase
tomm
shy
fetch
##ober
dirty
granted
tin
theatre
begins
altern
##omed
profit
ethel
concealed
terrif
rules
finish
memor
chape
directions
trump
carol
accomplished
duchess
tid
reduced
recent
acquired
spell
swung
gil
newspaper
insist
entreat
##ana
neighbourhood
lively
tones
##vin
staff
##usions
##iring
furniture
hopeless
amusement
refuge
chuck
september
whereas
wedding
permit
october
exhausted
mingled
owe
fund
sounded
steamer
raising
patron
expense
##raction
##ribly
encourage
execution
tremendous
characteristic
laying
silently
strangely
dou
##gate
immort
vii
surrender
developed
landlord
incred
batter
##tha
desk
electric
goin
million
##lv
ventured
committ
prayers
mos
##esy
##ris
darling
prevented
##ai
tales
lur
##ernal
distinction
readers
beloved
cutting
ms
polite
##amation
dimin
timid
pound
seeking
positive
glow
quiver
##ground
forever
gloomy
mast
marquis
leather
region
amused
annoy
endure
perman
irres
independent
trip
##ique
amy
commenced
prime
moonlight
noted
porter
tap
wot
##ael
50
shiver
muse
##ctive
##usive
hundreds
messenger
puzzled
ambition
shield
keeps
continent
ruined
gathering
elev
bible
##ded
##oman
tommy
##llers
pip
investig
arrive
describe
provisions
fortunate
rebell
gas
##iverse
reaching
cant
##icken
doubtful
wreck
insult
decide
commander
scand
penetr
comrades
##zan
eust
gale
tobacc
violet
error
jumped
landing
##don
nigh
alf
intimate
stuck
fearful
africa
altered
upstairs
wandered
operation
wilderness
##burgh
anyway
agent
188
musk
knights
chimney
clara
##work
attent
propose
agony
respects
performed
actions
##olate
leon
charity
##pton
##uv
sunk
belonging
rival
gallop
passes
##ician
##arf
beds
heels
comrade
division
##ule
brings
rent
conceive
reminded
anchor
##anging
niece
##ico
closer
likes
arrangements
canv
communication
avail
fitted
outward
##actory
contrad
##pired
revel
scale
isa
##gest
brut
##rid
pretend
34
fathers
happens
devotion
admirable
guy
drum
intervals
jolly
reef
subd
worry
adopted
conquer
##umin
daz
rav
fest
##gram
simplicity
pover
feeble
fountain
attacked
prize
prem
flut
coal
##ingham
##alled
sunset
##upon
temp
resent
oil
lust
sensation
priests
##akened
discipl
accounts
majority
##iour
##natural
##gers
eighteen
honourable
cloak
poverty
##ulars
abandoned
##ifully
created
restless
passengers
conception
resting
##ita
magaz
dumb
##sworth
eaten
bud
heed
prod
chall
remem
consequently
feels
tobacco
##alog
eleg
duck
latin
wond
platform
apple
##lla
emily
necessarily
existed
recommend
brass
moss
merit
risen
studied
laura
##rily
realized
pile
err
fifth
buildings
anyhow
thread
beck
fortnight
apply
proposition
source
ridiculous
experienced
centuries
guards
vanity
indifferent
clergyman
curiously
stirred
preserved
holds
heap
glen
suppress
examine
##gie
beating
dub
blew
lofty
threatened
races
##ensions
dashed
contro
##aign
succession
##umption
plays
tiny
detect
repeat
sally
elements
corru
inferior
aged
tenderness
wrought
scri
reluct
bund
instrument
genuine
isabel
##mony
tradition
pains
toil
unpleasant
arts
revenge
scul
aust
tendency
wars
##otte
kh
problem
morr
repent
enl
affectionate
fi
disagree
masses
##any
victim
rachel
holl
apolog
extrem
blessing
basket
distrib
##row
distinguish
##piration
sway
establishment
betray
bred
solic
feed
graceful
##umps
supported
bows
feb
pluck
rhy
teaching
flashed
using
##eries
que
landsc
trifle
ceremony
nick
average
##pture
stu
oliver
motive
issue
##otions
subsequ
esteem
security
##ola
depos
scotch
depress
encl
hiding
citizen
groups
november
##pled
##umm
pref
shooting
treatment
##asper
##smith
obeyed
enabled
troop
bitterly
unse
confessed
fishing
saints
community
advert
cyn
cryst
polly
germ
garrison
anth
kid
passions
settlement
anton
##pert
bears
attach
##lance
jaw
calmly
twas
##boy
kick
##ails
chase
##place
providence
eggs
mould
##uously
##icing
foul
minor
parting
shepher
britain
shirt
##alf
tun
##lyn
##law
resistance
measures
invitation
manuf
xxv
residence
burnt
passages
sadly
##ooked
patter
gib
confer
narrative
multitude
interior
bern
stroke
trot
##iated
dressing
##ipe
partner
##after
interc
confined
disgust
exchange
viv
capacity
catholic
thirst
doorway
##aine
##lets
repair
rein
patriot
enterprise
chairs
hospital
cease
lily
##racy
oxford
sem
chances
##angled
clut
##orne
gerald
cha
formerly
moor
witch
maria
pole
##inking
struggling
letting
ecc
phot
gallery
damp
cannon
tops
convention
solitude
washed
treach
writers
shaft
curt
beth
slain
##esis
##olent
occasional
##ym
vice
paying
##uming
ske
proceedings
faded
retire
fow
##erted
##ste
irre
tragedy
##inations
austri
universe
##atherine
anxiously
string
marve
##urer
##gra
kin
induced
contented
36
##ffin
completed
millions
humor
##ias
##apes
receiving
liberal
##wing
roused
##outs
subtle
fatig
saxon
standard
deadly
ald
stole
legal
china
flushed
misfort
bloss
pp
demonstr
introduction
##oubted
climb
containing
betrayed
horizon
na
writes
balance
lege
venice
portrait
beer
##shire
comparison
lev
##mo
overcome
sails
misfortune
regarding
##lands
##isl
veil
seventy
nerves
##keeper
pressure
angels
whither
interfere
offence
captured
committee
manufact
##itory
load
fant
##ucted
weapons
persuaded
caution
including
yea
##ses
wret
dwelling
blows
restored
venge
tig
##agon
##oir
twil
lantern
##gging
intelligent
irreg
limited
slavery
bind
scru
secured
##ropri
rivers
climbed
rover
referred
##oying
deeds
instructions
entit
complaint
symb
hans
losing
twilight
bone
lucky
100
##mother
##itors
awe
felix
congrat
conceived
cree
walks
reported
##org
depends
questioned
##irk
twink
alarmed
wearing
rejoined
lance
puff
##anqu
cathed
sits
advancing
scarlet
ful
prodig
helm
hart
fastened
pockets
mourn
celebrated
artific
##back
dad
##ero
hastings
enable
undoubted
murmur
subl
visitors
dorothy
divers
ink
disease
chapel
##mpt
comparatively
hesitation
hospit
collection
traveller
interval
##ete
overl
easier
fertil
herm
climate
signed
border
##rian
glasses
dy
rushing
section
penny
neighbours
virtues
##aid
##elia
passionate
permission
inquiries
claims
persec
powder
breathing
practically
palm
spaniards
##irmed
arn
map
antiqu
upright
##itty
##itively
##iana
songs
display
decent
rod
increasing
lightning
admire
mun
schools
doubts
impressed
##aging
appet
##inson
##ocracy
instances
campaign
viii
uneasy
##anda
gross
driver
admired
indifference
offering
bench
##gent
##iner
acknowledged
behalf
monstr
orch
gorge
fashioned
assembled
shaw
irregular
schoon
resour
stopping
compare
learnt
wilt
##irts
prol
wages
root
landscape
honey
paradise
37
legisl
evol
discourse
diver
lik
bargain
ridge
obedience
dict
ster
puts
existing
myth
net
ade
##bell
neglect
##ements
invis
compliment
susan
employment
preferred
push
##ints
##aved
##allel
##cle
revealed
##itious
##izes
norman
footsteps
convenient
income
shouting
impatient
mostly
glimpse
swar
horrid
tub
##borough
relative
december
fortunately
bedroom
edin
##enched
tables
prey
recognised
perfection
advantages
cares
floating
individuals
tribes
guilt
candid
sofa
gifts
warned
weapon
preparations
ratt
##uity
waved
189
##aments
trembled
abandon
##vag
verses
inward
johnny
##just
##itudes
appla
norm
painting
sweep
haul
counted
##ems
trunk
##iency
spear
dine
dew
##orus
##eling
##whel
jerry
joan
exagger
extravag
conducted
performance
contract
conflict
founded
monday
denied
skipper
opposed
correspondence
##rated
glancing
dreamed
butt
wrapped
handle
goss
coarse
generations
##coat
bells
sne
quit
##eration
brute
constru
geoff
##ino
followers
rescue
carl
particulars
hideous
##iah
reverence
guessed
january
supplied
funny
stolen
indust
lincol
happily
teacher
lincoln
ton
tie
raw
enjoyment
45
##icient
proceeding
neglected
overwhel
##ops
pruss
railroad
shru
natured
saving
responsibility
##hin
total
shri
##ensible
hasn
survey
bough
frown
vengeance
jos
blast
ench
jeff
38
attracted
sailing
inquire
brisk
##arian
mob
tramp
bart
cape
faintly
##ulations
##gage
##anks
##vest
repose
##lock
limit
supposing
warmth
pretended
travellers
awakened
justified
hearty
refresh
edinburgh
hush
##iate
proposal
dougl
##ques
michael
dean
chill
confession
authors
pressing
halted
princes
varieties
sale
thoughtful
differences
lem
sugar
cos
tram
assurance
johnson
ponder
wherefore
prepare
##anim
##ilda
lawn
testim
##ineas
christians
shaken
##vo
sul
##itan
monk
motionless
##ago
appropri
imperfect
##illery
picturesque
butler
manus
brood
##ensity
incap
behav
torment
laun
indicated
clad
furious
nic
arise
respond
##aneous
eldest
feathers
cards
vest
herbert
painter
sevent
fragments
believing
thet
critical
righteousness
summit
rasc
seats
plunged
channel
daring
belt
commonly
##vous
##ulating
penn
satisfy
lass
cotton
rash
seeds
impart
torr
connect
stores
degr
slee
##raced
drowned
emotions
##ipt
##jah
gospel
trap
positively
blown
commons
dat
reserve
ornament
whir
slender
bloody
disord
roses
fitz
travelled
wont
resign
motives
##asion
mason
stro
##berg
maintained
occupation
rabbit
pronounced
mex
leads
apost
incons
39
##forth
foundation
dash
##uish
hunger
##rice
##rington
hatred
entitled
eleph
boldly
recollection
operations
ranks
assume
wheels
folded
murdered
##sell
accompany
belongs
columb
dwelt
invisible
manuscript
illness
thief
##ige
attempts
resolute
##quet
##elly
henri
violently
doubted
seconds
austr
##master
methods
umb
desires
personally
tarzan
disagreeable
##angle
shrew
altar
depths
trim
geoffrey
##mund
##oard
unjust
##essie
mol
shill
##icial
##yard
holiday
jews
drops
##inter
ministers
##urst
historical
damn
americans
cu
##oiselle
pilgrim
discipline
attain
selected
lip
changing
checked
magistr
villages
gleam
hoarse
preparing
eag
##rael
student
holes
grain
##burn
yielded
schooner
sullen
grows
retorted
charlie
##olas
contact
cathedral
induce
prair
##oft
raven
childhood
alm
thankful
ruins
certainty
breed
##eur
deserve
##ration
##inence
yourselves
cash
jam
##case
russian
##aves
##anny
warriors
invent
##asy
goth
flora
persist
submit
expecting
presents
compr
lun
##cribed
fence
cure
sixteen
##rage
dropping
summoned
mutual
ave
##uting
woe
ost
bapt
spur
educated
ing
tranqu
persuade
obscure
madness
##yl
remorse
larry
responsible
steal
ix
crou
wasted
##ns
bond
trades
medicine
mack
parson
##encies
activity
##wart
canvas
fourteen
staying
##pson
##frey
wagon
clam
swords
respecting
napole
arrested
corps
##aced
pleasures
uncommon
garments
newspapers
uncomfort
stretch
prel
rarely
dame
vale
throng
si
lessons
gladstone
university
foe
remembr
stom
stagg
defer
dishon
bother
indic
finest
douglas
##ider
photograph
unfortunately
involved
bald
##ua
upward
injury
thereby
chem
disple
##iations
plains
procession
answers
studies
intercourse
##olence
bonnet
peaceful
##ishes
originally
sinking
churches
accum
mail
siege
bars
wink
eustace
spared
lovers
##ibilities
clust
conspic
ps
##graph
visits
owned
satisfactory
determination
inspired
forming
convent
volumes
superf
aye
descent
naught
dislike
chamb
training
issued
fortunes
tempted
febru
longing
##athan
promptly
injured
speaker
von
tumult
deceived
trained
##igs
parallel
inevitable
jung
february
flies
endless
theirs
madem
assembly
atl
alexander
formal
previously
authorities
derived
displayed
retain
rocky
shaped
unne
disappear
stomach
mademoiselle
pere
collar
arguments
sentiments
recently
fools
sund
copper
borr
reception
harbour
blowing
gasped
##din
##apsed
robin
spectacle
##cia
maud
axe
gamb
rus
solemnly
fost
lif
stately
privilege
offices
peasant
lud
gravity
imperial
extern
ladder
jealousy
##leton
##rog
limits
rigid
gab
thoughtfully
julia
regions
whip
crimson
abbey
department
percy
purchase
entertained
included
reckless
conj
shores
##verse
kent
temptation
amazement
awoke
41
heroic
leaders
mak
acknowledge
assault
ashes
els
romans
virginia
pave
##sters
warrant
willingly
election
unnecess
##gings
meek
roots
##riages
marian
inherit
telegraph
jap
##hib
answering
pulling
##enote
phenomena
application
access
sidenote
aboard
##pers
waving
depri
button
everyone
arrow
missing
monstrous
##alia
consisted
largely
presume
resemblance
sketch
graham
crest
congress
absorbed
prolong
poly
wip
struggled
corners
hastened
streams
creation
realize
marvel
backs
healthy
ela
##era
remove
##oration
43
varied
lend
hearth
strictly
haunted
arrest
seal
rightly
shillings
shif
amusing
rises
parlour
lodge
frog
bron
homes
judged
aught
model
hypoth
perpetual
frankly
ferv
observing
##wr
colored
deserved
##force
prophet
trous
steward
production
composition
conquered
##icted
breth
industry
openly
unworth
wer
stable
defeat
weeping
quaint
undoubtedly
##umble
flames
materials
brethren
recalled
charley
surprising
impatience
gla
mc
estim
##oa
saith
civilization
ape
discern
matt
propriet
##ona
backward
##ocratic
42
bend
elabor
##ulp
ladyship
complain
afforded
observations
wholes
clung
amiable
##aping
wherein
erect
##ea
catching
velve
aren
##ifications
fiercely
##stead
guardian
##etta
closing
medical
capture
fog
plac
artillery
perplex
##dles
bullet
dangers
professional
cruelty
scottish
killing
inval
cabinet
omn
jen
flatter
considerably
ya
##hile
mustn
draught
scant
envy
sets
cliffs
blush
youthful
boot
faults
transfer
spin
nobles
loaded
prevail
brains
fug
combat
##icious
preserve
##istry
janet
shalt
prosperity
suitable
stim
gladly
conspir
wishing
elbow
insects
##ez
seize
christianity
heb
portug
encouraged
napoleon
endeavoured
##nut
luke
villain
mansion
##arded
dreary
infantry
adorn
sanct
burg
pony
pour
searching
boxes
woo
energ
cic
friday
condemned
phoe
vigorous
##ieu
cheerfully
catherine
olive
wol
innocence
surrounding
##berry
alfred
lect
morris
advised
kit
shells
likeness
shepherd
lasted
lecture
concent
bea
salvation
tack
vine
manager
specially
contempor
##ica
ding
bewildered
##lings
deaf
wordsworth
needn
lew
discont
unwilling
cens
vary
##eon
memories
##ean
lowest
statue
nod
venet
verd
drama
##ban
treaty
chanced
##enses
trop
##amy
metal
discussed
##break
bills
rapt
suited
infinitely
##rs
funeral
oz
rays
magazine
eb
##teenth
upwards
improved
wad
##uke
wilson
marie
vicar
regards
##retion
inspect
swore
skull
lowered
inconven
courtesy
##mod
grove
awhile
##oral
renewed
##esar
halt
declined
wheat
declar
dried
hem
tore
notions
hardy
advise
dost
earthly
waiter
hoping
israel
avenue
peas
indef
cultivated
wan
armies
chambers
plum
favourable
oars
contrived
perch
affections
##arts
bitterness
peep
maggie
nicholas
dispute
immortal
exult
vote
wounds
##emy
policeman
##dale
##igate
downstairs
slumber
smallest
intol
caps
##hand
sack
moan
linen
##oting
japan
seeming
eighty
##oons
sooth
chau
##iano
architecture
##iary
females
fruits
conject
terrace
##licted
patch
##inge
trag
analy
province
lament
pursue
louise
##uated
indisp
pic
endeavour
improvement
cub
##enz
plunder
anna
##ounted
##eline
jewels
##icable
tidings
##iser
cris
snake
##ictions
obviously
rot
carpet
smiles
temporary
##utor
liver
abstract
psy
cove
humb
##bear
##ourt
il
advoc
purse
prett
perf
offended
whistle
hasty
accommod
team
commence
desirable
marvell
frozen
timber
sermon
keeper
innum
hood
bee
wept
severely
##laced
prevailed
sunlight
appetite
fern
judges
ez
withdrew
##rate
permanent
fiery
ample
armour
ranch
##ethe
testimony
dissol
remo
highness
readiness
announce
leonard
ec
transport
nowhere
##alem
couch
una
bour
wire
##yll
##okes
encounter
sorr
pend
brandy
martyr
firing
het
childish
##ini
substit
##nel
##icks
accused
wildly
chat
greg
mant
addressing
errand
secrets
compassion
creek
sickness
fiction
clasped
gord
brad
transm
prayed
loudly
ragged
innumerable
##mouth
probability
##ustrious
loos
idol
thumb
crushed
mou
haught
uncon
sticks
bending
chiefs
spoil
stare
simpl
##ixture
earliest
chronic
neighborhood
orange
##olph
expectation
intentions
tip
flu
monot
dora
chival
breathed
disguise
lent
##udge
complexion
bax
satan
imprison
planted
betty
recognition
danced
##car
gossip
##xx
##ighted
manly
sensitive
rela
link
glittering
courts
administr
fascin
tune
perish
towers
##aur
##ands
glowing
uncomfortable
pious
heroes
speedily
fitting
##ev
jacket
luxury
thresh
purely
cough
thanked
avo
dined
upset
formid
blunt
dense
##bel
mend
##tes
forests
##orter
##aux
stirring
ambit
protestant
discl
remonstr
edgar
terribly
guarded
##unte
consented
snap
longed
shan
worsh
behaved
adding
impressions
measured
math
additional
criminal
milton
scandal
brows
returns
elderly
pag
wonderfully
warrior
arrows
emphas
recognize
theod
humil
##ography
gasp
##illes
scent
delicious
hann
impatiently
cyr
appointment
lifting
deemed
##ills
termin
##gon
wiser
independence
dazz
wretch
winding
pleasing
jungle
volunte
tomorrow
precaut
happier
nom
mirror
lil
imagin
pierre
breach
monster
association
##asting
remembrance
spy
owen
##entially
roared
males
outline
hired
xi
angle
baggage
luxur
##ria
agitation
eyebr
unpr
lodgings
conveyed
reports
contains
embrace
management
##inine
##atus
turk
enlar
miller
apprehension
alan
provision
##usalem
talent
trousers
##rane
breathe
eg
packed
rings
escort
avoided
deliberately
shrewd
weep
englishmen
190
dramatic
bundle
harder
fertilised
tam
greeted
##dled
substant
formidable
dickens
isle
covering
briefly
rous
shouts
vit
##ainder
lots
shine
droop
justly
primitive
yach
hereafter
##ulus
marm
delicacy
lyd
someone
nois
acad
caroline
awfully
##foot
dilig
hoof
merits
decay
az
promises
corpor
musical
gulf
lamps
##isle
wits
justify
creep
countrymen
desolate
beggar
178
miracle
unworthy
feature
remembering
prior
jerusalem
obli
dismissed
han
##combe
dispos
communic
interpre
newly
twisted
dollar
##nie
vap
frontier
undertake
conspicuous
dale
conclude
prairie
whale
woke
cecil
horns
sternly
sant
heavenly
surgeon
hunters
plough
shallow
demands
crash
commercial
stricken
subdued
greatness
traff
porch
preceding
hey
##soever
##inese
essay
vex
injust
incapable
amidst
wax
shudd
##roll
unnecessary
##inery
##ersed
cæ
whirl
thereof
metaph
customs
suspicious
artificial
mothers
slau
##itations
veins
external
protested
damned
witnesses
supplies
remainder
burns
ancestors
60
sheer
##arks
preparation
nell
dismay
scenery
springs
irresist
drunken
amazed
##nest
ability
shocked
facult
##assad
attractive
ry
##lor
phant
rupert
filling
favorite
calculated
requires
corrid
##uk
plates
rebellion
crisis
faster
vin
##urg
##cile
defect
costume
commands
destiny
consolation
sexes
literally
chinese
reserved
introduce
threshold
cel
beautifully
incom
combined
arnold
confirmed
vital
encamp
sel
exists
dow
blaze
##assed
moderate
elegant
faculties
surm
dod
assisted
novels
effected
widely
flush
provide
lic
haunt
consists
tossed
44
##vial
facing
capit
secretly
cautiously
roaring
holmes
sublime
ced
##thew
##ouch
expressions
pines
withdraw
travers
clearing
##stein
unacc
alongside
##ference
hull
pavement
echoed
clothing
steven
adopt
moses
##imately
restraint
representative
##bra
outs
robbed
achieve
highland
##pence
##atisf
fors
coldly
bodily
##usal
reasoning
indignant
##arine
commod
flee
curtains
mainly
helping
cambridge
haired
foam
angrily
breadth
##ithe
discharge
ginger
##kers
congreg
lodging
telegram
unseen
jury
##gence
retained
cursed
eagle
##ping
velvet
asks
rece
allan
dirt
thor
##lying
chorus
slay
hatch
legend
mall
facul
guid
floated
jackson
pond
grandmother
columns
vag
sheets
convuls
##ado
barbara
##fl
hospitality
whoever
stillness
faculty
illustrated
##vant
voc
gn
occupy
frightful
dismal
bits
wig
injustice
tact
##ggy
strongest
archie
choos
serene
heathen
esmond
transform
select
grasped
impuls
##ridge
##wich
clothed
campbell
despite
eagerness
shops
respected
xii
##ients
gy
relieve
psych
ellen
##atically
commanding
physician
vacant
thie
##urred
edmund
heights
flowing
traitor
shriek
moist
gilbert
##lain
seaman
doom
caesar
##maid
regularly
institution
overhead
spee
hedge
quarre
charlotte
charms
senor
staircase
##sar
prudence
comprehend
wist
fret
nerve
subsequent
worldly
bru
vaguely
placing
bestowed
alleg
felic
pillow
isaac
locks
moore
tempest
##rig
speeches
colony
foster
economy
##inth
honestly
org
dealing
##vy
strikes
limb
momentary
dares
institutions
pom
viz
##ba
##esses
inspiration
producing
gust
divide
egyptian
hare
kenn
##inement
examples
harmony
tavern
shrill
punish
marching
##arl
condes
marrying
meadow
corrupt
conserv
sandy
stew
crazy
hurriedly
##keys
phoebe
medium
cigarette
sylv
furnish
decidedly
unnatural
analog
##cerity
images
dreaming
symbol
forem
rans
##spr
benev
slipp
rugged
posts
ghosts
##utable
consol
tread
contest
invention
atlantic
##lo
dealt
students
largest
accus
##dling
shared
aroused
excurs
machinery
wool
rational
sentimental
assuredly
pencil
edith
practised
eyebrows
##dened
discom
bidding
piano
susp
cordial
extensive
pang
##anche
##estion
vigil
payment
balls
darwin
rack
hounds
loun
hail
enjoying
devils
background
sunny
bast
scream
hed
lawrence
unreason
mask
bernard
tru
brib
bees
dipl
sympathetic
destined
beatrice
dusk
##ida
impert
##rical
##wed
##xter
sag
engra
russia
fist
48
bacon
pump
hats
##court
pacific
unqu
miriam
behaviour
##arn
assented
experiments
pleasantly
ringing
##ca
exclamation
meadows
ul
cavern
suspicions
accomplish
pyr
##lie
##erick
##thy
polished
ghast
exhibited
warmly
everl
calif
associated
backed
stalk
grip
joint
cush
cargo
clare
venerable
eloquence
gordon
document
maker
commerce
wiz
scared
barren
galley
seventeen
##icians
##ila
appreciate
##dal
formation
##urable
##reet
owners
##ogue
fancies
ceremon
morality
margin
swam
recorded
rue
martha
partial
prudent
tiger
rend
traces
dragon
strang
tab
abode
specimen
murray
frenchman
paths
courte
##hire
sports
chalk
francisco
pett
sweetness
breathless
responded
buffal
appearing
##ocks
neighbouring
##minster
hypocr
betw
encountered
quoted
sixth
morton
##uction
stove
chains
vigor
flick
lace
rows
enlight
comprom
mix
peculiarly
totally
encouragement
##ceptible
invari
lingered
pomp
californ
##aneously
poetical
trifling
stained
godd
artistic
throb
simon
coral
function
pam
crystal
scare
pushing
attained
constable
muscles
captive
poll
interpret
fantastic
fragment
swallow
mixture
brace
bulk
wreat
dwarf
hanged
xiv
##itably
foli
vile
shapes
tenderly
sprung
mouths
situated
greeting
##ican
explos
feminine
ambassad
abundance
##ulously
feud
valleys
invariably
awaken
mirth
swallowed
hunted
fatigue
gothic
nun
today
neighbors
greeks
nig
crowned
culture
oft
##inkled
defin
doings
##ih
boughs
stake
enqu
liquor
marvellous
mic
hug
honesty
lind
##icket
condemn
gloves
pleaded
exchanged
diplom
bot
adap
##geons
failing
drown
cardinal
distrust
##castle
muff
sworn
diamonds
bin
vind
fen
ford
superiority
##rep
ascended
prejudice
tan
175
temperament
##sett
yawn
declaration
##spring
spots
canada
potat
plague
##atha
solution
glare
slack
ferdin
heel
mayor
lazy
protected
hymn
singularly
navy
betwixt
inclination
arc
hears
ferdinand
barely
unconsciously
dol
disd
pert
##ucky
thro
specimens
##cut
##atical
torture
squee
thurs
expressing
examining
anguish
dies
bomb
afore
guided
incredible
##ester
sult
liable
robe
sque
##oping
cousins
scholar
evolution
##occ
forgetting
claimed
sic
bliss
invented
rider
carved
reass
welcom
rosy
herr
ket
twist
hurrying
##ials
creeping
tooth
bigger
tongues
doctors
dusty
##oh
route
lugg
uses
sculpt
##agues
##otto
burke
dignified
carelessly
globe
thursday
##vent
discretion
holland
gregory
fn
trun
restore
battles
essentially
persisted
instruction
##oked
##zes
asserted
##pelled
mouse
offers
climbing
ghastly
accent
##riel
groaned
ric
experiences
##olk
startling
quoth
py
foes
rejected
vane
##iating
witnessed
wolves
assent
writings
##imer
trumpet
glor
extremity
scept
serpent
skins
territory
gigantic
resentment
##fold
shab
baxter
disorder
46
sep
##elled
prost
shadowy
##jac
##rift
conquest
##yan
scots
plead
dug
pattern
intensity
spreading
latest
emerged
cows
shelley
depended
peer
believes
dimly
punct
blade
attendant
spectacles
reflections
illustrations
games
bland
adventur
init
hesitate
incess
decline
knot
corpse
faithfully
butterf
##heard
cale
executed
hermit
rubbed
hetty
comfortably
fashionable
swinging
communicated
47
##agers
allen
embro
basis
leaping
inheritance
remarkably
impud
##ripp
gill
sincerity
suspended
##onse
sung
brim
##acre
owed
perception
mute
befall
##criptions
estates
styled
ascend
released
youngest
fiend
ropes
league
swed
harp
agreement
rect
greece
wholesome
##ka
sands
incidents
falsehood
visiting
dresses
chil
lastly
pathetic
hostile
eminent
##inton
monument
growled
african
stool
blake
mau
monkey
colonies
screw
daw
##aste
shove
battery
##usively
truths
yacht
##ira
herd
crus
wonders
tough
albert
expenses
assertion
prow
harmon
##pool
##alm
cul
steer
scound
creed
hered
instruments
lor
allies
carn
resources
##urre
sympt
##cus
##enge
carpent
broo
snuff
##ros
forbidden
applause
breaks
translation
stooped
hypothesis
combination
entertainment
antagon
agitated
advers
calam
##eridge
exhaust
sweeping
shrugged
wreath
##orable
crimes
cautious
mike
riv
sphere
offspring
whereupon
autom
preface
##andy
perplexed
pupil
organs
goose
pirate
frederick
considerations
shrie
threatening
exciting
##water
chatter
defiance
thirteen
mathem
reprodu
triumphant
trod
harmless
unkind
involunt
##isms
louder
agric
casting
##onies
construction
pirates
##asty
quad
commit
hark
##idences
stamped
loyalty
ja
blunder
harding
misunder
drifted
attempting
baff
clinging
thrill
sustained
tracks
stealing
continual
elevation
umbre
artists
alle
superstition
shilling
sinner
swing
separation
museum
jasper
recess
maur
agatha
squir
bou
cake
##ppy
abuse
lag
laden
terrified
confirm
##adel
##eenth
orph
interposed
gild
##acing
hob
duly
roughly
vehic
parag
suppressed
gut
ecst
westward
apology
screamed
mes
jail
prophe
forb
oppon
arriving
reverend
softened
intimacy
ceiling
merchants
sire
boers
deepest
beef
jonas
revelation
solom
subord
eu
pose
liking
superint
sod
consulted
germans
cents
##fare
infl
apartments
foliage
stem
regiments
compla
bowl
pouring
unch
intolerable
ingenious
##mun
nostr
oldest
godfrey
farmers
proofs
portions
tremble
travels
imitation
picking
opera
publ
rim
candles
refined
fulfil
successive
mysteries
everlasting
rip
rese
traced
fortress
thieves
disaster
blazing
grimly
peasants
stevenson
alert
moust
bounds
coinc
warren
murderer
##iciency
punished
attendants
charges
epoch
identity
sarc
##lson
borrowed
captains
talks
tues
detach
thyself
tastes
instincts
##etically
allied
ridden
177
purchased
musket
anthony
##ilton
finer
allowance
julian
bolt
scold
ripp
##sex
clasp
tuesday
##elity
arter
treasures
elephant
paces
volcan
determine
canoes
smoked
negroes
advertis
pitt
whatsoever
coats
loath
gravel
seamen
##ceivable
duc
compens
##oles
sufferings
ejac
pilot
glances
bite
needle
reappe
administration
gor
spears
colors
propriety
boom
handful
coleridge
untr
petty
prospects
prolonged
cæsar
volta
summons
descending
stretching
unim
##ifice
##anth
shower
grotes
effective
brutal
waking
rejoice
scholars
nab
token
visions
earned
ernest
49
tents
publish
acute
adapted
squad
generosity
##urt
customary
andy
##vered
searched
anticipated
tragic
hagg
treachery
groom
harvest
casual
dryden
juan
va
treason
55
carries
despise
pas
##pling
dum
kins
##lorn
strained
dreaded
secondly
cats
kirk
confounded
patiently
despised
tricks
##cence
flowed
archb
cass
##itimate
##phem
parlor
strip
methinks
baker
genial
governess
estimate
inherited
remedy
designs
prosec
quer
unusually
converted
##istered
##unci
dependent
wickedness
loth
beam
manhood
aloft
canal
conform
pipes
dante
affirm
strat
periods
archbishop
mig
rector
knelt
tuck
##omy
##berts
171
whispering
debts
basil
consul
volunt
maxim
attorn
redeem
magistrate
homer
staggered
overp
erected
barrel
needful
sends
191
git
rifles
##long
wealthy
gird
lions
##ceptions
split
outrage
earnestness
pel
##rah
confron
attorney
##inently
daniel
slopes
insin
animated
abundant
embarrassment
studying
assistant
sorrows
##wa
brightness
argued
foremost
onward
bands
placid
##bles
coven
bags
##quate
impass
bursting
sincerely
lid
crab
opportunities
knocking
designed
##sis
##ga
##amin
bluff
variation
##ties
serving
ante
soothing
ron
jove
physi
mechanical
forlorn
seizing
shoe
sarah
agricult
dexter
##version
crawley
hud
##ouncing
carriages
counting
purity
benj
reckoned
pickwick
deceive
desirous
allusion
##sed
##lessness
mines
melted
wednes
##isons
release
controvers
pots
##elf
winning
exhibition
critics
disli
records
stab
ordin
wednesday
attending
dial
##ifies
slim
darkened
##ceives
ninety
monks
demon
submitted
recommended
51
nobility
vigour
knox
idiot
fath
append
##anna
wisely
desperately
temples
constr
compliments
shrank
resolve
appropriate
elaborate
cicero
graves
modified
gau
languid
negot
griev
stepping
exertion
##udder
endured
sage
dock
recognise
berth
inconsist
villa
##chn
alley
bonds
lighter
appealed
simult
shades
exting
turf
luncheon
##lect
##ggs
honoured
virtuous
seventh
blankets
waistcoat
housekeeper
trunks
springing
essence
therein
significance
##cession
publication
disreg
massive
convince
attachment
##icent
phineas
logic
##alls
adher
approval
missionary
defeated
exter
welf
gert
bottles
hazard
##agne
objected
backwards
pulp
promising
xiii
frail
##istics
blanket
##rude
keys
tyrant
##vis
eccles
spirited
communicate
ascertained
##gil
roy
peters
civilized
vicinity
flav
piled
##no
##erity
robinson
##ervation
horseback
translated
personality
transact
ornaments
swimming
200
rotten
##alling
##akable
accurate
riot
abol
valent
worried
appearances
babb
obstinate
vow
annie
companies
distressed
gorgeous
##gus
breeding
interference
welfare
ting
##irs
fraud
rounded
response
sheriff
quivering
matthew
mabel
flank
hammer
attendance
labours
reverse
##ama
argue
teleph
contend
bravely
hinted
damage
lined
blossom
yon
lung
scal
irresistible
eloquent
bunch
alien
partners
choked
downward
internal
elean
misch
accounted
abbot
alluded
bachel
discharged
flashing
beet
vexed
secl
mow
strove
tumbled
##mons
tools
deliberate
feeding
overboard
relatives
snatched
forgiven
motor
sly
##zel
shots
orient
##omet
fawn
circles
##rup
secre
objections
##gone
##elm
crad
sensations
pitched
scripture
##neath
corridor
bully
cars
underneath
awaiting
hardship
weighed
lob
interven
kneeling
##igel
##uation
##bird
dolly
quitted
emma
acquaintances
cav
skies
expand
speculation
poo
prominent
##abouts
insign
preacher
suspense
gratified
thrice
acquies
favoured
revolver
##cca
lingering
uneasiness
nu
nothin
##ciences
##enon
impet
personage
annoyed
superintend
cane
hue
##ees
bef
ammun
resigned
mars
professed
corresponding
baronet
navig
##away
leo
partially
honorable
paragraph
exal
carr
lav
hae
syll
##ounding
ultimate
dain
tame
chick
furiously
confidential
abys
ammunition
buffalo
publisher
swamp
influences
solomon
ank
transpar
negative
pollen
mare
ending
prosperous
clarence
##ulent
berlin
assail
##ashes
chancell
grotesque
##anting
##velope
hack
moves
besie
touches
lawyers
stif
conclusions
stur
detected
challenge
goddess
horsemen
portugues
planned
aqu
intently
hamlet
pretence
effectually
elevated
withered
talents
embroid
portuguese
tart
vault
ballad
shift
coolly
contradict
indicate
humility
hoofs
embarrassed
extend
dove
##cend
samuel
cooking
area
abomin
improb
tyranny
borrow
ambitious
surp
detective
##urrection
sab
significant
errors
agents
hurled
coron
stealth
miser
lumber
mule
mourning
harness
##cible
morals
##rise
##die
eternity
wizard
concerns
tightly
fulfilled
panting
behave
westminster
awaited
engineer
buzz
acquire
browning
hawk
boss
nigel
hesitating
crooked
##bery
cage
poetic
packet
imaginary
cuth
senior
cert
sexual
##apping
##pen
beams
approve
occurrence
##yon
disappro
pigs
interruption
landlady
ou
allowing
demean
prodigious
##ibus
gardener
chic
##ele
blanche
rajah
flint
painfully
gir
asia
pursu
wider
noiseless
kicked
patrick
emphasis
exercised
len
acres
spectators
investigation
opens
draws
spen
resort
ruled
##ells
merr
poles
riches
privately
splendour
explaining
abd
horace
sleepy
70
repuls
rubb
kitty
repeating
pupils
typ
extending
fundament
174
nour
defined
approved
dot
tenth
quart
requested
spray
civilisation
dyn
##lle
hostess
##zar
logs
brigade
bann
fearing
declaring
##pection
belle
amend
web
##yne
##ito
representation
lizz
bug
grandeur
##ux
ultimately
dragging
eric
bisc
ecclesi
8vo
##atra
sealed
repress
rascal
repl
moh
mit
herald
##ppers
converse
cable
##olated
canon
illumin
scramb
##unting
evenings
keenly
##icism
submission
lanc
envelope
concert
parr
panic
champion
rattle
hopeful
withdrawn
pledge
contemplation
52
anec
henceforth
receipt
##iantly
perv
center
##atches
assigned
excepting
inquis
enthusiastic
anecd
malice
humbly
noisy
176
eyel
bertram
75
stain
aft
##the
harris
chate
alliance
##izz
pearl
saloon
grieved
##eled
pillars
australia
stubb
mcc
boards
usher
scrut
strolled
roberts
infle
california
fuss
compact
complicated
destro
severity
richmond
republican
slaughter
##inia
toast
scout
spending
appreciation
ker
judging
banner
##enet
worm
cheese
strife
crawled
prelim
##itous
specific
bang
preser
sinners
highway
reddy
meetings
impressive
##mates
excite
conscient
intensely
ee
instructed
##piece
schemes
semi
hereditary
oppressed
maids
##idious
enters
##ishly
acid
harbor
commonplace
##kee
hamilton
architect
instinctively
tink
##eron
replaced
perchance
unity
verb
solely
##ano
crust
beau
achieved
distribution
lump
sadness
dishes
brist
barrier
defended
sparkling
##ranean
stal
sweat
possessions
robes
hil
##isen
commend
create
##leby
sto
seasons
yelled
gabriel
differently
fits
arbit
obtaining
##utive
overth
dreadfully
inhabited
resemble
cuthbert
lame
##borne
indulgence
eleanor
lakes
ther
exit
daisy
##rose
##alty
blushed
huts
##bation
##ilet
watson
tac
##hurst
adds
footing
mamm
expressive
attributed
doomed
knives
abh
appoint
recovering
praised
substantial
bury
utterance
pest
##bro
restaur
lain
##apped
wiped
hebrew
modesty
adjo
somer
amen
moors
evils
##anes
##iffe
perished
wales
shorter
glist
joyous
invalid
slid
vainly
melt
xvi
chancellor
stam
advocate
resembled
naval
clum
##cock
apples
infirm
##zzle
nas
exile
excellency
##ras
##velled
meg
shawl
daybreak
pleases
80
bung
##armed
generals
ardent
cripp
civilised
clumsy
petition
##bl
devote
occasioned
types
53
astonishing
steadfast
##aire
##bled
comedy
admiring
undertaking
sleeve
nelson
##oped
scor
##pered
suffice
detached
amazing
mim
exclaim
philosophical
pistols
plunge
##woman
##rec
emig
##oning
coffin
aided
ditch
##ules
walker
remn
alternative
wrist
soup
humorous
roofs
regretted
extravagant
frances
##ieth
expensive
unexpectedly
##ooks
fertile
privileges
repentance
##gments
##hem
temperature
eastward
shudder
1st
##thia
tempered
bail
##atics
finan
convenience
##ilian
passionately
##mans
stag
occurs
weariness
meals
deserves
spoiled
conse
assass
deprived
hire
forbear
##uman
copies
lac
jake
clement
wallace
##ulch
screen
accordance
franklin
attacks
annual
##iac
workmen
##oper
prover
relate
65
disad
harr
victims
ivory
##rons
orth
agnes
##cian
strode
observer
disadvant
mand
rosam
version
syn
cellar
##gery
ungr
gramm
raft
omin
basin
insignific
merciful
##osa
comparative
##inqu
##lon
##ocity
resignation
dagger
##asure
rejoiced
deposited
##olis
##sels
explo
stragg
propositions
snapped
##uminous
##pole
swan
hilda
continuous
sequ
##idity
perilous
##ensed
brightly
rou
procl
kindred
democracy
umbrella
ware
urge
##ctic
##unned
brighter
phrases
##quer
welcomed
##leg
hound
diana
organic
chivalry
canst
constructed
##bey
agin
languages
exceeding
dusky
audible
sheltered
doctrines
prejudices
scow
discon
##worthy
upro
proves
punch
bridle
composure
catast
requis
ambassador
bessie
curve
respectful
pursuing
admission
gleaming
tint
curr
termed
recovery
tonight
bestow
##ocation
statues
dainty
hav
accidents
exasper
patent
xxiii
nursery
bass
seemingly
joys
newman
tearing
confed
ministry
revenue
shattered
procured
columbus
frock
fib
##uther
trivial
##rest
lawful
bounded
nobleman
philosophers
tribute
surroundings
darted
##ignant
obstin
fidelity
shabby
goat
inspector
ripe
depl
skil
bronze
wharf
intern
##coming
stump
suck
##aby
##xton
embraced
discussing
possibilities
##boat
paraly
fergus
eman
epist
repet
urs
tailor
aspir
peak
vehem
ib
ung
spectator
ticket
54
incomp
vib
##aron
##odes
elected
equality
positions
toes
##seau
dearly
lonel
wells
offensive
begging
modes
unequ
senate
pierced
stanley
proportions
counc
iniqu
memorable
##mann
clem
extinct
disposal
penit
successfully
exalted
selling
preference
lectures
haughty
congregation
ransom
tacit
drows
augustus
spencer
bash
gull
suits
anon
posted
teddy
liv
##raft
realised
multi
##joy
##icide
burton
variations
fetched
yan
turner
delayed
##adays
scrib
keith
courty
breeds
proclaimed
##cott
##ipps
oppose
kissing
essays
auld
tas
##ayer
apoll
sabb
arabs
abra
laure
edges
jewel
sturdy
based
nowadays
rubbing
tus
##ople
sombre
melod
rags
shrink
genus
debate
intending
##ingle
##urned
jenny
scanty
dorm
disdain
blas
##iless
praying
habitual
kettle
##tie
##wall
heaps
coco
pled
causing
birthday
antiquity
spont
academy
inland
sentin
mirac
##occup
obligation
felicity
headlong
retreated
##ighter
forgiveness
decis
associations
blocks
strings
rebel
contemporary
##cope
shares
pinch
##nam
thicket
shroud
khan
shew
husbands
trader
rescued
170
somerset
illustrious
preaching
vegetation
##born
blushing
palaces
conventional
##oty
##ilion
propert
traditions
tails
marshal
bower
venus
senator
jaws
moustache
terence
memoir
pud
##colm
torrent
theories
implied
recru
proprietor
orchard
imposed
beauties
domest
sources
documents
hod
brooke
lizzie
striving
nodding
##rified
tay
gene
henrietta
##acks
normal
pamph
actor
horribly
malcolm
cynthia
prices
skirts
crop
##ibal
ali
exaggerated
conspiracy
reads
refusal
invite
nuts
hudson
lyn
sez
sahib
sounding
thickly
sculpture
voltaire
hinder
theme
buying
float
representing
didst
cracked
##entric
sunrise
passenger
carpenter
shag
rebu
wears
exertions
tib
stray
flattered
accuracy
diminished
script
unin
sneer
bored
ramp
happening
odious
chicago
overh
attraction
procure
courteous
palp
hints
adjoining
charmed
complained
tony
orle
amate
##igible
puritan
hector
attentive
antony
beforehand
curled
prussian
mischie
dal
perc
gloss
ninet
roast
distracted
hauled
courtyard
desolation
charter
sentences
topic
properties
deput
supernatural
sympathies
intermedi
discreet
corp
##ighty
sacrificed
tolerably
##shaw
realise
misfortun
energetic
nails
milit
pausing
pretending
daresay
maurice
darker
quarrels
unreasonable
eminence
##rophe
barbarous
monoton
##rable
##inda
cro
misg
politeness
undertaken
stewart
soames
unsu
governed
confronted
carb
prophecy
##bar
preached
patches
logical
competition
starve
wearied
gaining
cyril
traffic
anarch
afar
urgent
insuff
equip
angles
wondrous
indefinite
pav
stumbled
guine
173
56
lull
##unders
liverpool
gertrude
##helm
postp
southward
starved
horrors
loneliness
refusing
ascent
shelf
nov
brushed
sanction
jem
carm
##icy
cream
odds
austrian
unint
entry
hester
##aria
settling
indulge
##urbed
preceded
metaphys
livel
leop
garment
consisting
misfortunes
ramb
remin
kisses
rapidity
decre
subjected
drifting
##iors
##inous
tasted
spurs
homeward
sweetest
excellence
weren
jill
frighten
gaily
troublesome
##rum
whereof
bould
##wyn
shrub
torch
dissip
descendants
jumping
await
presum
parcel
buoy
northward
pearls
neut
profoundly
definition
fabr
honours
conference
stubborn
lighting
proudly
tropical
endeavouring
rogue
indire
indisc
eug
beech
glided
infernal
kenned
nasty
ida
hillside
saviour
wade
revived
succeeding
symptoms
ef
techn
bowing
twit
watches
teachers
##etime
grub
faltered
enclosed
bib
shir
smother
indispens
sect
harvey
tak
outst
elapsed
exclusively
consistent
sabbath
##van
dey
augusta
bustle
verdict
gin
##ographical
dublin
##itative
verge
##ptuous
stockings
provinces
kil
fork
##amble
mistakes
clavering
alexand
##mark
infid
peculiarities
potent
bishops
perplexity
camel
trials
almighty
oblige
whim
sparr
continues
stripped
##nis
##ione
wilhelm
indignantly
fishes
indulged
57
destit
babies
jonathan
lodged
##acies
begg
subur
cups
rice
##tery
revolt
motions
cowboy
gaunt
restrained
rousseau
stamm
richly
banquet
##antine
assumption
orleans
sall
famine
172
til
abide
outf
##cloth
fowl
##gency
##ho
handled
turkey
##unction
pigeon
phenomenon
mournful
##ihil
rowed
##ja
indist
detest
bleeding
recur
mills
affecting
enchanted
hailed
envelop
liquid
bly
##gre
storms
novelty
bachelor
indirect
##kim
arches
profits
whisky
influenced
##ettes
xvii
sophy
leagues
ledge
ravine
cust
##lem
truck
extingu
transparent
sums
apprent
sights
resembling
##guard
offend
ungrate
chart
usur
invasion
aristocracy
excursion
ecclesiast
canad
preservation
whistling
cells
vegetable
ursula
##otic
austin
veter
arisen
foll
worlds
planet
withal
warfare
sniff
##iard
clenched
clerks
bount
peac
interm
guar
fireplace
divisions
sultan
engines
screaming
shuddered
brink
##enna
potatoes
abraham
batteries
telephone
chaplain
bella
welsh
unbro
transferred
##folk
weeds
tries
admirably
##icit
##idays
clive
airs
polish
painters
anti
corruption
glas
affectionately
##going
exhibit
foss
piety
nineteen
resume
barr
restrain
gap
omitted
stooping
helmet
crom
##egr
consumed
wrest
statements
tenants
accepting
immensely
announcement
precaution
500
dia
struggles
tedious
eccentric
sylvia
vehicle
assuming
advis
reveal
valued
inquiring
reins
crush
yielding
rubbish
##ioned
imaginative
elb
earthqu
extract
##verley
babe
neatly
battal
overlook
bellow
industri
folds
mantle
miracles
displeasure
##ania
caress
whiskers
crowds
nabob
##ki
##icular
howard
kend
compromise
meets
##pective
paras
trusting
varying
abyss
anat
expend
tended
merton
ov
genera
perpetually
plank
mais
magdal
forfe
##empl
xxiv
pitiful
oxen
##writing
conjecture
turkish
hi
recollections
client
superstitious
joining
array
skeleton
vein
skirt
classical
radiant
oo
wrongs
claude
ensued
unbroken
esqu
epis
##ometer
##sing
chaff
humph
legitimate
##bourne
pou
##asses
perceiving
boarding
fundamental
raging
spaniard
calamity
reaction
camels
boyish
acceptance
gait
stages
streaming
sped
circuit
lime
nail
hend
patsy
vicious
xviii
gud
forthwith
disappoint
scoundrel
##lement
thereupon
idleness
stormy
dominion
bard
communion
intermediate
giles
frantic
indies
launch
trains
cherished
##isance
##veying
loaf
circus
58
opt
pension
##tin
satire
circular
supporting
##aston
unaw
viewed
rustic
champagne
syd
devout
chester
ambr
illeg
plump
starving
dissent
luggage
rewarded
grasping
##ulu
cleop
commencement
dated
##odox
##forced
unlucky
tranquil
kennedy
rusty
corporal
##count
##aser
lungs
churchyard
undist
jessie
georg
denial
familiarity
wheeled
precipice
##enzie
##lley
discoveries
finn
salary
builder
vern
reigned
adieu
biggest
litter
oy
stub
equival
grieve
produces
grinned
nostrils
cleopatra
vices
discoura
favorable
rushes
identical
sobbing
elf
pont
howling
cer
heret
constern
obscurity
##eal
instinctive
##gger
drawer
represents
winged
frowned
palms
discovering
rebels
otter
uncertainty
plent
exposure
##ogra
divor
xix
##rance
##leigh
disturbance
fisherman
particles
shaggy
nym
##inald
accidental
mechanically
bullets
contributed
consternation
##iller
##mate
##do
martial
aaron
##iere
recl
butcher
##anders
solemnity
framed
##actor
pagan
##ball
rests
##onia
eighth
santa
##arton
blot
deceit
90
adorned
monotonous
kais
respective
intelligible
unquestion
endurance
nervously
victoria
overwhelmed
indispensable
jeth
weed
verily
##obs
noblest
cottages
threaten
##aic
fling
destination
andre
noises
boiled
infall
tho
guidance
arbitr
##hol
curate
louisa
ruler
##atching
spoon
carth
tract
rural
shuff
willie
spake
supposition
##gins
boyhood
needless
##crow
twinkle
libert
peaks
parade
proceeds
vanish
##forward
preliminary
##zza
ruby
oppression
orderly
delights
fewer
homely
presenting
directors
robber
entertaining
mules
catastrophe
tenny
overlooked
gains
newcome
snug
realm
portraits
bah
monte
##lton
stops
sorely
proverb
scut
##enser
xxxv
carly
peg
majestic
benjamin
oriental
tennyson
comforted
gradual
griff
cultivation
dazzling
stables
hangs
unfit
dashing
150
wilkins
explosion
nymph
chicken
heroine
ingenuity
tut
stony
chast
characteristics
gow
fran
carter
graces
owl
piercing
apron
advertisement
unfold
dome
crock
veiled
cheered
rendering
organization
coachman
encouraging
valet
oar
hardened
venetian
ungrateful
##xion
relating
patriotism
file
wanton
borders
aer
rouse
anderson
##emen
trench
cruc
publicly
mackenzie
haggard
shivered
epic
advances
sacr
300
rely
resisted
metrop
continuing
julius
insect
lifetime
fascinating
gren
inspection
reconc
diet
weird
plaster
sweetly
sydney
wick
##arious
shaks
apparatus
despond
deference
percival
##uate
curls
threats
pilgrimage
##wer
ninete
discomfort
##unciation
throws
annoyance
nineteenth
holidays
brooks
covenant
restaurant
marches
treating
##nets
ribs
possessing
##asse
glaring
eminently
volley
airy
banker
junior
disappearance
nim
revers
brun
disliked
jethro
weel
clamber
esp
unmist
##ooper
longest
plantation
overwhelming
##zo
kat
##ront
boiling
crisp
improbable
comic
especial
ascending
richer
secondary
unaccount
armor
sinister
thickness
ejaculated
jet
##arm
sham
marmad
##bted
stella
heavier
mounting
mantel
tumb
cob
pays
trading
appreciated
consultation
districts
premises
marmaduke
bump
rats
intric
captivity
##niff
sting
consumm
foundations
sticking
tuft
electricity
depression
whirled
baffled
rhe
homage
nobler
leapt
constitutional
##aving
indebted
footnotes
thorne
subsequently
sleeves
ether
alv
plung
void
inspir
##ugs
diab
paddle
ribbon
inscription
treasury
##icking
salute
cherry
bedside
briskly
mansoul
fluttering
blamed
editions
functions
granite
hir
congratulate
simultaneously
slipping
sermons
inflicted
lays
clearer
taxes
superflu
guides
##ugged
pillar
naples
queried
##raged
coolness
##umberland
selfishness
pulpit
##iph
##nings
##riers
##ivol
cheering
##aver
leices
doubled
bearded
guinea
pulse
##oric
fairies
escaping
shrine
kinsman
testament
gad
illum
balc
hateful
moods
smote
moll
##ursed
maxwell
attribute
isolated
walt
robbers
blackness
uttering
traders
universally
cair
impost
transaction
blessings
treacherous
ominous
obliv
barred
medi
embra
muddy
obedient
ceremonies
leslie
diction
insensible
stanza
##anthrop
controversy
shipw
repetition
toy
##osh
loch
##bec
limp
##ima
quot
barber
duncan
austria
session
##hill
trout
ark
jokes
strait
lxx
##inch
##ouched
cram
precision
stature
##iley
manifested
##erated
##itives
whereby
clue
comforts
strengthened
maidens
contemplated
buttons
um
##oise
launcel
overheard
describing
uneasily
##ani
bunk
unanim
laur
destroying
cod
lark
stren
carlyle
ecl
##anse
covers
attire
endowed
victorious
williams
feebly
agency
steed
barra
worthless
passive
warmed
echoes
##bie
toby
expedient
pilgrims
dripping
proclaim
caleb
distances
pawn
cromwell
##fire
hyd
launcelot
canter
slide
tenant
politely
rattling
alleged
balcony
peach
morbid
gestures
repaired
thames
pepper
collecting
63
burr
studio
schoolmaster
pigeons
crouched
ties
feverish
reinforce
happiest
relax
sard
arb
morgan
representatives
bubb
##time
##ala
prohib
62
clubs
kath
democratic
wisest
fugitive
cakes
handwriting
declares
raymond
problems
mischievous
herds
restoration
strive
explanations
analysis
mocking
##adelph
abominable
rhyme
aur
##apse
principally
quantities
conqueror
currents
pia
apes
burial
gaiety
hig
pent
##anter
expectations
chemical
vincent
wins
##orph
imposing
afflicted
attentions
depressed
edifice
chris
##enson
despatched
titles
reluctance
dates
philadelph
youths
deceased
tossing
sobbed
mexican
pau
adapt
humoured
pite
##olo
questioning
mystic
todd
spacious
draft
profitable
fails
curtis
rar
manor
delusion
secrecy
cot
dissatisf
mum
##jected
admon
stationed
boil
insolent
cruelly
toilet
cox
factory
flattering
loveliness
lesser
crosses
unav
inevitably
celest
handy
##hall
##ios
whispers
dombey
nought
smugg
barney
skirm
sighted
constituted
reared
lib
aggress
retiring
sammy
accusation
##ographer
terrors
japanese
jenn
pork
sord
blink
goldsmith
##onym
splendor
companionship
prede
fulk
squirrel
mitch
##fton
banished
drooping
haze
suggestions
deliverance
tons
##amations
gentleness
freshness
##chus
reaches
pasture
demonstration
fugitives
concentrated
amateur
##chen
uninter
gleamed
correspondent
swelling
brooding
saluted
endeavor
reminisc
stations
safer
geological
##itzer
whites
rept
disse
insulted
feller
despatch
costly
penetrated
##haw
##je
halls
posture
persecution
lydia
heated
unhe
assign
expose
describes
concealment
##yer
plaint
peering
accursed
hello
resource
humiliation
chiltern
gid
isab
donkey
possesses
conne
##aza
sorrowful
insignificant
##riet
##ivities
seth
hasten
repeatedly
predecess
cum
cricket
starts
obstacle
parker
sundry
stress
duel
virgil
eventually
fring
miner
arranging
apparition
shivering
kaiser
flet
clapped
rejoicing
blossoms
sings
resident
dismounted
scrub
glee
removing
##igan
intox
##cester
detained
expert
convert
##sea
flaming
legged
peoples
incor
attributes
newton
regent
squat
competent
ronald
reasonably
madeline
shaded
magnet
speculations
excessive
chestnut
provincial
decorated
cosm
esteemed
nae
forcing
beset
melody
projecting
aristocratic
muffled
alight
messrs
crude
61
eph
##olics
parliamentary
qualified
gilt
mong
mused
site
dogged
seren
phara
cran
ferry
substitute
bess
##cis
inco
aloof
##ogene
reluctantly
##quar
instruct
groves
whistled
cedar
##bons
aber
imitate
##uben
verand
undertook
available
thrilling
suggestive
chronicle
monaster
lewis
equivalent
tangled
##loc
notable
discord
antique
breeches
irritated
##liction
spaces
peered
burgl
dinners
sacrifices
##akers
##oths
aimed
subsist
contriv
pharaoh
workers
actors
sketches
chateau
core
deity
ally
messages
chariot
bertha
sidney
proclamation
cate
twain
laz
subt
signor
delicately
##athed
muttering
rains
interfered
garn
hospitable
cowardly
rally
##arth
manoe
arising
slate
##oga
matrim
snowy
unspe
amelia
courses
insane
paced
cooked
chaos
terrific
vot
ital
cling
bucket
exultation
enlightened
greed
upl
mole
pyram
dialogue
eighteenth
frankness
poisoned
ruddy
##thorne
interpreter
adult
closet
##iterated
embark
gratification
alder
sterling
pairs
##una
shrunk
bayon
beware
kor
sixpence
dispose
accurately
##craft
##nde
justification
cupboard
bunyan
nan
tire
hairs
168
typical
prest
##ardy
perpend
worshipped
disregard
##gow
guineas
##cribe
##stable
visibly
product
robbery
bleak
machines
bein
sae
weaker
tant
##thest
##cier
joc
countless
pike
clutched
shipwre
##assing
creator
rolls
detachment
leicester
besee
##parable
fascination
reflecting
mexico
ecstasy
gateway
lionel
emble
serves
refinement
karl
valiant
64
pleading
reminds
##otent
nightfall
firmness
##rad
thwart
receives
honora
unsh
kindled
mutton
miraculous
willow
nora
davy
naughty
signify
include
relaxed
dere
leisurely
refreshment
orphan
neb
##acker
59
##pine
authent
otto
reefs
wasting
irony
saun
disturbing
cigars
diameter
bridges
orthodox
qui
loan
persian
sciences
decks
crowns
prompted
rabbits
arabella
indistinct
##lit
emp
visage
endeavored
vigorously
inflict
complac
##utter
tires
contracted
esq
cheque
radical
flocks
plucked
##onna
##verted
##elope
richest
adjust
employer
processes
refrain
swelled
beads
farms
deprec
drinks
theatrical
dominions
oaths
cradle
destitute
lasting
brightened
degen
philadelphia
lave
##swain
wagg
ducks
phantom
66
merrily
sane
tutor
repay
barry
ross
rumour
##estone
##angel
successor
swayed
dau
##ali
spies
distaste
barrels
linger
galloped
choosing
ecclesiastical
cors
##wor
messengers
scratch
relationship
scrap
chew
howl
salmon
traveling
enlarged
cured
ohio
cheval
rapture
captives
waggon
##rod
gotten
harriet
consecr
reginald
diary
funds
interpretation
speck
socialism
latitude
pretext
##stock
##amous
christopher
subordinate
aub
sate
simplest
stunned
##asmuch
stammered
outfit
elbows
suicide
tray
##agu
manoeuv
##wny
dispersed
astron
cooper
##ders
1829
scarecrow
chaps
afl
perched
glove
relish
humming
davis
wrecked
tolerable
whirling
fluid
gond
variant
elders
cuff
tumbling
unbel
##quarters
pint
chapters
conceit
wagons
sordid
fero
popularity
spike
cres
officials
stuart
bearer
matches
85
##dam
scour
imped
confidently
castles
##angling
##covered
modification
embarked
comte
curved
defense
customers
crawl
blacks
distributed
conscientious
whig
irene
affliction
irritation
extinguished
##west
muller
##fish
enduring
claws
foreigners
brus
belg
propag
joyful
##ulsion
locality
unite
ada
weekly
cheerfulness
dishe
pompe
uproar
##run
urging
mockery
perpendicular
liar
illusion
senseless
##held
tremulous
rustling
toe
implic
boer
delir
hopelessly
hotels
conductor
shrieked
heave
foret
mini
footman
surveyed
clemens
mining
skim
discontent
conservative
exercises
infect
fellowship
wearily
dazed
rams
veranda
ridicule
verandah
piles
deacon
usage
respectfully
fading
verm
necks
comin
compose
warlike
helena
160
ivy
birch
persuasion
disadvantage
##owered
##cius
rainbow
sustain
##jour
##onted
clan
constitu
compound
tranquill
imprisoned
magdalen
##omen
crum
rhine
##lop
##iners
windsor
goats
progen
monkeys
cly
chased
##oys
statesman
evelyn
inconvenience
peeped
boul
pew
smashed
elm
silas
risks
skilful
dud
luminous
summon
glimps
superficial
ranged
mariner
russians
complaints
##itic
projected
reuben
pebb
headquarters
penalty
grassy
gifted
##oland
wrung
perfor
efficient
mound
vert
##bage
knots
disinter
raz
miscell
cuts
media
vivian
josh
phase
doubly
invested
pathos
mortals
survive
scrup
impulses
cice
sled
sloop
finely
disconcer
ferocious
whims
##fellow
proving
relics
hybr
reed
productions
##strong
athens
gruff
flutter
##ifer
swiss
economic
launched
adams
natures
confound
emptied
flourish
entreated
rhyth
sine
fres
##fell
nathan
##mont
kra
excuses
brack
fowls
twinkling
pens
caves
adequate
apostle
digging
outlaw
understands
cald
kens
coy
mates
amiss
goodly
plea
lustre
eyelids
fang
putnam
##bray
futile
scrape
watchful
ludic
meag
spru
corrected
apollo
##cun
incessant
pis
shutting
beats
##eph
holly
slugg
phe
flags
alarming
wrinkled
quicker
grammar
frivol
##eles
habitation
referring
professors
muscle
celestial
soap
indig
exceptions
nicely
nobly
bulw
exceptional
annihil
luckily
decisive
loo
sinful
murmuring
fondly
shifted
reconciled
snakes
archde
shocking
theor
lowering
writh
kingdoms
downwards
provoked
similarly
stuffed
benevolent
snar
governments
practise
alec
sepulch
heather
noticing
lets
destru
disgusted
printing
vegetables
##oving
mang
clatter
glimm
tunnel
##anity
##fathers
##ollen
lapse
daddy
kim
holiness
disguised
beggars
carav
carroll
clearness
dipped
sheff
indes
magnanim
carts
masts
exterior
xl
signature
lordships
burgund
luxurious
cicely
molly
dryly
##ocrat
antonio
tory
sta
reced
##ableness
anglo
revolutionary
theodora
inconsistent
transactions
outstretched
organized
inacc
wellington
infancy
##ailing
fortified
energies
72
battered
nile
fren
noses
switzer
tang
mentioning
reluctant
##lig
laird
tumble
financial
taylor
bere
jur
theology
inve
pitied
##chin
##prit
resolutely
archdeacon
fertility
gilded
bohem
pursuits
melm
##aul
##ifted
adrian
insight
cheat
cheers
slew
120
sulph
imprisonment
##some
1800
blinded
worms
associate
accommodation
##opol
##ologist
settlers
##iron
scores
accuse
valour
fasten
exclusive
tristr
cros
convictions
triumphantly
challeng
##fig
##abilities
swearing
magnificence
absurdity
##cliffe
freight
fulkerson
indescrib
hates
##houses
stroll
cavalier
harrison
hens
clarke
survived
illuminated
##eties
fletcher
votes
##aders
##ulity
##wend
posterity
eden
nightm
neighboring
primary
rudely
arbitrary
abused
##onson
switzerland
tristram
rides
##stood
hobb
commiss
burgh
mediter
peculiarity
settlements
76
dip
zen
##cling
imply
insens
xxi
duration
swollen
inviting
squadron
heaped
stall
wouldst
substances
gloomily
zealand
slippers
notorious
crushing
warrington
extension
dances
##bod
presumed
epith
nellie
epistle
unintell
aggra
marine
plato
pronounce
pledged
tull
isles
philipp
prophets
boo
definitely
hort
##bil
##illon
quote
yankee
alps
amph
forwards
deepened
protector
fishermen
##raw
splash
myr
##rossed
xxii
nursing
immortality
nether
strokes
presby
benches
fascinated
sobs
emerald
grinning
dingy
replies
shady
strand
chieftain
sensibility
ayl
accompanying
russell
memoirs
##lier
arched
whereon
interrog
mediterranean
##gues
inexpress
enchant
conting
sweethe
ports
transp
haunts
iniquity
alteration
appendix
67
involuntarily
dane
minst
gentry
hostility
fluttered
icy
integr
mull
flann
fragrant
##inated
snows
turb
rhythm
mann
bout
workman
insolence
conversion
castlewood
##umbered
barker
industrial
##enburg
##ortion
##olds
frigate
conceivable
troy
##owness
##cules
diag
episode
gav
confided
barge
drives
166
##otism
orator
##acent
phill
rug
hubert
turks
unfair
pedro
rattled
traversed
sovereigns
patriotic
hudd
wulf
thri
musing
homest
swaying
magistrates
idolat
prostrate
retreating
contemptuous
##inished
##opl
impossibility
consequent
degrad
gwend
##rehensible
sill
##itories
exempl
satin
expressly
improvements
clark
fuller
grind
irishman
gem
sojour
liz
grains
softness
timidly
candidate
lau
speechless
ami
shrinking
habitually
psalm
##unity
##anges
surrendered
legends
quarrelled
lis
arctic
finishing
executive
##occupied
satir
silenced
accumulated
diabol
vous
##rete
fearfully
thirsty
beaver
headache
pedest
colonial
74
pans
feudal
demeanour
mord
##rd
toad
inexplic
homestead
toll
newcom
philanthrop
accidentally
enthusiast
shifting
##cily
sentry
penetrate
scrambled
##rigg
crops
animation
addresses
grievous
lurking
shafts
aching
sow
knave
coax
drawings
emergency
merriment
cain
ibid
laud
poop
vowed
wooded
blazed
foreigner
lagoon
bamb
uly
furt
defy
ridges
encir
73
##tr
arrog
doubting
losses
drill
acre
miners
throats
##requ
##oker
bewilder
##enches
nameless
copied
packing
elephants
leigh
scope
weston
attacking
pinn
prick
trotted
clump
blest
discours
gear
uncommonly
connexion
69
##ucing
thump
roder
heiress
gallantry
removal
voluntary
overfl
parap
valentine
ambrose
vel
appealing
##oso
braz
meditation
crawling
contradiction
compensation
psmith
compos
extravagance
pecks
descriptions
magazines
##grave
trent
timothy
##pending
sighs
estimation
vows
anew
##ampton
resented
transgress
improper
cordially
71
beng
players
unsatisf
loses
coals
mature
bradley
##uts
tex
reckoning
unlock
##tar
##owering
decree
approbation
premature
adversary
fainted
compress
disast
historian
apprehend
befallen
remot
milly
opponent
zool
##matic
##gill
redoub
figured
##ologists
cushions
chevalier
flirt
indo
keats
convict
grandson
ineff
shakspeare
sloping
betroth
marco
thrilled
wherewith
gracefully
alph
glowed
drums
plaus
praises
##met
##ayne
groc
peeping
register
forefathers
gresh
misty
chairman
comprehension
vexation
bicy
striped
##iots
cutter
sleeps
commissioner
##loe
##ciful
presumption
transformed
dialect
roland
##bus
confinement
relent
madman
rubber
legislature
jay
##wright
classic
ache
surviv
frenzy
##bank
##oyd
execute
brideg
beckoned
butterfly
bravery
baptism
ozma
precautions
##cers
tok
shines
tro
doubtfully
thrusting
sliding
fights
reconcile
noiselessly
tipp
subsided
consulting
manufacture
undisturbed
paternal
paw
random
##mble
gros
prussia
pavilion
degradation
##rus
bruce
grumbled
waits
divinity
octav
reduce
international
##atures
seb
saul
outp
kinder
admitting
judith
quickened
grizz
piazza
ply
thereafter
flows
ferr
junction
earthquake
katharine
vines
glands
aspects
fixing
unaccountable
rit
##orf
sue
muck
cask
##iences
continu
reformation
stating
alighted
device
riders
obligations
era
##lot
##aton
enrich
##eller
undergone
appalling
beastly
gambling
deputy
nar
necessities
cork
lambert
isabella
tranquillity
seeks
##velin
dreamy
denying
fills
embroidered
forecastle
ghostly
historic
lucilla
manifestly
parsons
displeased
gnaw
##manship
greedy
compel
kicking
transmitted
##mar
enm
vastly
scratched
avoiding
bened
barrington
wanderings
channels
plumage
hev
rehe
mississ
magnitude
jed
inasmuch
concluding
scruples
95
nests
stig
expans
muscular
thacker
##imity
##ippi
damsel
##ato
vienna
undone
coincidence
atro
giants
popul
auction
attentively
censure
technical
deuce
colouring
automob
obstinacy
##bes
##isse
moham
cheery
monarchy
crouching
pendenn
chooses
pecksniff
##uber
##issa
liberties
##isco
boon
occupations
costs
##burst
1828
pestil
##ndy
effingham
vividly
awakening
pell
effectual
rung
cham
ideals
##har
##child
clap
##cibly
torches
pt
chip
suggests
perempt
pand
terra
gratify
jersey
speedy
sparks
beacon
reeds
regardless
dul
vass
discred
botan
ist
tips
##ride
angela
mohammed
hamp
noel
precept
engaging
ordering
acknowledgment
matron
charitable
cluster
glimpses
enact
hoarsely
industrious
towering
reconcil
hushed
twin
heaving
thompson
nelly
##athy
waverley
evin
excused
expanse
savagely
68
78
calf
amounted
disinterested
##urious
strata
guise
swind
madonna
inexper
tortured
400
hardest
symm
##emption
superb
bricks
ki
trooper
marl
smoothly
##chal
prone
##acked
downright
troopers
chauvelin
encampment
hilary
unequal
##orting
canyon
politicians
rowland
tradesman
dynam
toils
wee
aggreg
planks
pierce
trifles
apprehensions
chuckled
solicitude
rebe
neale
brutes
handling
169
intimated
mowbray
unsucc
##uen
plane
profane
preval
canadian
stol
##emor
steering
unsc
picn
dit
sized
##inc
chir
imprud
patriarch
bruised
bick
##hap
swine
resolutions
oly
ode
##sman
##dens
marion
scan
particip
embod
warden
nancy
carc
scales
relinqu
wistfully
ces
rochester
galleries
destructive
##ilee
performing
persever
saxons
hullo
linda
superfluous
muskets
pebbles
unsuccess
##see
##aman
mellow
civility
angelic
curses
communications
plunging
ludicrous
tense
stems
carey
wail
darkly
hurrah
deliberation
adjacent
prints
##lah
twe
securing
110
ruling
tube
perfume
nigger
mississippi
maint
##iders
organisation
enclosure
##orts
deter
lemon
remnant
hipp
##zas
differed
straightway
##cote
##bi
croc
sleigh
gerva
sacrament
ignored
horizont
roo
##estine
width
catholics
lacked
sundays
discontented
scriptures
bridegroom
##gom
sandwich
##sses
tank
tug
coloss
concil
collins
tickets
impartial
emancip
neutral
beak
shipping
stung
pretensions
stiffly
hannibal
chickens
exalt
##ista
schoolboy
hairy
engagements
dramat
fos
cocked
necklace
zoolog
##sen
##inus
grudge
blackened
boundless
rustle
gripped
rebuke
manchester
facil
wiping
fabric
inexplicable
##da
scatter
edged
cornwall
folding
77
aj
myri
goal
godly
braw
approx
whiskey
approaches
rails
mascul
dungeon
controlled
lx
heaved
jeanne
lilies
christie
judgments
##imentary
adventurous
fray
##then
logan
shameful
##rants
##sp
inserted
degraded
cem
##resh
reci
straining
##onda
fearless
stays
bil
cau
##alus
alc
palmer
gazette
ineffect
baw
##elius
chron
choir
##lago
canop
silvery
fists
intercept
mortimer
scraps
overtake
anticipation
assailants
gwendolen
ail
rites
##oma
lowell
##brook
verte
thackeray
grapes
monuments
##bee
thar
begu
gladness
sampson
continental
adela
frowning
vouch
rooted
honored
undes
mildred
diligence
glared
coldness
130
##umont
strewn
predomin
sculptor
##lar
##vable
hog
calcut
81
foo
kir
##laid
tending
impenet
perspective
bloodsh
cruise
toiled
seals
outburst
babylon
sanguine
solicitor
ka
patronage
olymp
fou
pon
handsomely
ancestor
impudence
exhaustion
grapp
schoo
topics
puzzle
flourishing
##ello
gliding
forts
jewish
refreshed
afloat
duane
balanced
authentic
stumbling
recollected
correctly
filthy
trumpets
persistent
pudding
shirley
rebecca
calcutta
devoured
brazen
dealings
binding
condesce
minnie
caste
jude
plut
obstacles
jup
wharton
spider
vari
massacre
abstracted
exquisitely
seclusion
smothered
veteran
fringe
allah
intri
167
##hetic
desc
gallows
turret
garland
ninth
pane
anci
quay
regained
counsell
rigging
outlines
softer
##ridges
biting
sib
##pid
##book
##rell
forcibly
numbered
epit
egyptians
ulysses
##aga
##oded
laughs
imminent
hyster
systems
mice
##eton
wills
fable
quin
yearning
4th
arises
imb
scruple
allegiance
agricultural
therm
expenditure
rheum
whipped
disob
incong
deserts
ranges
calculation
vagab
ushered
lashed
afores
wright
tiss
curly
taller
garb
gratefully
incongru
bide
rowing
deception
##antes
peel
transition
##ippers
queens
implicit
ayal
##onian
resurrection
circulation
matilda
directing
shutters
ayala
chant
pecun
powerless
sonnet
hanover
jess
pod
lava
judicious
physically
wester
nightmare
aforesaid
fu
kipps
ole
##uled
elastic
acceptable
berries
bids
##encing
frat
dole
noah
broom
hotly
foref
165
slippery
yoke
conversations
melting
besieged
admits
danes
garret
vagabond
mane
guardians
joshua
helps
growl
flashes
gervaise
cater
fade
##isbury
twins
giddy
disastrous
##orters
perils
detain
butterflies
hovering
zealous
presbyter
##osities
archer
spotted
cecilia
disqu
sickly
stoutly
drowsy
glasgow
masculine
fuel
handing
differs
##ogne
##lio
constitute
quivered
spars
decomp
lists
recesses
jab
##vings
fab
research
shrubs
comparing
foresee
encamped
##rity
##yle
enn
##ishness
turtle
tyrann
fathoms
stark
choking
abre
owes
convincing
commissioners
pondered
discouraged
inade
jock
excessively
decoration
implies
peregr
belly
asunder
abject
appeals
confine
streak
dependence
analogous
nett
strengthen
moody
scornful
amyas
militia
yar
fanciful
rapha
montgom
defenders
chaucer
requisite
afresh
empress
multitudes
brew
steamb
temptations
guarant
hoss
allude
detailed
lanes
desiring
australian
##aka
79
##inals
##airn
deform
undo
shelves
pamphlet
##bach
##anton
consumption
helplessly
##ingsby
commonwe
bankrupt
penetrating
micros
glistening
divorce
strenuous
conceptions
promotion
##ooped
stocks
memorial
jefferson
tackle
maisie
hoisted
personages
##guer
tombs
galloping
pursuers
unrest
rounds
summary
starvation
unlikely
benevolence
oaks
mayn
unsus
amusements
87
thur
flinging
crumb
furnace
volcanic
temperate
radiance
implored
winchester
dimensions
155
unmoved
festival
disclosed
jupiter
rents
stored
athe
##ierre
domine
ballads
beliefs
melmotte
chattering
mys
proposals
ponderous
spinning
flown
parch
recre
boldness
code
##down
glories
laboured
pools
hides
sufficed
graciously
indicating
rive
##tts
impe
defending
blooming
##amented
loom
##ogen
barnes
patients
expresses
constance
holt
osborne
##obed
unman
pacing
bertie
roderick
wint
proff
dissolved
alexandria
follies
thigh
jerk
uppermost
magician
sentinel
intricate
osw
unnot
##berries
console
steele
soothe
puls
##onshire
windy
salisbury
astern
lingard
wretches
forsaken
bewilderment
##hard
##itud
sme
idly
arrives
meddle
averted
deposit
retirement
hardships
##bone
livery
##iston
catalog
baskets
peacock
cort
snatch
expects
politician
scrutiny
chaise
heter
##lete
chel
##iancy
drago
lawless
bathed
albinia
randolph
apostles
kenneth
griffith
tipt
curves
audacity
carelessness
ardour
disgraceful
navigation
dent
disbel
player
improving
oddly
prevailing
expanded
subter
phar
dwellings
scornfully
anchored
impertinent
blasphem
##eel
marj
rulers
motto
wald
eddy
maternal
balloon
thomson
missionaries
contemplate
palliser
analogy
impudent
congen
doge
warwick
patted
alternately
ruskin
defects
opponents
abreast
ome
##agged
tribun
administered
hubb
asyl
sewing
peck
discrim
pictured
archipe
faintest
franco
caring
journ
camps
shields
anthrop
##rin
ingrat
##unce
craig
sighing
knoll
boundary
weakened
periodical
voyages
antagonist
##cels
demanding
wanderer
permanently
vapour
fust
##aches
godwin
unfav
dragoons
quaker
impending
fairest
##ffected
explicit
laborious
illustrate
thorns
inwardly
los
alac
nighting
middleton
multip
overtaken
borough
##enne
accents
1815
oppressive
emphatically
vigilance
##issance
windward
intrud
excluded
inference
glitter
pendennis
jug
##rae
marilla
equipped
##vard
##esa
bog
wrink
undis
calmness
straggling
tiresome
droll
infamous
curling
pastor
monastery
##ugn
##beth
downs
imperson
trampled
biscuit
##idy
decency
distinctions
adventurer
photographs
loosened
cogn
incur
albany
tormented
raphael
enforce
impelled
dealer
yells
prettiest
involuntary
constrained
86
racing
sparkled
stupidity
clasping
ankle
incomprehensible
advisable
##organ
heartless
1820
archipelago
##lia
blades
perspiration
wildest
ceas
murderers
nursed
venetia
incessantly
flanders
forester
ari
stow
spun
sideways
prepost
francs
intimately
oswald
splin
resulted
merrick
whiteness
flattery
forbade
leve
undergo
disgraced
ruffian
tod
##itar
chand
##elling
blacksmith
madly
societies
acquis
rainy
reappeared
rosamond
84
aus
bac
lash
##illo
ado
disl
grinding
maintaining
fringed
peers
hereward
slo
singer
archers
gasping
hedges
renders
cocoa
pecuniary
raged
##uctive
kl
toys
intrig
oftener
mists
despairing
miniature
96
smash
giov
mistr
sweeter
statesmen
wield
##nin
##idated
blond
emerson
effic
associates
enforced
##ags
twigs
gris
##ibald
constancy
modestly
canto
syllable
czar
##uating
silken
streamed
morsel
bobby
bribe
adventurers
enmity
##alan
##uda
##roft
breakers
covert
extraordin
bolted
granny
wistful
edited
labouring
halting
jacques
vitality
pooh
alacrity
tool
pears
arrayed
##itre
argy
##achuse
ornamented
normandy
drowning
##ieces
bristol
outbreak
stride
ribbons
ordinarily
tess
##ulk
perceptible
hosts
fondness
testify
facility
sweetheart
bengal
cumberland
rick
program
deaths
injure
kneel
fragrance
wipe
enlarge
indescribable
tends
resear
2nd
devices
declining
stanbury
cowardice
metropolis
##fo
shirts
##iry
indication
assailed
polar
cecily
unwonted
unique
carrier
hiram
waggons
voted
##owder
marqu
explains
straits
malay
desperation
informs
sufferer
anticipate
ostent
discomf
doin
mornings
ferocity
novelist
terminated
burgundy
aggrav
noo
tints
rogers
locom
heading
monsters
mentally
aure
chis
modifications
thundering
clifford
inconvenient
kensington
derv
hose
scur
##ava
hallo
##heim
fiddle
##oria
prizes
drawers
applying
sabin
tat
##iol
##ouri
thicker
exerted
versa
dawned
randy
transported
commonwealth
hass
cramp
rocking
affectation
unfinished
paula
benefits
doroth
contemptuously
monotony
punctual
concur
threads
massachuse
surfaces
bait
axes
drummond
soda
82
null
##arte
barth
frenchmen
hannah
unself
quarry
jerked
boasted
parrot
massachusetts
wires
##bling
vend
introducing
conferred
optim
lookout
situations
theodore
##mill
theft
##omer
##lee
friar
outcast
conversing
miserably
serenity
##aunt
mister
considerate
sensual
rehears
aversion
faction
desmond
furs
aims
##etical
ane
##umbent
territories
links
lomb
mair
sans
##oble
##vor
overcoat
footed
midship
naturalist
oneself
involve
achievement
gems
tapp
##assy
geese
practicable
abstraction
harshly
beetle
unspeakable
diseng
carrie
actress
foregoing
gallantly
breasts
barons
providing
researches
hrs
##cas
boffin
psa
lifeless
##agin
promen
contrive
##ivings
injuries
fruitless
eugene
hercules
yorkshire
montgomery
dand
##inor
partis
histories
crev
contrasted
00
##esting
skilled
busily
paved
deronda
persuas
calculations
huddled
##kh
twent
attic
treatise
fleur
cycl
staggering
enquired
uplifted
##lam
flask
ornamental
dall
teles
##hr
##dock
baroness
glimmer
sanctuary
hust
hip
kem
ni
conced
unth
164
diseases
##tree
pratt
glut
##meas
sinks
##waite
fossil
unmistakable
unintelligible
nina
heark
edd
##she
walled
undress
shovel
witty
crashing
poorer
emotional
unlim
elliot
stifled
preserving
populace
ili
beaming
chol
dose
remed
injurious
flourished
spontaneous
eun
scented
##dening
securely
crystall
aspirations
wether
##iliar
intens
partake
##pres
define
favored
immov
suggesting
confirmation
incoher
unsuccessful
88
occupying
separately
durst
groans
pensive
##amour
prox
cornelia
reds
cafe
throbbing
anecdote
bure
bub
shep
##anni
mountjoy
##udged
disputed
kitten
ponies
##loo
lufton
clouded
treasurer
covet
jol
sau
dover
riddle
departing
panted
##mith
##itched
marston
##ourably
disciples
cursing
rascals
tension
##enstein
forsy
##rave
truce
viscount
bathing
heroism
contribute
extraordinarily
##walk
compart
governors
climax
projects
perseverance
dotted
##hope
lied
stripes
ugl
rods
europeans
sporting
smelling
soothed
vindict
##penny
wrigg
##uy
tol
##about
horseman
brightest
avar
errone
squares
derby
rosa
creditors
gillian
boulders
gould
hues
scouts
meanest
##afed
behavior
plentiful
impenetrable
vil
##asters
athen
concession
spade
humane
drap
scarf
antip
mingling
bolton
uncovered
formally
stanzas
bordered
journals
bor
whigs
underground
norfolk
products
innate
tapped
appleby
disobey
##cade
abilities
plots
mutiny
##myth
tradesmen
##ndar
##atible
counten
salut
warmer
pupp
mysteriously
tentacles
awkwardly
nasmyth
therewith
cleft
mastered
policemen
envied
odour
glenc
sledge
##ader
##rix
knitting
metall
requiring
mortification
wedded
brilliancy
mingle
italians
integrity
unnoticed
spher
courtiers
comprehensive
##ihood
hab
agon
slam
moons
##obel
##reshing
83
underwood
bookse
austen
remonstrance
squeeze
delaw
fountains
reyn
knowest
irons
blended
outlook
vehemence
muster
devised
silverbridge
philosophic
chimneys
swarm
brotherhood
contemptible
sagacity
rivals
oblivion
suite
##ando
trance
clod
considers
practices
revolving
overtook
agh
foren
curl
horrified
realities
clerical
unconc
banners
##igo
avowed
incline
dorothea
dreamt
gunp
nook
##atism
##uncle
marriages
##grown
140
montague
intervening
unconcern
hoo
tete
hew
cyl
wynd
diversion
sebast
##cha
##ortment
intermin
##umbers
trodden
alvina
caravan
£1
##ifred
straightened
listener
blindly
clutching
insufficient
steve
lacking
nuisance
##orie
##entious
dispr
hearers
bidden
intimation
portugal
strangest
las
##mented
10th
imperious
motioned
juven
enveloped
isobel
##rolled
signified
license
pins
stip
plod
courier
eliza
vernon
performan
intrigue
dens
##erot
clown
regulated
profile
innocently
bailey
apprehended
maintenance
peregrine
genteel
morally
fainting
shefford
sig
##fr
##thor
bucc
contemporaries
performances
hald
##idan
glou
refreshing
approving
fastidious
interrupting
paradox
indications
elsie
colossal
##izzy
##lington
##endom
catar
villagers
vols
obliging
operate
claret
gunpowder
##hot
induction
sunken
discourage
##gerald
bounding
reverie
crawford
mahomet
vere
salad
submiss
fitzgerald
volunteers
kal
unres
comely
affirmed
tenor
groaning
elegance
asylum
dell
disobed
boister
cheated
hurric
privacy
labors
embry
##iferous
adored
natal
##avas
turmo
constantin
poisonous
hank
og
fortitude
moder
##ciless
##buck
##wind
carp
replace
##ubbery
moaning
unutter
quitting
merciless
accumulation
gw
goethe
barley
woven
admirers
exceeded
tendencies
bundles
myths
rut
willough
disin
forebod
darius
rumours
canterbury
##xes
alco
dinah
moisture
overpowered
abhorr
unlimited
befell
abel
coqu
farming
inspire
pitiless
squeezed
hord
semb
spit
adverse
playful
mastery
105
unpre
tumbler
##erting
sections
girlish
trustworthy
mildly
meekly
gum
jub
marguer
dont
wronged
montfort
resembles
bartley
sulphur
5th
puck
mended
##estri
trenches
surpl
insanity
honors
shrubbery
dab
tier
portent
distressing
shrieks
spraw
joints
kindest
purest
leaden
productive
britann
falcon
plausible
##rating
##vity
enum
spart
excitedly
pallid
connections
gurg
##nell
forster
carbon
##onica
mathematics
brough
##pering
##phy
regulations
extinction
invaded
##leys
deserving
inhuman
triumphs
regrets
oval
sown
anonym
untouched
showers
corro
penelope
devilish
shaven
cynical
ferns
preposterous
inmates
##riend
vanqu
croft
capric
grab
missouri
edwin
berry
dwells
negotiations
bounty
oe
##erton
##thorn
diderot
hume
treve
invin
breezes
reconno
recommendation
jugg
##mus
chilled
exhilar
ceaseless
managing
counts
dispens
weighing
alg
cole
whereabouts
floors
socialist
labourers
bonny
fulfilment
hier
##aan
thoughtless
swoon
brake
spoils
crescent
97
fay
nug
##try
serviceable
willoughby
frae
##uma
grantly
customer
concealing
tempting
sweden
constantinople
bitten
ud
##emic
##lage
eva
pastoral
protestants
oscar
cultivate
publishers
##lements
##osis
unhappily
diplomatic
misgivings
md
milan
fenn
farthing
##dler
tert
odor
termination
abundantly
boar
spruce
lich
##keley
alton
spout
revive
smoothed
governing
rebellious
distorted
skir
susceptible
estimated
trevely
98
conrad
wailing
trailing
esther
penins
fruitful
florent
ruinous
independently
protecting
pompey
gon
##athing
bulls
barking
##onial
butch
leeward
elsp
moaned
meagre
thrift
sinned
needles
decayed
complaining
malicious
journeys
cleaned
budd
##ela
greasy
repud
exaggeration
trimmed
parapet
corrobor
trevelyan
89
theological
quack
perd
opposing
frequented
grizel
forenoon
ola
##aky
lope
models
robust
sorcer
obstru
shepherds
condemnation
unavoid
wither
reasoned
squal
cloudy
arguing
cameron
##non
cherish
thronged
dawson
crocod
fals
##leen
oracle
arith
issues
vacation
inconceivable
tapest
sarcasm
forefinger
cataract
dorr
magical
occupants
starboard
affords
##maker
redemption
##sylv
inherent
fulness
accessible
lothair
marguerite
##asms
whopper
sentries
geographical
unreal
chivalrous
continuance
healing
rovers
15th
seriousness
renown
municip
reinforcements
ew
159
shuddering
guarantee
nomin
reap
##emper
indec
monmouth
harper
1862
disgusting
indoors
marlborough
turmoil
grange
announcing
murderous
##sk
frig
lever
ordained
curren
promont
moderation
demure
extracted
extends
rhet
1863
oblique
overhanging
aghast
##pons
mell
highlands
inspiring
twentieth
kar
woodland
dictated
armad
lavender
beans
fathom
certific
bale
jord
foreman
miseries
##beit
blindness
dodge
99
ore
zulu
proposing
insurrection
merri
administer
hale
##utors
weller
soundly
cushion
stolid
imitated
refers
inscribed
preventing
biography
clamour
outsk
stealthily
bureau
ebb
thud
mug
armstrong
inscr
devonshire
creative
unsp
regularity
elementary
hypocrisy
##ieve
leant
refuses
endeavours
nero
##ran
##will
joking
evidences
unde
reminiscences
lisle
thaw
##eres
##eroy
##urate
trinity
uncouth
protr
barton
councils
dictionary
flound
squaw
intrusion
neglig
lapham
clustered
automobile
hysterical
##mers
##ppings
spasm
deficient
labyr
115
entreaties
hereto
##regn
mayhap
hovered
trusty
heightened
latent
stretches
sterile
volunteer
untrue
vand
alison
spar
comply
addison
puss
rother
shack
sah
classification
spoilt
quarrelling
lounging
frivolous
labyrinth
katherine
chasm
scaff
skip
entangled
grounded
petul
20th
dwind
hartley
inconsid
twisting
disconcerted
blad
smok
extric
corinth
bethought
##mine
plumes
menace
counties
dais
counsels
martyrs
grievance
impetuous
cairo
whitt
grape
crag
winifred
gratifying
avenge
speculative
worrying
remembers
betraying
imperfectly
enlighten
akin
haunting
chet
cope
hardness
romances
malignant
bursts
endeavoring
tremor
accomplishment
anecdotes
gout
##vi
muzzle
smelt
mornin
devour
meditated
traveled
entrusted
hugo
##ensively
charging
supplic
womanly
christendom
trigger
concrete
glittered
tucked
currency
92
sheik
outc
furr
embers
91
dizzy
golf
twelf
##robe
regain
countryman
##igated
covent
casually
etiqu
arabian
misunderstood
poult
flannel
reconciliation
glencora
lill
withstand
oughtn
marking
93
sik
smitten
recourse
utility
director
solve
macum
sarac
foreseen
persecuted
legislation
arena
assuring
patric
mosqu
94
##uteness
supplement
minim
unearth
murmurs
clause
latch
austere
overthrow
twelfth
ums
##city
weaken
deers
scoff
dispar
witches
teaches
jordan
dagg
##tles
##wig
choc
uncont
busied
symbols
interpreted
unobs
christina
devoid
respectability
renowned
theatres
xxvi
dolores
flavour
##ati
coningsby
knuck
shouldered
strains
teut
originated
163
rectory
iliad
lones
spenser
gettin
combine
unchanged
penitent
apert
menacing
astray
bicycle
##iti
##ldon
mouthed
robesp
issuing
historians
dedicated
absorbing
gaw
jason
fanatic
clapping
cadets
lunatic
kaff
##stones
##umley
caric
distract
soften
plateau
athlet
contribution
fireside
nickleby
councill
ely
enh
willows
tresp
farthest
hollows
cheaper
picnic
cited
dix
wager
##tion
##ilated
evangel
idols
burdens
derive
hooks
millionaire
minority
sullenly
exclaiming
##hab
crook
raff
assisting
epig
##han
##arried
coins
debau
attractions
##xible
##roit
traps
watering
differing
milt
diverted
shrug
hampstead
heretofore
ak
hoop
##kily
chilly
bearers
steamers
luxuries
simpler
stap
crater
lightfoot
signals
royalty
aristot
stamping
superintendent
congenial
jib
##tic
sauce
sock
perverse
mariners
crows
##ansas
printer
woodman
environ
sulky
pennsylv
dorrit
lamented
inferred
unimport
secluded
stakes
rewards
incarn
indifferently
jing
##zer
cocks
drain
absol
expost
contemplating
seventeenth
cyrus
lore
oven
##cly
##bull
##illot
allusions
##riety
surveying
snub
craving
moorish
volunteered
betrothed
outskirts
baked
zulus
##nett
overc
reappear
clambered
olaf
robespierre
crut
sidewalk
mannering
provoking
contentment
copyr
thundered
##ocal
dividing
efficiency
shoved
terrestri
inart
conquering
splendidly
floods
embracing
mose
mien
tul
strayed
jovial
steered
volu
mouthful
flickering
tweed
courtship
embassy
chamberlain
strolling
yawning
girdle
etiquette
##cad
loit
##maids
geneva
barracks
recipr
data
outset
immeas
undergr
##rogen
repented
boatswain
darn
xxvii
##uition
thereon
retaining
phon
correl
delivery
laborers
ensign
dexterity
gaping
##eval
anom
troll
yearly
disputes
aunts
adjusted
commented
pyramid
interminable
ants
strung
standards
variable
victories
yelling
145
screams
gloucester
terrestrial
##point
##ienced
plus
drawback
bearings
marshes
anteced
jelly
##phin
##000
glend
lilly
wayside
norway
sybil
seaward
quickness
joyfully
informing
tinge
##eson
##omo
amply
lookin
momentous
editors
##ugging
confeder
##gel
rogues
impract
sixteenth
commandant
flax
wilf
hott
vavas
##norm
##ifiable
annabel
conceited
falk
ri
##aye
socr
deane
brock
injun
voluntarily
acquiescence
##works
##four
keel
venom
wilful
geraldine
quadr
sojourn
ead
pouch
tides
##adier
brent
bedford
escorted
anxieties
125
progressive
exclamations
dominant
texture
privileged
##oni
solace
waterloo
exhort
250
cull
rall
##cles
achilles
mercen
indirectly
##icans
##ayson
founder
traitors
confid
comforting
eats
hissing
unheard
genoa
hurts
millicent
advancement
ott
winked
prosecution
crucif
semblance
##imore
chop
commotion
param
lessened
midday
fashions
puffed
kraal
horizontal
misses
mete
metam
admirer
crowding
maxims
forbidding
embarrassing
pitcher
diminish
excursions
fenwick
ich
rio
herod
scy
##rooms
bravest
estr
joly
##rench
gerard
piqu
##winter
hooked
exploits
dissatisfied
parchment
##xley
transcend
156
beholding
bolts
gigg
sophia
tasks
texas
6th
scam
wrists
awed
imported
vehement
rhymes
stupe
verbal
scaffold
##rh
##hart
##ething
allows
donald
##ugal
grasses
consecrated
##got
##inating
item
twig
##arrow
beneficial
engineers
prophetic
heirs
lick
##hole
##vie
grunted
watery
guild
essex
conversed
narrowly
omnibus
beseech
inadequate
vult
shun
everard
resided
committing
guer
womanhood
monthly
improv
pinched
sheridan
superstitions
distasteful
disquiet
metallic
sap
expeditions
frosty
lopez
##rist
heal
##iances
##uba
sonnets
##ocrats
clergymen
##etrical
shrieking
hymns
unaware
stupef
pail
farce
mattered
barbarians
overcame
complied
troph
infat
reliance
mineral
chuckle
imparted
mathematical
musketry
miscellaneous
##clyffe
crucifix
thim
##ongh
##icence
comed
unarmed
##cio
loads
##azar
revolutions
oxy
##sch
wast
chord
implements
assid
barret
lowly
purposely
domain
josie
scrutin
wench
##bol
##itates
##iloqu
chained
orb
amber
##roach
peopled
utop
eton
unwise
realization
skinned
cigarettes
catalogue
##alcul
incense
judic
ignore
agriculture
catech
beric
hench
##iger
keepers
12mo
obscured
dazzled
capitals
mohun
aisle
luther
rene
##eck
dejected
expended
repugn
meanness
powerfully
fairer
midwinter
annals
crumpled
accl
eskim
exploded
favours
individuality
routine
shyness
scalp
immovable
fitt
kay
tangle
xlv
##atum
cobb
poker
warr
sparkle
1807
fervent
capsules
sarcastic
##rations
##unct
grumbling
impose
geor
meditating
dryf
colonists
quartz
reversed
juris
hurricane
nag
comments
fullest
explor
alaric
brilliantly
identified
clayton
commodore
steamboat
unimportant
##cap
fraser
assur
ordeal
provocation
thirdly
discussions
exhibiting
fleeting
mammals
pained
spelling
bondage
accomplishments
aylmer
9th
ony
wren
demol
oliv
witchcraft
##celyn
##agus
watchman
beaton
literal
professions
weaknesses
glossy
umslop
##upp
walpole
escapes
weakly
instructive
hampton
angelo
chum
dob
abound
reproof
billiard
solved
unden
straightforward
berkeley
indulgent
1836
unaffected
unaccustomed
##ogaas
invincible
umslopogaas
aest
##kel
provoke
aux
panther
clutch
crippled
custody
nib
coars
geology
crags
caus
levity
deprive
coughed
daint
##atious
booth
somethin
afflict
biddy
makers
emblem
epitaph
wary
hallow
##ccas
simpson
southey
emphatic
tapping
stor
repast
erased
averse
1870
jolyon
manned
tress
reprob
candour
ruffled
ovid
nugent
wicket
##rol
defensive
blooded
contending
bulwarks
gresham
wyndham
pim
##lac
##iscop
thanksg
nurses
galleys
scrupulous
fences
hilt
pence
tout
tah
##outer
scattering
lloyd
promote
coasts
powd
bamboo
copyright
7th
knit
salutation
lancelot
bungal
lazily
huck
##cco
oversh
impregn
calvin
14th
bridal
reflectively
esquire
mantelpiece
crosbie
pennsylvania
gur
partition
armine
drily
imperative
systematic
audacious
lonesome
ached
##imitable
drug
slips
barric
158
establishing
patterns
dispositions
ripple
piteous
contrivance
##eded
confisc
relates
misc
ludlow
abhor
dess
mott
flanks
originality
montre
hawthorne
temporarily
##broke
unquestionably
morm
whoop
sewell
##plete
revival
canopy
##aissance
##roph
isolation
trough
measuring
recalling
1817
metamorph
##uz
##llard
withhold
sheen
caprice
tarn
fervently
stabbed
##ugh
trapper
precarious
frederic
multiplied
kel
##fax
##ente
##inders
longfellow
defiant
valor
paltry
hyde
griffin
beneficent
odys
rendez
battalions
bloodshed
howells
downcast
glob
poster
ironical
13th
exclude
andrews
generously
evans
pete
planning
troubling
stocking
buds
pits
##cht
endow
ignoble
affects
amounts
assemble
buckingham
temporal
laurel
somers
roadside
blocked
moat
buggy
raf
paws
hastening
resisting
psal
click
slung
profuse
villains
denounced
162
physicians
cords
juncture
legislative
ambitions
##inois
##untle
groping
daun
liege
enjo
damaged
obeying
pinned
reconst
whirlwind
##anus
##itarian
##olitan
ceases
dismount
revealing
infected
tokens
burly
divined
paler
temperance
paddy
wretchedness
rale
strether
avow
weighty
renaissance
gleams
jeanie
hag
##iceless
withheld
##amiliar
owns
necessaries
particle
summits
omit
communicating
surmounted
##oen
##iguous
##lett
ferment
interfering
mournfully
hing
comer
drake
##unga
juice
manuscripts
poole
##ggie
tracts
cleve
peterkin
##aska
railing
cavaliers
tyrants
sneered
discerned
perry
iris
veronica
blinds
harmonious
adore
turnbull
whitew
sunbe
sleeper
mutter
unfamiliar
dubious
complacency
boisterous
##cure
fritz
grunt
muslin
halluc
commodities
mimic
vehemently
battalion
challenged
abor
metals
profusion
hazel
eaves
##staff
enig
loomed
smack
crews
suprem
ancestral
dishonest
pharise
manual
demons
princely
includes
sovereignty
forbearance
cemet
deals
flitting
##ottle
18th
privy
conducting
jerome
criminals
mercury
lurid
dissolution
slaugh
rosamund
##uable
quo
endym
dispatched
161
##olets
ivan
twinkled
ezra
linked
metaphor
abolition
cuck
foaming
hoist
forgetfulness
benson
gestic
##yd
##layer
lasts
mocked
billows
marchion
copious
rudimentary
hammock
crusoe
inscrutable
slower
surly
unclean
divert
frogs
glimmering
endymion
dandy
stale
##anty
earning
submer
easiest
ruf
depot
demi
northwest
135
proprietors
prettily
##urb
abnorm
wavering
dearer
insurance
boarded
broader
starry
flights
preachers
bau
moth
wert
abbe
nightly
##woods
baas
kentucky
overthr
marjorie
##tail
quint
traits
101
juliet
1861
1864
diligent
dryfoos
ugh
forged
suitor
yeoman
##jection
promoted
conclusive
loosely
unmarried
stalwart
toiling
alman
formula
shortest
discons
plantag
dair
omen
##lass
maze
redd
concord
fitness
sickening
claw
149
tendr
imaginable
stagn
cemetery
myles
marse
hogg
harassed
waterfall
dispatch
couples
mortality
distinguishing
xxviii
jere
lub
sich
wha
colder
naturalists
intrins
risked
wardrobe
investigate
anatomy
yel
annually
##ologue
supersed
splashed
stupend
diligently
oyster
mistrust
ith
clenn
maim
baptized
eul
herbs
chag
skiff
availed
thanking
employers
potter
emerging
drooped
acquisition
appalled
creaking
construct
capricious
vase
atoll
raiment
subjection
complic
located
sterility
connecting
loosed
crabtree
detestable
unbelie
nightingale
choke
goble
attired
warming
##eship
steaming
stanhope
powell
wyllard
scandalous
tatt
##itans
##urcis
soaked
adolph
harb
skunk
devouring
consciously
greetings
taxation
cadurcis
aristotle
thre
##ulum
alpine
cometh
newcastle
elinor
replying
unlocked
##ummer
accost
##ricted
islanders
samoa
environment
nash
inability
##llo
carley
glade
harley
geography
archibald
episcop
cherub
reproaches
publishing
bailiff
gam
ranger
confide
woes
lemuel
allotted
carbury
slap
poland
decently
explore
forthcoming
revenues
sherman
nam
tet
palis
increases
suspiciously
huguen
unsatisfactory
wintry
oxygen
marchioness
##keeping
##ustible
hurl
denis
handkerchiefs
metaphysical
prevalent
clennam
laced
##eston
aright
plight
hyst
scorned
1830
bluntly
socrates
lys
ans
prescott
lovel
12th
labourer
sieg
yawned
##urally
shelton
soc
distinctive
surviving
gymn
reptiles
vouchs
reynolds
rendezvous
conway
accession
tennis
drivers
apologies
lydgate
partnership
celt
stumps
##isham
affront
gee
railways
materially
flooded
dedication
elsa
condescend
predecessors
locomot
kurt
tud
richness
strips
journeyed
notor
unsett
trow
slang
worker
savour
fatigued
reassuring
brussels
blu
composing
relied
doorst
salv
sales
hopkins
advantageous
courageous
collector
entreaty
transformation
ancients
clash
helpful
penance
cleaning
precedent
contributions
##esden
dona
virtually
torrents
combatants
sebastian
rained
##onge
enraged
unal
##avier
loveliest
anto
smells
pangs
anarchy
cess
kitt
##vil
atom
uncl
diffused
satisfying
foxes
structures
austrians
inventions
humbug
asi
sparing
malady
malign
thirds
plantations
mentions
volcano
kern
nit
nets
flitted
fairfax
catches
sprinkled
withdrawing
hooker
evolved
ankles
lancaster
inquisitive
infidel
##orum
##oughton
##intosh
##ggot
synd
foolishness
josiah
retainers
beaumont
poultry
hitch
##icott
util
athwart
clementina
leopard
aerial
##onne
sallow
slice
deluge
openings
16th
booty
outright
smould
smil
incurred
forgets
purport
consoled
kendal
subsistence
pion
##pin
prisc
chloe
margery
seraph
applies
expired
growling
orchest
engraved
palpable
rallied
beque
downing
secular
judicial
commanders
breathlessly
bowels
songbird
astonish
rowley
dishonour
sauntered
sepulchre
shipped
alms
timbers
cabins
tactics
euphem
fated
guiding
sweeps
brighton
joyce
danny
rabble
reformed
vacancy
invaluable
reeled
feigned
aph
schiller
raid
portsm
frontiers
17th
victual
turban
listeners
reproachfully
erroneous
atten
compliance
thickets
conveniently
limitations
sportsman
stealthy
gowrie
noting
saunders
##akably
burying
citadel
inaccess
gaston
xavier
##hame
##erie
snare
rupe
farmhouse
significantly
sicily
architectural
livid
factor
nationality
kills
calculate
observant
criticisms
sagacious
##azahn
macumazahn
sara
##stan
upt
feats
offences
truthful
portm
deficiency
fitful
intends
conspirators
cesare
thrush
mainland
berenger
tito
claire
willingness
giovanni
portsmouth
lances
##went
##erves
grating
scree
mustang
darkest
dived
##cipient
inartic
gus
##eming
grade
strongh
contra
momentarily
finance
waiters
foolishly
martyrdom
vigilant
stalked
carcass
naut
herb
orme
areas
howled
strides
pauses
tripped
defied
broadway
combinations
##ishers
deposits
congratulations
ugliness
##hl
beamed
sharing
lease
popp
helplessness
vivacity
remonstrated
delirium
##vre
knowed
opium
##obi
mystical
eleventh
columbia
thorpe
cordiality
pestilence
thanksgiving
dive
##atre
##antial
##opo
imagining
astounded
108
gaol
abstain
extremes
congratulated
potato
postponed
tribunal
pioneer
shred
marcus
##ickle
precinct
possessor
webster
barrister
avarice
unutterable
pione
##tt
##iom
##wen
##anas
meb
whichever
appell
sensibly
benign
arduous
bustling
tidy
wilkinson
tissue
chocolate
pul
##arre
nect
abated
childe
values
courtier
latt
strangeness
ingratitude
rations
sided
yarn
##bble
infection
pricked
contention
snapping
shaved
crocker
quotation
gude
flatt
violets
fifteenth
chemistry
outrageous
compressed
unobserved
##ben
frames
fourteenth
legion
meditations
blinding
##moor
vocation
gyp
whimsical
armadale
priscilla
bh
##uper
##bot
chess
##aug
teresa
lengths
irrele
ae
drained
1827
parsonage
intoler
turbulent
inexperienced
assurances
##eted
dears
##abul
apoth
lifts
representations
porters
rhod
bewildering
tumultuous
hybrids
symmet
6d
##ex
bead
##ota
ascribed
adel
flute
wayne
mightily
youngster
squall
foreground
davidson
steeple
fainter
prettier
elspeth
bony
outcome
madeira
dro
##igny
matched
apparel
samo
organised
stupendous
soiled
##laces
crist
intervention
champions
infallible
versailles
leaps
clang
holder
malt
battlements
paintings
heedless
scolding
sparrow
lank
mire
sacks
chad
uphold
abashed
quil
mortgage
inequ
ditt
piet
sizes
wines
marrow
repairs
calc
vanstone
references
failures
psychology
bugle
francois
countenances
bav
##mere
adrift
disres
passport
##bye
planets
mortar
cleverness
##remont
truer
impracticable
8th
kep
##erog
aback
willed
despatches
candy
agreeably
displaying
steadfastly
outpost
notting
charco
additions
darkening
wreaths
apprentice
dangling
belf
blight
supposes
immoral
henley
unfrequ
indulging
precipitous
azure
sallied
##eve
mending
redress
quicks
creating
autobi
24th
mechanism
irrespons
swarmed
telescope
portmante
gip
pes
joh
impotent
harcourt
barchester
mirr
chinaman
soberly
gowns
courteously
matrimony
asserting
waft
repaid
sleek
##bedded
educational
jama
redeemed
variability
peninsula
dairy
mush
##erel
chasing
peacefully
##keepers
almayer
hatchet
pervaded
mordaunt
whar
shark
knob
collapse
vicom
##ogeneous
ineffectual
anonymous
mint
niver
piers
##ittance
carving
lighthouse
phyll
layer
vera
translate
restlessness
kells
lawson
beginnings
xxix
noticeable
swells
implore
chatting
intruder
loop
plume
crumbling
index
primrose
colleague
hawt
sherry
precipices
squeers
disrespect
lashes
enables
thinkin
guillot
##shot
forsake
reassured
deplorable
vanquished
raleigh
supremacy
3rd
nailed
spi
braced
107
similarity
marshall
extremities
swarming
hilar
lute
##imus
unend
ungu
outraged
clover
circling
quietness
balfour
envious
timidity
insulting
eames
gaff
theres
forks
firs
contag
fours
illusions
burthen
deportment
portal
sharper
pathway
learns
laboratory
fervour
egremont
idolatry
anter
comical
spire
colt
affinity
insults
manufactures
marvelous
micaw
misunderstanding
##enza
notices
##ardo
blan
glide
apiece
suffers
browne
pretender
benefactor
sneak
decreed
programme
##atia
engrossed
artful
collision
11th
trotting
amends
philippa
reek
##istical
poorly
paste
greenwood
savoy
religions
pillows
gayly
taunt
kenton
epithet
pore
##imo
##elong
putney
trait
studded
157
wearis
guessing
lyric
splashing
carolina
humiliating
drapery
promontory
charcoal
##idæ
poised
exposing
equator
remarking
inclinations
guarding
locker
counterp
reigns
mosque
curtly
ebony
##path
##hma
##inian
##omination
forge
slone
successes
shoots
danish
hypocrite
rambling
vindictive
fus
##iery
whoso
##storm
neared
##weed
classics
ethical
suspecting
exasperated
##figured
buccane
plantagenet
hysteric
comers
##asso
disabled
blotted
preoccupied
lessen
109
depending
disordered
euph
cin
##velt
pastures
huss
##ucid
103
swiftness
scramble
dissim
1824
adjour
footstep
lambs
selina
dissipated
dukes
successively
flapping
spreads
spectre
trampling
languidly
zig
sheds
strick
calais
cheerily
tattered
overd
peal
provident
crowning
119
delivering
scratching
planting
julien
prophes
micawber
gul
##metic
##elic
##ounces
proven
blanc
halfway
##resses
transva
sleepless
acquiring
maturity
garth
colleagues
granada
baptist
beetles
repulsed
biscuits
maps
##pore
coff
##ernity
stockade
celebrity
traditional
remnants
unscrup
kite
pry
chums
conveying
amos
scud
##aired
depra
bats
fixedly
wilhelmina
transvaal
albeit
populous
25th
enormously
prejudiced
gasco
lanterns
unselfish
fans
sash
sable
##aparte
abuses
puzzling
lugger
survivors
##osph
closes
##enden
gentlemanly
legacy
embank
106
148
reminding
merchand
1819
penniless
glacier
highlanders
##dan
unans
finch
##ynes
129
coaches
pantom
darting
gibson
mixing
##onement
deleg
rightful
suddenness
celebrate
ingenuous
clusters
exaltation
kelly
rox
twill
blurred
##aca
interse
invitations
succumb
dismayed
1834
awkwardness
swarthy
mediaeval
##ji
exeter
thereto
##oli
##quin
##angular
observes
transient
banish
bathe
alterations
hospitals
emancipation
upside
grecian
footpr
realizing
treats
britling
desertion
tremendously
caressing
dh
ley
unru
##ceptibly
edie
completion
104
##etto
19th
familiarly
baths
montreal
hive
theseus
192
renounce
fis
##ilation
unfe
dresden
devast
##liven
imaginations
convoy
violin
derision
feeb
pallor
descendant
charteris
##itiveness
maine
reverently
visionary
1839
counterfe
primeval
jamie
suburbs
cowboys
overlooking
expansion
moderately
oth
##oux
##olin
agg
scuff
wilds
thinner
subdue
mythology
repulsive
nymphs
illumination
fon
##cat
##æval
##imm
flushing
151
1868
alternate
outcry
wearisome
vander
amelius
coher
sayings
prescribed
emil
fared
peaceable
weights
pardoned
wetzel
unhappiness
preparatory
crackling
gangway
prodigal
stimulated
writhing
##itatively
stowed
regulation
trevor
raises
provost
wessex
proffered
bubble
helium
barring
insists
fortifications
circums
vanishing
impertinence
burglar
plymouth
arithmetic
lut
pep
##ogn
merwell
barbaric
applicable
insisting
quebec
inert
enliven
quid
roam
resuming
attitudes
##rove
fellers
thankfulness
102
surmise
katie
levelled
##iva
perusal
scab
pleasanter
eyeing
massac
extracts
usefulness
conveyance
rousing
swamps
sequel
vertebr
ostr
##nock
##celled
##urers
draper
respectively
ersk
boundaries
113
##alties
sanctity
shipwreck
jamaica
pug
##oor
conve
##umper
arouse
flakes
cabman
cowards
enlist
adoption
impostor
##ser
haf
fri
insom
muriel
flaw
ambush
##ommun
reproached
leathern
tipped
pea
recomp
questionable
mids
petals
surprises
majest
grandchild
##ruption
1832
nominal
blyth
inaccessible
pott
rasp
sut
##erc
ather
##acities
##aceous
misled
ethics
demonstrated
phillips
oeuv
cip
##erving
bean
norris
distinctness
dowager
##lding
presentation
rais
excepted
comprehended
dorn
tad
##cou
##ema
coil
loading
relic
sociable
saddled
tarry
ostrich
##cled
##cons
##brand
interch
motherly
##rences
raoul
britons
exchanging
conformity
affirmative
domesticated
pauper
overflowing
tested
##hoe
##enberg
##lder
sapp
retort
dancers
captiv
luxuriant
niggers
hearken
strickland
##itical
##icia
staid
marcia
blithe
##acular
patting
robarts
ower
disappearing
involves
bulstr
investigations
vaulted
##afe
chlor
lightness
phosph
defile
hawkins
ruffians
deferred
impulsive
confederate
lids
rates
britt
brushing
unwill
collective
tudor
pioneers
bards
##urnal
snob
midway
lucius
wheeling
predic
conjunction
tropics
healed
housekeeping
exacting
carlisle
engraving
brougham
erskine
pudd
deft
missis
acquitted
crewe
resulting
collections
taxed
lilac
vertical
midsummer
##antically
adoration
fluct
scull
parched
118
staunch
hassan
bulstrode
zane
recept
cracks
1860
1865
investment
federal
ducal
hawtrey
exe
##unty
blackguard
palat
recoiled
##dington
pondering
vocal
calendar
newcomer
dio
##eus
##lan
topped
formations
penalties
forwarded
eternally
echoing
ella
intervened
tartar
leopold
henderson
och
##alay
noct
proudie
lucret
experimental
masonry
presbyterian
euphemia
unwillingly
gour
##yards
stack
coated
133
uniforms
truest
bombay
disregarded
sentinels
deerslayer
jost
##uces
##croft
nev
indolent
drenched
belts
oph
signifies
wildness
romola
accorded
shoals
lodger
forfeited
evinced
counsellor
departments
shapeless
texts
ensla
renewal
closest
##actorily
inarticulate
unansw
hitting
rook
prig
ammon
craven
uttermost
dirk
stairway
condesc
alderman
celia
##mish
##jured
sheath
tracing
syria
costumes
imploring
conquerors
cripple
unearthly
gales
##gham
sling
relatively
silks
treading
ceasing
fielding
121
rowan
cloister
unprep
checking
sluggish
##dest
daytime
blinking
##ipse
sometime
harang
daven
stationary
subscription
arabic
brushwood
bothered
tavernake
mummy
ritual
embodied
covetous
vista
##lli
seating
exuber
outlet
##atters
infants
##rupted
employments
claiming
dolls
proced
devise
walnut
freshly
cartridges
rake
guile
mony
exposition
convicted
pitying
1845
skulls
ethereal
junk
illinois
dispers
archway
organism
cloaks
wigw
caldigate
sart
##ui
blur
##ibles
saddles
thirteenth
safest
incredulity
winkle
sceptre
##cot
expelled
##ensis
##mingham
26th
presumptuous
phyllis
mi
wry
##rams
wares
elim
footmen
deepening
salam
developing
rejoin
##etheus
maude
embroidery
gavin
furtive
submerged
##far
inlet
hain
##urch
stave
heron
hove
norse
swith
curb
steeds
detection
casts
verena
obliterated
stimulus
babbitt
compartment
##gated
##horn
peev
burnamy
coupled
112
organisms
exclusion
identify
mahog
tigers
overpowering
surpassed
fibre
##east
hep
chit
qua
delightfully
liberality
ignoring
unwel
wrap
inflected
unawares
velocity
adul
disem
circled
consistency
filth
depressing
aggressive
athletic
wage
whin
##rium
abner
twa
consciences
wailed
stein
veritable
despotism
bennet
critically
147
masquer
unpop
damnation
consummate
insensibly
intrigues
mahogany
pash
plums
patty
varies
mains
barnaby
maple
omnip
exploit
smoky
dans
zest
##gian
##fin
stains
stalls
chaste
perth
expectant
##uctions
stirling
irritable
dewy
unprof
stratage
fresco
unavoidable
aperture
unsettled
houghton
disrep
overgrown
persia
confiding
insol
observers
colloqu
importun
glassy
131
hamps
29th
1837
worshippers
fother
##chi
reiterated
chanc
twop
pey
humored
ladders
wallenstein
musician
21st
dilap
mossy
gibral
plaintive
reddish
eulog
2d
##inities
atoms
serje
graver
besought
rumor
inexorable
verdure
cedars
unfolded
waltz
jennie
surplus
##ti
##omi
wentworth
elms
follower
softening
avon
belongings
beatrix
154
supplying
irritating
rudeness
1798
mediæval
squalid
##isers
reich
phases
misle
listless
broadside
152
116
manifold
granting
applauded
grizzled
certificate
litt
##cop
##full
inmost
intuition
miscon
agrees
steadiness
zeus
misunderstand
enchantment
unconcerned
asiatic
hos
pess
wegg
linds
confidences
madge
dispense
furthermore
communities
sandstone
assistants
macdon
##ricks
spells
melodious
mysie
mish
yore
##mor
##wife
football
commonest
defences
satisfactorily
practising
unders
venturing
masked
prowess
hampshire
dint
fiss
##eses
##itage
##lacing
purg
tennes
appetites
gaudy
mitchell
disobedience
unscrupulous
fighter
zul
##zi
##cho
arf
affright
physics
tottering
confidentially
tourists
spurred
taint
##iline
unions
carvel
carnal
muses
##comb
scroo
contradictory
dic
##andum
spied
infamy
occurring
envoy
patriots
degrading
promenade
transcendent
licked
chests
broth
barrow
suffoc
runaway
singers
determining
grouped
flowering
candidates
disclose
encircled
cramped
condescension
managers
knaves
overha
crane
varn
equals
ranked
falsely
marianne
buttoned
burgess
repressed
delaware
orchestra
swithin
unpopular
lund
unass
unob
##izations
parley
rocked
authorized
robbing
massa
venison
digestion
chauffe
unanimous
peremptory
bally
kila
##riment
##nected
##erd
saus
byz
orland
alma
invaders
altars
proser
supports
abandoning
piccad
minstrel
##untlet
bates
oss
##vat
housemaid
eli
grease
factories
courtly
lucid
##cheon
dismissal
substituted
lenore
boulder
tilted
atrocious
tapestry
##omising
hazy
exempt
overse
terrier
checks
sprink
132
responsibilities
incompet
scrambling
bubbles
disheart
terraces
overthrown
unwelcome
dile
mered
tories
tanc
##dem
##esley
##chel
evermore
coch
purer
discarded
luis
angular
markham
undec
intrude
fancying
benham
bases
brigadier
cashel
bungalow
mebbe
ration
yu
##wy
ency
clums
flats
wrayson
maun
kindling
fallacy
furnival
toleration
dutchman
hindered
higgins
bayonet
nave
##ait
##tons
##word
##inies
##iro
##ightly
activities
daly
talbot
occurrences
drying
sympathize
richardson
leafy
inexha
forbes
ungod
diagram
tiptoe
##aus
##urian
unst
##igree
assumes
220
peasantry
predecessor
piccadilly
tancred
##cery
##fol
##lau
poke
retros
prevents
forgetful
permitting
unbounded
incidentally
meredith
fates
tying
##lins
##fal
deceiving
partridge
uncanny
grassho
gambler
inflamed
disengaged
##yce
teams
friendliness
breck
restoring
drear
detested
crave
dieu
correction
exche
paddles
##tesse
skirmish
subterranean
orlando
dipping
##rat
prote
unce
obsequ
laver
moy
triple
mistaking
titian
parisian
143
rudder
decorum
sophie
dictate
conjectures
plundered
hackney
enacted
wrinkles
agonies
restricted
squires
wonted
superiors
candlest
30th
paddled
feathered
asserts
moslem
lobster
hodder
spines
sciss
workmanship
influential
intrusted
stormed
thunderbol
chemist
dudley
vavasor
dough
prisons
roden
donna
centres
accompaniment
144
osmond
nickn
sniffed
tattoo
lindsay
##uration
fract
nods
##oodle
flap
##ogues
famed
valid
savings
wilmet
146
ensure
irresolute
pompous
impassable
niag
serjeant
##sbury
##sets
alluding
poach
##phic
spires
christened
titus
kansas
lug
##esse
hewn
consort
restlessly
adviser
angered
stiffened
uniformity
outwardly
gyps
burghers
municipal
pessim
##icus
quix
formality
bothwell
##criptive
127
rivalry
becky
appointments
rebuked
presumably
psalms
dice
hissed
heresy
hadst
cland
kew
lax
incont
camped
rapids
##ova
involving
cooled
1842
apologize
scolded
sitt
southampton
sample
maced
bathurst
emerge
journalist
cuba
impassive
fangs
exchequer
##town
##otus
fraction
abe
yew
lightened
breakfasted
catharine
avenues
disagre
tourn
inveter
thermometer
frustr
arsen
clattering
##ciers
connor
methought
universities
qualifications
filial
vulgarity
taper
ingleby
drunkenness
abolished
overshad
chal
unbe
outlying
##lagr
134
capitalist
concentration
trafford
warranted
ais
bien
watered
wilding
salon
davies
hamel
inhabitant
mourned
brutus
tennessee
encycl
fict
chu
voiced
martind
frightfully
ferris
##burton
crafty
rejection
wholesale
nuns
advertisements
gipsy
gibraltar
##owth
##entin
reel
##ulence
brom
##igation
slumbers
##bris
##bright
winced
bellamy
cooler
inseparable
facet
cracking
enterprises
irrever
puffing
inquisition
brazil
doorstep
flattened
lithe
manfully
grazing
poorest
cabbage
uneven
sacrificing
survival
monarchs
brutality
corpses
warehouse
matrimonial
niagara
jagged
wady
whales
conflagr
settles
153
magnetic
111
commissioned
bostil
perplexing
stalks
symptom
martindale
coss
oats
sene
##acia
##ede
##itus
inan
canary
downfall
edwards
##akeney
finery
granville
refrained
jenkins
corridors
corrupted
remotest
incoherent
##inable
##ishable
saturn
slab
inns
separating
protesting
counteract
jarvis
bing
jonson
pout
perceptions
marlow
contended
wrenched
begone
worksh
excav
prevails
babes
bennett
scraw
blasted
corporation
##aned
##teness
mats
bolder
142
exceptionally
buster
1802
indicates
coroner
abnormal
onwards
##ppin
##opoly
grouse
##wear
distraction
traverse
siles
deciding
collation
creeds
decorations
enlisted
prussians
stroked
achievements
pettic
grievances
lister
wakes
ons
peggot
blakeney
serp
impunity
layers
dutiful
transf
sharpness
petersburg
condescended
dian
pals
##mast
##ilus
##arde
cirri
camping
eugen
uninteresting
discredit
knuckles
##ware
elk
earthen
hamlin
avert
compelling
diminishing
irresistibly
doggedly
merchandise
ego
blacky
freezing
narrated
117
bentley
1869
tightened
predicted
barbarian
foresaw
stubbs
impersonal
peggotty
ti
##attle
canals
groped
commencing
geomet
palestine
##letons
birmingham
lucille
witted
saves
enge
traveler
alban
convulsive
tanner
scoundrels
dering
unat
##lair
assim
snatching
testified
establishments
27th
vapor
psychological
grocer
powdered
cf
##pur
pervers
phoen
suns
creditable
fetters
jesuit
imperturb
piteously
discomfiture
bays
sanch
##hi
trink
##enshaw
supporters
repar
##oyed
veneration
physic
princesses
bristling
kan
reversion
fleets
137
##ascar
##ienne
pantry
vehicles
lavish
coyote
dulness
unwh
flur
parox
collapsed
spotless
##ika
relieving
ensuing
objectionable
ramble
stamens
stamps
doleful
boud
lacy
##alis
troth
resid
friendless
institute
unlo
michel
haughtily
lounge
gorilla
shuffling
microscope
celtic
portmanteau
petticoat
nid
hiss
leger
##awk
114
bridget
crystals
fertilisation
lamentable
oysters
##bet
prerog
callous
graft
meddling
jeh
122
briggs
josephine
xxxi
dyed
selecting
adherents
stifling
gudrun
##rion
##lay
##asies
sauc
##ardon
maraton
reposed
dilemm
gush
tinted
##estim
scroll
addicted
##sham
merv
singly
##ifices
##eshire
casks
succeeds
enterprising
incomplete
tinged
livelihood
tulliver
paroxys
gables
ky
sower
witt
##aki
spouse
blen
builders
##erva
broadly
presses
hypnot
swallows
murders
tragedies
brooded
muckle
cudge
kant
prag
oratory
##ositions
inscriptions
rancher
successors
politic
venters
conquests
cleverly
clamor
vineyard
reproduction
scourge
yah
zone
herman
obso
delays
winters
139
puppy
210
28th
tickled
diplomacy
maximum
tertiary
rupees
macdonald
hee
lair
armch
greens
reporter
reduction
profited
annoying
lateral
undue
viola
recognizing
employing
incredulous
telegraphed
sucking
ramparts
degenerate
raced
waked
oranges
plag
humfrey
behaving
scraped
scotchman
aint
dames
goring
bever
shave
##ulates
doz
broker
##rys
grog
balm
travelers
disciplined
advertised
obstinately
##line
##bin
##women
shiny
unac
##rym
armand
sussex
##minated
1816
1850
cobwe
saucy
kur
pem
##ruda
##cular
##utting
worthing
##laws
quoting
reside
resorted
##cedes
maddened
masterpiece
publicity
solar
inquiringly
panes
parental
revelations
lynch
roasted
submissive
kes
roose
##oi
##sley
##iman
##adoes
docks
wayward
objective
reverber
undertone
grossly
portentous
inexhaustible
whiff
himalay
blair
incumbent
severed
schoolroom
pickle
calculating
rheumatism
multiply
carpets
mitt
naming
waken
##umbr
roving
pern
mara
indom
wring
pha
reprinted
summers
jackets
afternoons
loudon
affording
economical
foresight
foretold
myriads
jurisd
precincts
unprepared
##oner
##ombe
spine
blues
slander
sunburn
misre
ermine
towered
proximity
upturned
cipher
wakened
##kingly
morel
perkins
plow
blust
trails
casement
gutter
bowers
crib
##inue
##iration
quentin
electrical
hauling
imprudent
minimum
toned
##cation
##finder
neville
brides
grumble
incalcul
valves
dangerously
tallow
purchases
mechanics
sketched
reigning
accommodate
bracelet
feign
howe
##swood
waxed
proposes
susy
raining
1867
digest
fidget
unwholes
obsolete
##orial
##icut
repute
characterized
convales
constitutes
glazed
swedish
henchard
shod
hoard
workings
quartered
revolted
cunningly
slackened
indefinitely
ptole
fent
bray
goodbye
subal
warburton
artless
publican
samson
bowen
hangings
quarterly
dunstable
lovingly
feasting
conflicting
boulogne
kemp
mervyn
600
pung
##atig
ampl
afoot
rocket
freddie
eagles
nourishment
knitted
retrib
barriers
numer
revis
numberless
halleck
narrowed
torments
levels
prairies
draughts
parasol
roosevelt
gore
jin
lining
socks
exig
vicarage
transports
licence
unhealth
inexpressible
insomuch
gly
##voc
believer
breton
##iterate
villas
winn
destinies
bowls
##iums
rigidly
infirmities
lxxx
amphithe
subaltern
baza
##gson
##amen
willis
spat
roch
##cliff
monopoly
duff
undef
astr
pageant
assemblage
ruthven
boasting
dye
unjustly
bohemian
implicitly
fak
##eros
hapless
indolence
colby
infin
puritans
blackbird
perfected
resolving
offerings
amounting
gaul
acknowledging
tupp
precipitate
moulded
orchards
laurie
dominey
chauffeur
##utant
##urus
hourly
variously
viceroy
complimentary
scholarship
physiology
roost
wim
threes
##onent
fables
mightn
wavered
mortified
motley
bandage
worsted
expediency
1803
##itution
peru
strate
##coats
laf
moccas
trusts
bushy
florida
bucks
sneering
ounce
raps
##enb
##esies
##otence
cone
irving
gardiner
inez
hinges
##gast
inact
##idian
stumble
liza
##rians
##rag
uner
assy
surrey
madrid
bravo
124
hostilities
agreeing
recklessly
medicines
compassionate
bayonets
incongruous
aesthetic
victuals
ungodly
dund
##ya
infinity
parcels
christine
classed
breathes
141
##bourg
fretted
caverns
laurels
locomotive
gash
##enching
##ghan
stunted
spokes
flan
mustache
##ighters
imputed
snee
servile
demoral
brightening
tawny
axis
shedding
acquiesced
equipment
despondency
adaptation
symmetry
boudoir
font
sier
##itching
##uro
canna
joanna
commended
furnishing
multitud
victorian
molest
indefatig
squirrels
crammed
bookseller
merrifield
##orily
##ariable
chor
actively
tiller
##rieved
tomah
inquest
lengthened
augustine
warnings
forfeit
hussars
cement
##aning
##adt
frolic
##istan
usages
##udging
peggy
foy
bedstead
pastime
fastening
exercising
cupid
memorandum
partiality
unfavourable
nautical
unwholesome
fauna
##coe
sirs
harvard
uncles
forgave
servitude
translations
physiogn
disapproval
crocodile
clients
marred
##ossess
caresses
pever
harrow
forgery
brag
effig
diversity
flickered
fung
##ayn
clans
insert
invariable
ratio
ambassadors
loathsome
unpreced
sew
thereabouts
abiding
minerva
streaks
freeze
cloths
priesthood
138
irrepress
makin
enriched
rhetoric
dilemma
nieces
shingle
##iem
##ousing
outdo
absently
succour
legally
legions
##urities
hoary
##sooth
plainer
ventures
123
claus
articulate
roofed
semic
puffs
railroads
uninterrupted
moose
propped
limestone
shoem
126
yields
rufford
russet
gong
winking
##rates
##hist
##lden
imbe
impressively
reverent
macall
bleed
perseus
amendment
gonz
laverick
unprecedented
knotted
lecount
##umov
partook
kindle
extant
dinna
cyther
ruthless
mexicans
screwed
nourished
razumov
camb
rilla
##llan
unused
evas
soudan
dreamily
melville
sumptuous
neatness
bunting
tempers
abandonment
bibli
relaxation
scissors
nause
bends
stile
##thin
regen
registered
pathfinder
occupies
triumphed
pretends
##oese
elector
curiosities
240
manifestation
ethelbert
prefers
minstrels
barrett
aisles
fictitious
ouse
ogil
##gli
forsooth
##osures
crests
courcy
##avy
merited
mercies
firelight
brownlow
sympathise
sorrowfully
overhung
carthage
slaughtered
misrepres
outlaws
consume
cloudless
submarine
flicker
abhorrence
mercenary
3d
##ombs
striding
circumference
sharpened
230
diminution
alphab
serpents
jars
##oris
stinging
debris
##ivil
strangled
thinkers
implac
raving
animosity
knocks
macaul
biographer
brushes
slaying
sequence
deringham
hugged
witham
ree
neil
brant
quenched
besp
hurting
diving
immersed
captors
requirements
skeletons
appropriated
rye
cholera
borg
orms
halfpenny
confessions
blankly
fragile
##zanne
aide
kon
tens
##rade
##asia
##chamber
legg
inspected
felled
studious
winston
soliloqu
towel
berwick
gayety
strictest
tortoise
dilated
becket
scepticism
fiends
dissipation
incorpor
snarled
inconsiderable
exeunt
awn
gaps
##hes
##eda
##icating
byr
unwell
reserv
moored
genoese
lighten
colville
##eyer
occupant
sympathetically
package
cooks
squadrons
grievously
illegitimate
recreation
macaulay
mab
##enham
##rap
overhe
badge
verloc
magnified
nobleness
reformers
impassioned
scowl
##abulary
##orical
##celer
lifeboat
elong
##shead
woodward
persuading
arabia
aristocrat
thenceforth
carlo
##animity
shipwrecked
##aci
##moon
inaud
##imented
##ndered
twixt
commemor
irks
hutch
jarred
contradicted
outsp
shrouded
nimble
atherton
##bu
roe
speakers
elections
heaviest
angus
labored
narrower
descends
195
copying
niche
woollen
constituents
chelsea
reparation
sharks
onto
doves
maniac
offense
charnock
sideboard
sweets
brah
urban
136
pantomime
indomitable
£2
beards
reun
slanting
grahame
colvin
numb
denham
##boats
primarily
ascertaining
hansom
tubes
infirmity
enthusiastically
prickly
riveted
lustr
lashing
##æus
reggie
robed
footh
desult
wrench
intercession
embell
wycher
##occo
hesitatingly
blasph
zoological
##bal
thatched
##vet
altering
eliot
refract
barked
pater
calico
husky
grandcourt
morley
shadowed
##holders
mansions
observance
tourist
irrevoc
heyst
cuss
hating
hicks
overf
hereby
backing
obtr
##erville
sustaining
terrifying
normans
embankment
suzanne
sakes
exor
##emar
enth
gob
##oline
##akin
thinker
interl
merest
patched
exploring
depreci
firmament
torped
1813
juno
seedlings
glacial
arrogance
spheres
blasphemy
gully
jee
pies
##omest
doyle
suffolk
commandments
trustees
assemblies
tortures
canton
dingaan
peerage
havoc
vas
vide
wight
thistle
##aubon
burdened
philist
dissu
1812
morrison
pyth
glistened
oaken
##cup
presided
suppl
grimace
physiological
embraces
dissatisfaction
zigz
procedure
peveril
lure
allie
yeo
regulate
schuy
mistook
protracted
shameless
absurdly
nervousness
ferrars
ailie
midshipman
das
##oven
##advent
##pels
nosed
marbles
harman
suffrage
pulls
1833
naive
lounged
simultaneous
pith
caryll
genesis
steers
richards
##bearing
strikingly
markets
##picious
##affe
preferring
admiralty
elfride
##still
shewn
clank
joll
##swick
confront
bullock
socialists
thoroughfare
eventful
apologetic
polynes
reproduced
hazardous
conceded
chatt
faltering
##ennial
cooling
aberd
pearson
keswick
mash
nous
##hound
##iards
##cal
##atto
flit
whereat
stepmother
attends
sanity
tucker
placidly
constraint
assassin
spontaneously
dissenters
eclipse
cessation
multitudinous
##arians
##kend
##taine
##rob
##arrant
northwick
gallilee
immemor
macbeth
spoiling
griefs
feasts
omission
darts
mosaic
rashly
copperfield
bronzed
commodity
belgium
magnanimity
cuckoo
jurisdiction
priceless
##umpt
copp
sayin
betsy
madras
signore
strap
westover
gunner
prospered
280
conscientiously
indiscreet
myrtle
dynamite
ditto
##tera
unab
blighted
##ships
##heart
enjoys
minutely
widened
routed
1796
exulting
buoyant
remedies
##mat
##ko
pri
loathing
reticence
installed
##angement
gentler
repelled
framework
hammers
clutches
penitence
tressilian
vouchsafed
files
jist
mung
fra
unlaw
adon
groo
timely
##rock
surged
misapp
signing
roadway
malchus
bonne
subtlety
persistence
troj
dah
##pill
##linson
circulated
##iencies
aurora
vassals
wetherell
sprawling
schuyler
lumps
thirl
##arms
prologue
quench
##quered
##abling
betook
owning
emm
actuated
##esha
explored
diego
unconsciousness
advertising
humbled
arcad
miguel
demeanor
smouldering
##jou
##entive
##irst
dobb
agility
mait
##ruct
equalled
veracity
paddling
thorny
localities
manufacturing
nicer
conventions
raptur
mowgli
multipl
##marks
##wald
##atri
inad
forcible
##amma
chips
goodwill
cray
descriptive
##issible
##ubber
trailed
confessing
florid
wheeler
overturned
slumbering
ploughed
squatted
lorr
query
poignant
edmon
wildfire
widows
emptiness
cartwright
sublimity
replen
bashful
florentine
forrest
heritage
deign
twere
persians
greene
hillcr
effie
oblong
milder
cruiser
lurked
epigram
predicament
##cessions
starlight
pitiable
wedge
ascetic
ardor
receiver
ruefully
prowling
dup
dunk
seym
handles
carib
talkin
meta
modify
portland
figur
denmark
dennis
repeal
cannibal
unpleas
repairing
jennings
reptile
caterpill
stronghold
pist
pumps
thady
confines
romayne
warmest
allowances
reverted
rumm
debtor
aubrey
lizard
armchair
gim
mounds
wos
##olly
broc
agn
adroit
johnnie
statistics
grimy
moodily
ellis
prophecies
inconsistency
coronation
congo
coiled
accusing
castell
casaubon
packs
robertson
postpone
complacently
odyssey
tamed
unste
sponge
sloped
sawyer
elated
continents
gradations
cleanliness
1818
wakefield
gravitation
clarendon
diplomat
recruits
humphrey
prohibition
vermin
conflagration
sot
ungra
##ocles
scarborough
soldiery
colourless
clothe
##isphere
shyly
bourge
francesco
misgiving
thwarted
bohemia
adelaide
nottingham
semicir
aberdeen
seest
wellwyn
plied
everyday
varney
rube
target
converts
bowser
carlos
tramped
conspicuously
scorched
lisbon
dozens
jot
islets
unbear
abounded
lavin
##rossing
revised
unmol
##haus
recklessness
transmission
sculptured
carrots
infallibly
footprints
##irms
##ambe
pregn
encomp
padre
lusty
bombard
consummation
##rodite
cud
fy
larks
theolog
indict
continuity
novelists
constantine
republicans
xxxii
adversity
esquim
magnanimous
unmolested
kids
lus
##uble
##ulet
##inah
##ileen
cress
glint
joins
##igneur
mercedes
rugs
##beck
collars
osborn
diseased
tramping
phantoms
laurence
nathaniel
gorg
hou
##ceness
##vii
wendy
marries
surgeons
standstill
ashton
recording
lyons
reformer
beckoning
coveted
inflamm
soothingly
negotiation
gulls
salutary
##ario
clinton
giotto
##hampton
freck
freak
mountainous
denies
excellently
clair
electro
friendships
inferiority
gusts
dynasty
astronomy
irresponsible
alluring
sphin
portico
burnet
porphy
smartly
carmina
apothec
pasha
##ignon
supple
##ocene
##obia
260
uniformly
inflection
pisa
coon
##abe
emiss
##aires
streaked
boatmen
authoritative
wagner
lucifer
avenged
hybrid
snarling
##esch
##idae
stagger
##ighton
shouldst
impious
latterly
apprehensive
hemisphere
contrivances
categ
##iop
evergre
cog
flir
draped
runner
figs
unda
souther
campaigns
disappointments
reclining
unbelief
ethelberta
##bound
withering
frau
clink
capacities
realms
calves
encumbered
##archy
partisans
unsteady
ungracious
hild
mite
prism
baden
bounder
slapped
shoal
languor
colleges
##etera
scraping
tearful
suppression
chewing
tappitt
seling
##rope
appeased
##beard
astounding
rigged
vaults
selingman
fished
filed
##good
atonement
agam
bled
teller
choic
annex
##fields
bewitched
bridgen
reinforced
gruffly
disprop
pernicious
indefatigable
irrepressible
bair
giv
##etted
frantically
##emon
unri
tresses
flin
lett
slit
childlike
susie
noblemen
128
anchors
irrational
borrowing
elaborately
blushes
bridgenorth
via
prized
wringing
burles
realism
discol
duches
##amba
prosaic
ballant
viciss
1866
interviews
alexis
ravines
controlling
mame
##zon
dejection
amanda
clumps
##agn
vancou
locate
distresses
wingate
drifts
emperors
blundering
brunswick
tufts
fittest
johann
seymour
lard
foresh
stann
chey
##qui
eligible
acton
homeless
faithless
panel
lama
dawning
spoons
adjutant
intoxicated
belgian
cylinder
posterior
whitewashed
chancery
undecided
unpleasantly
vancouver
dump
taw
##hild
stability
franch
sucked
serf
monopol
introduct
operating
270
bastard
bribed
engravings
sceptical
genealog
exemplary
vie
##onder
##cos
lending
presid
guitar
minut
ahab
grande
bankers
basement
banishment
parks
procuring
tolerated
whitney
1848
withdrawal
juvenile
nocturnal
fees
peat
letty
norah
merle
pickering
fierceness
qualification
pyrrh
blandly
rite
##pell
genev
completeness
superv
vanities
fleming
doublet
drunkard
steeped
absorption
manufactured
enchanting
##locks
ravenswood
looph
rave
deities
conco
acceler
uncivil
urb
tariff
dorcas
pedigree
apologetically
clustering
rippling
ferguson
arrogant
meteor
autobiography
incalculable
tether
vos
##gett
##viii
marines
workhouse
relapsed
trips
deputation
commandment
legit
hyper
dimmed
skylight
aiding
correspondents
autumnal
mercant
postscript
corey
mosquit
accosted
gascoyne
unhealthy
surn
vaux
##aque
##gingly
##hine
##uttered
ongar
inductive
boatman
encroach
mutine
daren
unfath
entertainments
##naturally
1809
pounding
rodney
emigrants
gondola
razor
fontaine
pse
tir
##daugh
##church
react
ishma
##olia
amal
begotten
apathy
quieter
bulky
incidental
cockney
demonstrate
taboo
pamphlets
gudruda
devoutly
tuppence
hillcrist
porr
##core
tome
jobs
retal
officially
undulating
climates
duncombe
napkin
athena
cypress
canvass
cosy
remonstrances
vagu
relentless
undeniable
kaf
hopped
##eaded
prometheus
dealers
daunted
meditate
denoted
civilly
shuts
unfriend
pauline
shaving
sultry
shuffled
dilapidated
vene
##des
weaving
agencies
drugs
evap
immig
popish
film
parentage
supremely
vestige
convulsively
pumpkin
crusade
discourses
byrne
jeeves
waded
rending
sull
##ilia
feeds
comfor
drought
templ
suspend
marvelled
allegory
punctually
cavity
carbuncle
pedestal
auctioneer
appellation
tiber
##ador
##rands
snarl
numa
meditative
violation
brooklyn
flowery
chuckling
festing
authorship
ajar
decomposition
cytherea
dillon
evel
zack
shanty
insure
floats
denounce
picks
birkin
sufferers
##cipher
wingrave
flowered
gilmore
festivities
dishevelled
dixon
disconsolate
laps
inestim
atone
della
outw
contraction
consuming
artifice
frontisp
rosal
ingle
tangible
intrinsic
hick
lath
renshaw
##asi
uphe
scored
beauteous
continuation
yearned
calmer
##grams
ayesha
statute
debated
adopting
disciple
assertions
jesting
desultory
poyn
##issy
continuously
dutton
churchill
augmented
locust
barbarism
incapacity
##burne
initi
mormon
implacable
jingle
pshaw
##aro
weave
orang
tease
appl
graced
patrol
##ermere
permits
bales
##box
deriv
##monds
montrose
hunts
galvan
accusations
acutely
equipage
anatom
compositions
redoubled
undergrowth
immemorial
##cet
decked
##raised
role
flipp
indel
lightest
deluded
reducing
aha
shopping
shocks
rumble
elizabethan
prelude
antagonism
bubbling
##ogenes
ishmael
lenn
toots
##icles
sey
mecc
dodd
poe
sloth
missiles
meanings
snatches
cruelties
specified
fulfilling
usurp
tiles
##gently
bygone
##quets
##ivan
littlep
aps
electors
offender
ingred
domestics
mirrors
pseud
##asco
seq
knaps
brod
abounding
##ndergast
##elles
kee
miscar
equiv
musicians
##ennes
coloring
tolerate
anticipations
excesses
decorative
levi
persistently
boule
exasperating
metaphysics
hydrogen
receding
scanned
cay
##war
chink
##usc
blo
glamour
admittance
signification
judas
penc
dictator
flavor
corpus
##oplasm
cauld
fooled
uncontroll
inveterate
fickle
giver
firewood
wallet
transverse
folio
stirrup
credulity
developments
1858
chatted
defective
selves
pettico
beguiled
mercantile
pours
hamb
##amus
weas
manse
adri
runners
corny
bonnets
exhibits
unpardon
rawdon
disclosure
indiscretion
delirious
nectar
geometry
fumes
gage
rac
items
glover
believers
steak
cravat
causeway
graveyard
moonlit
railings
hawks
mulvan
editorial
thumbs
andrea
pulses
mulvaney
##asingly
heretic
drud
discovers
watchfulness
##uitous
preferable
tunes
demonstrations
sneaking
blythe
burrows
skirted
vicomte
##anti
brady
##opot
spiders
norgate
cleans
parable
handsomest
masterful
improp
##afa
rigorous
cellars
manifestations
unguarded
lavinia
bared
blend
mck
vases
seiz
shewed
trash
imitating
defiantly
huxley
alarms
praising
lampl
restraining
1793
vestib
recruit
dervishes
forsyte
saladin
stratagem
cue
gie
gunga
rumbling
aspiration
roche
poked
hovel
embit
attested
retinue
##umbo
tribune
neglecting
melodram
gnawing
aborigin
mumbled
##pas
shamed
sects
##isticated
intrep
imputation
patrons
arran
knighthood
seville
requesting
plotting
distinguishable
surmised
automatic
eunice
calcare
wery
chilling
carne
surge
deline
##lius
brandon
homeric
bosoms
dominated
stupidly
exaggerate
stimul
fleece
tuscan
superseded
inanimate
introductory
linton
compulsion
supercil
altr
dwellers
accomplice
honeymoon
tramps
pervading
cack
##brush
##ittingly
##ahs
favourably
striven
##ambles
tenderest
individually
jewell
##heads
connecticut
furtively
##spread
worthington
undaunted
inestimable
froth
##cker
prendergast
cookery
rhin
unexpl
protestations
celebration
1859
diversified
coughing
guido
unheeded
sacramento
noose
##inav
soaring
bystand
exiled
metre
stirs
##headed
205
magnificently
rebelled
curtsey
botany
friars
disreputable
ip
tars
##main
shin
adeline
##rieve
balt
designated
littered
arabin
dissolve
edmonstone
frontispiece
java
##bald
fry
roars
annette
joyously
piper
projection
predict
murdering
contracts
columbine
marvels
sepoys
preserves
disadvantages
oblivious
slammed
debauch
appliances
soar
##andra
disasters
remun
drury
belated
equanimity
squarely
athene
anchorage
rattles
wreathed
carthagin
zenith
irksome
unbearable
goo
tasso
##zib
##rages
smite
##aco
asses
betters
brevity
pleasurable
errands
dreamer
protoplasm
debating
jammed
adhered
paramount
mainsail
##pike
##iat
thatch
seer
herein
earls
propit
bret
hopefully
##lihood
bracing
secretion
postman
topmost
damages
ambul
barns
sedley
cunningham
discreetly
satirical
approvingly
impregnable
jumps
##cross
deering
##laught
joel
swin
swagg
laughingly
woodhouse
devine
examiner
verified
trample
advocates
nupt
facilities
ff
poppy
perishing
charger
diffidence
sufficiency
annexed
philippe
lockhart
hammering
unprot
concurrence
enjoined
complications
bane
egl
tag
##bottle
sages
disarmed
dred
lordly
edifices
forgiving
disappears
halo
halves
instituted
1794
budget
detectives
hemmed
alleys
noonday
lombard
onslaught
mace
vim
zeph
##nels
##erb
##ouche
bela
##urably
reeling
ana
deco
fag
loins
spiral
reviving
coup
ignomin
saxony
1880
convulsed
rouen
inexpressibly
prophesied
fentolin
hic
moths
##send
secession
lex
##opa
greenland
hatched
popery
complication
##month
mutually
tribut
panels
xxxiii
executioner
lith
##bread
##enes
##eme
twine
donkeys
instantaneous
wilfully
1814
gustav
retribution
choicest
##olf
flamed
##iae
##ekie
halloo
respite
unluck
glorified
hobby
thrive
lillie
kaffirs
##uan
allev
##queness
infur
variance
steph
utters
unholy
skinner
##oxious
mahr
scandinav
lobby
##adne
coquet
teasing
sentenced
walters
masterly
utens
repel
225
heathens
reproachful
bastin
tibet
annihilated
unsuspected
reneg
bumble
##ateness
##kell
feemy
flare
consuls
recited
shortened
stranded
shutter
attracting
precipit
wooing
incomparable
crucified
unprofitable
lorraine
herring
sabre
doe
marques
recurred
furthest
tenacity
sleepers
cornish
hotter
visitation
clocks
halter
keener
stancy
bias
substantially
initials
idiotic
lancash
##daughter
##dust
##nor
islet
concessions
ormond
willy
preoccup
resounded
hump
confessor
budding
glaciers
lewisham
undesir
eskimo
lucretia
imbecile
gable
##lars
##idas
aspire
frying
impover
trav
southwest
concludes
erection
credible
tailed
digress
brigantine
ranging
hayes
reviews
gibbon
1000
incompatible
taciturn
deceitful
vassal
deformed
bourgeois
petticoats
zero
##uosity
##atis
wastes
thrums
occult
briton
piping
fowler
impulsively
disincl
##eschal
topp
cheshire
switch
reputed
madinah
calab
viewing
journeying
operated
complexity
randal
diminutive
ricardo
tingling
scowling
casket
myriad
grapple
argyll
alcohol
trespass
fenced
miz
inver
blunders
spends
justifiable
acorn
evan
artis
listlessly
scarred
valise
mortg
baseness
amazingly
aiming
displays
isaiah
disorderly
buzzing
intermitt
calcareous
unprotected
gan
jaded
##iator
##unton
##ptic
cary
futility
opportune
audibly
laborer
decaying
##hardt
redskins
chagrin
pregnant
inaug
alab
presuming
ills
invade
effecting
braves
portly
examinations
slav
wrecks
libraries
blinked
jedd
stupefied
amster
faulk
popped
stroking
hogs
compounded
barcl
sternness
senora
rumors
penetration
vestry
fencing
calamities
reproduce
barthwick
lott
sach
chattered
enabling
scars
untime
maddening
fronts
##ariat
chronicles
crumbs
efficacy
leech
crashed
divides
summoning
creak
boarders
poplar
outlined
elemental
1853
ownership
beseeching
imbib
byzantine
facetious
gulch
mme
##fu
##gear
unapp
faun
quill
##agogue
##oda
handic
farn
clew
equity
medal
watchers
pitching
inhabiting
aeropl
unanimously
olivia
thirlwell
sphinx
rangers
wards
##kr
##aters
regal
hummed
decorous
daunt
gunw
jeekie
diogenes
proportioned
protective
naturedly
serenely
chatterer
ineffable
pharisee
tamb
##iably
alick
knick
obn
snoring
crabs
telegrams
munro
baldwin
unnecessarily
conservatory
reminiscence
ditches
jerem
vau
stanton
roamed
carson
menaced
scarcity
greenwich
billow
wrongly
bitterest
twelvemonth
mulford
sparrows
pyramids
##renchments
unpardonable
untimely
ai
girt
chops
##people
arre
drilled
maize
incensed
ranc
threatens
lyre
hopelessness
landlords
dictates
vapours
suburb
manoeuvre
confidant
tendrils
jave
frugal
nep
upheld
##umen
unmer
prefect
passers
##ceptive
insurg
skipped
presentiment
discomp
rosey
export
limped
strengthening
gunn
copse
spectral
1821
harshness
punishments
synth
hubbard
spasmod
wilfrid
repugnance
amsterdam
##olome
pebble
residing
obe
kindliness
lynde
wolfenden
pantal
waning
egotism
capitol
surpass
greedily
horde
priory
##fle
##aris
ingl
##cey
unrem
abate
likelihood
wrenn
courted
condensed
bragg
##bron
badman
violated
tallest
balancing
basal
rustled
##boro
hazards
empires
intensified
##oire
##encia
##arck
twould
fairness
defic
imagery
savag
ballast
shapely
submitting
solidity
ravens
convulsions
complacent
grooms
tacitly
uninhab
wrestling
##iscoe
catechism
wigwam
mosquitoes
unfathom
theater
##agrim
surging
##azi
##arring
drawbridge
muss
liberally
paragraphs
aurelia
immeasurable
guillotine
##rou
##pere
leland
##igi
crank
darken
treaties
epid
hampered
purchasing
wanderers
recollecting
assaults
stalking
hobbled
diabolus
stigma
##from
enhanced
shoemaker
whiz
upland
underwent
charities
swive
repulse
excommun
entangle
squab
typh
liberated
widening
imperfection
dragons
bunches
phoebus
recurrence
relinquish
stagnant
lancashire
##cow
##bad
unoccupied
clipped
emitted
steamed
startle
judy
protests
brighten
balustr
defenceless
swallowing
seaside
discharging
assassination
domestication
recurring
cerv
oi
siber
whips
shorn
reddened
deeps
shorty
completing
grandest
franks
contentedly
sulkily
extinguish
fabulous
thunderbolt
obnoxious
mink
pied
rogu
caressed
harmer
decrees
##gregor
overwhelm
indefinable
communicative
ceremonial
mangled
redoubt
intercepted
teutonic
lattice
fad
tape
##pires
##tled
##irling
mein
manip
crick
backbone
nearing
billings
imperceptible
215
bordering
nakedness
indiscrim
wicker
bunker
contingent
##uates
##cting
cong
cokes
pox
readings
northumberland
tallente
owls
bandaged
davie
pugn
keenest
francie
freda
speculate
adversaries
flirtation
loitering
prerogative
cowed
diverse
mss
##kirk
##faced
onions
##adine
doze
upb
compatible
farr
disposing
unseem
takin
infidels
discordant
astronom
unfriendly
vestibule
ian
ching
allig
ungen
longitude
skul
answerable
recoil
potential
tipsy
##thorpe
pyrrhus
voting
inatt
##reys
##lege
neef
##ppo
adhere
humours
patagon
quieted
arriv
grandm
immac
mounts
bodied
hamper
roswell
lieutenants
fulfill
damnable
laund
irrelevant
counterfeit
sowerby
unlawful
jests
vell
##cont
##bred
libel
perforce
##perse
youngsters
distemper
evade
elic
strapped
widower
meaningless
sundown
enquir
intoxication
disloy
embryo
flaxen
uncontrollable
pounded
vant
##yves
inapp
haun
##lein
alon
overspread
windermere
equil
civic
educate
summed
locket
transportation
deprecating
caricature
ober
##gard
havin
leak
spice
tellin
edict
buchan
severally
antich
193
grinder
iceland
fleda
##pherson
290
tolerant
offending
precipitated
stuyves
lindau
oeuvres
uniting
spill
inducing
propensity
curving
treble
hara
untidy
brotherly
lowland
forego
practition
laboring
breezy
pheasant
interchange
unacqu
eveline
vid
##gam
##gge
##ligate
mayest
graphic
##ernon
syne
fearlessly
portray
sensitiveness
limitation
thickest
corral
colorado
absorb
shrivelled
thriving
stannard
dacre
##pit
oration
##ppa
mustered
swoop
listens
annum
talis
instructor
athel
deduced
werner
vocabulary
maynard
ptolemy
cokeson
fyne
pind
thebes
##erxes
chanting
##tham
disuse
hoe
macc
profligate
funnel
loudest
nuttie
humblest
diabolical
benediction
precepts
persuasive
phonny
agamem
henty
##mination
fram
webb
##rious
aline
obt
infrequ
idyll
kingly
broughton
##mency
woodcut
constables
morocco
matured
pleasantest
revolting
##atta
1811
bloomin
challoner
rashness
lecturer
vizier
culprit
grandchildren
apothecary
baltimore
bak
housed
##cu
bois
crich
headland
courting
feelin
firearms
babel
quartermaster
wiles
bethink
psychic
prosecute
netherlands
peremptorily
approxim
cogniz
furrows
elongated
mumm
nantes
brice
newport
phipps
wonderingly
affinities
bathshe
bouquet
georgina
manoeuvres
writhed
aggravated
dwindled
leyden
twopence
overflow
neefit
stuyvesant
800
nuc
##oret
oro
poking
perverted
specks
dros
snorted
furrow
constell
mutilated
civilian
frequency
briar
cartridge
malev
commentary
buffet
##rida
heeded
deafening
vindication
commissions
jingling
mop
##arred
##arned
##rake
plen
slu
insur
bestowing
##mingled
goesler
injunction
roughness
blameless
350
applications
recommending
homesick
chatterton
stratford
dexterous
hallowed
workshop
gou
lured
nou
##zig
whel
soared
unv
canons
mustard
factions
walton
sadie
resolves
planter
tarleton
wakeful
schooling
bathsheba
jell
taff
inlaid
weir
unpar
arra
charle
childless
girlhood
simile
effectively
capped
sanderson
sacrilege
nurt
unborn
1852
lawns
twitching
unerring
lustrous
sess
##ely
thong
##asps
##stre
##ersh
perj
delinqu
discount
triangular
depicted
##parably
precedence
lucas
forbids
festive
initiated
orphans
ripples
syllables
progenitors
unendurable
unluckily
insurgents
biv
gat
asher
##arty
belton
newf
somber
incurable
##awa
cables
malta
responsive
abstained
betrayal
remembrances
kennel
barrack
deficiencies
dion
ko
muir
thrones
hover
burm
##lette
gathers
combining
buckle
##iques
correctness
1854
1871
antiquary
algernon
episcopal
littlepage
undesirable
##uations
prying
##rip
amorous
harden
edit
devotions
defoe
hunch
dancer
capturing
criticise
cavalcade
mechanic
hindrance
swarms
##uko
swedes
booming
ennob
abhorred
bier
dee
chrys
intuit
rooney
evac
unmixed
nicest
bourbon
bourdon
ordinance
butchers
pamp
##eers
##onation
forage
cropped
##angu
obd
compunction
billie
urn
locke
observable
1874
consoling
throbbed
blundered
tusks
predominant
sloven
councillors
seizes
carriers
trappers
indecent
errant
mortally
pikes
screened
amaze
froze
fairyland
whitened
implication
apologise
perplexities
lamentations
rotting
tinkling
eclips
palmerston
syndicate
fie
ic
jig
zu
##oran
hez
##quately
overs
lazar
homewards
matted
counse
hungarian
renounced
locking
norton
1797
dubiously
gloriously
obliquely
bivou
lal
nanny
ull
##asis
##lea
shay
brog
reserves
capacious
advising
steals
barter
skipping
finite
bedrooms
greenish
massy
fitter
knightly
claud
bandages
terminate
ould
marquise
peyton
lundie
agamemnon
##atile
##thwaite
spouter
##feld
clime
strewed
##ocations
clearest
badger
salts
brandenburg
paints
anticipating
cadiz
hartford
priori
fragmentary
girth
suburban
cosmopol
demurely
wycherly
unacquainted
banged
kell
##loss
##adiers
frenz
##things
##raim
infern
drab
##uges
divines
payments
batch
narratives
constitutions
gripping
mulberry
disguises
confronting
fibres
stubble
sikkim
lumley
##kn
wasp
##irming
allure
spa
longings
godolph
transitory
favourites
consistently
aristocrats
shawls
lassiter
impetuosity
paralysed
unobtr
unseemly
uk
##di
timorous
lethar
gentlewoman
suffused
playfully
anglic
exacted
lamm
deduction
goblet
multiplication
grandmamma
gwyn
tilt
wily
whiter
knack
marip
scald
retraced
blacker
mermaid
burrow
papal
billiards
messer
oceans
abbots
boling
sherlock
hammered
marvellously
disapproved
skilfully
confederates
dioces
burlesque
upbraid
licking
madag
trio
coroll
valve
secretaries
fasting
##glass
ensue
1851
fantast
1893
attainment
goths
academ
fleeing
shrouds
fossils
illegal
chisel
dispensation
saracen
bequeathed
unbecoming
dobbin
whining
##oward
sewed
##illas
myra
worcester
merlin
meditatively
fatally
packages
boswell
pedant
contemplative
rejecting
##enzo
optimism
rehearsal
quilp
dys
nugg
tainted
##rously
##orated
##umer
disperse
overr
undergoing
##ensities
##igne
retains
##ube
devol
verona
aval
smoothing
##asmus
energet
hornbl
laboriously
perpetrated
apex
conjectured
smilingly
inequality
flanked
nucle
vet
##awe
##cs
##inately
adject
firmer
talkative
duplic
saloons
germs
maryland
accepts
judgement
viciously
uncompr
racket
insinuating
paralyzed
recompense
paroxysm
physiognomy
bairn
yor
##sons
##ndish
tred
carew
underlying
eyesight
veils
##azzo
springfield
sickened
wagging
coronet
cortez
unfrequently
impropriety
godolphin
bolingbroke
loring
tours
##bub
##itia
##throp
ague
sayest
empir
syc
fanned
narration
conversational
pronunciation
enclose
crockery
partisan
alphabet
maitland
zem
##gall
shunned
dozing
unnaturally
focus
brav
pretension
dias
wyatt
elevator
sancho
unfathomable
energetically
battering
##lip
tha
whipping
##icle
weaver
betting
hereabouts
socially
fretful
bellowing
indecision
gag
oun
##rals
##utt
ename
gentiles
merged
cornered
tryin
tryst
##hips
masks
awaits
encounters
##haer
architects
1873
xxxiv
drumming
atlas
kennicott
appendages
epithets
miscre
rufus
bant
punt
##nitz
##inning
trudged
grated
##elli
godmother
##ogan
kingston
insat
recital
corks
matching
inclosed
##guards
garrisons
confusedly
lusts
jewelry
sardonic
dislod
amphitheatre
hap
prent
slunk
syl
seaforth
forecast
mata
effem
damasc
ringlets
bonaparte
ambiguous
stuffy
stiffness
nestled
brooch
umbrell
madagascar
cact
sexton
neap
abu
acuteness
pictorial
limping
domes
coul
enjoyments
reveals
wragge
composedly
flocked
stalky
eater
keller
##gold
quotes
jocelyn
courthorne
footfall
hurling
singleton
punishing
1857
committees
1898
convulsion
utopia
inaudible
torpedo
inmate
hex
hern
spilt
percent
opaque
maitre
reliable
recount
varie
petrified
watcher
weakest
##gencies
senators
wrapping
stupor
1844
360
stimulating
suspension
aspiring
relinquished
sibyl
whosoever
brittany
talisman
bain
incipient
haply
walrus
unduly
lambeth
strawberries
entreating
prelate
conjurer
vinegar
trophies
antichrist
##may
##human
inimitable
heeding
chopped
themes
overrun
insupp
showy
directness
astride
prospective
sellers
charmingly
rudiments
jacobin
gibber
noisily
ephraim
impediment
scrupulously
bickley
anterior
uncompromising
award
##hed
##rect
##oway
soles
mund
smashing
womb
armen
formul
healthful
olig
rigor
cautioned
guarante
sandwiches
siegmund
rhinoc
hornblower
berm
nana
olly
##onte
dozed
needing
freer
habitations
lydd
sketching
tyrrel
reassure
unkindly
inflexible
emigrant
argyle
dervish
eunuch
moonshine
rotherwood
ormsgill
jeremiah
inord
forked
withers
unison
timed
seein
glaston
embedded
appr
countryside
wanders
fiercer
kenyon
310
destroys
cuffs
hottent
herodotus
disproportion
tinder
wading
quater
grants
carve
thrashing
##acons
buon
shading
sensational
casa
mamie
mystified
splitting
incredulously
carnival
puddle
scuffle
equilib
glastonbury
balk
taut
tik
##balls
##isement
##utations
##uria
comtesse
scamp
scape
desec
securities
detriment
tenement
unforg
corresponded
membrane
correcting
septim
tunic
industries
ezek
loathed
fooling
barclay
sip
£5
##bare
##river
quakers
clin
grit
beget
burge
patro
portfol
counters
witnessing
auditors
indignity
hindoo
320
initial
brimmed
melodies
frigid
infatuation
spikes
weasel
frocks
trin
clings
ministr
whitefoot
daff
softest
shadd
subserv
whitman
enquiry
dormant
jocular
crevices
mutineers
utensils
fumbling
##gun
##lich
##atiously
beale
feld
slough
##onso
plebe
swans
cheating
##tenham
tenacious
petr
##uffs
##aws
##formed
capitalists
disturbances
uncomfortably
scorching
garnache
pinnacle
thurston
daisies
daggett
##adventure
##pipe
##orio
spong
plaid
delusions
concourse
centred
matte
admiringly
hostel
prediction
persevere
irregularly
ripened
##market
grizzly
heterogeneous
bis
zik
##upt
onset
stanch
segments
slant
possum
askance
annivers
thinly
camilla
alders
refreshments
boiler
tyrannical
lapsed
tann
##aith
##tte
##ovation
##uer
##ommen
islam
seething
outland
##ivals
wayland
consigned
teap
vogue
sprout
palate
saddest
yellowish
selections
osp
ratcliffe
1840
concentrate
commendation
bellows
admonition
benedict
patrician
aggrieved
vicissitudes
genevieve
gustavus
vint
##oves
excel
worries
eyre
begs
barges
whitehall
sunlit
circumstantial
peterborough
unharmed
autograph
aimless
hypatia
distinguishes
##boys
vibration
##alanja
septimius
ny
oils
fraught
comet
intemper
triangle
flexible
stares
darned
credulous
panor
huntsman
1847
tribesmen
tropic
steerage
babbalanja
stopp
overflowed
forebodings
umbrellas
##orest
whiles
chile
chald
##andered
swif
schm
penal
recognising
martine
louvre
rhodes
sells
cruz
cavendish
journalism
fortresses
surpassing
metropolitan
tantal
extricate
insupport
bian
fane
ness
##inn
##atio
##anters
##llett
##immer
unit
unfast
##agan
##ivided
imogene
##isson
mold
##uthin
trapped
petitions
##luence
pleasantry
earnings
##pany
dismally
etcetera
ancestry
lurch
inventor
restraints
admonished
notably
soever
als
newer
##tences
woody
creeps
denomin
astir
##quez
jeop
##roned
widest
clarissa
facade
mosses
tormenting
expanding
marseilles
lafay
quatermain
hits
##mand
nept
excels
roundabout
##ceivably
freeman
repeats
dresser
wickedly
dorset
jacobite
reflective
topsy
antiquities
discernible
tinker
decisively
bacchus
thimble
clumsily
trinkets
ft
lop
tav
##faring
inwards
##optera
triscoe
olden
drawled
ville
royalist
methodist
halbert
encountering
parishes
1887
dyke
constructive
villainous
epistles
rampart
rallying
brusque
impeach
aboriginal
equilibrium
##gal
thess
##utted
##gee
pretences
##wardine
chariots
parole
needy
whisk
boldest
unsy
245
mattress
plundering
gutt
scowled
magnetism
glendinning
venomous
shreds
dissimilar
unparallel
kr
lars
##tz
shaping
ashe
nos
agr
##assion
loiter
invading
divan
sensibilities
injin
renewing
swimmer
1843
insistent
wreckage
plucking
candidly
lamentation
incorrect
pinnacles
fighters
lyr
ponson
##ori
therefrom
desist
prescription
bedding
caliph
##zzy
##john
professing
lucre
ecstatic
riotous
swanhild
bessy
mottled
silesia
lafayette
##bush
##æd
sten
anson
decipher
##atham
evaded
inca
decisions
sonorous
196
inhosp
credited
inferences
promptitude
poisoning
1856
1876
sustenance
nettle
clamorous
stomachs
maketh
vineyards
hermitage
lulled
heretics
elys
indictment
newfound
lint
##aii
deans
##ouss
##opened
commune
lawton
recapt
entailed
antelope
titan
graduated
styles
jesuits
235
carpenters
prematurely
reconnoit
exhortation
agnost
porridge
meccah
oily
tests
wains
##pa
##atories
leith
##assus
lovable
boh
##ankind
elusive
footpath
misgu
jackal
eaters
luckless
lodges
dissolute
restrictions
1822
subscribe
cadet
bertrand
moscow
venetians
discouraging
antecedents
incompetent
ails
##aulted
##zee
##asants
sair
reservation
swain
barre
incub
tilly
straps
billet
fitly
damsels
revered
bottomless
lasso
pasmer
pheasants
dramatist
saracens
causation
barricade
seneca
imperturbable
dung
fue
wow
wiry
##omac
reind
coerc
carker
entom
affable
laddie
characterised
musingly
dispensed
saddened
creations
effusion
debates
mammon
dramas
revenged
smelled
hunterleys
antiquated
stools
assailant
bulwark
fraternity
damascus
cider
##ndes
##omie
reined
##ieurs
##onga
unrel
contests
emlyn
housewife
propitious
elation
artem
incul
divul
##itorial
unhurt
sheltering
obstruction
bracelets
squatting
aggregate
sunbeams
wafted
elijah
bazaar
eard
##uis
sealing
sheldon
##ilis
unen
precl
##vester
trepid
buys
promisc
utterances
methodical
horned
memorials
1881
enclosing
unmistakably
eddies
undressed
exhilarating
nominally
staple
ophelia
bounce
piv
##sburg
marit
##onde
##conduct
accounting
despot
panama
insistence
surveyor
transmit
creepers
rivulet
rouge
dormitory
notoriously
initiative
ponsonby
pomm
##sher
##imir
##wayo
supped
imprec
conde
leaven
##masters
jealousies
cooke
inducement
prestige
bereft
newfoundland
tith
brumley
unad
favors
volition
exactness
safeguard
priestess
spiteful
201
measurements
fanaticism
##driver
##bia
shimm
roaming
imitations
blouse
blubber
endang
fatherly
trela
snags
##renched
realistic
practiced
huh
sanders
starbottle
proudest
widowed
ethiop
vacantly
ardently
manufacturer
accommodated
dodging
tabern
unimagin
migration
abolish
avowal
atolls
scabb
zikali
gend
wuz
##rained
##munk
whee
leans
unco
quod
bets
papists
breaker
despotic
immob
boxing
essayed
feasted
1855
biology
randall
network
blissful
kerchief
clyde
chipmunk
cornwallis
##wearied
borgia
supervision
comforter
unparalleled
dool
mav
rost
ved
##hof
spying
rok
##aceae
chee
syme
devon
revolvers
balmy
juanna
1885
germain
salem
mitchy
progeny
glimmered
discouragement
rafters
outposts
gonzaga
pampas
kam
pame
arid
poise
lov
flim
underbrush
newgate
invig
eased
cuttle
concave
broadb
wrapt
warder
contrasts
parishion
humbler
unconqu
comprehending
disconcerting
crystalline
protruded
chords
hallucination
bounderby
gunwale
vantage
reindeer
##mot
##icon
delect
arund
grady
emir
impaired
godlike
warily
maw
chees
squared
connois
habitable
197
rejoinder
dunn
indisputable
##joyed
derek
succumbed
grasshopper
drudgery
belding
alp
alias
spence
##urning
redwood
suscept
performers
deliverer
destroyer
puir
fetish
competitors
meekness
omnium
perturbed
bristles
grenadiers
progenitor
foreboding
adolphus
proserpine
quixote
##iper
friction
weal
soot
##iford
##orship
##uthnot
refraction
lawford
extem
fireman
fella
morose
requests
##cribing
flapped
augment
202
conjured
##wrath
carniv
bungay
consecut
unalter
ogre
wyn
##uin
##wigs
##owl
##alified
leban
pepp
betok
dru
plaza
compuls
purified
bunder
snort
rapped
calib
lucia
personalities
creditor
renunciation
progressed
decease
phraseology
torrance
pendyce
vindicate
epochs
quarto
deputies
arbuthnot
approximate
yarmouth
discrimination
unconquerable
connoisse
dast
ump
zinc
##him
rearing
brang
assures
giveth
##ogical
idiots
visual
quickening
ledges
belliger
imprint
marty
203
lyon
tarp
montes
##lestone
tragical
dodged
sodden
carrion
plodded
##thorp
tomahawk
gulp
nome
##bones
##erry
intact
##thers
##ggle
assaulted
curtained
insip
swears
recons
braid
calum
burnished
bowling
towed
logically
branched
reforms
wolfe
gospels
sanctified
egot
phantasm
##almers
rarer
aches
scip
yaw
##dog
inverted
shaky
##ulia
manliness
marius
slowness
silh
postmaster
lieu
altitude
benares
preferment
hollowed
wraps
1849
liquors
challenger
lassie
marmont
fischer
frenzied
##gne
##ni
##amore
fris
chaka
livin
hopping
apoc
subj
swagger
entra
##eshine
lowlands
bloodth
embold
flagr
attaining
attainable
hebrews
twitched
disappointing
bruno
grosven
ripped
##amo
bres
plug
plastic
##otham
unten
chapman
vastness
virgins
abbess
engineering
mahomed
jargon
licentious
kinsmen
querulous
scalps
carbonic
satell
crevice
sigism
theresa
goblin
bloodthirst
jerv
theos
##imal
anjou
pritch
brunt
unper
##agna
dispelled
##iousness
minster
idlers
##ateral
ladd
tenure
erud
erling
peduncle
inconveniences
subtly
pansy
infuriated
lebanon
sward
vor
##cases
hein
##ilver
##rac
runnin
decrep
depict
deposed
deposition
sadder
peaceably
speeding
torqu
comparable
tottered
buckets
tolerance
compete
biological
helmets
fitzp
prohibited
newcomers
crutch
sierra
gamble
##iæ
##wine
thunders
upraised
aleshine
agile
skall
##brow
couched
265
subsidence
intimates
typewr
contrasting
humiliated
whirlpool
sylvan
bribes
bribery
fiendish
cassandra
mitford
encircling
hubbub
coventry
grosvenor
##lounds
##jee
ontar
chafed
docile
manning
##acea
helms
belllounds
hyac
status
storming
saintly
persevered
maintains
syllog
rebuild
infidelity
espied
insensibility
antoine
purgatory
pamela
ontario
vested
zo
faire
imbec
apia
untold
snares
syrian
petit
creaked
bullied
gravest
1886
harte
rascally
declarations
forsook
guardianship
pimper
pyn
##aven
##kar
conceiving
##plend
shorten
complement
cheerless
wearer
pallas
##ieux
1901
hypocritical
exasperation
unavailing
zenobia
retrospect
bhaer
##gi
##drop
hame
necked
enid
##manuel
charing
bigot
precon
kneeled
triumphal
sterne
auditor
217
1877
340
trotter
dishonesty
ebbo
exultant
subordination
internally
decrease
divorced
scuttle
inexperience
smeared
haunches
dap
pember
##pie
##asers
staked
dele
ups
##phis
prominence
bowater
unsub
brutally
lamenting
worshipping
gloria
slyly
parrots
earthquakes
quotations
adjusting
ounces
kos
nazar
##urk
manuel
##ifa
preuss
##anga
seconded
republics
villainy
ciccio
crispin
antipathy
stipulated
quicksilver
adulter
skallagrim
banging
cret
##lances
stitch
herbage
isbel
meats
lecks
coils
##agement
missus
barnet
milor
exploration
defiled
##meal
preponder
postage
denote
geran
ballot
##ophon
mama
regretting
wesley
purchaser
wardour
lescure
inconst
ravages
budge
symbolic
blasts
fretting
punctil
mathematic
alleyne
rambles
hierog
mard
zoo
##eta
quasi
boe
resplend
##ensibly
propounded
elv
esprit
redclyffe
johnston
bites
cornelius
dispir
superhuman
dicky
dimness
1900
##minating
absurdities
ellison
dislikes
bailie
veterans
perdition
contagion
knapsack
immaculate
gian
gorse
vist
heigh
##iris
seward
orig
alge
plumb
dray
grander
reporters
##aterial
hungary
guesses
picket
omar
mastiff
gossiping
shrewdly
glascock
corsair
looming
peevish
disemb
bals
nil
##iatory
##cie
##atur
whine
hemp
hague
##almed
##eremon
allay
unn
sperm
headstrong
surve
trend
severest
circulating
erring
crypt
builds
ironically
expedients
305
eustacia
jeffrey
vagrant
buffaloes
explosive
quadru
reclined
aggregation
supplication
tahiti
cus
hie
lingu
##pieces
##stown
dews
alch
poys
indub
##nesses
##ggled
unceremon
subjective
earthy
##iaries
bonteen
olives
gosse
contradictions
applaud
fervor
ordinances
usurper
impeded
ausp
rickety
daggers
dessert
caster
whack
præ
comus
##lake
ponds
pending
underm
sym
craved
annesley
cabs
auntie
deris
designing
torpen
212
kidney
lavished
imprudence
buccaneers
##copic
disheartened
pimpernel
vive
wix
##zie
##nery
##felt
tox
ork
unve
##akings
perceives
crumbled
inters
cologne
sprightly
probabilities
pathetically
argent
risky
199
shakespe
prefixed
vivacious
shrewdness
squeezing
dumf
adjustment
philanthropy
voluptuous
antecedent
overhaul
effigy
franchise
imbecility
ged
guss
##cated
##kla
##ometrical
manston
gott
propensities
petted
riddles
flemish
##annah
deserting
jewelled
ornith
taxi
borneo
1841
biograph
pennies
traversing
teapot
iro
##hs
##entz
pranks
abounds
ussher
crested
gloved
presiding
somn
recommen
denb
dancy
rubies
hammond
stafford
mobile
lilias
highlander
compromised
illumined
peaches
mannered
moccasins
esquimaux
sigismund
hierogly
torpenhow
tes
##mal
overjoyed
partridges
monter
plainest
antics
shamefully
sarcast
mourners
aptitude
adept
mackintosh
pavements
sanctioned
participation
panegy
maimed
zigzag
insupportable
denbigh
piling
##gia
inund
congl
excelled
##ifl
glens
graeme
delhi
husk
transit
##grange
label
mirah
traddles
distrusted
faithfulness
dolphin
bannister
dormer
counsellors
deftly
perversity
aunty
derm
eury
gushing
##stru
asper
seine
##ainly
mania
wayfar
relapse
insidious
buen
catrion
accountable
cornice
lineage
imports
dogma
solitudes
despicable
malone
hangman
##govern
qualify
fete
255
lingers
trickling
suspects
woolly
loathe
scorp
blotting
##millan
vanderbank
trepidation
catriona
tardy
vail
##onius
whal
saff
sogrange
chaf
##rying
restor
braver
democrat
catac
collier
revulsion
innkeeper
damask
unwittingly
versed
trickled
irrit
nestling
gangs
revels
surprisingly
apprentices
thumping
negligence
sunburnt
misrepresent
cudd
riley
##oro
##itur
##lehurst
##otal
seab
orators
twos
parnell
invoked
misconduct
cora
voluminous
immensity
urchin
tasting
muddle
supers
compels
##uvian
bullying
xxxvi
unmanly
unreserved
awning
matteo
fumbled
jeph
sipped
##sim
thra
##riended
fender
disent
flaring
surest
cato
tomlinson
##derdale
sorrel
malise
revert
unfores
mistresses
consenting
nonchal
tua
kicks
1899
judiciously
reprobate
threaded
engendered
neptune
gills
##marsh
##cke
chalmers
##riere
trou
##achable
disill
overnight
musty
preco
##adys
firstly
honol
decad
devoting
acquit
mirabel
illustrative
towing
gradation
panth
aids
dragoon
irregularity
polyg
bracken
##footed
reeking
staveley
auspices
kett
mesh
ope
vance
abusing
amah
amuba
handi
trappings
monastic
windlass
handsomer
signora
valencia
winthrop
sandals
exerting
seasoned
pills
persevering
torturing
vividness
fatigues
sinews
aylward
contingency
coaxing
splinters
huguenot
uninhabited
maritime
kang
zion
##inates
meyer
charts
##istically
unwearied
##issions
nothingness
tracked
repart
tablets
morph
privation
accompanies
porcel
dominie
blooms
1879
nephews
adele
quadrup
jailer
annihilation
descried
cochrane
presidency
hyacinth
sarcastically
honolulu
quadrupeds
##hum
isis
##oreal
##iels
##acie
mog
mindful
godfather
curts
edna
tripping
squint
memphis
saduko
##inguishable
comparisons
aleck
parliaments
jacopo
unaided
strangway
savagery
pindar
daphn
fisc
##atcher
prided
enam
yeomen
passer
##inta
clemency
insub
lander
purposed
vanishes
thickened
benefact
dorian
wadsworth
israelites
egbert
trucul
dockwrath
requisition
plastered
laudable
deterior
bartholome
unruly
flimsy
cis
eruption
##eaux
##kie
##addin
##alla
roan
embr
turnpike
monos
playmate
volub
creates
whisked
babble
194
failings
regretfully
aimlessly
pronouncing
##setti
hodgson
georgiana
rarest
propagated
disagreement
saucer
misguided
bundercombe
jarring
shand
##illera
##lford
##laus
spleen
surgery
boyne
granddaughter
victors
combust
potomac
audley
204
accomplishing
conveniences
vacill
permanence
lustily
rotund
assassins
uninjured
rarity
gamp
mese
xerxes
suave
dela
uned
flings
##angles
retro
guert
cabb
complimented
unsafe
macn
testing
blending
seneschal
henceforward
211
sedate
mouldering
hermaph
cashier
befriend
haldane
reconnoitre
adjourned
drosera
anniversary
raked
vald
wur
##uum
prun
chanted
teased
teeming
swart
hares
dreading
garlands
candor
dunham
207
divinely
odours
durham
tombstone
conflicts
haney
orthodoxy
lizards
imbued
protruding
vulture
jas
mct
pipp
rhaps
##asible
atkins
spilled
commis
reflects
claver
corresponds
cordillera
cloisters
emergencies
275
regimental
cathedrals
accumulate
pawnee
unspoken
preoccupation
ariel
eileen
pining
##uta
rearr
herrick
alham
feu
goings
##wey
##alet
famished
papist
drip
probation
dickory
turkeys
gareth
trifled
moorland
hemlock
unprov
maule
aquatic
receipts
novice
strenuously
disregarding
commissary
deformity
gurgling
unceasing
interspers
##omit
shing
##hers
peaked
longdon
maz
##meditated
detour
babie
proportional
abstinence
brigands
rescuing
330
incredibly
landscapes
austral
pods
hoopdriver
crichton
handiwork
porcelain
bake
oat
##rom
##nden
inroad
##imar
abomination
outwards
disfigured
accout
embody
schom
holders
milky
bloodless
dunbar
sidelong
subscribed
1838
bargains
kinship
degrade
leadership
academic
untruth
amiability
sprinkling
elicited
samb
##adour
##ourg
amp
adorable
boyd
dregs
fireworks
huskily
publications
penned
##ternat
hatches
risking
benefited
fledge
enviable
suppressing
protestantism
condescending
huguenots
davenant
seizure
baking
boring
vort
##wit
stil
weiss
deil
oracles
##eland
##quois
loy
windings
medley
belleg
reflex
royalists
stocked
unfailing
##boards
##holder
branching
osc
ridiculously
giglio
sterner
disorders
conjure
slimy
bachelors
ivanhoe
mishap
tournament
overshadowed
avalanche
variegated
bartholomew
biz
ruck
##agh
hisself
##amas
##ichte
unme
spind
clinch
##berd
glum
eared
monty
expulsion
animate
fateful
thunderstorm
cloven
granet
sobered
1872
kidd
guiltless
loosen
superintendence
insignificance
quarrelsome
ramsay
theoretical
nettie
athenian
vimpany
gases
tugged
marx
floss
donate
##arez
appertain
paled
dispassion
##ussed
flogged
williamson
macmillan
progression
camper
218
precede
essentials
fostered
unintention
receded
tippoo
plodding
vagueness
mizzen
charlecote
option
vatic
##cull
knell
goot
unso
unatt
perceptibly
preternat
residents
graven
tablet
mountaineers
slighted
slapping
teachings
explanatory
auber
deductions
1884
demonstrative
shifts
verdant
raptures
gypsy
reservoir
bloodthirsty
yuk
##enh
seques
disco
curv
##iero
palazzo
berg
chopping
interruptions
treasured
humouredly
laziness
kipling
shaykh
dak
dass
oed
ascribe
alk
faust
glinda
farqu
illimitable
seaweed
dupe
succor
grandly
conversant
archae
##ambul
virginian
loftiest
cypr
harpoon
lorenzo
##broker
inflicting
narc
incarnation
massacred
draperies
broadbent
rooks
tup
tighter
##onn
##stow
##stadt
croqu
##acres
slices
confusing
meritor
entail
discerning
prepossess
##appy
tongs
cowper
gaelic
interpose
1835
waddington
acquiesce
olympus
atheist
puppet
immeasurably
sunbeam
pungent
inactive
burmese
unforeseen
hots
sipping
smir
specious
misp
pastry
broached
featured
lioness
chapels
1883
chaotic
artificers
adequately
ketch
sculptures
valentin
lumbering
greshams
quadrangle
arundel
resplendent
ci
kai
lach
lacon
##banks
heine
hau
conroy
##iges
quail
adair
##angible
glenn
hock
retrace
lessening
winner
sensuous
malays
benighted
revolved
198
fiercest
keenness
avenging
cycle
premium
resentful
maples
breaches
symmetrical
faulkner
gendar
dots
thekla
##inette
##orably
##uland
outhouse
everett
retard
retires
nightcap
blackest
calumn
envir
1878
ramiro
revelry
bowsprit
levis
binds
artificially
perfumed
voltaic
undoing
unanswerable
ammonia
cudgel
intermittent
mataafa
calumny
silhou
iroquois
pities
##len
##vain
##onians
##illac
chatham
##fee
comme
diffident
##nerable
talker
waller
defra
gardner
undying
immod
falter
liberals
dungeons
macheson
cruising
elle
inconsequ
investigated
seminary
falsehoods
yanke
vertebra
plutarch
perennial
surer
##uckle
sleet
woodpe
hillock
luka
postern
##obell
antith
boxer
frightening
wilmot
basalt
lyell
confesses
rossetti
##aea
1810
ticking
contributor
sobriety
1846
1805
bernadine
gertie
hottest
lamplight
obdurate
diocese
percentage
panorama
fades
toto
##idation
##ili
leet
##opæd
flared
blanch
moff
parenth
sweating
slabs
determines
huns
delicacies
balcon
professes
1831
prophesy
reviewed
platforms
instrumental
unimp
disapprove
gondol
chieftains
carbonate
disillusion
ein
jumper
æst
##ril
##ingo
##chy
loaves
handc
suppers
instal
stewards
affixed
caul
messieurs
poplars
fingered
213
sidonia
1875
braddock
##brahim
tempestuous
feuds
montez
enslaved
omnipotent
emmeline
jek
tard
tuss
##rings
##horse
orbit
haskers
warner
##irlie
printers
entries
##unto
madison
waitin
narrowness
complains
babington
catheline
banter
whistles
cheaply
ploughing
jaunt
gilding
illuminating
hosses
rhinoceros
vy
##iod
mangan
bry
anythin
oldbuck
menial
donne
emmanuel
immaterial
reminder
1882
distribute
fernando
cocoan
pussy
intrepid
apprised
pate
stater
frisco
slipper
cleave
protuber
chancel
denunciation
archd
216
233
speculating
innermost
muskrat
drummer
dashwood
accumulating
##icksburg
azte
gnar
exhausting
reconstruction
clandestine
sullivan
tarpaul
cuc
danton
##atem
infested
adduced
##erne
excites
rugg
notebook
originals
endear
faultless
209
totem
interposition
flourishes
dismissing
footstool
congratulation
bothering
pomona
##otype
jemmy
emblems
grisly
compulsory
yukon
cathelineau
fuse
lens
vacc
##gic
whew
bele
evasion
##ieri
jeweller
reporting
suitors
eloquently
naab
tranquilly
hypotheses
estimates
californian
prostrated
adherence
advisers
spokesman
nip
nah
ok
##woven
##lda
##eterm
##heres
coniston
justifies
##tee
meaner
generality
riverside
systematically
hamlets
tuil
obediently
junius
formalities
fervid
definitions
xxxvii
blonde
disinher
infatuated
masquerade
colloquy
zululand
transfixed
portfolio
lyrical
brangwen
##cine
##iceship
enfor
howls
hoc
grazed
##swoman
regime
barlow
heah
corals
displaced
gunners
magnus
flatly
bulging
subsid
1806
mosle
festivals
advertise
forbore
tintoret
georgia
unrestrained
enlightenment
palisade
porphyry
##rouw
outlandish
hul
##oum
tost
##itha
depr
betimes
donn
veld
brewing
##ibals
##tley
paolo
##ringham
jerking
births
227
irritably
prudently
emigration
sniffing
glutton
exigencies
gorgon
cosmopolitan
##ao
##rality
##worm
sturd
connot
##abad
prope
flambe
hereupon
norwe
humm
snugg
meridian
calmed
caw
gereth
argues
beren
bushel
gauntlet
undertaker
baseball
heathcliff
tempests
attaching
racked
toilsome
undisgu
injunctions
nickname
bingley
swifter
donatello
sowing
##hm
##hor
bryan
scents
mayst
lettie
##orsed
furze
wilde
brawny
saluting
easterly
bloomed
bustled
alda
imperfections
molten
nomination
crusaders
##clothes
shrunken
pewter
brewster
profusely
hilarity
astrolog
arrivals
buchanan
fins
##zia
reist
seller
##ilitude
unstable
quits
spink
impact
fullness
palae
northeast
furnishes
pickets
unhes
latitudes
measurement
ragn
jester
23rd
converting
cannibals
boasts
elegantly
##ipeg
disdained
casualties
chestnuts
exuberant
unsympath
hips
nanda
##ominy
notch
##ortions
thrashed
emaci
elude
##orrupt
recite
expectancy
luigi
worthies
violate
expressionless
unfaith
endeavors
assembling
22d
bordeaux
scientist
jarndy
threadbare
superfic
stimulate
unwillingness
compensate
2000
adults
spartan
frigates
kaffir
piqued
tarnished
winnipeg
insatiable
neapolitan
pemberton
stateroom
wamp
##iy
##atable
deceptive
tricked
prehist
consign
sirrah
highways
milroy
politically
tyre
285
tanned
besiegers
toilette
incorrig
burgher
convicts
correlation
pantaloons
balustrade
scabbard
subjug
poyser
unhesitating
jarndyce
fife
oll
ripping
##erously
##arin
withstood
##usan
intonation
loot
blaming
##uela
##weather
apace
waring
winded
doorways
tregear
hearer
touchett
flapp
kidn
mouldy
prosecuted
prelimin
bumped
bawled
loitered
oedip
yankees
jou
##uli
upshot
maraud
charlem
womankind
barometer
##ruse
intellectually
averred
saturated
eustacie
1888
monumental
heralds
ungainly
ambros
imposture
pedestrian
disbelieve
unthink
grabbed
floundering
weakening
overseer
ungenerous
hirs
##ozo
heid
##asted
leip
disjo
slime
##integr
##xtric
gentlest
honourably
snail
hundredth
disclaim
porto
susanna
melbury
spaniel
bareheaded
206
219
hawaii
recalls
matchless
mulatto
hospitably
hermione
commodious
harnessed
warehouses
bankruptcy
georgie
dismounting
rapturous
renegade
larsen
fledgeby
bellegarde
undisguised
uri
##opp
##alp
exiles
##usa
amel
amicable
grid
##abas
mavering
doubling
smallness
simla
finances
louisiana
avenger
preserver
vibrating
proclaiming
smugglers
patriarchal
ostentatiously
wharves
dors
tonic
##ouled
seams
##ittin
##tainable
plumed
pegs
newstead
farf
tracery
standpoint
misde
walling
validity
##umbles
privations
effaced
archangel
massed
[...]
