{"!":0,"\"":1,"#":2,"$":3,"%":4,"&":5,"'":6,"(":7,")":8,"*":9,"+":10,",":11,"-":12,".":13,"/":14,"0":15,"1":16,"2":17,"3":18,"4":19,"5":20,"6":21,"7":22,"8":23,"9":24,":":25,";":26,"<":27,"=":28,">":29,"?":30,"@":31,"A":32,"B":33,"C":34,"D":35,"E":36,"F":37,"G":38,"H":39,"I":40,"J":41,"K":42,"L":43,"M":44,"N":45,"O":46,"P":47,"Q":48,"R":49,"S":50,"T":51,"U":52,"V":53,"W":54,"X":55,"Y":56,"Z":57,"[":58,"\\":59,"]":60,"^":61,"_":62,"`":63,"a":64,"b":65,"c":66,"d":67,"e":68,"f":69,"g":70,"h":71,"i":72,"j":73,"k":74,"l":75,"m":76,"n":77,"o":78,"p":79,"q":80,"r":81,"s":82,"t":83,"u":84,"v":85,"w":86,"x":87,"y":88,"z":89,"{":90,"|":91,"}":92,"~":93,"¡":94,"¢":95,"£":96,"¤":97,"¥":98,"¦":99,"§":100,"¨":101,"©":102,"ª":103,"«":104,"¬":105,"®":106,"¯":107,"°":108,"±":109,"²":110,"³":111,"´":112,"µ":113,"¶":114,"·":115,"¸":116,"¹":117,"º":118,"»":119,"¼":120,"½":121,"¾":122,"¿":123,"À":124,"Á":125,"Â":126,"Ã":127,"Ä":128,"Å":129,"Æ":130,"Ç":131,"È":132,"É":133,"Ê":134,"Ë":135,"Ì":136,"Í":137,"Î":138,"Ï":139,"Ð":140,"Ñ":141,"Ò":142,"Ó":143,"Ô":144,"Õ":145,"Ö":146,"×":147,"Ø":148,"Ù":149,"Ú":150,"Û":151,"Ü":152,"Ý":153,"Þ":154,"ß":155,"à":156,"á":157,"â":158,"ã":159,"ä":160,"å":161,"æ":162,"ç":163,"è":164,"é":165,"ê":166,"ë":167,"ì":168,"í":169,"î":170,"ï":171,"ð":172,"ñ":173,"ò":174,"ó":175,"ô":176,"õ":177,"ö":178,"÷":179,"ø":180,"ù":181,"ú":182,"û":183,"ü":184,"ý":185,"þ":186,"ÿ":187,"Ā":188,"ā":189,"Ă":190,"ă":191,"Ą":192,"ą":193,"Ć":194,"ć":195,"Ĉ":196,"ĉ":197,"Ċ":198,"ċ":199,"Č":200,"č":201,"Ď":202,"ď":203,"Đ":204,"đ":205,"Ē":206,"ē":207,"Ĕ":208,"ĕ":209,"Ė":210,"ė":211,"Ę":212,"ę":213,"Ě":214,"ě":215,"Ĝ":216,"ĝ":217,"Ğ":218,"ğ":219,"Ġ":220,"ġ":221,"Ģ":222,"ģ":223,"Ĥ":224,"ĥ":225,"Ħ":226,"ħ":227,"Ĩ":228,"ĩ":229,"Ī":230,"ī":231,"Ĭ":232,"ĭ":233,"Į":234,"į":235,"İ":236,"ı":237,"Ĳ":238,"ĳ":239,"Ĵ":240,"ĵ":241,"Ķ":242,"ķ":243,"ĸ":244,"Ĺ":245,"ĺ":246,"Ļ":247,"ļ":248,"Ľ":249,"ľ":250,"Ŀ":251,"ŀ":252,"Ł":253,"ł":254,"Ń":255,"Ġt":256,"he":257,"čĊ":258,"Ġa":259,"in":260,"Ġthe":261,"Ġs":262,"Ġw":263,"Ġo":264,"re":265,"nd":266,"ha":267,"er":268,"Ġb":269,"ou":270,"Ġm":271,"it":272,"is":273,"ed":274,"Ġf":275,"Ġc":276,"en":277,"on":278,"Ġof":279,"Ġand":280,"Ġto":281,"ing":282,"or":283,"es":284,"Ġd":285,"Ġp":286,"ĠĠ":287,"ll":288,"Ġh":289,"ar":290,"Ġl":291,"Ġin":292,"Ġhe":293,"an":294,"as":295,"at":296,"Ġn":297,"Ġha":298,"Ġi":299,"om":300,"Ġg":301,"hat":302,"Ġbe":303,"le":304,"ot":305,"ic":306,"ow":307,"ut":308,"st":309,"ve":310,"Ġe":311,"se":312,"Ġy":313,"ld":314,"ly":315,"Ġth":316,"Ġthat":317,"Ġit":318,"id":319,"gh":320,"Ġwas":321,"ent":322,"im":323,"ce":324,"ion":325,"Ġon":326,"Ġyou":327,"al":328,"the":329,"Ġre":330,"ver":331,"ay":332,"ith":333,"Ġu":334,"ir":335,"Ġwh":336,"Ġas":337,"ĠĠĠĠ":338,"Ġhis":339,"et":340,"Ġfor":341,"ur":342,"Ġwe":343,"Ġwith":344,"ad":345,"Ġr":346,"Ġst":347,"ght":348,"ac":349,"Ġis":350,"Ġan":351,"Ġnot":352,"Ġhad":353,"oo":354,"ould":355,"and":356,"ter":357,"am":358,"Ġat":359,"Ġher":360,"--":361,"ke":362,"ill":363,"ain":364,"ri":365,"ro":366,"ch":367,"Ġse":368,"'s":369,"Ġbut":370,"ct":371,"Ġme":372,"th":373,"Ġhim":374,"Ġsa":375,"ess":376,"red":377,"Ġsu":378,"Ġshe":379,"il":380,"ore":381,"Ġ\"":382,"Ġso":383,"ge":384,"ight":385,"pe":386,"Ġhave":387,"ich":388,"all":389,"her":390,"Ġk":391,"Ġde":392,"Ġfr":393,"ome":394,"Ġby":395,".\"":396,"qu":397,"Ġmy":398,"ul":399,"Ġall":400,"if":401,"Ġwhich":402,"Ġthey":403,"to":404,"Ġne":405,"Ġthis":406,"Ġor":407,"Ġwhe":408,"us":409,"Ġup":410,"Ġsh":411,"Ġv":412,"est":413,"ab":414,",\"":415,"Ġcon":416,"Ġdo":417,"Ġfrom":418,"res":419,"our":420,"Ġj":421,"ant":422,"Ġsaid":423,"pp":424,"ation":425,"ous":426,"ust":427,"un":428,"ard":429,"em":430,"Ġwere":431,"Ġman":432,"ind":433,"Ġno":434,"Ġex":435,"ers":436,"lf":437,"Ġwho":438,"very":439,"ĠĠĠĠĠĠĠĠ":440,"Ġthere":441,"Ġal":442,"ie":443,"ra":444,"Ġone":445,"os":446,"art":447,"out":448,"ong":449,"we":450,"ist":451,"ast":452,"Ġare":453,"Ġfe":454,"one":455,"ood":456,"han":457,"ther":458,"um":459,"ol":460,"Ġli":461,"Ġwould":462,"Ġthem":463,"Ġkn":464,"ate":465,"ame":466,"ound":467,"Ġgo":468,"Ġab":469,"ough":470,"Ġtheir":471,"Ġle":472,"'t":473,"Ġbeen":474,"pt":475,"ak":476,"Ġif":477,"Ġcom":478,"ig":479,"Ġwor":480,"own":481,"nt":482,"Ġwill":483,"Ġout":484,"ook":485,"Ġwhen":486,"itt":487,"ry":488,"ive":489,"ven":490,"ort":491,"Ġwhat":492,"self":493,"ost":494,"ag":495,"reat":496,"ck":497,"ose":498,"fe":499,"ity":500,"ure":501,"de":502,"ack":503,"Ġar":504,"Ġam":505,"Ġpro":506,"Ġpl":507,"Ġqu":508,"ace":509,"Ġcan":510,"te":511,"ake":512,"Ġun":513,"hed":514,"Ġyour":515,"Ġsp":516,"Ġtr":517,"Ġen":518,"Ġmore":519,"be":520,"Ġaf":521,"are":522,"au":523,"Ġany":524,"of":525,"Ġag":526,"Ġsome":527,"Ġbr":528,"Ġmr":529,"ies":530,"?\"":531,"ond":532,"op":533,"Ġcould":534,"ish":535,"ass":536,"able":537,"per":538,"Ġpr":539,"ine":540,"Ġch":541,"ime":542,"ide":543,"way":544,"ink":545,"pl":546,"Ġcl":547,"ved":548,"Ġinto":549,"ence":550,"Ġthen":551,"Ġvery":552,"el":553,"Ġnow":554,"ite":555,"ance":556,"hing":557,"Ġsha":558,"other":559,"Ġother":560,"Ġro":561,"Ġthan":562,"fore":563,"ittle":564,"Ġus":565,"urn":566,"Ġknow":567,"ice":568,"ought":569,"ment":570,"wn":571,"Ġ'":572,"Ġhas":573,"Ġlike":574,"ci":575,"Ġdid":576,"ade":577,"ally":578,"ep":579,"Ġtw":580,"age":581,"Ġgr":582,"Ġbo":583,"cc":584,"ble":585,"Ġbl":586,"Ġsee":587,"nder":588,"ings":589,"for":590,"Ġlittle":591,"Ġad":592,"Ġlook":593,"ĠĠĠ":594,"Ġour":595,"Ġtime":596,"ove":597,"Ġim":598,"Ġsay":599,"uch":600,"Ġabout":601,"Ġupon":602,"ap":603,"Ġshould":604,"ount":605,"that":606,"ick":607,"ire":608,"ne":609,"Ġte":610,"Ġpo":611,"ress":612,"Ġgreat":613,"Ġ_":614,"ree":615,"Ġtoo":616,"Ġdis":617,"ather":618,"Ġagain":619,"ert":620,"ile":621,"Ġhow":622,"wh":623,"Ġover":624,"ves":625,"ving":626,"ars":627,"Ġper":628,"ious":629,"Ġonly":630,"cl":631,"Ġhand":632,"bl":633,"act":634,"Ġcha":635,"ord":636,"Ġafter":637,"ife":638,"Ġdown":639,"Ġfl":640,"Ġday":641,"ary":642,"ions":643,"ue":644,"you":645,"ked":646,"ud":647,"Ġgood":648,"âĢ":649,"but":650,"ull":651,"ness":652,"ful":653,"Ġsc":654,"Ġthink":655,"Ġmay":656,"Ġmuch":657,"not":658,"Ġpe":659,"Ġits":660,"ward":661,"!\"":662,"ady":663,"Ġmust":664,"ps":665,"Ġtwo":666,"man":667,"Ġsuch":668,"Ġpart":669,"ied":670,"Ġbefore":671,"od":672,"ated":673,"Ġmade":674,"ild":675,"Ġoff":676,"Ġold":677,"irst":678,"Ġstr":679,"Ġthr":680,"ren":681,"ise":682,"Ġpre":683,"oll":684,"Ġthese":685,"Ġown":686,"Ġlong":687,"Ġwell":688,"ty":689,"Ġ1":690,"Ġway":691,"Ġsm":692,"Ġrem":693,"so":694,"Ġmar":695,"yes":696,"Ġbet":697,"Ġnever":698,"Ġcome":699,"Ġunder":700,"Ġhere":701,"Ġmen":702,"Ġspe":703,"ans":704,"Ġwhere":705,"Ġye":706,"rie":707,"orn":708,"Ġeven":709,"ber":710,"ĠĠĠĠĠĠĠĠĠĠĠĠĠĠĠĠ":711,"Ġgl":712,"iss":713,"ach":714,"ft":715,"Ġmight":716,"ect":717,"Ġfirst":718,"li":719,"Ġlet":720,"con":721,"Ġcame":722,"int":723,"Ġback":724,"gl":725,"anc":726,"old":727,"ave":728,"Ġevery":729,"ng":730,"Ġ(":731,"oss":732,"Ġdes":733,"Ġseem":734,"ried":735,"Ġbec":736,"ff":737,"Ġthought":738,"Ġfa":739,"ily":740,"ang":741,"Ġcont":742,"Ġhimself":743,"Ġhar":744,"ath":745,"ouse":746,"Ġres":747,"with":748,"less":749,"led":750,"sh":751,"no":752,"ple":753,"whe":754,"Ġjust":755,"Ġthose":756,"Ġcr":757,"me":758,"Ġget":759,"ark":760,"Ġke":761,"Ġshall":762,"ign":763,"Ġmost":764,"Ġbel":765,"Ġmake":766,"Ġlife":767,"ory":768,"pect":769,"ip":770,"Ġpass":771,"Ġdon":772,"omet":773,"ause":774,"Ġca":775,"Ġlast":776,"Ġwr":777,"iv":778,"fect":779,"riend":780,"Ġthrough":781,"Ġcons":782,".'":783,"Ġsl":784,"Ġpres":785,"Ġaway":786,"ater":787,"Ġbeing":788,"Ġstill":789,"Ġnew":790,"hes":791,"ition":792,"Ġbeg":793,"Ġwent":794,"Ġimp":795,"Ġap":796,"Ġcour":797,"oth":798,"ever":799,"Ġfar":800,"Ġjo":801,"atter":802,"Ġyet":803,"Ġturn":804,"ens":805,"Ġyoung":806,"ened":807,"Ġcall":808,"what":809,"Ġword":810,"ared":811,"Ġacc":812,"ted":813,"Ġcomm":814,"igh":815,"Ġob":816,"Ġhead":817,"Ġcar":818,"ase":819,"ock":820,"ian":821,"ons":822,"ible":823,"Ġmany":824,"my":825,"Ġtake":826,"Ġla":827,"was":828,"Ġret":829,"Ġop":830,"she":831,"ors":832,"Ġwithout":833,"ertain":834,"Ġtell":835,"Ġthough":836,"ople":837,"Ġwhile":838,"Ġfriend":839,"alk":840,"ener":841,"Ġchar":842,"ult":843,"com":844,"Ġeyes":845,"Ġear":846,"Ġcomp":847,"Ġwork":848,"Ġfound":849,"iz":850,"og":851,",'":852,"Ġwant":853,"thing":854,"aking":855,"Ġhouse":856,"Ġnat":857,"ret":858,"Ġsomet":859,"Ġever":860,"ru":861,"Ġright":862,"Ġend":863,"Ġser":864,"Ġwom":865,"med":866,"Ġatt":867,"ince":868,"Ġonce":869,"av":870,"Ġnothing":871,"ations":872,"'ll":873,"Ġent":874,"there":875,"Ġcount":876,"Ġput":877,"his":878,"Ġem":879,"ject":880,"pr":881,"Ġsir":882,"ex":883,"ting":884,"oment":885,"Ġapp":886,"Ġface":887,"ical":888,"well":889,"Ġmind":890,"Ġsame":891,"up":892,"sel":893,"Ġsupp":894,"by":895,"Ġplace":896,"ged":897,"ict":898,"owed":899,"Ġnor":900,"ently":901,"Ġind":902,"ced":903,"now":904,"ways":905,"su":906,"Ġpeople":907,"ner":908,"Ġdist":909,"most":910,"ower":911,"Ġmrs":912,"ished":913,"ank":914,"ia":915,"les":916,"..":917,"ope":918,"ction":919,"Ġac":920,"Ġfather":921,"Ġans":922,"Ġnight":923,"Ġkne":924,"ros":925,"Ġset":926,"den":927,"cha":928,"Ġanother":929,"ither":930,"Ġmoment":931,"Ġgot":932,"ms":933,"Ġsaw":934,"Ġpa":935,"Ġthings":936,"Ġheart":937,"ows":938,"Ġleft":939,"rest":940,"Ġfind":941,"ix":942,"lt":943,"Ġrep":944,"Ġple":945,"Ġworld":946,",--":947,"Ġgod":948,"they":949,"Ġinst":950,"ained":951,"br":952,"Ġlove":953,"Ġchan":954,"Ġsec":955,"Ġgu":956,"Ġinte":957,"ered":958,"Ġthing":959,"Ġfeel":960,"Ġlooked":961,"uth":962,"Ġlight":963,"Ġdif":964,"oy":965,"Ġpers":966,"Ġwar":967,"Ġgi":968,"ail":969,"ool":970,"Ġappe":971,"'d":972,"irl":973,"Ġthree":974,"cept":975,"Ġco":976,"Ġlady":977,"imes":978,"Ġsub":979,"vent":980,"Ġgive":981,"rew":982,"ual":983,"its":984,"Ġchild":985,"Ġbelie":986,"ined":987,"Ġsat":988,"Ġseemed":989,"Ġmiss":990,"Ġalways":991,"Ġfoll":992,"âĢĻ":993,"cess":994,"ween":995,"Ġdone":996,"Ġtook":997,"iness":998,"Ġfell":999,"ning":1000,"aught":1001,"ched":1002,"und":1003,"Ġengl":1004,"ross":1005,"Ġasked":1006,"this":1007,"Ġhapp":1008,"Ġgoing":1009,"ised":1010,"fr":1011,"ten":1012,"Ġbetter":1013,"Ġkind":1014,"Ġgener":1015,"Ġfew":1016,"land":1017,"Ġsur":1018,"Ġma":1019,"ial":1020,"Ġmo":1021,"Ġwa":1022,"Ġagainst":1023,"Ġsw":1024,"pped":1025,"air":1026,"Ġhard":1027,"vers":1028,"Ġreg":1029,"ph":1030,"Ġrel":1031,"Ġquite":1032,"Ġheard":1033,"Ġknew":1034,"Ġside":1035,"Ġreturn":1036,"Ġcertain":1037,"Ġboy":1038,"Ġtold":1039,"ular":1040,"had":1041,"Ġread":1042,"Ġlo":1043,"Ġdr":1044,"Ġposs":1045,"der":1046,"Ġlord":1047,"ters":1048,"haps":1049,"uck":1050,"Ġexp":1051,"gether":1052,"Ġdou":1053,"Ġsomething":1054,"oot":1055,"Ġhands":1056,"Ġhalf":1057,"men":1058,"Ġcol":1059,"ired":1060,"ited":1061,"ins":1062,"which":1063,"Ġcle":1064,"Ġbre":1065,"Ġwind":1066,"Ġyears":1067,"xt":1068,"Ġcourse":1069,"Ġrest":1070,"Ġsoon":1071,"ib":1072,"Ġenough":1073,"Ġmon":1074,"Ġste":1075,"Ġsil":1076,"Ġroom":1077,"ully":1078,"Ġseen":1079,"Ġamong":1080,"Ġmin":1081,"Ġeach":1082,"aken":1083,"mer":1084,"ier":1085,"ĠčĊ":1086,"bt":1087,"Ġround":1088,"ug":1089,"Ġrec":1090,"Ġbetween":1091,"osed":1092,"right":1093,"Ġinde":1094,"wards":1095,"Ġbecause":1096,"Ġnear":1097,"Ġgirl":1098,"selves":1099,"Ġmatter":1100,"'m":1101,"fl":1102,"Ġhome":1103,"gr":1104,"Ġact":1105,"Ġche":1106,"ks":1107,"Ġalso":1108,"Ġking":1109,"Ġmother":1110,"Ġocc":1111,"iet":1112,"Ġwoman":1113,"oice":1114,"ces":1115,"aut":1116,"du":1117,"Ġel":1118,"Ġ2":1119,"Ġhum":1120,"Ġhour":1121,"Ġwhole":1122,"Ġdoor":1123,"ason":1124,"Ġpur":1125,"rave":1126,"sp":1127,"Ġboth":1128,"af":1129,"Ġcur":1130,"ures":1131,"let":1132,"Ġname":1133,"Ġsou":1134,"any":1135,"ange":1136,"Ġwhom":1137,"Ġhel":1138,"ents":1139,"atch":1140,"aint":1141,"owing":1142,"ser":1143,"Ġsure":1144,"Ġcare":1145,"ye":1146,"Ġmean":1147,"ute":1148,"Ġadd":1149,"Ġpoint":1150,"do":1151,"att":1152,"Ġed":1153,"stand":1154,"orning":1155,"entle":1156,"ern":1157,"Ġkeep":1158,"Ġtre":1159,"Ġpoor":1160,"Ġconf":1161,"Ġbest":1162,"Ġass":1163,"then":1164,"ĠĠĠĠĠ":1165,"Ġdra":1166,"Ġwhy":1167,"Ġhaving":1168,"him":1169,"orr":1170,"Ġinter":1171,"Ġpleas":1172,"Ġalmost":1173,"'ve":1174,"Ġhigh":1175,"Ġdoes":1176,"how":1177,"Ġter":1178,"when":1179,"ating":1180,"Ġdel":1181,"aster":1182,"day":1183,"Ġbro":1184,"ĠĠĠĠĠĠ":1185,"Ġstand":1186,"Ġless":1187,"ering":1188,"oh":1189,"have":1190,"ably":1191,"Ġcapt":1192,"rent":1193,"Ġhowever":1194,"ense":1195,"Ġsmall":1196,"Ġcountry":1197,"nded":1198,"ton":1199,"ene":1200,"Ġbar":1201,"Ġph":1202,"Ġland":1203,"ung":1204,"Ġsince":1205,"Ġwater":1206,"Ġsk":1207,"Ġfact":1208,"Ġpresent":1209,"ream":1210,"ately":1211,"Ġmyself":1212,"Ġfam":1213,"over":1214,"ken":1215,"Ġpar":1216,"ling":1217,"Ġbus":1218,"als":1219,"Ġtill":1220,"fort":1221,"Ġfelt":1222,"Ġev":1223,"ief":1224,"tr":1225,"dy":1226,"Ġturned":1227,"Ġart":1228,"Ġdays":1229,"Ġsent":1230,"mr":1231,"Ġdear":1232,"Ġlar":1233,"Ġwords":1234,"Ġcalled":1235,"Ġdisc":1236,"Ġdark":1237,"pro":1238,"Ġhear":1239,"Ġunt":1240,"Ġrather":1241,"Ġindeed":1242,"oud":1243,"az":1244,"_,":1245,"ates":1246,"Ġperhaps":1247,"where":1248,"Ġopen":1249,"Ġ[":1250,"Ġvis":1251,"Ġmorning":1252,"cy":1253,"oney":1254,"Ġfore":1255,"Ġadv":1256,"amp":1257,"Ġtalk":1258,"king":1259,"wered":1260,"bod":1261,"Ġhope":1262,"Ġgre":1263,"Ġbegan":1264,"Ġquest":1265,"Ġes":1266,"ains":1267,"Ġnext":1268,"Ġwhite":1269,"oke":1270,"ger":1271,"ii":1272,"Ġgave":1273,"Ġstood":1274,"mon":1275,"Ġmet":1276,"fic":1277,"Ġsim":1278,"Ġgentle":1279,"ale":1280,"ubl":1281,"fully":1282,"Ġanything":1283,"Ġhon":1284,"Ġdoubt":1285,"ird":1286,"unt":1287,"Ġvoice":1288,"Ġref":1289,"ls":1290,"aw":1291,"Ġbelieve":1292,"Ġbu":1293,"cei":1294,"ments":1295,"wor":1296,"from":1297,"ott":1298,"Ġwond":1299,"Ġbrought":1300,"Ġsun":1301,"Ġcannot":1302,"used":1303,"Ġfall":1304,"Ġbeaut":1305,"Ġanswered":1306,"Ġlaw":1307,"ield":1308,"Ġuse":1309,"Ġadm":1310,"Ġperson":1311,"oun":1312,"Ġneed":1313,"body":1314,"Ġru":1315,"Ġspir":1316,"Ġbeh":1317,"Ġgone":1318,"Ġfull":1319,"Ġtaken":1320,"Ġpower":1321,"?'":1322,"ants":1323,"ah":1324,"gg":1325,"ressed":1326,"ities":1327,"Ġherself":1328,"Ġspeak":1329,"ider":1330,"ets":1331,"Ġtrue":1332,"Ġ18":1333,"----":1334,"Ġblack":1335,"iting":1336,"dden":1337,"Ġhor":1338,"read":1339,"Ġins":1340,"Ġtri":1341,"Ġuntil":1342,"Ġinterest":1343,"ured":1344,"Ġinc":1345,"ash":1346,"bed":1347,"aces":1348,"cle":1349,"rist":1350,"uring":1351,"itu":1352,"Ġcontin":1353,"._":1354,"Ġlay":1355,"Ġcond":1356,"Ġide":1357,"ances":1358,"ention":1359,"Ġrun":1360,"ceed":1361,"Ġaw":1362,"osition":1363,"wer":1364,"aring":1365,"Ġfour":1366,"Ġhelp":1367,"Ġair":1368,"Ġsudden":1369,"Ġbur":1370,"ane":1371,"ned":1372,"har":1373,"Ġforg":1374,"empt":1375,"eter":1376,"Ġleast":1377,"iled":1378,"ison":1379,"Ġwife":1380,"Ġstrong":1381,"Ġswe":1382,"ready":1383,"Ġtogether":1384,"Ġfire":1385,"ages":1386,"str":1387,"Ġothers":1388,"who":1389,"like":1390,"iver":1391,"iew":1392,"Ġdeath":1393,"Ġlau":1394,"Ġdiffe":1395,"sc":1396,"ister":1397,"Ġwhose":1398,"Ġalong":1399,"race":1400,"Ġsle":1401,"Ġsea":1402,"Ġplay":1403,"Ġthus":1404,"Ġext":1405,"aim":1406,"anger":1407,"Ġhold":1408,"Ġenglish":1409,"Ġremem":1410,"ached":1411,"though":1412,"Ġsort":1413,"Ġmoney":1414,"Ġmer":1415,"ually":1416,"Ġcried":1417,"Ġnature":1418,"Ġcaptain":1419,"Ġpri":1420,"vel":1421,"Ġint":1422,"Ġserv":1423,"Ġbook":1424,"Ġgiven":1425,"rence":1426,"Ġdire":1427,"ying":1428,"ides":1429,"Ġsy":1430,"Ġfin":1431,"ys":1432,"arr":1433,"Ġcase":1434,"gth":1435,"Ġpol":1436,"undred":1437,"plied":1438,"Ġform":1439,"Ġprop":1440,"ont":1441,"Ġgeneral":1442,"Ġmil":1443,"ster":1444,"Ġpassed":1445,"ific":1446,"Ġfeet":1447,"Ġlooking":1448,"hen":1449,"Ġthemselves":1450,"would":1451,"Ġshort":1452,"Ġreal":1453,"Ġfur":1454,"Ġsays":1455,"will":1456,"Ġlarge":1457,"akes":1458,"come":1459,"Ġleave":1460,"part":1461,"Ġreason":1462,"ided":1463,"Ġbehind":1464,"Ġ3":1465,"Ġdec":1466,"ines":1467,"Ġwhether":1468,"ley":1469,"Ġsing":1470,"Ġwish":1471,"Ġra":1472,"Ġdead":1473,"Ġill":1474,"ffect":1475,"Ġalone":1476,"Ġson":1477,"Ġred":1478,"lect":1479,"Ġclose":1480,"Ġopp":1481,"Ġquestion":1482,"Ġcor":1483,"Ġfair":1484,"Ġreally":1485,"Ġabove":1486,"Ġtown":1487,"Ġprom":1488,"Ġbrother":1489,"ches":1490,"Ġstart":1491,"'re":1492,"Ġthou":1493,"bert":1494,"Ġbed":1495,"hn":1496,"ceived":1497,"Ġir":1498,"ught":1499,"Ġ*":1500,"use":1501,"Ġcir":1502,"aced":1503,"here":1504,"Ġsound":1505,"ative":1506,"app":1507,"enty":1508,"val":1509,"Ġstate":1510,"ution":1511,"ards":1512,"were":1513,"illed":1514,"look":1515,"Ġdeep":1516,"Ġpat":1517,"Ġnum":1518,"chan":1519,"Ġunderstand":1520,"Ġbes":1521,"Ġletter":1522,"Ġoften":1523,"Ġpubl":1524,"Ġwood":1525,"Ġtry":1526,"Ġmis":1527,"Ġeas":1528,"Ġjohn":1529,"!'":1530,"Ġchrist":1531,"them":1532,"Ġexpect":1533,"son":1534,"Ġsecond":1535,"ility":1536,"tered":1537,"ham":1538,"Ġhundred":1539,"ued":1540,"Ġsign":1541,"alked":1542,"form":1543,"Ġground":1544,"Ġlad":1545,"Ġfear":1546,"Ġtruth":1547,"their":1548,"Ġabs":1549,"Ġreplied":1550,"ident":1551,"iful":1552,"ient":1553,"Ġsch":1554,"Ġmanner":1555,"side":1556,"ural":1557,"ames":1558,"Ġten":1559,"Ġwithin":1560,"Ġstre":1561,"cr":1562,"ote":1563,"--\"":1564,"Ġalready":1565,"Ġknown":1566,"ek":1567,"Ġcharac":1568,"Ġmad":1569,"Ġprof":1570,"iously":1571,"Ġcoming":1572,"Ġfort":1573,"aughter":1574,"Ġce":1575,"ience":1576,"cri":1577,".]":1578,"par":1579,"Ġmeet":1580,"after":1581,"Ġorder":1582,"Ġfriends":1583,"Ġsuppose":1584,"co":1585,"Ġwild":1586,"cul":1587,"under":1588,"Ġlow":1589,"Ġmount":1590,"Ġtimes":1591,"nor":1592,"Ġspirit":1593,"Ġtowards":1594,"ca":1595,"veral":1596,"Ġx":1597,"Ġdev":1598,"Ġdri":1599,"Ġyear":1600,"Ġexpl":1601,"Ġelse":1602,"go":1603,"00":1604,"some":1605,"Ġsubject":1606,"Ġitself":1607,"Ġsuff":1608,"Ġlear":1609,"Ġhur":1610,"Ġwalk":1611,"Ġlive":1612,"po":1613,"eth":1614,"Ġobser":1615,"Ġcap":1616,"head":1617,"cum":1618,"room":1619,"Ġarm":1620,"Ġge":1621,".--":1622,"Ġwall":1623,"Ġinv":1624,"eric":1625,"Ġbad":1626,"ism":1627,"pter":1628,"Ġjud":1629,"aid":1630,"Ġmeans":1631,"Ġlost":1632,"overed":1633,"Ġdro":1634,"Ġask":1635,"itted":1636,"ship":1637,"),":1638,"Ġwonder":1639,"Ġbusiness":1640,"your":1641,"Ġeffect":1642,"iter":1643,"pre":1644,"Ġthy":1645,"âĢľ":1646,"Ġmid":1647,"urch":1648,"ousand":1649,"Ġnecess":1650,"ats":1651,"Ġclear":1652,"ob":1653,"asion":1654,"Ġsum":1655,"Ġsix":1656,"Ġmere":1657,"ub":1658,"can":1659,"Ġused":1660,"Ġhuman":1661,"Ġbring":1662,"Ġeither":1663,"Ġtrou":1664,"Ġreturned":1665,"aven":1666,"Ġrose":1667,"Ġeye":1668,"Ġcast":1669,"light":1670,"Ġpret":1671,"Ġchildren":1672,"Ġbody":1673,"idence":1674,"Ġquiet":1675,"dle":1676,"Ġtherefore":1677,"cious":1678,"Ġprin":1679,"bit":1680,"Ġstep":1681,"Ġglad":1682,"âĢĿ":1683,"why":1684,"Ġvar":1685,"Ġlist":1686,"Ġearth":1687,"ney":1688,"gin":1689,"Ġmem":1690,"Ġperfect":1691,"ety":1692,"lled":1693,"Ġobject":1694,"Ġstrange":1695,"ury":1696,"Ġheld":1697,"Ġkept":1698,"Ġsense":1699,"rench":1700,"ising":1701,"Ġconsider":1702,"itting":1703,"dis":1704,"Ġhorse":1705,"Ġwon":1706,"band":1707,"ped":1708,"Ġanswer":1709,"Ġwomen":1710,"Ġexc":1711,"ression":1712,"Ġtom":1713,"Ġhus":1714,"Ġport":1715,"ny":1716,"Ġdut":1717,"Ġdu":1718,"Ġsight":1719,"ift":1720,"_.":1721,"Ġsqu":1722,"Ġmaster":1723,"more":1724,"Ġinf":1725,"Ġfamily":1726,"Ġcommon":1727,"ring":1728,"ians":1729,"night":1730,"une":1731,"ized":1732,"Ġgold":1733,"Ġcal":1734,"Ġfoot":1735,"orrow":1736,"Ġengland":1737,"Ġacross":1738,"Ġseveral":1739,"Ġfellow":1740,"Ġpast":1741,"Ġtem":1742,"Ġshow":1743,"ctor":1744,"Ġrespect":1745,"Ġappear":1746,"tend":1747,"ingly":1748,"Ġview":1749,"cons":1750,"bo":1751,"Ġje":1752,"Ġpain":1753,"outh":1754,"ccess":1755,"Ġmaking":1756,"Ġgover":1757,"rem":1758,"Ġlead":1759,"Ġyes":1760,"Ġcharacter":1761,"Ġconst":1762,"ination":1763,"ery":1764,"Ġcut":1765,"Ġdeal":1766,"Ġpossible":1767,"Ġroad":1768,"Ġevening":1769,"Ġtra":1770,"Ġstory":1771,"Ġmist":1772,"Ġut":1773,"Ġtou":1774,"che":1775,"cial":1776,"Ġbig":1777,"Ġdidn":1778,"Ġfive":1779,"Ġseems":1780,"Ġought":1781,"Ġfree":1782,"ones":1783,"Ġable":1784,"isf":1785,"Ġbit":1786,"iar":1787,"ices":1788,"Ġquick":1789,"ford":1790,"Ġexcept":1791,"Ġblood":1792,"Ġdiffic":1793,"Ġmur":1794,"Ġhill":1795,"Ġbecome":1796,"Ġthousand":1797,"Ġmag":1798,"Ġproper":1799,"uss":1800,"aged":1801,"Ġduring":1802,"Ġrock":1803,"Ġslow":1804,"Ġprob":1805,"Ġdecl":1806,"Ġidea":1807,"ondon":1808,"Ġremember":1809,"yond":1810,"inct":1811,"een":1812,"ush":1813,"owers":1814,"antly":1815,"ze":1816,"arent":1817,"orge":1818,"airs":1819,"Ġlea":1820,"Ġchurch":1821,"Ġcross":1822,"cour":1823,"Ġtable":1824,"icular":1825,"Ġarri":1826,"Ġho":1827,"Ġaccount":1828,"Ġfig":1829,"Ġbegin":1830,"tw":1831,"Ġcold":1832,"Ġready":1833,"arch":1834,"alth":1835,"ots":1836,"Ġcent":1837,"Ġeng":1838,"Ġsoul":1839,"Ġsurpr":1840,"Ġele":1841,"Ġdifferent":1842,"Ġbecame":1843,"Ġcoll":1844,"uct":1845,"irt":1846,"Ġest":1847,"utes":1848,"Ġsuddenly":1849,"Ġappro":1850,"sha":1851,"Ġwatch":1852,"ement":1853,"iment":1854,"Ġexcl":1855,"Ġpublic":1856,"pend":1857,"Ġspoke":1858,"Ġworth":1859,"uthor":1860,"Ġconc":1861,"Ġequ":1862,"tern":1863,"ality":1864,"Ġaround":1865,"Ġ.":1866,"Ġparty":1867,"Ġpay":1868,"Ġsometimes":1869,"pose":1870,"Ġriver":1871,"Ġbreak":1872,"Ġsto":1873,"Ġprodu":1874,"bled":1875,"Ġgentleman":1876,"itude":1877,"ives":1878,"Ġmod":1879,"ey":1880,"ased":1881,"Ġve":1882,"Ġsleep":1883,"miss":1884,"Ġheaven":1885,"Ġvi":1886,"ric":1887,"gu":1888,"Ġdraw":1889,"Ġheav":1890,"Ġpretty":1891,"Ġprov":1892,"Ġfav":1893,"ĠĠĠĠĠĠĠĠĠĠĠĠĠĠĠĠĠĠĠĠĠĠĠĠ":1894,"Ġmus":1895,"Ġcourt":1896,"ges":1897,"Ġ4":1898,"don":1899,"Ġarms":1900,"Ġmonth":1901,"Ġimag":1902,"chapter":1903,"Ġscar":1904,"Ġfollowed":1905,"Ġtrans":1906,"Ġdin":1907,"been":1908,"Ġoffic":1909,"Ġcommand":1910,"Ġdirect":1911,"ead":1912,"rel":1913,"Ġsecret":1914,"char":1915,"Ġran":1916,"Ġcity":1917,"Ġfight":1918,"Ġfeeling":1919,"Ġstra":1920,"Ġship":1921,"just":1922,"Ġstri":1923,"oof":1924,"Ġaff":1925,"attle":1926,"could":1927,"inter":1928,"house":1929,"Ġsol":1930,"gy":1931,"riage":1932,"Ġfine":1933,"Ġthee":1934,"Ġstud":1935,"Ġhen":1936,"Ġhusband":1937,"ledge":1938,"Ġbeautiful":1939,"uc":1940,"Ġhot":1941,"Ġdiv":1942,"Ġval":1943,"ging":1944,"Ġquar":1945,"Ġstay":1946,"Ġfrench":1947,"Ġpen":1948,"Ġhast":1949,"Ġleg":1950,"raid":1951,"Ġoccasion":1952,"Ġline":1953,"Ġcorn":1954,"ature":1955,"Ġself":1956,"Ġforward":1957,"medi":1958,"Ġdem":1959,"Ġameric":1960,"Ġdream":1961,"Ġpal":1962,"Ġmaj":1963,"than":1964,"ession":1965,"Ġvill":1966,"Ġchief":1967,"imp":1968,"Ġcomple":1969,"reed":1970,"Ġappeared":1971,"ancy":1972,"Ġnone":1973,"Ġdef":1974,"Ġlondon":1975,"Ġver":1976,"uff":1977,"Ġmove":1978,"cont":1979,"Ġbright":1980,"Ġbeyond":1981,"Ġphil":1982,"Ġsuccess":1983,"while":1984,"ament":1985,"Ġhair":1986,"ony":1987,"Ġexam":1988,").":1989,"idge":1990,"Ġadded":1991,"Ġsn":1992,"Ġcertainly":1993,"Ġsold":1994,"ists":1995,"Ġhappy":1996,"Ġdoing":1997,"cumst":1998,"Ġeverything":1999,"Ġarr":2000,"ior":2001,"essed":2002,"Ġled":2003,"Ġfaith":2004,"Ġmor":2005,"Ġord":2006,"about":2007,"ma":2008,"Ġexper":2009,"off":2010,"Ġsend":2011,"Ġcontinued":2012,"Ġtaking":2013,"ump":2014,"resent":2015,"ously":2016,"mp":2017,"inary":2018,"Ġmine":2019,"Ġgreen":2020,"lly":2021,"mar":2022,"ounded":2023,"Ġlate":2024,"resh":2025,"Ġfront":2026,"Ġgrand":2027,"aimed":2028,"Ġvol":2029,"hand":2030,"ggest":2031,"Ġhist":2032,"Ġtwenty":2033,"oe":2034,"Ġbene":2035,"otion":2036,"Ġrequ":2037,"together":2038,"Ġhat":2039,"good":2040,"Ġcomes":2041,"min":2042,"Ġsoft":2043,"itten":2044,"Ġaffect":2045,"Ġcarry":2046,"Ġfurther":2047,"Ġschool":2048,"Ġlaugh":2049,"appe":2050,"ics":2051,"Ġplain":2052,"Ġregard":2053,"rupt":2054,"âĢĶ":2055,"Ġdanger":2056,"Ġanim":2057,"Ġboys":2058,"ilt":2059,"Ġchange":2060,"Ġchance":2061,"Ġprot":2062,"Ġhours":2063,"ified":2064,"again":2065,"Ġopin":2066,"vol":2067,"aining":2068,"Ġnatural":2069,"Ġacqu":2070,"Ġvisit":2071,"ĠĠĠĠĠĠĠ":2072,"Ġauthor":2073,"Ġstreet":2074,"thr":2075,"ushed":2076,"Ġdet":2077,"Ġenem":2078,"Ġdog":2079,"usion":2080,"fered":2081,"Ġwat":2082,"get":2083,"Ġbreat":2084,"iam":2085,"iff":2086,"Ġtrust":2087,"orm":2088,"Ġimport":2089,"set":2090,"Ġdaughter":2091,"sm":2092,"Ġsad":2093,"Ġcompany":2094,"ossible":2095,"Ġpray":2096,"ounds":2097,"Ġcreat":2098,"Ġnumber":2099,"ening":2100,"cent":2101,"Ġcarried":2102,"isted":2103,"Ġwanted":2104,"Ġage":2105,"Ġlen":2106,"never":2107,"Ġyourself":2108,"should":2109,"Ġpie":2110,"Ġsal":2111,"anced":2112,"Ġwrong":2113,"ler":2114,"count":2115,"Ġbear":2116,"Ġcry":2117,"iling":2118,"Ġpict":2119,"Ġda":2120,"bers":2121,"oured":2122,"Ġwit":2123,"Ġboat":2124,".,":2125,"Ġdest":2126,"Ġlater":2127,"sequ":2128,"ours":2129,"Ġnearly":2130,"Ġsaying":2131,"Ġlonger":2132,"ize":2133,"Ġcause":2134,"Ġshad":2135,"Ġparticular":2136,"itions":2137,"irm":2138,"col":2139,"little":2140,"Ġsatisf":2141,"Ġsett":2142,"Ġdisp":2143,"que":2144,"Ġbill":2145,"Ġearly":2146,"Ġanx":2147,"Ġreached":2148,"certain":2149,"Ġforce":2150,"ius":2151,"Ġcomfort":2152,"Ġisland":2153,"kes":2154,"Ġafraid":2155,"upon":2156,"Ġwindow":2157,"Ġdelight":2158,"before":2159,"Ġtried":2160,"Ġhardly":2161,"Ġpriv":2162,"olog":2163,"Ġreceived":2164,"Ġfool":2165,"oint":2166,"joy":2167,"Ġcompan":2168,"long":2169,"Ġgard":2170,"Ġfif":2171,"Ġsweet":2172,"Ġeff":2173,"Ġsister":2174,"Ġwhis":2175,"Ġoh":2176,"Ġprince":2177,"cient":2178,"ceive":2179,"ask":2180,"ald":2181,"Ġhall":2182,"spe":2183,"Ġposition":2184,"Ġliving":2185,"ically":2186,"Ġsuper":2187,"Ġlab":2188,"bet":2189,"cies":2190,"did":2191,"Ġattempt":2192,"Ġneither":2193,"Ġrom":2194,"Ġtrave":2195,"Ġsilence":2196,"Ġremark":2197,"see":2198,"reg":2199,"Ġwalked":2200,"Ġmiles":2201,"Ġminutes":2202,"said":2203,"Ġger":2204,"Ġann":2205,"Ġchair":2206,"Ġtrouble":2207,"Ġuncle":2208,"Ġflo":2209,"flu":2210,"Ġslight":2211,"has":2212,"wise":2213,"fer":2214,"Ġspo":2215,"Ġinqu":2216,"Ġago":2217,"ustom":2218,"Ġpract":2219,"into":2220,"ries":2221,"Ġopened":2222,"Ġfast":2223,"onel":2224,"Ġdep":2225,"hood":2226,"dom":2227,"Ġbird":2228,"every":2229,"ron":2230,"Ġsuggest":2231,"Ġforth":2232,"ences":2233,"Ġlie":2234,"ues":2235,"lling":2236,"Ġdoctor":2237,"Ġgeorge":2238,"Ġpeace":2239,"rible":2240,"cially":2241,"Ġgrace":2242,"great":2243,"time":2244,"Ġrid":2245,"acy":2246,"ager":2247,"Ġprinci":2248,"Ġblue":2249,"Ġsmile":2250,"ume":2251,"ighb":2252,"des":2253,"Ġmeant":2254,"Ġmouth":2255,"Ġpost":2256,"pping":2257,"ax":2258,"Ġnecessary":2259,"icked":2260,"angu":2261,"car":2262,"ming":2263,"Ġcamp":2264,"new":2265,"olute":2266,"Ġaccord":2267,"mrs":2268,"Ġpurpose":2269,"oose":2270,"ply":2271,"Ġyouth":2272,"....":2273,"Ġlaid":2274,"foot":2275,"Ġmed":2276,"these":2277,"Ġav":2278,"Ġrepe":2279,"Ġstren":2280,"Ġpoet":2281,"Ġtor":2282,"action":2283,"ded":2284,"Ġscarce":2285,"Ġcontr":2286,"ixed":2287,"ĠĠĠĠĠĠĠĠĠĠĠĠĠĠĠĠĠĠĠĠĠĠĠĠĠĠĠĠĠĠĠĠ":2288,"Ġ5":2289,"Ġcra":2290,"Ġlength":2291,"Ġcircumst":2292,"vi":2293,"Ġpleasure":2294,"Ġnorth":2295,"Ġsens":2296,"ively":2297,"ghed":2298,"only":2299,"Ġden":2300,"Ġduty":2301,"may":2302,"Ġprobably":2303,"Ġgrave":2304,"nment":2305,"Ġsave":2306,"Ġthinking":2307,"Ġtreat":2308,"Ġslowly":2309,"Ġdie":2310,"Ġentered":2311,"orses":2312,"Ġdesp":2313,"ils":2314,"Ġcrow":2315,"hard":2316,"bar":2317,"face":2318,"Ġweek":2319,"stood":2320,"bel":2321,"Ġ17":2322,"Ġalthough":2323,"Ġdistance":2324,"ases":2325,"ogn":2326,"ips":2327,"gan":2328,"Ġheavy":2329,"Ġentire":2330,"Ġimmedi":2331,"Ġsin":2332,"Ġrich":2333,"know":2334,"Ġgall":2335,"Ġgetting":2336,"sem":2337,"Ġshar":2338,"Ġaccom":2339,"Ġwest":2340,"Ġbroken":2341,"asure":2342,"bs":2343,"comp":2344,"Ġdescri":2345,"Ġmark":2346,"Ġbank":2347,"Ġfield":2348,"iers":2349,"Ġjack":2350,"Ġstanding":2351,"ency":2352,"Ġwhatever":2353,"Ġeight":2354,"Ġori":2355,"Ġknows":2356,"ech":2357,"ustr":2358,"oes":2359,"bur":2360,"Ġlived":2361,"llow":2362,"Ġgun":2363,"Ġlips":2364,"even":2365,"Ġlu":2366,"Ġtrees":2367,"Ġburn":2368,"Ġjour":2369,"Ġhop":2370,"Ġtop":2371,"Ġexact":2372,"Ġstruck":2373,"Ġproceed":2374,"ference":2375,"Ġexclaimed":2376,"ching":2377,"gar":2378,"eterm":2379,"Ġhung":2380,"Ġeasy":2381,"Ġhig":2382,"Ġclass":2383,"Ġhappened":2384,"aded":2385,"Ġbrown":2386,"Ġmakes":2387,"somet":2388,"Ġsafe":2389,"father":2390,"bling":2391,"cell":2392,"Ġmary":2393,"bec":2394,"say":2395,"Ġprison":2396,"ivers":2397,"athe":2398,"ining":2399,"Ġopinion":2400,"Ġjoy":2401,"wood":2402,"oc":2403,"Ġknowledge":2404,"Ġbell":2405,"Ġdinner":2406,"Ġobl":2407,"Ġdrew":2408,"pit":2409,"Ġhonour":2410,"Ġdick":2411,"ciety":2412,"Ġcoun":2413,"Ġer":2414,"Ġarmy":2415,"Ġconv":2416,"Ġdress":2417,"Ġdied":2418,"Ġweak":2419,"Ġwritten":2420,"spect":2421,"Ġprep":2422,"Ġservice":2423,"ises":2424,"cience":2425,"ires":2426,"such":2427,"Ġqueen":2428,"Ġbott":2429,"kn":2430,"irty":2431,"noon":2432,"Ġfit":2433,"Ġwrite":2434,"Ġdeg":2435,"Ġstopped":2436,"Ġwis":2437,"Ġincl":2438,"Ġsouth":2439,"Ġpap":2440,"ples":2441,"eks":2442,"Ġbuild":2443,"Ġnarr":2444,"Ġboard":2445,"Ġmass":2446,"Ġmill":2447,"Ġexist":2448,"Ġremained":2449,"ivid":2450,"oom":2451,"Ġlim":2452,"amed":2453,"Ġinstead":2454,"sed":2455,"Ġpaper":2456,"Ġbeauty":2457,"na":2458,"Ġaccept":2459,"Ġcre":2460,"ories":2461,"place":2462,"pecially":2463,"Ġnote":2464,"Ġgaz":2465,"Ġbrit":2466,"ashion":2467,"sec":2468,"Ġconvers":2469,"Ġbelow":2470,"Ġsitting":2471,"Ġund":2472,"eness":2473,"Ġneighb":2474,"nothing":2475,"down":2476,"ts":2477,"Ġwait":2478,"happ":2479,"Ġcompl":2480,"Ġstone":2481,"Ġmess":2482,"ulty":2483,"Ġlaughed":2484,"Ġsam":2485,"Ġtone":2486,"Ġfle":2487,"Ġhistory":2488,"Ġsilent":2489,"mber":2490,"Ġmention":2491,"Ġcab":2492,"Ġrob":2493,"Ġintell":2494,"Ġfollowing":2495,"fast":2496,"yed":2497,"Ġshore":2498,"zz":2499,".)":2500,"Ġfigure":2501,"Ġty":2502,"ina":2503,"Ġresult":2504,"Ġhorses":2505,"Ġgen":2506,"Ġstraight":2507,"two":2508,"Ġbound":2509,"Ġsac":2510,"Ġtree":2511,"Ġfut":2512,"Ġsav":2513,"Ġrelig":2514,"io":2515,"Ġdom":2516,"unity":2517,"Ġshout":2518,";--":2519,"Ġsit":2520,"Ġlatter":2521,"rief":2522,"Ġaunt":2523,"pers":2524,"wr":2525,"Ġcaught":2526,"requ":2527,"Ġfrank":2528,"Ġthoughts":2529,"Ġusual":2530,"Ġseeing":2531,"Ġconcl":2532,"think":2533,"Ġfresh":2534,"Ġdifficult":2535,"Ġang":2536,"mn":2537,"vere":2538,"arer":2539,"pass":2540,"aching":2541,"Ġvan":2542,"Ġpolit":2543,"Ġben":2544,"Ġfollow":2545,"nding":2546,"Ġsnow":2547,"Ġstrength":2548,"Ġdesire":2549,"hel":2550,"Ġletters":2551,"Ġloved":2552,"Ġnews":2553,"zen":2554,"Ġforgot":2555,"Ġgrow":2556,"ston":2557,"Ġgoes":2558,"dered":2559,"ell":2560,"Ġpop":2561,"oved":2562,"inte":2563,"sy":2564,"cap":2565,"Ġ6":2566,"ibly":2567,"thought":2568,"Ġgrew":2569,"Ġwarm":2570,"iety":2571,"Ġmoved":2572,"Ġenjoy":2573,"Ġorigin":2574,"ploy":2575,"Ġwide":2576,"Ġsor":2577,"Ġthick":2578,"ored":2579,"uel":2580,"Ġbroke":2581,"Ġdrink":2582,"Ġgovernment":2583,"Ġeat":2584,"jo":2585,"Ġplan":2586,"Ġspot":2587,"Ġenemy":2588,"Ġformer":2589,"Ġglass":2590,"Ġii":2591,"Ġfing":2592,"himself":2593,"Ġsail":2594,"ision":2595,"Ġvict":2596,"bered":2597,"ishing":2598,"Ġadmir":2599,"cted":2600,"Ġdemand":2601,"bre":2602,"Ġforget":2603,"Ġant":2604,"Ġpull":2605,"itation":2606,"Ġdread":2607,"ouses":2608,"Ġinflu":2609,"osing":2610,"Ġsingle":2611,"Ġoccur":2612,"Ġsomewhat":2613,"nat":2614,"Ġmarried":2615,"Ġtoward":2616,"orted":2617,"Ġmonths":2618,"kind":2619,"Ġshowed":2620,"Ġcolonel":2621,"Ġattack":2622,"bles":2623,"teen":2624,"Ġgreater":2625,"Ġfal":2626,"Ġsociety":2627,"mit":2628,"ĠâĢľ":2629,"road":2630,"Ġlangu":2631,"iod":2632,"arm":2633,"othes":2634,"Ġfat":2635,"Ġoccup":2636,"iced":2637,"wel":2638,"Ġnoble":2639,"Ġplaced":2640,"Ġnation":2641,"esty":2642,"Ġfro":2643,"hold":2644,"Ġbelong":2645,"back":2646,"first":2647,"ocked":2648,"Ġladies":2649,"Ġguard":2650,"Ġattention":2651,"Ġbesides":2652,"ding":2653,"nest":2654,"Ġpresence":2655,"Ġscene":2656,"Ġrap":2657,"cape":2658,"Ġcou":2659,"Ġmerely":2660,"Ġexpected":2661,"Ã©":2662,"Ġevent":2663,"Ġplease":2664,"Ġimpossible":2665,"culiar":2666,"Ġdeterm":2667,"Ġstarted":2668,"ishment":2669,"Ġbroad":2670,"erv":2671,"Ġcomplete":2672,"Ġspr":2673,"Ġgra":2674,"Ġwaiting":2675,"ipp":2676,"unk":2677,"Ġid":2678,"Ġcat":2679,"Ġz":2680,"Ġmal":2681,"Ġremain":2682,"worth":2683,"Ġbab":2684,"Ġoffice":2685,"uous":2686,"abl":2687,"Ġappearance":2688,"Ġpleasant":2689,"Ġcloud":2690,"Ġmarch":2691,"Ġmarry":2692,"Ġviol":2693,"bly":2694,"Ġfancy":2695,"perhaps":2696,"reme":2697,"note":2698,"Ġlikely":2699,"Ġbreath":2700,"Ġgarden":2701,"Ġfavour":2702,"rodu":2703,"Ġbeat":2704,"ror":2705,"aff":2706,"Ġresol":2707,"icate":2708,"Ġdepart":2709,"through":2710,"Ġstream":2711,"Ġafterwards":2712,"much":2713,"Ġsimple":2714,"Ġbeside":2715,"hy":2716,"Ġsand":2717,"Ġeffort":2718,"Ġciv":2719,"Ġpeter":2720,"Ġneg":2721,"Ġsole":2722,"els":2723,"cceed":2724,"rop":2725,"Ġbooks":2726,"Ġthird":2727,"bes":2728,"Ġbattle":2729,"ners":2730,"urope":2731,"might":2732,"without":2733,"itary":2734,"Ġpassion":2735,"Ġplaces":2736,"Ġfuture":2737,"Ġwouldn":2738,"ork":2739,"Ġarrived":2740,"cil":2741,"Ġaltogether":2742,"Ġmoon":2743,"Ġtalking":2744,"Ġarch":2745,"Ġcircumstances":2746,"ented":2747,"Ġrecogn":2748,"ĠĠĠĠĠĠĠĠĠ":2749,"Ġsky":2750,"Ġutter":2751,"Ġdim":2752,"Ġsuffic":2753,"Ġstop":2754,"Ġshot":2755,"Ġvillage":2756,"Ġliter":2757,"Ġexpression":2758,"...":2759,"atic":2760,"pered":2761,"formed":2762,"gener":2763,"Ġworse":2764,"Ġisn":2765,"yal":2766,"Ġhun":2767,"Ġfly":2768,"Ġshook":2769,"Ġexpress":2770,"Ġmel":2771,"Ġspeaking":2772,"orough":2773,"Ġraised":2774,"Ġpath":2775,"Ġobserved":2776,"Ġminute":2777,"uge":2778,"ption":2779,"Ġspring":2780,"iding":2781,"Ġconsequ":2782,"Ġball":2783,"imate":2784,"Ġafternoon":2785,"uly":2786,"dist":2787,"oses":2788,"Ġkiss":2789,"Ġhang":2790,"Ġmyster":2791,"Ġforest":2792,"heart":2793,"rer":2794,"Ġ|":2795,"known":2796,"Ġgirls":2797,"Ġturning":2798,"Ġmart":2799,"anch":2800,"ays":2801,"Ġfilled":2802,"Ġleaving":2803,"Ġevil":2804,"Ġconne":2805,"Ġpet":2806,"Ġspecies":2807,"Ġsurprise":2808,"Ġcouldn":2809,"Ġpresently":2810,"Ġdry":2811,"Ġoutside":2812,"gress":2813,"Ġsorry":2814,"Ġgiving":2815,"Ġfun":2816,"Ġmain":2817,"Ġbeginning":2818,"Ġlou":2819,"Ġthank":2820,"Ġincre":2821,"ague":2822,"Ġsick":2823,"Ġig":2824,"Ġtears":2825,"ribut":2826,"morrow":2827,"take":2828,"still":2829,"Ġpock":2830,"Ġstrug":2831,"Ġcorner":2832,"Ġfamil":2833,"tended":2834,"ests":2835,"Ġbeneath":2836,"because":2837,"uded":2838,"Ġric":2839,"âĢĺ":2840,"Ġlives":2841,"looking":2842,"Ġgerman":2843,"Ġshut":2844,"Ġtroo":2845,"Ġhy":2846,"made":2847,"Ġtall":2848,"Ġduke":2849,"ayed":2850,"lord":2851,"supp":2852,"Ġmut":2853,"Ġemploy":2854,"Ġimmediately":2855,"iction":2856,"Ġsmo":2857,"Ġprev":2858,"Ġlooks":2859,"Ġperiod":2860,"Ġconversation":2861,"umed":2862,"Ġmaid":2863,"Ġneck":2864,"end":2865,"Ġbow":2866,"Ġespecially":2867,"Ġlean":2868,"Ġaction":2869,"port":2870,"aste":2871,"Ġunless":2872,"sl":2873,"antage":2874,"Ġescape":2875,"ora":2876,"Ġet":2877,"Ġgenerally":2878,"aled":2879,"Ġwrote":2880,"inite":2881,"Ġentirely":2882,"Ġtrying":2883,"Ġspeech":2884,"Ġscarcely":2885,"Ġapparent":2886,"Ġsword":2887,"Ġvarious":2888,"bing":2889,"call":2890,"must":2891,"dra":2892,"Ġeager":2893,"Ġdeclared":2894,"Ġpersons":2895,"Ġpaid":2896,"Ġfan":2897,"Ġmiddle":2898,"Ġ8":2899,"ille":2900,"Ġconduct":2901,"Ġpeculiar":2902,"chief":2903,"Ġabsolute":2904,"rif":2905,"Ġsake":2906,"Ġpale":2907,"tis":2908,"Ġeasily":2909,"law":2910,"Ġmir":2911,"Ġsymp":2912,"ract":2913,"Ġprivate":2914,"Ġenter":2915,"Ġ7":2916,"inst":2917,"urs":2918,"ital":2919,"Ġpiece":2920,"cal":2921,"Ġcost":2922,"Ġves":2923,"Ġcondition":2924,"Ġreply":2925,"Ġjourney":2926,"Ġjudge":2927,"Ġod":2928,"Ġoblig":2929,"Ġinstant":2930,"Ġquickly":2931,"Ġrate":2932,"retched":2933,"those":2934,"Ġfaint":2935,"Ġlearned":2936,"Ġmort":2937,"Ġparts":2938,"osop":2939,"Ġamerican":2940,"Ġtouch":2941,"isto":2942,"Ġprevent":2943,"Ġconcern":2944,"Ġlines":2945,"Ġcler":2946,"Ġvain":2947,"Ġstar":2948,"Ġcharge":2949,"Ġmajor":2950,"Ġrapid":2951,"seem":2952,"Ġchristian":2953,"ashed":2954,"Ã¦":2955,"Ġwise":2956,"stem":2957,"Ġdirection":2958,"lady":2959,"ites":2960,"cher":2961,"Ġhonest":2962,"Ġfood":2963,"ades":2964,"Ġcivil":2965,"Ġwand":2966,"Ġsummer":2967,"inde":2968,"Ġsli":2969,"Ġsmiled":2970,"Ġperfectly":2971,"Ġfrance":2972,"18":2973,"Ġsucceed":2974,"ear":2975,"Ġcastle":2976,"Ġur":2977,"Ġobt":2978,"Ġexactly":2979,"raph":2980,"Ġrepresent":2981,"clock":2982,"Ġkill":2983,"friend":2984,"Ġvall":2985,"Ġeurope":2986,"work":2987,"fortun":2988,"oon":2989,"Ġris":2990,"iles":2991,"iii":2992,"rig":2993,"eds":2994,"Ġterrible":2995,"itable":2996,"Ġgentlemen":2997,"Ġtur":2998,"pond":2999,"idered":3000,"wom":3001,"Ġlower":3002,"!--":3003,"Ġcompanion":3004,"Ġfloor":3005,"Ġpra":3006,"lected":3007,"view":3008,"arked":3009,"Ġemb":3010,"velop":3011,"Ġmarriage":3012,"Ġchanged":3013,"Ġfirm":3014,"Ġshadow":3015,"idently":3016,"Ġpun":3017,"Ġspoken":3018,"ram":3019,"ns":3020,"Ġextra":3021,"Ġdare":3022,"Ġsupposed":3023,"asp":3024,"Ġsimply":3025,"hum":3026,"Ġpit":3027,"ancing":3028,"Ġrepeated":3029,"Ġfer":3030,"ec":3031,"Ġfashion":3032,"Ġrunning":3033,"ication":3034,"Ġxx":3035,"Ġcous":3036,"stone":3037,"Ġarg":3038,"Ġcalm":3039,"Ġtrem":3040,"lend":3041,"Ġwished":3042,"ator":3043,"another":3044,"Ġlif":3045,"Ġfallen":3046,"Ġhes":3047,"Ġearnest":3048,"ument":3049,"Ġfright":3050,"Ġtender":3051,"por":3052,"Ġpursu":3053,"ection":3054,"iently":3055,"Ġsitu":3056,"Ġpleased":3057,"Ġham":3058,"ales":3059,"Ġexcell":3060,"Ġvirt":3061,"Ġgate":3062,"ste":3063,"Ġrain":3064,"field":3065,"Ġcurious":3066,"Ġwin":3067,"Ġjames":3068,"Ġvent":3069,"something":3070,"Ġproud":3071,"\"'":3072,"Ġmatters":3073,"osite":3074,"Ġbitter":3075,"ails":3076,"itor":3077,"Ġseven":3078,"yn":3079,"Ġunderstood":3080,"anted":3081,"Ġdi":3082,"Ġhealth":3083,"Ġfixed":3084,"Ġkilled":3085,"Ġnotice":3086,"Ġvessel":3087,"Ġhol":3088,"Ġears":3089,"Ġhath":3090,"ingu":3091,"Ġdifficulty":3092,"Ġcheer":3093,"ev":3094,"ividual":3095,"Ġpress":3096,"Ġsharp":3097,"Ġiron":3098,"Ġinfluence":3099,"--------":3100,"Ġfeelings":3101,"Ġmountain":3102,"Ġleaves":3103,"Ġconscious":3104,"Ġsong":3105,"Ġapart":3106,"Ġpure":3107,"Ġpi":3108,"Ġgro":3109,"Ġburst":3110,"turn":3111,"Ġwalls":3112,"ox":3113,"half":3114,"uit":3115,"Ġfier":3116,"Ġgrass":3117,"ral":3118,"Ġborn":3119,"cing":3120,"Ġven":3121,"Ġknight":3122,"Ġcrowd":3123,"Ġsteps":3124,"Ġmusic":3125,"Ġlot":3126,"cise":3127,"Ġdrawing":3128,"Ġhost":3129,"ibility":3130,"comm":3131,"Ġancient":3132,"Ġimportant":3133,"Ġlearn":3134,"Ġextreme":3135,"Ġpicture":3136,"Ġtemper":3137,"Ġstat":3138,"Ġmat":3139,"Ġfol":3140,"Ġdistinct":3141,"Ġphys":3142,"Ġstates":3143,"Ġanxious":3144,"Ġlying":3145,"wa":3146,"Ġallow":3147,"Ġexperience":3148,"pres":3149,"sir":3150,"gment":3151,"Ġdefe":3152,"ishop":3153,"Ġflowers":3154,"Ġwinter":3155,"ett":3156,"Ġroyal":3157,"Ġopport":3158,"Ġreach":3159,"Ġloud":3160,"Ġallowed":3161,"wing":3162,"cur":3163,"Ġharry":3164,"Ġworks":3165,"Ġeast":3166,"Ġrace":3167,"Ġtrain":3168,"ilar":3169,"Ġattend":3170,"Ġyours":3171,"Ġsilver":3172,"sur":3173,"Ġsepar":3174,"appoint":3175,"Ġbox":3176,"Ġbecom":3177,"oted":3178,"ien":3179,"antic":3180,"vation":3181,"Ġdam":3182,".âĢĿ":3183,"Ġbelieved":3184,"iant":3185,"Ġgar":3186,"Ġwel":3187,"Ġfifty":3188,"Ġfalse":3189,"Ġsusp":3190,"being":3191,"Ġstranger":3192,"Ġere":3193,"Ġfurn":3194,"ee":3195,"occ":3196,"bell":3197,"Ġthrew":3198,"rey":3199,"itive":3200,"Ġain":3201,"Ġpassage":3202,"Ġwonderful":3203,"Ġdarkness":3204,"Ġeld":3205,"Ġcrit":3206,"dif":3207,"Ġmurm":3208,"eper":3209,"Ġclaim":3210,"kin":3211,"Ġconsidered":3212,"round":3213,"acher":3214,"arily":3215,"hus":3216,"Ġhero":3217,"arest":3218,"Ġremarked":3219,"mother":3220,"Ġdesert":3221,"Ġpromise":3222,"Ġtong":3223,"Ġjustice":3224,"Ġspan":3225,"Ġswift":3226,"Ġdegree":3227,"Ġstro":3228,"Ġserious":3229,"Ġmot":3230,"Ġpassing":3231,"Ġmodern":3232,":--":3233,"Ġdifference":3234,"Ġlanguage":3235,"ieve":3236,"umb":3237,"itated":3238,"quest":3239,"Ġloss":3240,"Ġfortune":3241,"Ġyork":3242,"Ġadvent":3243,"Ġoffer":3244,"Ġseat":3245,"Ġquietly":3246,"Ġfond":3247,"Ġhouses":3248,"Ġclosed":3249,"Ġess":3250,"ann":3251,"Ġmemory":3252,"Ġwatched":3253,"yet":3254,"Ġwriting":3255,"Ġaccording":3256,"Ġgame":3257,"Ġwilliam":3258,"Ġglance":3259,"Ġways":3260,"Ġnobody":3261,"eav":3262,"shall":3263,"Ġfem":3264,"Ġconce":3265,"Ġvast":3266,"Ġange":3267,"Ġbold":3268,"life":3269,"Ġgrey":3270,"Ġourselves":3271,"Ġrevol":3272,"erve":3273,"Ġrise":3274,"Ġbritish":3275,"rose":3276,"Ġhabit":3277,"Ġdrawn":3278,"sing":3279,"tering":3280,"footnote":3281,"Ġmeth":3282,"Ġrough":3283,"Ġring":3284,"welve":3285,"Ġagree":3286,"Ġbirds":3287,"sub":3288,"Ġdue":3289,"eping":3290,"Ġguess":3291,"word":3292,"Ġcovered":3293,"Ġnod":3294,"rees":3295,"sat":3296,"Ġspite":3297,"eng":3298,"pet":3299,"Ġcrown":3300,"ify":3301,"Ġorders":3302,"Ġfate":3303,"ception":3304,"Ġjim":3305,"Ġformed":3306,"iring":3307,"last":3308,"Ġbull":3309,"Ġgrou":3310,"fall":3311,"Ġtalked":3312,"Ġcustom":3313,"ested":3314,"orne":3315,"boy":3316,"Ġdetermined":3317,"Ġimpro":3318,"Ġdeck":3319,"Ġappl":3320,"Ġpride":3321,"Ġcommun":3322,"Ġengaged":3323,"Ġdecided":3324,"Ġthin":3325,"uses":3326,"erable":3327,"Ġcreature":3328,"Ġcatch":3329,"Ġassist":3330,"mind":3331,"away":3332,"Ġpocket":3333,"put":3334,"Ġcand":3335,"god":3336,"Ġreck":3337,"Ġhenry":3338,"Ġsocial":3339,"Ġsympath":3340,"Ġshr":3341,"Ġheads":3342,"Ġoffered":3343,"war":3344,"bu":3345,"gi":3346,"Ġclothes":3347,"Ġdropped":3348,"Ġstation":3349,"Ġnarrow":3350,"appeared":3351,"idden":3352,"ival":3353,"Ġsurely":3354,"Ġsearch":3355,"Ġspent":3356,"Ġbeast":3357,"icated":3358,"three":3359,"ker":3360,"Ġaffection":3361,"Ġparis":3362,"Ġsystem":3363,"Ġindian":3364,"Ġreading":3365,"Ġthirty":3366,"Ġtit":3367,"Ġempt":3368,"Ġfail":3369,"Ġmagn":3370,"ky":3371,"exp":3372,"Ġholl":3373,"Ġwid":3374,"onder":3375,"aked":3376,"Ġdevil":3377,"Ġcolour":3378,"aly":3379,"ulous":3380,"Ġforms":3381,"osity":3382,"Ġluck":3383,"Ġcases":3384,"ounced":3385,"Ġreve":3386,"Ġrail":3387,"Ġblow":3388,"expect":3389,"reek":3390,"water":3391,"aret":3392,"Ġstick":3393,"fit":3394,"Ġhorr":3395,"Ġspread":3396,"Ġintrodu":3397,"pel":3398,"Ġpick":3399,"Ġproperty":3400,"Ġdesce":3401,"Ġblind":3402,"Ġcousin":3403,"people":3404,"Ġrank":3405,"Ġproduced":3406,"Ġphilosop":3407,"tell":3408,"Ġknowing":3409,"Ġquarter":3410,"Ġbottom":3411,"Ġholy":3412,"Ġdepend":3413,"Ġdiscovered":3414,"Ġfault":3415,"oul":3416,"Ġbreakfast":3417,"Ġband":3418,"child":3419,"Ġpersonal":3420,"mitted":3421,"Ġrising":3422,"urally":3423,"Ġstir":3424,"lo":3425,"formation":3426,"Ġpity":3427,"Ġwine":3428,"vis":3429,"Ġshoulder":3430,"mond":3431,"Ġtim":3432,"Ġliked":3433,"Ġvalley":3434,"Ġangry":3435,"llen":3436,"jud":3437,"Ġappre":3438,"Ġ16":3439,"Ġmoral":3440,"Ġmeeting":3441,"book":3442,"Ġimper":3443,"Ġestabl":3444,"Ġaston":3445,"Ġweather":3446,"Ġopposite":3447,"aterial":3448,"la":3449,"Ġlaws":3450,"Ġfrequ":3451,"Ġpoem":3452,"engl":3453,"Ġdan":3454,"Ġprepared":3455,"Ġones":3456,"Ġgreatest":3457,"Ġnice":3458,"Ġbrave":3459,"Ġsplend":3460,"Ġthro":3461,"ike":3462,"tic":3463,"oned":3464,"Ġwal":3465,"leg":3466,"ses":3467,"acing":3468,"Ġdust":3469,"Ġstudy":3470,"came":3471,"Ġpounds":3472,"hor":3473,"conf":3474,"Ġbra":3475,"Ġdoll":3476,"Ġ-":3477,"Ġhigher":3478,"oop":3479,"Ġhills":3480,"Ġadvantage":3481,"conscious":3482,"Ġaware":3483,"Ġofficer":3484,"present":3485,"Ġwaited":3486,"pri":3487,"Ġforgotten":3488,"iments":3489,"Ġignor":3490,"Ġcourage":3491,"pal":3492,"Ġsquare":3493,"Ġnames":3494,"Ġinno":3495,"thern":3496,"Ġevidence":3497,"Ġcruel":3498,"Ġdiscuss":3499,"Ġthrown":3500,"Ġsoldiers":3501,"ocks":3502,"Ġbreast":3503,"ading":3504,"Ġindividual":3505,"Ġdeli":3506,"Ġspace":3507,"Ġcop":3508,"Ġsurprised":3509,"acc":3510,"Ġbal":3511,"Ġdestro":3512,"Ġwear":3513,"000":3514,"Ġbir":3515,"wind":3516,"Ġder":3517,"Ġpair":3518,"ushing":3519,"ctions":3520,"Ġ9":3521,"course":3522,"Ġtea":3523,"capt":3524,"bury":3525,"Ġ10":3526,"Ġroll":3527,"Ġpack":3528,"Ġheight":3529,"ium":3530,"Ġcabin":3531,"Ġsettled":3532,"Ġofficers":3533,"Ġspirits":3534,"Ġnative":3535,"young":3536,"aves":3537,"Ġsan":3538,"Ġshare":3539,"Ġcow":3540,"Ġemp":3541,"leep":3542,"Ġfinished":3543,"itution":3544,"Ġsmoke":3545,"got":3546,"erved":3547,"fa":3548,",âĢĿ":3549,"four":3550,"Ġyellow":3551,"ude":3552,"oid":3553,"Ġfacts":3554,"hib":3555,"Ġbare":3556,"Ġaccomp":3557,"Ġlose":3558,"hest":3559,"Ġbread":3560,"Ġlisten":3561,"uted":3562,"lar":3563,"?--":3564,"Ġterms":3565,"Ġmountains":3566,"lin":3567,"Ġshown":3568,"Ġinterrupt":3569,"Ġfaces":3570,"Ġremembered":3571,"fact":3572,"nal":3573,"Ġhurt":3574,"Ġintended":3575,"iny":3576,"ables":3577,"Ġsolemn":3578,"Ġgreatly":3579,"illy":3580,"Ġaffairs":3581,"Ġordinary":3582,"Ġeduc":3583,"inted":3584,"Ġweeks":3585,"once":3586,"indeed":3587,"Ġmotion":3588,"Ġcred":3589,"Ġideas":3590,"Ġopportunity":3591,"Ġvalue":3592,"Ġtaste":3593,"Ġwasn":3594,"foll":3595,"istic":3596,"Ġcharles":3597,"Ġtwelve":3598,"Ġclim":3599,"Ġmajesty":3600,"Ġbag":3601,"ember":3602,"ordinary":3603,"gle":3604,"lection":3605,"Ġcoast":3606,"using":3607,"acious":3608,"Ġamount":3609,"found":3610,"Ġmeaning":3611,"Ġobliged":3612,"ected":3613,"Ġwalking":3614,"Ġholding":3615,"many":3616,"Ġlod":3617,"Ġhotel":3618,"isters":3619,"Ġharm":3620,"Ġsund":3621,"Ġtwice":3622,"anged":3623,"Ġservant":3624,"Ġprofess":3625,"Ġinstance":3626,"Ġsuspic":3627,"Ġgrad":3628,"Ġequal":3629,"ruction":3630,"cast":3631,"Ġreport":3632,"ailed":3633,"Ġquestions":3634,"dr":3635,"ification":3636,"Ġiv":3637,"pper":3638,"Ġ15":3639,"Ġproved":3640,"Ġreceive":3641,"Ġanimals":3642,"Ġwhispered":3643,"Ġjer":3644,"Ġendeav":3645,"Ġreader":3646,"ulation":3647,"athered":3648,"Ġotherwise":3649,"Ġscot":3650,"Ġtired":3651,"Ġkeeping":3652,"Ġaddress":3653,"Ġwoods":3654,"Ġsituation":3655,"Ġtroops":3656,"ially":3657,"having":3658,"Ġintellig":3659,"asons":3660,"Ġpointed":3661,"Ġregular":3662,"Ġhaven":3663,"quis":3664,"Ġoper":3665,"Ġevidently":3666,"Ġprove":3667,"Ġforced":3668,"things":3669,"Ġlies":3670,"Ġexistence":3671,"Ġwil":3672,"Ġ&":3673,"agement":3674,"Ġimm":3675,"Ġshame":3676,"Ġgrat":3677,"Ġaug":3678,"Ġinj":3679,"hens":3680,"Ġleap":3681,"Ġdar":3682,"Ġfill":3683,"Ġweight":3684,"Ġcrossed":3685,"orious":3686,"Ġflat":3687,"Ġcomb":3688,"Ġrode":3689,"Ġedge":3690,"Ġshoulders":3691,"Ġsuggested":3692,"Ġreligion":3693,"add":3694,"Ġfamiliar":3695,"theless":3696,"spir":3697,"aud":3698,"Ġrocks":3699,"too":3700,"Ġdign":3701,"Ġclean":3702,"eas":3703,"Ġbod":3704,"Ġlake":3705,"__":3706,"Ġlam":3707,"Ġaside":3708,"mend":3709,"Ġcook":3710,"Ġdav":3711,"Ġpaul":3712,"host":3713,"Ġhappiness":3714,"Ġdistant":3715,"Ġanimal":3716,"acle":3717,"Ġroof":3718,"Ġaffair":3719,"ardon":3720,"Ġgray":3721,"make":3722,"Ġalive":3723,"Ġapparently":3724,"igned":3725,"berty":3726,"Ġpapers":3727,"Ġtouched":3728,"bey":3729,"Ġworst":3730,"Ġgives":3731,"Ġ12":3732,"Ġspeed":3733,"inc":3734,"standing":3735,"Ġexample":3736,"Ġdrag":3737,"enance":3738,"Ġfingers":3739,"Ġheat":3740,"Ġcaused":3741,"Ġlegs":3742,"Ġwilling":3743,"Ġlog":3744,"thur":3745,"Ġtelling":3746,"give":3747,"Ġstock":3748,"Ġtakes":3749,"Ġshop":3750,"ainted":3751,"happy":3752,"Ġartic":3753,"Ġpromised":3754,"Ġgolden":3755,"Ġamerica":3756,"Ġtest":3757,"Ġwitness":3758,"Ġstern":3759,"iece":3760,"Ġsteam":3761,"Ġprocess":3762,"Ġtrade":3763,"Ġbas":3764,"Ġexplained":3765,"Ġpor":3766,"asant":3767,"Ġgloom":3768,"Ġdull":3769,"Ġbless":3770,"Ġcoat":3771,"interest":3772,"Ġrule":3773,"Ġdevelop":3774,"Ġcover":3775,"Ġarrange":3776,"Ġbent":3777,"Ġmethod":3778,"Ġforeign":3779,"Ġfinding":3780,"Ġtongue":3781,"Ġbay":3782,"stairs":3783,"Ġpalace":3784,"Ġforty":3785,"Ġble":3786,"Ġdistur":3787,"terday":3788,"Ġfarther":3789,"far":3790,"Ġfinally":3791,"Ġwatching":3792,"Ġsides":3793,"Ġbuilt":3794,"going":3795,"Ġhate":3796,"however":3797,"against":3798,"Ġcarriage":3799,"Ġrichard":3800,"Ġparent":3801,"Ġmac":3802,"Ġdistingu":3803,"five":3804,"Ġauthority":3805,"Ġstore":3806,"Ġconsiderable":3807,"Ġban":3808,"ferent":3809,"Ġcool":3810,"Ġagreed":3811,"del":3812,"Ġthreat":3813,"Ġinn":3814,"Ġsubst":3815,"reck":3816,"Ġhide":3817,"Ġeverybody":3818,"Ġride":3819,"oly":3820,"10":3821,"Ġhonor":3822,"Ġsuf":3823,"Ġshape":3824,"yle":3825,"Ġga":3826,"Ġimagine":3827,"Ġempty":3828,"Ġmighty":3829,"step":3830,"Ġwealth":3831,"ability":3832,"lessly":3833,"Ġpossess":3834,"Ġstreets":3835,"key":3836,"Ġhurried":3837,"between":3838,"mas":3839,"Ġconfidence":3840,"Ġsaved":3841,"Ġhither":3842,"Ġworking":3843,"Ġbishop":3844,"Ġthom":3845,"gled":3846,"order":3847,"Ġrow":3848,"quite":3849,"Ġfish":3850,"Ġputting":3851,"Ġpoints":3852,"Ġaud":3853,"Ġque":3854,"Ġexcellent":3855,"Ġspecial":3856,"Ġsufficient":3857,"aries":3858,"',":3859,"Ġpossession":3860,"respond":3861,"Ġsorrow":3862,"bus":3863,"čč":3864,"ville":3865,"Ġinteresting":3866,"17":3867,"Ġwants":3868,"Ġfarm":3869,"Ġpot":3870,"Ġnose":3871,"Ġunivers":3872,"Ġdoesn":3873,"Ġber":3874,"liament":3875,"Ġupper":3876,"Ġinstinct":3877,"aper":3878,"alous":3879,"Ġhappen":3880,"mission":3881,"Ġdrive":3882,"master":3883,"mean":3884,"serv":3885,"Ġorgan":3886,"board":3887,"Ġmam":3888,"Ġhom":3889,"Ġsaint":3890,"yer":3891,"ouring":3892,"Ġworthy":3893,"Ġodd":3894,"Ġ19":3895,"Ġpictures":3896,"fin":3897,"Ġsavage":3898,"Ġmentioned":3899,"adv":3900,"habit":3901,"Ġaut":3902,"Ġfellows":3903,"Ġvo":3904,"held":3905,"itement":3906,"Ġpage":3907,"Ġopening":3908,"Ġacquaint":3909,"Ġjudgment":3910,"poor":3911,"cir":3912,"nes":3913,"Ġthorough":3914,"Ġtale":3915,"always":3916,"Ġbrief":3917,"general":3918,"usted":3919,"ospit":3920,"Ġsupport":3921,"Ġmaterial":3922,"Ġmoments":3923,"ground":3924,"Ġfailed":3925,"Ġafford":3926,"Ġsimilar":3927,"Ġhandsome":3928,"cond":3929,"Ġstage":3930,"mo":3931,"Ġspect":3932,"Ġregret":3933,"ology":3934,"Ġyards":3935,"Ġfully":3936,"Ġwicked":3937,"acity":3938,"Ġmas":3939,"Ġescap":3940,"Ġpowers":3941,"woman":3942,"Ġfierce":3943,"sw":3944,"Ġgrown":3945,"Ġordered":3946,"Ġpolitical":3947,"Ġresp":3948,"Ġsoldier":3949,"Ġassu":3950,"Ġrobert":3951,"rance":3952,"Ġfortun":3953,"Ġglory":3954,"wild":3955,"ta":3956,"Ġstorm":3957,"Ġsex":3958,"Ġdozen":3959,"ograph":3960,"Ġbuilding":3961,"Ġbridge":3962,"feel":3963,"Ġhearts":3964,"Ġlat":3965,"Ġwed":3966,"Ġsettle":3967,"seen":3968,"Ġwindows":3969,"Ġnearer":3970,"ias":3971,"Ġsurface":3972,"Ġtruly":3973,"Ġrare":3974,"Ġoccurred":3975,"Ġrul":3976,"Ġappoint":3977,"Ġwore":3978,"Ġthrow":3979,"Ġlistened":3980,"Ġamb":3981,"Ġprogress":3982,"esh":3983,"Ġdwell":3984,"hant":3985,"Ġah":3986,"sure":3987,"Ġnoticed":3988,"Ġsatisfied":3989,"Ġsuffer":3990,"Ġkit":3991,"Ġvig":3992,"Ġcontent":3993,"ndered":3994,"lls":3995,"Ġpos":3996,"unch":3997,"Ġshoot":3998,"Ġproof":3999,"Ġanne":4000,"bits":4001,"bro":4002,"Ġsmiling":4003,"pur":4004,"erous":4005,"Ġsuspect":4006,"Ġbore":4007,"Ġmovement":4008,"rec":4009,"umber":4010,"ole":4011,"Ġbid":4012,"Ġabsolutely":4013,"--'":4014,"Ġrecord":4015,"Ġdisappoint":4016,"angers":4017,"Ġbon":4018,"Ġdrove":4019,"sil":4020,"Ġaid":4021,"abs":4022,"Ġanybody":4023,"better":4024,"ulf":4025,"Ġadvanced":4026,"Ġhuge":4027,"world":4028,"ublic":4029,"Ġfreed":4030,"kins":4031,"rap":4032,"necess":4033,"Ġshel":4034,"orous":4035,"Ġnaturally":4036,"Ġusually":4037,"Ġrelief":4038,"appear":4039,"enn":4040,"Ġdun":4041,"zy":4042,"attered":4043,"Ġgle":4044,"Ġnoise":4045,"stru":4046,"umn":4047,"Ġexplain":4048,"Ġbelief":4049,"tle":4050,"estic":4051,"iest":4052,"thus":4053,"Ġcouple":4054,"looked":4055,"expected":4056,"Ġscience":4057,"aker":4058,"Ġnine":4059,"Ġteeth":4060,"dou":4061,"Ġpu":4062,"Ġliberty":4063,"mount":4064,"Ġhurry":4065,"mal":4066,"Ġdemanded":4067,"met":4068,"Ġghost":4069,"Ġmercy":4070,"Ġdesper":4071,"Ġba":4072,"isc":4073,"Ġener":4074,"Ġtend":4075,"Ġequally":4076,"mad":4077,"ieved":4078,"\"--":4079,"Ġdriven":4080,"Ġadmitted":4081,"Ġmoving":4082,"Ġactually":4083,"country":4084,"Ġgrowing":4085,"Ġfavor":4086,"abel":4087,"Ġminds":4088,"Ġbusy":4089,"ustomed":4090,"Ġgift":4091,"15":4092,"Ġevents":4093,"gen":4094,"rs":4095,"Ġinside":4096,"Ġjoined":4097,"asped":4098,"Ġworked":4099,"inal":4100,"Ġwet":4101,"Ġseek":4102,"Ġearl":4103,"Ġstead":4104,"enth":4105,"win":4106,"ths":4107,"love":4108,"atures":4109,"Ġsooner":4110,"Ġexpressed":4111,"Ġpark":4112,"Ġpan":4113,"sch":4114,"Ġlaughing":4115,"Ġplants":4116,"Ġexer":4117,"since":4118,"lie":4119,"poss":4120,"Ġfranc":4121,"Ġdirectly":4122,"Ġjoin":4123,"Ġpaused":4124,"Ġappears":4125,"gentle":4126,"itiz":4127,"Ġdisg":4128,"Ġpersu":4129,"Ġassured":4130,"bted":4131,"Ġgrim":4132,"Ġmadame":4133,"Ġfoolish":4134,"fulness":4135,"Ġexec":4136,"Ġprice":4137,"Ġadvance":4138,"cer":4139,"Ġtail":4140,"Ġnur":4141,".[":4142,"Ġdoct":4143,"cor":4144,"Ġcarefully":4145,"Ġbos":4146,"inging":4147,"Ġadvice":4148,"chen":4149,"Ġfighting":4150,"Ġpieces":4151,"Ġservants":4152,"Ġportion":4153,"Ġgather":4154,"Ġing":4155,"Ġmile":4156,"Ġcup":4157,"ray":4158,"Ġyield":4159,"wick":4160,"Ġcapital":4161,"Ġentertain":4162,"gling":4163,"Ġtempt":4164,"Ġhence":4165,"Ġkeen":4166,"Ġships":4167,"Ġlifted":4168,"soci":4169,"Ġdangerous":4170,"Ġaccident":4171,"Ġtum":4172,"Ġdiscover":4173,"Ġsigh":4174,"Ġsuit":4175,"among":4176,"Ġawful":4177,"fam":4178,"Ġseized":4179,"moment":4180,"Ġplayed":4181,"Ġimportance":4182,"Ġpossibly":4183,"comfort":4184,"Ġceased":4185,"Ġbegun":4186,"Ġgri":4187,"Ġsympathy":4188,"Ġmarked":4189,"Ġleading":4190,"Ġconfess":4191,"Ġmistress":4192,"ustration":4193,"Ġtaught":4194,"asc":4195,"Ġmeasure":4196,"Ġdreadful":4197,"hon":4198,"Ġpriest":4199,"Ġunited":4200,"Ġprefer":4201,"suff":4202,"contin":4203,"Ġwounded":4204,"Ġadmit":4205,"Ġwag":4206,"Ġinquir":4207,"ental":4208,"Ġcott":4209,"went":4210,"Ġvir":4211,"Ġlouis":4212,"Ġ14":4213,"Ġdressed":4214,"Ġaugust":4215,"Ġbob":4216,"Ġwelcome":4217,"Ġflower":4218,"Ġcompar":4219,"Ġsuffered":4220,"eyes":4221,"rant":4222,"Ġdesign":4223,"Ġremarkable":4224,"verse":4225,"Ġice":4226,"Ġgathered":4227,"Ġremind":4228,"ĠâĢĺ":4229,"Ġnamed":4230,"Ġbirth":4231,"Ġhal":4232,"Ġattract":4233,"Ġoccupied":4234,"ldom":4235,"Ġclub":4236,"Ġtar":4237,"var":4238,"icious":4239,"ensive":4240,"Ġguns":4241,"Ġsupper":4242,"ustri":4243,"Ġrome":4244,"Ġterror":4245,"hal":4246,"Ġserve":4247,"Ġsuperior":4248,"Ġoriginal":4249,"Ġmistake":4250,"enough":4251,"Ġthinks":4252,"Ġsingular":4253,"Ġ13":4254,"ril":4255,"Ġlone":4256,"Ġsucceeded":4257,"Ġyesterday":4258,"ternal":4259,"Ġhearing":4260,"ws":4261,"Ġamaz":4262,"remon":4263,"Ġdespair":4264,"iosity":4265,"Ġseason":4266,"Ġresem":4267,"Ġhopes":4268,"gypt":4269,"ĠâĢĻ":4270,"Ġiii":4271,"Ġunfortun":4272,"Ġpier":4273,"Ġpopular":4274,"isher":4275,"aver":4276,"mense":4277,"Ġdouble":4278,"seemed":4279,"Ġpause":4280,"Ġregarded":4281,"Ġfruit":4282,"pless":4283,"Ġbuy":4284,"Ġmidst":4285,"Ġdaily":4286,"Ġknees":4287,"opp":4288,"olly":4289,"return":4290,"mes":4291,"Ġbrain":4292,"Ġrub":4293,"Ġpartly":4294,"Ġcentury":4295,"Ġimpat":4296,"Ġabsence":4297,"Ġcontro":4298,"umph":4299,"heard":4300,"ams":4301,"Ġshouted":4302,"Ġconcerned":4303,"mis":4304,"Ġplant":4305,"Ġgay":4306,"Ġchamber":4307,"bon":4308,"Ġpulled":4309,"Ġale":4310,"Ġelect":4311,"Ġkindly":4312,"Ġsize":4313,"line":4314,"Ġkingdom":4315,"play":4316,"Ġcountenance":4317,"etch":4318,"Ġinstantly":4319,"oring":4320,"pol":4321,"Ġindign":4322,"Ġimpression":4323,"Ġfalling":4324,"mist":4325,"Ġassem":4326,"Ġsplendid":4327,"ivered":4328,"Ġminister":4329,"Ġunknown":4330,"rich":4331,"Ġwes":4332,"ander":4333,"Ġcart":4334,"change":4335,"Ġbaby":4336,"Ġqual":4337,"ae":4338,"Ġprincess":4339,"Ġdrop":4340,"uce":4341,"Ġseated":4342,"Ġencour":4343,"Ġstands":4344,"joh":4345,"Ġconditions":4346,"Ġparliament":4347,"Ġcalling":4348,"Ġsche":4349,"Ġimagination":4350,"Ġproceeded":4351,"Ġow":4352,"Ġnecessity":4353,"Ġtask":4354,"Ġflesh":4355,"Ġtemple":4356,"Ġprospect":4357,"Ġintellect":4358,"Ġrequired":4359,"Ġlovely":4360,"Ġsevere":4361,"anything":4362,"aling":4363,"Ġcompanions":4364,"Ġvoy":4365,"ieur":4366,"coming":4367,"white":4368,"Ġfairly":4369,"erson":4370,"Ġremains":4371,"Ġglanced":4372,"Ġsought":4373,"Ġgroup":4374,"case":4375,"Ġcro":4376,"Ġexcitement":4377,"ik":4378,"john":4379,"Ġarthur":4380,"almost":4381,"Ġrefused":4382,"find":4383,"12":4384,"Ġrejo":4385,"consider":4386,"Ġstruggle":4387,"Ġassoci":4388,"enced":4389,"Ġstyle":4390,"Ġelder":4391,"themselves":4392,"vey":4393,"called":4394,"Ġvague":4395,"Ġcam":4396,"Ġstones":4397,"Ġproport":4398,"certainly":4399,"Ġep":4400,"Ġhoped":4401,"Ġpill":4402,"plic":4403,"door":4404,"Ġskin":4405,"Ġpowerful":4406,"uls":4407,"Ġfac":4408,"Ġstars":4409,"16":4410,"Ġchoose":4411,"Ġserved":4412,"icks":4413,"pted":4414,"Ġhut":4415,"Ġresolved":4416,"natural":4417,"Ġloose":4418,"Ġcurt":4419,"Ġparticularly":4420,"Ġeli":4421,"ulated":4422,"ighed":4423,"Ġweary":4424,"Ġvoices":4425,"Ġtot":4426,"Ġsatisfaction":4427,"Ġsen":4428,"Ġlion":4429,"Ġcorre":4430,"Ġly":4431,"Ġsunday":4432,"Ġfred":4433,"Ġcarrying":4434,"Ġcheck":4435,"Ġboats":4436,"Ġwaters":4437,"Ġrooms":4438,"Ġlin":4439,"Ġmood":4440,"Ġblank":4441,"Ġrecoll":4442,"Ġthomas":4443,"Ġroman":4444,"Ġwisdom":4445,"Ġconqu":4446,"Ġasleep":4447,"pret":4448,"Ġfreedom":4449,"hamed":4450,"Ġmach":4451,"Ġcomr":4452,"reason":4453,"mod":4454,"sa":4455,"Ġpolic":4456,"rate":4457,"Ġhighest":4458,"Ġhospit":4459,"lier":4460,"took":4461,"Ġcult":4462,"Ġwholly":4463,"Ġclearly":4464,"Ġchat":4465,"Ġdivine":4466,"Ġmurder":4467,"Ġros":4468,"Ġresist":4469,"Ġprinciple":4470,"Ġruin":4471,"Ġtrad":4472,"Ġexped":4473,"same":4474,"ilst":4475,"whether":4476,"dear":4477,"matter":4478,"inking":4479,"ara":4480,"Ġze":4481,"Ġamid":4482,"onsieur":4483,"iqu":4484,"atory":4485,"ints":4486,"sent":4487,"Ġsaf":4488,"captain":4489,"ext":4490,"cture":4491,"Ġcredit":4492,"Ġcig":4493,"Ġlevel":4494,"Ġdistr":4495,"va":4496,"Ġsevent":4497,"Ġdying":4498,"Ġado":4499,"Ġeducation":4500,"Ġbrill":4501,"Ġinformation":4502,"Ġprisoner":4503,"Ġpossessed":4504,"ims":4505,"Ġack":4506,"aches":4507,"net":4508,"Ġinterested":4509,"Ġrum":4510,"Ġstrike":4511,"Ġpoetry":4512,"Ġhell":4513,"Ġscott":4514,"aming":4515,"overy":4516,"Ġmult":4517,"christ":4518,"Ġcontem":4519,"Ġrelation":4520,"Ġetc":4521,"Ġsmith":4522,"udden":4523,"Ġpresented":4524,"Ġpardon":4525,"Ġrag":4526,"Ġenemies":4527,"Ġsomehow":4528,"ipped":4529,";\"":4530,"iation":4531,"Ġcontrary":4532,"Ġox":4533,"Ġextraordinary":4534,"tow":4535,"ashing":4536,"Ġlover":4537,"Ġcorrespond":4538,"Ġmud":4539,"Ġextent":4540,"Ġdollars":4541,"Ġbree":4542,"Ġfrag":4543,"Ġacknow":4544,"Ġexceed":4545,"beaut":4546,"nce":4547,"Ġpil":4548,"arse":4549,"Ġaccompl":4550,"Ġchapter":4551,"Ġretreat":4552,"urd":4553,"Ġhorn":4554,"Ġtrack":4555,"Ġasking":4556,"Ġpin":4557,"Ġdoors":4558,"gre":4559,"Ġjan":4560,"Ġconscience":4561,"Ġjes":4562,"Ġexcited":4563,"Ġease":4564,"Ġclouds":4565,"Ġmilitary":4566,"Ġhit":4567,"cean":4568,"Ġsomebody":4569,"Ġanger":4570,"ads":4571,"ission":4572,"Ġplenty":4573,"vention":4574,"Ġdescribed":4575,"Ġmurmured":4576,"Ġguide":4577,"inced":4578,"Ġclosely":4579,"unning":4580,"Ġcrew":4581,"bridge":4582,"osen":4583,"Ġvision":4584,"Ġvirtue":4585,"common":4586,"Ġnodded":4587,"Ġindians":4588,"hur":4589,"black":4590,"fee":4591,"Ġsprang":4592,"Ġphilip":4593,"Ġproduce":4594,"ena":4595,"Ġreasons":4596,"Ġacquaintance":4597,"Ġsmooth":4598,"Ġahead":4599,"Ġjul":4600,"fire":4601,"Ġkindness":4602,"pat":4603,"pelled":4604,"Ġdignity":4605,"Ġprofessor":4606,"Ġprofession":4607,"13":4608,"Ġdawn":4609,"Ġnevertheless":4610,"sudden":4611,"respect":4612,"Ġthrust":4613,"does":4614,"Ġgovernor":4615,"Ġwrit":4616,"anied":4617,"iance":4618,"ller":4619,"Ġgods":4620,"Ġcolle":4621,"oms":4622,"Ġcentre":4623,"Ġassert":4624,"Ġarrival":4625,"Ġconsequence":4626,"Ġcas":4627,"illa":4628,"Ġworn":4629,"Ġdogs":4630,"astic":4631,"Ġmessage":4632,"Ġuseful":4633,"non":4634,"vious":4635,"Ġtheory":4636,"Ġended":4637,"Ġflight":4638,"Ġfamous":4639,"morning":4640,"Ġexplan":4641,"taken":4642,"Ġcolor":4643,"Ġclever":4644,"Ġinquired":4645,"Ġfemale":4646,"Ġbaron":4647,"pher":4648,"break":4649,"question":4650,"ulse":4651,"born":4652,"oused":4653,"izing":4654,"Ġcomfortable":4655,"Ġbodies":4656,"Ġrapidly":4657,"Ġintention":4658,"Ġdor":4659,"Ġgrief":4660,"Ġmaint":4661,"14":4662,"Ġimmense":4663,"Ġgenius":4664,"Ġvolume":4665,"Ġburning":4666,"satisf":4667,"charac":4668,"Ġash":4669,"low":4670,"care":4671,"iable":4672,"Ġtreated":4673,"Ġcapable":4674,"quar":4675,"Ġfought":4676,"Ġ20":4677,"Ġrisk":4678,"Ġindif":4679,"acles":4680,"Ġinterrupted":4681,"Ġprim":4682,"Ġcareful":4683,"Ġdelicate":4684,"ateful":4685,"Ġsoftly":4686,"Ġcitiz":4687,"Ġrif":4688,"Ġlarger":4689,"Ġdeeply":4690,"Ġpressed":4691,"ris":4692,"rom":4693,"Ġ(_":4694,"Ġdesired":4695,"owned":4696,"Ġescaped":4697,"Ġperform":4698,"Ġvers":4699,"Ġcraw":4700,"Ġhorror":4701,"dire":4702,"Ġaccepted":4703,"Ġislands":4704,"Ġmate":4705,"Ġcompletely":4706,"Ġsacred":4707,"Ġtrail":4708,"Ġseldom":4709,"const":4710,"ators":4711,"usual":4712,"asing":4713,"Ġexcuse":4714,"uding":4715,"Ġnovel":4716,"Ġmont":4717,"Ġgradually":4718,"Ġmembers":4719,"both":4720,"Ġyounger":4721,"Ġpractice":4722,"Ġlit":4723,"acon":4724,"Ġstories":4725,"bid":4726,"anim":4727,"hall":4728,"het":4729,"illustration":4730,"Ġinnocent":4731,"Ġbuck":4732,"Ġwhisper":4733,"Ġsomewhere":4734,"iven":4735,"Ġfare":4736,"Ġreligious":4737,"Ġcritic":4738,"Ġprinciples":4739,"bour":4740,"sol":4741,"Ġnational":4742,"Ġrig":4743,"Ġneeded":4744,"Ġbehold":4745,"Ġinstru":4746,"Ġcuriosity":4747,"Ġrushed":4748,"Ġsounds":4749,"ref":4750,"mag":4751,"Ġconstant":4752,"Ġfields":4753,"pes":4754,"Ġobjects":4755,"oft":4756,"Ġjoe":4757,"Ġmeas":4758,"Ġvisible":4759,"Ġanxiety":4760,"sue":4761,"Ġunable":4762,"table":4763,"cho":4764,"Ġfled":4765,"Ġgained":4766,"Ġ[_":4767,"Ġstuff":4768,"Ġsafety":4769,"Ġrecall":4770,"Ġcliff":4771,"Ġstairs":4772,"stre":4773,"Ġmild":4774,"Ġhadn":4775,"Ġcord":4776,"uten":4777,"Ġfee":4778,"person":4779,"Ġevident":4780,"nel":4781,"ancholy":4782,"Ġtells":4783,"coun":4784,"Ġfo":4785,"urity":4786,"cut":4787,"ential":4788,"Ġlabour":4789,"Ġjob":4790,"Ġhidden":4791,"Ġrust":4792,"Ġgently":4793,"Ġhelped":4794,"bow":4795,"Ġspec":4796,"garet":4797,"rounded":4798,"Ġinfinite":4799,"Ġhighly":4800,"Ġtriumph":4801,"iday":4802,"Ġvic":4803,"je":4804,"name":4805,"Ġspare":4806,"lic":4807,"ration":4808,"Ġegypt":4809,"disc":4810,"Ġprotest":4811,"hip":4812,"armed":4813,"Ġchoice":4814,"umes":4815,"Ġamuse":4816,"Ġmiserable":4817,"Ġfigures":4818,"Ġmystery":4819,"Ġrefer":4820,"Ġpipe":4821,"Ġaccustomed":4822,"mat":4823,"Ġexhib":4824,"Ġutterly":4825,"Ġrolled":4826,"Ġfifteen":4827,"Ġthroat":4828,"alian":4829,"Ġcurrent":4830,"Ġashamed":4831,"years":4832,"ilities":4833,"Ġmars":4834,"uments":4835,"Ġbul":4836,"Ġfinger":4837,"Ġthunder":4838,"done":4839,"Ġsentiment":4840,"english":4841,"Ġinvol":4842,"lying":4843,"Ġbearing":4844,"strong":4845,"Ġunto":4846,"sim":4847,"Ġwhenever":4848,"Ġrecei":4849,"Ġmanif":4850,"conc":4851,"Ġcaval":4852,"eous":4853,"Ġstout":4854,"Ġlonely":4855,"nay":4856,"gone":4857,"Ġnav":4858,"Ġtight":4859,"Ġsheep":4860,"Ġaband":4861,"ization":4862,"Ġbrand":4863,"lot":4864,"Ġcontempt":4865,"Ġfold":4866,"Ġflag":4867,"prom":4868,"==":4869,"list":4870,"Ġgets":4871,"atively":4872,"Ġscorn":4873,"Ġfrightened":4874,"Ġdram":4875,"Ġsons":4876,"Ġplaying":4877,"appro":4878,"left":4879,"Ġstepped":4880,"rather":4881,"ds":4882,"ef":4883,"Ġliterature":4884,"Ġocean":4885,"power":4886,"Ġrush":4887,"Ġcircle":4888,"vo":4889,"Ġnewsp":4890,"anches":4891,"Ġindepend":4892,"Ġstiff":4893,"Ġrespons":4894,"Ġarranged":4895,"Ġneighbour":4896,"20":4897,"unted":4898,"chant":4899,"Ġpublished":4900,"Ġtent":4901,"rifice":4902,"Ġmanners":4903,"Ġkey":4904,"Ġsigns":4905,"keep":4906,"Ġblame":4907,"Ġling":4908,"gover":4909,"Ġadventure":4910,"Ġfaithful":4911,"Ġcouncil":4912,"Ġweap":4913,"Ġbought":4914,"Ġgrant":4915,"Ġrude":4916,"Ġremoved":4917,"Ġenthus":4918,"girl":4919,"Ġsour":4920,"Ġentrance":4921,"Ġirish":4922,"Ġflying":4923,"Ġobtained":4924,"Ġcrack":4925,"Ġspend":4926,"Ġinhabit":4927,"fle":4928,"Ġtal":4929,"utions":4930,"phe":4931,"wall":4932,"Ġfeatures":4933,"illing":4934,"Ġhole":4935,"Ġlest":4936,"Ġkings":4937,"Ġclo":4938,"Ġnay":4939,"Ġwondered":4940,"Ġproposed":4941,"Ġshade":4942,"Ġwashing":4943,"shine":4944,"Ġobserve":4945,"Ġnerv":4946,"others":4947,"Ġnotes":4948,"Ġ186":4949,"near":4950,"Ġparties":4951,"Ġmeal":4952,"rived":4953,"high":4954,"pir":4955,"Ġthoroughly":4956,"Ġsym":4957,"Ġshowing":4958,"Ġaddressed":4959,"Ġsar":4960,"Ġfriendly":4961,"Ġbosom":4962,"Ġapproached":4963,"utation":4964,"Ġgreet":4965,"19":4966,"soon":4967,"Ġbringing":4968,"Ġmankind":4969,"Ġforgive":4970,"Ġreckon":4971,"Ġmoreover":4972,"Ġpapa":4973,"Ġextremely":4974,"cks":4975,"Ġburied":4976,"tense":4977,"oqu":4978,"lla":4979,"believe":4980,"Ġsubjects":4981,"spr":4982,"Ġquality":4983,"Ġconsideration":4984,"asions":4985,"Ġcy":4986,"Ġsecure":4987,"Ġgreek":4988,"phil":4989,"ige":4990,"Ġwishes":4991,"Ġcard":4992,"Ġreflect":4993,"Ġwheel":4994,"Ġwo":4995,"Ġwaste":4996,"Ġtitle":4997,"icip":4998,"Ġhunt":4999,"Ġshock":5000,"Ġcottage":5001,"Ġunhappy":5002,"tar":5003,"rit":5004,"Ġwound":5005,"Ġcrim":5006,"mos":5007,"Ġ{":5008,"Ġjane":5009,"ounce":5010,"Ġspanish":5011,"Ġalarm":5012,"Ġjealous":5013,"boat":5014,"Ġerr":5015,"ais":5016,"erning":5017,"Ġthroughout":5018,"Ġswept":5019,"Ġplainly":5020,"Ġproportion":5021,"acqu":5022,"Ġsport":5023,"vil":5024,"Ġgrie":5025,"burg":5026,"erves":5027,"ivity":5028,"Ġchosen":5029,"Ġnumbers":5030,"Ġbecomes":5031,"Ġconclusion":5032,"Ġbrow":5033,"Ġunf":5034,"Ġruss":5035,"mark":5036,"Ġsus":5037,"Ġreward":5038,"Ġaspect":5039,"Ġ...":5040,"Ġdavid":5041,"Ġmatch":5042,"till":5043,"Ġscream":5044,"uries":5045,"Ġcho":5046,"pleasant":5047,"asted":5048,"za":5049,"abeth":5050,"Ġdoctr":5051,"Ġbecoming":5052,"plex":5053,"cles":5054,"Ġvoyage":5055,"thou":5056,"Ġdance":5057,"agger":5058,"Ġgain":5059,"turned":5060,"Ġapproach":5061,"Ġseries":5062,"Ġlucy":5063,"hist":5064,"Ġslightly":5065,"Ġhu":5066,"Ġmission":5067,"six":5068,"ores":5069,"Ġredu":5070,"each":5071,"Ġinclined":5072,"din":5073,"sus":5074,"Ġwhilst":5075,"Ġfleet":5076,"Ġprayer":5077,"therefore":5078,"Ġclergy":5079,"Ġbrothers":5080,"Ġreven":5081,"gs":5082,"upid":5083,"Ġrendered":5084,"Ġcheeks":5085,"Ġpractical":5086,"ixt":5087,"home":5088,"Ġreturning":5089,"eding":5090,"Ġsell":5091,"lebr":5092,"Ġslept":5093,"Ġsuppl":5094,"Ġdoubtless":5095,"Ġabsurd":5096,"Ġeverywhere":5097,"Ġuneas":5098,"Ġcharm":5099,"xx":5100,"rying":5101,"Ġnotion":5102,"iture":5103,"ishes":5104,"Ġages":5105,"Ġflung":5106,"Ġkitchen":5107,"Ġavoid":5108,"Ġspark":5109,"Ġsuffering":5110,"Ġconnected":5111,"Ġrev":5112,"Ġrage":5113,"Ġprecious":5114,"Ġcharacters":5115,"atched":5116,"Ġincreased":5117,"ares":5118,"Ġedward":5119,"real":5120,"Ġrepro":5121,"Ġcheek":5122,"Ġconfusion":5123,"Ġsolid":5124,"lle":5125,"Ġthanks":5126,"Ġpicked":5127,"Ġlaughter":5128,"Ġaver":5129,"Ġabroad":5130,"Ġolder":5131,"Ġdebt":5132,"sk":5133,"amb":5134,"Ġmartin":5135,"Ġslave":5136,"Ġgazed":5137,"gate":5138,"Ġhabits":5139,"Ġcharming":5140,"Ġimpress":5141,"Ġhers":5142,"ette":5143,"Ġbrig":5144,"Ġmour":5145,"Ġprevious":5146,"vy":5147,"rep":5148,"tem":5149,"Ġplat":5150,"_;":5151,"Ġcattle":5152,"ilty":5153,"Ġduties":5154,"herself":5155,"Ġactive":5156,"camp":5157,"Ġtype":5158,"Ġtrial":5159,"Ġpushed":5160,"Ġfever":5161,"Ġadmiration":5162,"Ġwing":5163,"thank":5164,"inate":5165,"Ġkissed":5166,"mir":5167,"Ġknock":5168,"everything":5169,"myself":5170,"Ġmysterious":5171,"fig":5172,"Ġlately":5173,"Ġtower":5174,"sal":5175,"Ġstrict":5176,"Ġblessed":5177,"utenant":5178,"Ġwings":5179,"sometimes":5180,"Ġaim":5181,"eless":5182,"Ġteach":5183,"Ġbreaking":5184,"Ġstared":5185,"Ġsouls":5186,"Ġlock":5187,"equ":5188,"Ġexha":5189,"offee":5190,"Ġargument":5191,"Ġphysical":5192,"Ġmale":5193,"Ġmerry":5194,"necessary":5195,"Ġstan":5196,"swe":5197,"Ġcreatures":5198,"Ġmember":5199,"Ġsteady":5200,"aks":5201,"Ġrad":5202,"Ġemotion":5203,"Ġlistening":5204,"Ġwhist":5205,"Ġquant":5206,"Ġintense":5207,"Ġdelighted":5208,"Ġproject":5209,"Ġdrift":5210,"Ġtravel":5211,"udes":5212,"Ġeaster":5213,"hast":5214,"ension":5215,"Ġblaz":5216,"nature":5217,"Ġmode":5218,"burn":5219,"Ġheap":5220,"pen":5221,"brought":5222,"Ġemployed":5223,"Ġconcerning":5224,"van":5225,"Ġemer":5226,"ese":5227,"Ġasce":5228,"enger":5229,"point":5230,"plain":5231,"Ġming":5232,"Ġprobable":5233,"Ġbase":5234,"Ġpurcha":5235,"achel":5236,"Ġdreams":5237,"ids":5238,"inks":5239,"uable":5240,"twenty":5241,"isions":5242,"Ġdig":5243,"Ġire":5244,"Ġaccompanied":5245,"urance":5246,"ulted":5247,"Ġtheat":5248,"Ġliterary":5249,"Ġfox":5250,"trans":5251,"dri":5252,"lim":5253,"Ġstriking":5254,"Ġchest":5255,"ulate":5256,"Ġbarbar":5257,"Ġmamma":5258,"Ġhollow":5259,"character":5260,"Ġstrongly":5261,"during":5262,"ums":5263,"enes":5264,"Ġlack":5265,"Ġdisappeared":5266,"Ġay":5267,"wers":5268,"prise":5269,"prin":5270,"Ġoccasionally":5271,"nds":5272,"exper":5273,"Ġlux":5274,"ago":5275,"Ġapt":5276,"Ġsom":5277,"Ġhind":5278,"otes":5279,"words":5280,"Ġcloth":5281,"Ġward":5282,"whom":5283,"Ġends":5284,"----\"":5285,"hands":5286,"second":5287,"Ġdiscovery":5288,"icted":5289,"Ġmagnific":5290,"taking":5291,"Ġmonsieur":5292,"ache":5293,"Ġfeared":5294,"rences":5295,"Ġsinging":5296,"tom":5297,"Ġspl":5298,"Ġprincipal":5299,"Ġafric":5300,"Ġquarrel":5301,"Ġraise":5302,"bird":5303,"understand":5304,"Ġshows":5305,"Ġrelations":5306,"Ġlights":5307,"Ġgaze":5308,"maid":5309,"Ġconstitution":5310,"Ġpraise":5311,"Ġscotland":5312,"Ġhitherto":5313,"Ġrear":5314,"small":5315,"Ġprotect":5316,"Ġrestr":5317,"hill":5318,"Ġenergy":5319,"Ġcrime":5320,"retch":5321,"Ġaddition":5322,"Ġnove":5323,"Ġpolice":5324,"Ġfrancis":5325,"rier":5326,"hearted":5327,"Ġbowed":5328,"Ġpros":5329,"Ġriding":5330,"saw":5331,"Ġliber":5332,"Ġdistress":5333,"Ġdesperate":5334,"Ġplans":5335,"Ġindul":5336,"Ġwidow":5337,"alph":5338,"worthy":5339,"Ġbol":5340,"Ġ25":5341,"ele":5342,"Ġdistinguished":5343,"rid":5344,"Ġhunting":5345,"Ġwhence":5346,"onsense":5347,"Ġawa":5348,"Ġtro":5349,"Ġqueer":5350,"Ġforehead":5351,"Ġimmediate":5352,"dark":5353,"Ġnatives":5354,"Ġphr":5355,"Ġtext":5356,"Ġpuzz":5357,"Ġdece":5358,"Ġindia":5359,"arded":5360,"perfect":5361,"Ġarose":5362,"Ġappreci":5363,"othe":5364,"Ġmelancholy":5365,"Ġthrone":5366,"Ġnations":5367,"riot":5368,"Ġunconscious":5369,"exc":5370,"bol":5371,"Ġpatience":5372,"ault":5373,"Ġlan":5374,"Ġbrook":5375,"making":5376,"Ġneeds":5377,"Ġintim":5378,",âĢĻ":5379,"Ġwretched":5380,"Ġframe":5381,"Ġmic":5382,"Ġchap":5383,"Ġhistor":5384,"next":5385,"Ġfrequently":5386,"Ġskill":5387,"Ġprepar":5388,"Ġsufficiently":5389,"bye":5390,"Ġorn":5391,"Ġnumerous":5392,"Ġfriendship":5393,"Ġconven":5394,"Ġvirgin":5395,"Ġrang":5396,"Ġinfer":5397,"Ġhaw":5398,"whose":5399,"Ġcalls":5400,"coll":5401,"dem":5402,"Ġprofound":5403,"Ġeffects":5404,"Ġsteep":5405,"Ġinfant":5406,"prob":5407,"past":5408,"Ġaffected":5409,"Ġterm":5410,"Ġralph":5411,"Ġknife":5412,"Ġchiefly":5413,"ule":5414,"Ġmanaged":5415,"Ġexplanation":5416,"Ġinterview":5417,"Ġrender":5418,"Ġcontinue":5419,"doubt":5420,"ological":5421,"Ġviolent":5422,"ĠÂ":5423,"cientific":5424,"Ġshining":5425,"Ġsees":5426,"Ġconvinced":5427,"Ġmisery":5428,"Ġconsent":5429,"Ġweakness":5430,"Ġfinal":5431,"rous":5432,"also":5433,"sea":5434,"Ġarrest":5435,"Ġpatient":5436,"Ġegg":5437,"Ġsupply":5438,"Ġassistance":5439,"Ġobst":5440,"whole":5441,"umped":5442,"Ġcorrect":5443,"peare":5444,"Ġ30":5445,"nation":5446,"Ġmadam":5447,"liness":5448,"Ġsuspicion":5449,"west":5450,"wit":5451,"close":5452,"Ġped":5453,"Ġdomestic":5454,"Ġparents":5455,"iot":5456,"ulgar":5457,"Ġdelay":5458,"Ġmagic":5459,"Ġmounted":5460,"Ġax":5461,"arms":5462,"Ġunfortunate":5463,"conom":5464,"Ġperceived":5465,"yard":5466,"sey":5467,"Ġartist":5468,"Ġillustr":5469,"Ġworship":5470,"Ġuttered":5471,"except":5472,"Ġplate":5473,"Ġgenerous":5474,"Ġsank":5475,"Ġabrupt":5476,"Ġedition":5477,"bb":5478,"Ġhelpless":5479,"until":5480,"Ġpred":5481,"geon":5482,"iel":5483,"Ġenorm":5484,"Ġleaned":5485,"Ġviews":5486,"peror":5487,"Ġrab":5488,"Ġlap":5489,"Ġattitude":5490,"Ġturns":5491,"Ġswell":5492,"arrass":5493,"speak":5494,"Ġrope":5495,"Ġgest":5496,"Ġunderstanding":5497,"Ġlamp":5498,"effect":5499,"court":5500,"30":5501,"position":5502,"Ġimage":5503,"Ġinterests":5504,"Ġprompt":5505,"cied":5506,"Ġpretend":5507,"Ġgent":5508,"Ġobsc":5509,"ĠĠĠĠĠĠĠĠĠĠĠ":5510,"Ġsetting":5511,"cts":5512,"Ġpropos":5513,"Ġhastily":5514,"Ġaccur":5515,"phere":5516,"irs":5517,"Ġscr":5518,"told":5519,"Ġunion":5520,"Ġinformed":5521,"Ġleaf":5522,"shire":5523,"Ġwestern":5524,"ura":5525,"otted":5526,"enter":5527,"Ġshake":5528,"Ġprecise":5529,"Ġrefuse":5530,"Ġpreced":5531,"lay":5532,"fur":5533,"Ġactual":5534,"hope":5535,"post":5536,"days":5537,"children":5538,"uced":5539,"Ġcollect":5540,"Ġken":5541,"fortune":5542,"Ġarmed":5543,"suddenly":5544,"Ġhorrible":5545,"Ġrecom":5546,"Ġregiment":5547,"edy":5548,"hind":5549,"Ġmental":5550,"Ġtroubles":5551,"Ġrevolution":5552,"Ġwriter":5553,"Ġram":5554,"---":5555,"Ġlawyer":5556,"Ġprisoners":5557,"Ġleaning":5558,"stra":5559,"agree":5560,"Ġtu":5561,"Ġshelter":5562,"Ġuseless":5563,"Ġefforts":5564,"Ġbones":5565,"Ġidle":5566,"ante":5567,"Ġ't":5568,"idering":5569,"inent":5570,"Ġacquainted":5571,"Ġopinions":5572,"Ġtrembling":5573,"thy":5574,"oyal":5575,"forth":5576,"Ġtransl":5577,"Ġignorant":5578,"ique":5579,"ada":5580,"Ġdescription":5581,"Ġresumed":5582,"Ġhanging":5583,"Ġprosper":5584,"inity":5585,"Ġaven":5586,"Ġintelligence":5587,"Ġunexpected":5588,"vest":5589,"Ġstretched":5590,"Ġtreasure":5591,"opes":5592,"Ġannounced":5593,"Ġvac":5594,"Ġceremon":5595,"Ġangel":5596,"engers":5597,"Ġmuttered":5598,"Ġpainted":5599,"ode":5600,"Ġamongst":5601,"Ġdiam":5602,"Ġshru":5603,"ape":5604,"Ġeagerly":5605,"Ġwarning":5606,"money":5607,"stri":5608,"Ġrange":5609,"Ġug":5610,"Ġdisposed":5611,"Ġhanded":5612,"Ġaccordingly":5613,"gles":5614,"prof":5615,"osure":5616,"Ġguest":5617,"Ġdelightful":5618,"chester":5619,"Ġclerk":5620,"Ġlibr":5621,"success":5622,"Ġfatal":5623,"Ġwra":5624,"Ġflew":5625,"Ġwalter":5626,"Ġshadows":5627,"Ġpope":5628,"talk":5629,"force":5630,"pture":5631,"Ġsquire":5632,"Ġnegro":5633,"Ġwreck":5634,"Ġcomposed":5635,"jour":5636,"Ġwaist":5637,"Ġrequest":5638,"Ġstupid":5639,"coat":5640,"Ġfarmer":5641,"Ġlighted":5642,"Ġcopy":5643,"lor":5644,"Ġsurrounded":5645,"acted":5646,"Ġdave":5647,"Ġdomin":5648,"Ġperpet":5649,"Ġrights":5650,"Ġexception":5651,"Ġlikewise":5652,"Ġventure":5653,"Ġlands":5654,"vity":5655,"Ġutmost":5656,"although":5657,"smith":5658,"Ġprovided":5659,"lau":5660,"letter":5661,"cross":5662,"account":5663,"Ġjesus":5664,"idly":5665,"Ġcommission":5666,"Ġbranches":5667,"Ġours":5668,"Ġwinds":5669,"Ġbeach":5670,"fell":5671,"Ġguilty":5672,"Ġexert":5673,"Ġappeal":5674,"olet":5675,"obser":5676,"Ġscheme":5677,"Ġbrilliant":5678,"Ġmeat":5679,"Ġdiscour":5680,"Ġvictory":5681,"Ġitalian":5682,"inction":5683,"ban":5684,"Ġhesitated":5685,"Ġdared":5686,"Ġwave":5687,"lands":5688,"Ġfired":5689,"within":5690,"Ġbeha":5691,"Ġgates":5692,"fellow":5693,"Ġchin":5694,"Ġglorious":5695,"Ġresc":5696,"Ġlabor":5697,"Ġbottle":5698,"Ġhumble":5699,"Ġborne":5700,"Ġpig":5701,"Ġexercise":5702,"Ġcoffee":5703,"glass":5704,"affect":5705,"Ġintent":5706,"Ġwarri":5707,"diffic":5708,"Ġcollege":5709,"rold":5710,"Ġfourth":5711,"Ġnurse":5712,"aging":5713,"Ġyard":5714,"Ġcries":5715,"Ġguests":5716,"Ġretired":5717,"tri":5718,"Ġhousehold":5719,"Ġfeather":5720,"Ġach":5721,"Ġspiritual":5722,"business":5723,"Ġestate":5724,"Ġtax":5725,"Ġeve":5726,"Ġalike":5727,"Ġeternal":5728,"Ġitaly":5729,"Ġchanges":5730,"Ġwaves":5731,"live":5732,"Ġboots":5733,"Ġrequire":5734,"Ġshouldn":5735,"ula":5736,"Ġslipped":5737,"Ġbark":5738,"brother":5739,"omin":5740,"rific":5741,"Ġinstr":5742,"Ġappointed":5743,"Ġwi":5744,"kward":5745,"tree":5746,"Ġeliz":5747,"Ġ24":5748,"Ġcelebr":5749,"ocr":5750,"itate":5751,"Ġflood":5752,"Ġinhabitants":5753,"Ġdeny":5754,"Ġarab":5755,"Ġsorts":5756,"true":5757,"Ġbanks":5758,"full":5759,"Ġdeliber":5760,"utter":5761,"11":5762,"Ġdefence":5763,"Ġcraft":5764,"walk":5765,"Ġridic":5766,"ĠĠĠĠĠĠĠĠĠĠĠĠĠĠĠĠĠĠĠĠĠĠĠĠĠĠĠĠĠĠĠĠĠĠĠĠĠĠĠĠ":5767,"Ġlane":5768,"Ġanywhere":5769,"Ġnearest":5770,"Ġobtain":5771,"horse":5772,"mus":5773,"Ġnin":5774,"vin":5775,"Ġbride":5776,"gard":5777,"iform":5778,"Ġacted":5779,"uary":5780,"import":5781,"Ġsighed":5782,"Ġkinds":5783,"Ġoct":5784,"best":5785,"Ġfollows":5786,"cript":5787,"Ġgrasp":5788,"Ġcoach":5789,"really":5790,"Ġvariety":5791,"Ġintr":5792,"Ġmax":5793,"Ġrecovered":5794,"Ġsisters":5795,"Ġassure":5796,"Ġcalcul":5797,"Ġpow":5798,"Ġtide":5799,"Ġengine":5800,"Ġestablished":5801,"lu":5802,"liest":5803,"knew":5804,"ships":5805,"Ġbrid":5806,"acob":5807,"Ġmarket":5808,"Ġanch":5809,"Ġgiant":5810,"Ġcauses":5811,"mere":5812,"aunt":5813,"Ġdate":5814,"Ġpisto":5815,"Ġmargaret":5816,"Ġseas":5817,"remember":5818,"athol":5819,"abled":5820,"Ġshaking":5821,"Ġscattered":5822,"olation":5823,"Ġsuccessful":5824,"Ġpainful":5825,"hour":5826,"Ġtroubled":5827,"sign":5828,"Ġsne":5829,"human":5830,"grand":5831,"pa":5832,"Ġsacrifice":5833,"Ġinvest":5834,"Ġpoems":5835,"Ġpartic":5836,"Ġremarks":5837,"onds":5838,"Ġincrease":5839,"Ġconsist":5840,"kerchief":5841,"Ġdivided":5842,"Ġpresident":5843,"Ġmistaken":5844,"hem":5845,"Ġnervous":5846,"ington":5847,"Ġdescended":5848,"Ġdegrees":5849,"eight":5850,"oston":5851,"offic":5852,"ĠĠĠĠĠĠĠĠĠĠ":5853,"Ġsecretary":5854,"Ġconcluded":5855,"Ġswall":5856,"open":5857,"----------------":5858,"Ġoak":5859,"cip":5860,"atives":5861,"Ġdevoted":5862,"Ġflame":5863,"Ġcave":5864,"intell":5865,"Ġwooden":5866,"Ġalice":5867,"Ġwondering":5868,"Ġsovere":5869,"gage":5870,"wart":5871,"Ġvanished":5872,"Ġcher":5873,"Ġgoods":5874,"Ġbush":5875,"piece":5876,"pic":5877,"Ġforces":5878,"Ġbert":5879,"death":5880,"yr":5881,"Ġreference":5882,"sight":5883,"Ġdeb":5884,"Ġgroan":5885,"poses":5886,"Ġcheerful":5887,"Ġmans":5888,"25":5889,"thel":5890,"exam":5891,"Ġshone":5892,"Ġnorthern":5893,"Ġoccasions":5894,"Ġdifficulties":5895,"Ġparted":5896,"steps":5897,"imag":5898,"Ġconnection":5899,"Ġsunshine":5900,"Ġseparate":5901,");":5902,"mary":5903,"regular":5904,"grat":5905,"Ġfreely":5906,"Ġthousands":5907,"posed":5908,"Ġdeparture":5909,"Ġdrunk":5910,"Ġproperly":5911,"dro":5912,"Ġsailor":5913,"Ġattended":5914,"aughters":5915,"Ġbeheld":5916,"Ġattached":5917,"Ġfolks":5918,"Ġcondem":5919,"mosphere":5920,"forward":5921,"ball":5922,"mouth":5923,"Ġimprove":5924,"accord":5925,"Ġbegged":5926,"large":5927,"Ġtrace":5928,"Ġlearning":5929,"Ġpron":5930,"Ġdetails":5931,"Ġfancied":5932,"ifying":5933,"emed":5934,"apped":5935,"Ġthine":5936,"othy":5937,"Ġmarble":5938,"Ġses":5939,"produ":5940,"Ġideal":5941,"Ġcared":5942,"quisite":5943,"Ġwolf":5944,"othing":5945,"Ġident":5946,"Ġju":5947,"dig":5948,"Ġemperor":5949,"passed":5950,"Ġalas":5951,"Ġcomplex":5952,"subject":5953,"Ġinsisted":5954,"Ġearlier":5955,"run":5956,"Ġanyone":5957,"Ġcultiv":5958,"Ġobe":5959,"Ġhated":5960,"Ġscri":5961,"Ġloves":5962,"Ġprivile":5963,"Ġpoison":5964,"circumst":5965,"Ġtied":5966,"Ġrenew":5967,"'.":5968,"Ġoffe":5969,"Ġpermitted":5970,"changed":5971,"Ġstephen":5972,"Ġsleeping":5973,"Ġcircumstance":5974,"Ġstaring":5975,"Ġugly":5976,"Ġmeanwhile":5977,"Ġsensible":5978,"].":5979,"keeper":5980,"Ġprud":5981,"inger":5982,"Ġjune":5983,"Ġclay":5984,"want":5985,"aph":5986,"leton":5987,"Ġjones":5988,"Ġspecul":5989,"Ġconsciousness":5990,"start":5991,"Ġintroduced":5992,"Ġhaste":5993,"towards":5994,"Ġrib":5995,"Ġpir":5996,"blem":5997,"Ġcrying":5998,"hundred":5999,"cannot":6000,"Ġleader":6001,"Ġdirected":6002,"isure":6003,"Ġnest":6004,"Ġcounsel":6005,"scar":6006,"isation":6007,"Ġinvent":6008,"apers":6009,"ienced":6010,"appearance":6011,"mid":6012,"Ġcountries":6013,"Ġjun":6014,"Ġqualities":6015,"eman":6016,"Ġnaked":6017,"Ġtrick":6018,"Ġgravely":6019,"Ġshell":6020,"Ġcommanded":6021,"Ġloving":6022,"Ġgrandfather":6023,"Ġimagined":6024,"Ġgallant":6025,"box":6026,"Ġlift":6027,"Ġpages":6028,"Ġfolly":6029,"town":6030,"Ġdemon":6031,"super":6032,"Ġapproaching":6033,"fashion":6034,"Ġenjoyed":6035,"Ġsteadily":6036,"Ġgran":6037,"Ġrifle":6038,"Ġtoler":6039,"gest":6040,"isk":6041,"Ġshakes":6042,"Ġcontempl":6043,"Ġflore":6044,"dest":6045,"mor":6046,"itch":6047,"Ġviolence":6048,"Ġstronger":6049,"Ġgrateful":6050,"Ġhungry":6051,"Ġstruct":6052,"Ġknocked":6053,"Ġprotection":6054,"Ġsharply":6055,"Ġsoil":6056,"Ġtear":6057,"cence":6058,"Ġrepublic":6059,"Ġempire":6060,"**":6061,"sum":6062,"prot":6063,"Ġslaves":6064,"Ġeconom":6065,"ho":6066,"ipper":6067,"hael":6068,"pert":6069,"gers":6070,"Ġseriously":6071,"Ġresults":6072,"class":6073,"Ġaloud":6074,"Ġslope":6075,"vert":6076,"Ġoath":6077,"henom":6078,"Ġmanage":6079,"oser":6080,"Ġadmire":6081,"Ġwake":6082,"Ġincident":6083,"Ġchim":6084,"sued":6085,"Ġstatement":6086,"Ġsore":6087,"Ġyonder":6088,"Ġfears":6089,"Ġfre":6090,"Ġacknowled":6091,"Ġray":6092,"Ġcontained":6093,"lessness":6094,"Ġeleven":6095,"greg":6096,"Ġignorance":6097,"Ġhid":6098,"ailing":6099,"Ġtorn":6100,"Ġbreeze":6101,"Ġunusual":6102,"Ġ182":6103,"Ġmortal":6104,"Ġreign":6105,"Ġarticle":6106,"Ġvisited":6107,"suppose":6108,"Ġdestroyed":6109,"already":6110,"Ġalle":6111,"Ġsteel":6112,"Ġcrept":6113,"Ġgazing":6114,"Ġbath":6115,"Ġmovements":6116,"Ġcanoe":6117,"compl":6118,"Ġreality":6119,"Ġlibrary":6120,"geant":6121,"Ġuniversal":6122,"Ġelizabeth":6123,"Ġstamp":6124,"Ġfil":6125,"bler":6126,"Ġglo":6127,"Ġportra":6128,"ere":6129,"Ġofficial":6130,"cest":6131,"Ġbade":6132,"Ġfame":6133,"rim":6134,"Ġwashington":6135,"plicity":6136,"Ġinher":6137,"Ġsincere":6138,"given":6139,"Ġlieutenant":6140,"iveness":6141,"Ġecho":6142,"rick":6143,"Ġroar":6144,"Ġnights":6145,"Ġacts":6146,"Ġphilosophy":6147,"Ġrested":6148,"Ġpursued":6149,"Ġthence":6150,"behind":6151,"wonder":6152,"mel":6153,"Ġelement":6154,"rers":6155,"Ġcounter":6156,"Ġcompre":6157,"Ġswim":6158,"friends":6159,"gain":6160,"wife":6161,"cipl":6162,"ata":6163,"Ġthrowing":6164,"Ġfix":6165,"Ġpurple":6166,"Ġsmaller":6167,"Ġdish":6168,"Ġagreeable":6169,"____":6170,"Ġsept":6171,"short":6172,"oos":6173,"Ġobed":6174,"Ġsupre":6175,"headed":6176,"Ġpall":6177,"Ġsilk":6178,"Ġslightest":6179,"iasm":6180,"Ġvulgar":6181,"bear":6182,"Ġneat":6183,"Ġsentence":6184,"Ġconviction":6185,"ba":6186,"vals":6187,"Ġtos":6188,"Ġouter":6189,"Ġrollo":6190,"Ġireland":6191,"Ġseam":6192,"Ġenglishman":6193,"Ġfolk":6194,"Ġattempted":6195,"gged":6196,"Ġ--":6197,"voice":6198,"Ġbyron":6199,"Ġmead":6200,"Ġimpl":6201,"expl":6202,"ĠĠĠĠĠĠĠĠĠĠĠĠĠĠĠĠĠĠĠĠĠ":6203,"Ġpace":6204,"Ġheavily":6205,"Ġcolon":6206,"Ġrud":6207,"Ġfamilies":6208,"Ġenormous":6209,"aving":6210,"Ġfirmly":6211,"da":6212,"Ġplun":6213,"bor":6214,"Ġvisitor":6215,"zed":6216,"Ġdistrict":6217,"creat":6218,"Ġawake":6219,"Ġcompass":6220,"ran":6221,"Ġinquiry":6222,"Ġdus":6223,"Ġdefend":6224,"Ġconsult":6225,"Ġrecognized":6226,"omed":6227,"bal":6228,"Ġlun":6229,"Ġren":6230,"Ġbelonged":6231,"aine":6232,"Ġrecover":6233,"Ġmixed":6234,"olen":6235,"chair":6236,"spirit":6237,"Ġchristmas":6238,"Ġluc":6239,"Ġtowns":6240,"Ġcrowded":6241,"Ġwilder":6242,"Ġquantity":6243,"Ġcareer":6244,"Ġ26":6245,"gie":6246,"occasion":6247,"Ġdancing":6248,"Ġchose":6249,"ributed":6250,"Ġobvious":6251,"Ġbetr":6252,"americ":6253,"Ġobserv":6254,"Ġdelivered":6255,"particular":6256,"bac":6257,"Ġdoctrine":6258,"Ġ29":6259,"Ġwithdra":6260,"Ġresolution":6261,"Ġrent":6262,"Ġjose":6263,"ems":6264,"Ġast":6265,"idents":6266,"Ġfalls":6267,"Ġimpulse":6268,"Ġsins":6269,"bra":6270,"whatever":6271,"Ġmilk":6272,"Ġobservation":6273,"Ġlocal":6274,"Ġshed":6275,"eral":6276,"Ġawkward":6277,"different":6278,"porary":6279,"Ġsmell":6280,"Ġmechan":6281,"Ġfinds":6282,"Ġsixty":6283,"withstanding":6284,"Ġdur":6285,"Ġgrin":6286,"quiet":6287,"Ġpaint":6288,"Ġabund":6289,"Ġ23":6290,"Ġscientific":6291,"ober":6292,"Ġwha":6293,"Ġexpedition":6294,"Ġdeliver":6295,",[":6296,"Ġvaluable":6297,"Ġsouthern":6298,"mem":6299,"Ġswear":6300,"asket":6301,"Ġsurround":6302,"Ã¨":6303,"Ġcoo":6304,"ands":6305,"won":6306,"Ġlads":6307,"Ġnoon":6308,"Ġbloom":6309,"Ġmanifest":6310,"Ġfeast":6311,"ifted":6312,"Ġleaped":6313,"closed":6314,"jack":6315,"Ġdearest":6316,"dec":6317,"Ġstrangers":6318,"othed":6319,"pract":6320,"lets":6321,"Ġbutter":6322,"Ġstartled":6323,"Ġrepresented":6324,"Ġcontrol":6325,"Ġdriving":6326,"Ġ27":6327,"Ġinsp":6328,"Ġstayed":6329,"Ġowing":6330,"Ġbranch":6331,"strange":6332,"Ġsob":6333,"Ġastonishment":6334,"ingham":6335,"Ġlanded":6336,"Ġconstantly":6337,"possible":6338,"felt":6339,"Ġhumour":6340,"Ġpom":6341,"hot":6342,"Ġfulf":6343,"agon":6344,"Ġfairy":6345,"Ġjump":6346,"front":6347,"Ġfarewell":6348,"riedrich":6349,"trou":6350,"Ġdeserted":6351,"Ġhint":6352,"Ġquarters":6353,"mill":6354,"several":6355,".âĢĻ":6356,"ieties":6357,"Ġapartment":6358,"Ġeating":6359,"england":6360,"Ġgos":6361,"Ġbeard":6362,"Ġfavourite":6363,"nut":6364,"Ġgarr":6365,"Ġdoth":6366,"Ġinse":6367,"Ġadam":6368,"Ġselfish":6369,"cra":6370,"leave":6371,"manner":6372,"Ġ28":6373,"women":6374,"Ġdutch":6375,"Ġsax":6376,"chance":6377,"Âł":6378,"Ġsalt":6379,"Ġlords":6380,"Ġeastern":6381,"itz":6382,"llers":6383,"Ġalex":6384,"chess":6385,"Ġcolours":6386,"Ġcirc":6387,"presently":6388,"Ġau":6389,"gentleman":6390,"Ġmock":6391,"Ġspani":6392,"Ġperplex":6393,"suffic":6394,"Ġflour":6395,"Ġastonished":6396,"Ġpointing":6397,"beautiful":6398,"Ġloyal":6399,"Ġdisposition":6400,"Ġoli":6401,"umbled":6402,"Ġgratitude":6403,"vii":6404,"pleasure":6405,"ressing":6406,"fair":6407,"Ġconceal":6408,"Ġbi":6409,"Ġlee":6410,"gram":6411,"times":6412,"Ġdischar":6413,"orse":6414,"Ġanno":6415,"Ġpoured":6416,"Ġrighteous":6417,"Ġdesir":6418,"Ġdragged":6419,"Ġdefinite":6420,"flict":6421,"Ġded":6422,"blood":6423,"Ġurged":6424,"school":6425,"Ġhan":6426,"Ġsignal":6427,"itute":6428,"Ġclasses":6429,"Ġgal":6430,"Ġnon":6431,"Ġdise":6432,"usions":6433,"Ġwandering":6434,"hun":6435,"Ġpink":6436,"few":6437,"along":6438,"Ġapplied":6439,"Ġmagnificent":6440,"pton":6441,"mur":6442,"Ġstair":6443,"Ġscru":6444,"Ġmidnight":6445,"Ġdil":6446,"Ġsenses":6447,"ino":6448,"Ġprec":6449,"mons":6450,"rels":6451,"orable":6452,"Ġflash":6453,"Ġbeasts":6454,"Ġmaiden":6455,"Ġlordship":6456,"ribly":6457,"ician":6458,"Ġchain":6459,"Ġashore":6460,"Ġmeantime":6461,"Ġvivid":6462,"Ġearnestly":6463,"vous":6464,"Ġbust":6465,"wed":6466,"fav":6467,"placed":6468,"tra":6469,"Ġembarrass":6470,"Ġstag":6471,"Ġobjection":6472,"feeling":6473,"Ġbun":6474,"Ġdestroy":6475,"omb":6476,"Ġsafely":6477,"Ġsovereign":6478,"Ġdisturbed":6479,"green":6480,"lear":6481,"Ġcounty":6482,"Ġfanny":6483,"ouch":6484,"Ġcheap":6485,"Ġcell":6486,"irk":6487,"Ġeh":6488,"Ġsummon":6489,"Ġsang":6490,"Ġtele":6491,"Ġcock":6492,"Ġ22":6493,"Ġbat":6494,"Ġknee":6495,"Ġlimbs":6496,"Ġbenefit":6497,"Ġrele":6498,"houses":6499,"Ġtort":6500,"rog":6501,"sid":6502,"Ġarticles":6503,"Ġcommer":6504,"Ġgrounds":6505,"Ġfed":6506,"Ġspain":6507,"Ġdecision":6508,"urday":6509,"Ġbilly":6510,"Ġanticip":6511,"die":6512,"Ġrout":6513,"Ġsuggestion":6514,"Ġpropri":6515,"lad":6516,"justice":6517,"ĠĠĠĠĠĠĠĠĠĠĠĠĠ":6518,"Ġdeclare":6519,"arson":6520,"Ġperceive":6521,"Ġshoes":6522,"Ġjuly":6523,"Ġhoriz":6524,"Ġdeeper":6525,"Ġswiftly":6526,"Ġboston":6527,"erate":6528,"zan":6529,"bott":6530,"amation":6531,"icken":6532,"hear":6533,"thousand":6534,"Ġjacob":6535,"Ġteacher":6536,"none":6537,"Ġuncertain":6538,"Ġtremend":6539,"faced":6540,"Ġsed":6541,"Ġsolitary":6542,"Ġobey":6543,"Ġassumed":6544,"Ġuniform":6545,"Ġverse":6546,"Ġcompared":6547,"Ġ183":6548,"occup":6549,"Ġsailed":6550,"george":6551,"Ġunlike":6552,"Ġinner":6553,"broken":6554,"Ġperil":6555,"comple":6556,"Ġpoets":6557,"50":6558,"hers":6559,"gent":6560,"gold":6561,"Ġshortly":6562,"object":6563,"build":6564,"usive":6565,"grim":6566,"Ġburned":6567,"actory":6568,"Ġtick":6569,"Ġwhit":6570,"Ġexamined":6571,"Ġbushes":6572,"uncle":6573,"Ġpolitics":6574,"ĠĠĠĠĠĠĠĠĠĠĠĠĠĠĠĠĠĠĠ":6575,"Ġcommitted":6576,"Ġstated":6577,"Ġcavalry":6578,"Ġcathol":6579,"sun":6580,"Ġreflection":6581,"Ġremaining":6582,"Ġentering":6583,"bank":6584,"Ġleisure":6585,"maj":6586,"Ġburden":6587,"Ġfury":6588,"besides":6589,"Ġscenes":6590,"either":6591,"Ġbadly":6592,"Ġlocked":6593,"sar":6594,"Ġprinted":6595,"Ġwrath":6596,"iverse":6597,"Ġsaddle":6598,"Ġada":6599,"burgh":6600,"Ġascertain":6601,"Ġexcess":6602,"Ġtouching":6603,"Ġna":6604,"asked":6605,"Ġextended":6606,"hab":6607,"lix":6608,"Ġsmoking":6609,"Ġdestruction":6610,"Ġdescend":6611,"Ġinch":6612,"Ġconsidering":6613,"Ġjon":6614,"gra":6615,"itors":6616,"Ġancest":6617,"Ġmarched":6618,"Ġsilly":6619,"Ġcot":6620,"Ġcontinually":6621,"Ġfrequent":6622,"Ġpool":6623,"Ġprejud":6624,"Ġhumanity":6625,"Ġlightly":6626,"Ġnap":6627,"akened":6628,"Ġcunning":6629,"Ġmischief":6630,"church":6631,"Ġbatt":6632,"Ġbeings":6633,"Ġcandle":6634,"Ġrelieved":6635,"lock":6636,"stead":6637,"Ġrot":6638,"Ġbud":6639,"alone":6640,"compan":6641,"Ġruth":6642,"Ġatmosphere":6643,"Ġgesture":6644,"Ġcompet":6645,"Ġdrank":6646,"Ġyer":6647,"Ġinches":6648,"Ġgardens":6649,"Ġzeal":6650,"Ġconfident":6651,"abor":6652,"umin":6653,"Ġromance":6654,"Ġwanting":6655,"hol":6656,"Ġarchite":6657,"daughter":6658,"isy":6659,"Ġshrie":6660,"Ġgree":6661,"roll":6662,"faith":6663,"trees":6664,"Ġservices":6665,"least":6666,"quick":6667,"Ġgig":6668,"Ġpup":6669,"Ġpursuit":6670,"Ġhed":6671,"Ġmonarch":6672,"above":6673,"Ġdaughters":6674,"vas":6675,"comfortable":6676,"Ġate":6677,"Ġcompelled":6678,"Ġmasters":6679,"?âĢĿ":6680,"corn":6681,"willing":6682,"Ġarrangement":6683,"Ġshirt":6684,"began":6685,"Ġsavages":6686,"author":6687,"Ġjest":6688,"Ġspeaks":6689,"andy":6690,"Ġjoke":6691,"Ġgang":6692,"Ġstrain":6693,"Ġbatter":6694,"need":6695,"Ġslip":6696,"Ġvessels":6697,"Ġcoward":6698,"Ġschol":6699,"Ġdining":6700,"Ġabsor":6701,"Ġsending":6702,"Ġcountess":6703,"Ġexperiment":6704,"scri":6705,"Ġsmart":6706,"Ġeloqu":6707,"tending":6708,"Ġcleared":6709,"Ġrailway":6710,"Ġremote":6711,"Ġexquisite":6712,"Ġowe":6713,"Ġelsewhere":6714,"Ġfailure":6715,"Ġdeed":6716,"sett":6717,"Ġaudience":6718,"Ġintellectual":6719,"Ġclam":6720,"Ġharsh":6721,"ctive":6722,"Ġeditor":6723,"ĠĠĠĠĠĠĠĠĠĠĠĠĠĠĠĠĠ":6724,"Ġrolling":6725,"deep":6726,"fight":6727,"Ġingen":6728,"ez":6729,"eff":6730,"aws":6731,"Ġcentral":6732,"istocr":6733,"Ġreject":6734,"viii":6735,"Ġsubstance":6736,"Ġnonsense":6737,"Ġabsent":6738,"Ġdeparted":6739,"pict":6740,"row":6741,"Ġpurposes":6742,"Ġlesson":6743,"Ġpunishment":6744,"Ġruns":6745,"Ġgermany":6746,"Ġpolicy":6747,"itating":6748,"Ġinvited":6749,"Ġwherever":6750,"Ġ11":6751,"Ġfires":6752,"otions":6753,"Ġjean":6754,"ouched":6755,"Ġjimmy":6756,"Ġreadily":6757,"Ġcaut":6758,"Ġdaylight":6759,"Ġrus":6760,"ari":6761,"Ġpine":6762,"Ġabstr":6763,"--_":6764,"lest":6765,"ola":6766,"Ġdistinctly":6767,"resist":6768,"Ġswung":6769,"Ġcontrast":6770,"Ġcad":6771,"urred":6772,"Ġscore":6773,"Ġrespectable":6774,"Ġalter":6775,"Ġgoodness":6776,"Ġinspect":6777,"hension":6778,"castle":6779,"Ġsuspected":6780,"arl":6781,"bacco":6782,"Ġcomment":6783,"Ġmarks":6784,"Ġromantic":6785,"rated":6786,"Ġdeer":6787,"Ġphenom":6788,"agreeable":6789,"Ġdismiss":6790,"ifully":6791,"Ġpopulation":6792,"squ":6793,"Ġdart":6794,"Ġconfused":6795,"prov":6796,"Ġdevelopment":6797,"Ġdrinking":6798,"Ġprocl":6799,"Ġbri":6800,"Ġles":6801,"Ġdelic":6802,"Ġsie":6803,"Ġindifferent":6804,"Ġharold":6805,"Ġveget":6806,"often":6807,"Ġowner":6808,"itself":6809,"Ġvex":6810,"fol":6811,"Ġmissed":6812,"Ġtribe":6813,"neither":6814,"bad":6815,"Ġrelated":6816,"boys":6817,"asper":6818,"Ġadmiral":6819,"Ġbewild":6820,"wering":6821,"ogue":6822,"Ġcities":6823,"spring":6824,"bright":6825,"vill":6826,"Ġseparated":6827,"rily":6828,"Ġdirty":6829,"Ġharmon":6830,"drew":6831,"Ġpad":6832,"Ġrules":6833,"inqu":6834,"acks":6835,"ofty":6836,"lyn":6837,"Ġbegins":6838,"eyed":6839,"Ġdisturb":6840,"Ġandrew":6841,"Ġgeneration":6842,"gun":6843,"oise":6844,"Ġfain":6845,"played":6846,"Ġdisappointed":6847,"Ġspecim":6848,"hered":6849,"Ġdecor":6850,"ita":6851,"Ġhook":6852,"Ġessential":6853,"antages":6854,"uine":6855,"umption":6856,"Ġwives":6857,"Ġrecollect":6858,"Ġplot":6859,"ero":6860,"dog":6861,"Ġthither":6862,"Ġextr":6863,"Ġfrost":6864,"Ġcollected":6865,"Ġdisgu":6866,"Ġcharged":6867,"haw":6868,"Ġsurre":6869,"icle":6870,"div":6871,"aps":6872,"Ġrecent":6873,"Ġsailors":6874,"Ġchamp":6875,"Ġtones":6876,"resses":6877,"Ġtoil":6878,"immedi":6879,"Ġshy":6880,"Ġ184":6881,"hin":6882,"conven":6883,"Ġabruptly":6884,"Ġhaz":6885,"Ġtin":6886,"dead":6887,"veyed":6888,"Ġned":6889,"Ġmodest":6890,"Ġhunter":6891,"Ġheavens":6892,"Ġnephe":6893,"Ġmast":6894,"Ġsupreme":6895,"Ġphrase":6896,"Ġglow":6897,"proper":6898,"Ġflorence":6899,"Ġseed":6900,"Ġexposed":6901,"Ġheartily":6902,"Ġliqu":6903,"pled":6904,"Ġdisgrace":6905,"Ġprofit":6906,"Ġsignific":6907,"Ġkate":6908,"Ġtraged":6909,"gall":6910,"emy":6911,"umps":6912,"apping":6913,"Ġted":6914,"Ġjew":6915,"Ġtrusted":6916,"Ġroger":6917,"Ġcurse":6918,"watch":6919,"Ġnoted":6920,"Ġsounded":6921,"Ġstraw":6922,"Ġsheet":6923,"Ġrefuge":6924,"cat":6925,"tes":6926,"lers":6927,"Ġlively":6928,"Ġhelen":6929,"shad":6930,"Ġreflected":6931,"Ġsunset":6932,"Ġexceedingly":6933,"pot":6934,"Ġbuff":6935,"ana":6936,"ica":6937,",)":6938,"ov":6939,"unless":6940,"Ġgranted":6941,"Ġdiscussion":6942,"Ġclock":6943,"convers":6944,"Ġgloomy":6945,"Ġinsist":6946,"Ġult":6947,"Ġfetch":6948,"Ġhay":6949,"Ġstructure":6950,"Ġmuse":6951,"Ġsergeant":6952,"Ġshud":6953,"Ġmul":6954,"verted":6955,"Ġopposition":6956,"especially":6957,"Ġmerchant":6958,"Ġtour":6959,"Ġparad":6960,"Ġgale":6961,"Ġsober":6962,"Ġreputation":6963,"state":6964,"ulars":6965,"Ġsust":6966,"Ġenthusiasm":6967,"ties":6968,"Ġreduced":6969,"Ġfurnished":6970,"year":6971,"bru":6972,"Ġprayers":6973,"iated":6974,"Ġprime":6975,"Ġchuck":6976,"Ġendure":6977,"Ġinev":6978,"Ġexpense":6979,"gave":6980,"Ġacting":6981,"Ġwedding":6982,"Ġ187":6983,"guard":6984,"Ġflow":6985,"Ġcomrades":6986,"Ġrug":6987,"Ġ180":6988,"trave":6989,"blance":6990,"avery":6991,"Ġventured":6992,"Ġmingled":6993,"uv":6994,"Ġviolet":6995,"bound":6996,"Ġlaying":6997,"Ġtheatre":6998,"Ġdiff":6999,"Ġpolite":7000,"Ġafterward":7001,"Ġentreat":7002,"Ġregion":7003,"Ġbible":7004,"Ġmarquis":7005,"vag":7006,"Ġtravelling":7007,"ufact":7008,"mine":7009,"Ġtid":7010,"Ġstarting":7011,"london":7012,"ipping":7013,"ĠĠĠĠĠĠĠĠĠĠĠĠĠĠ":7014,"viour":7015,"Ġconsequences":7016,"anda":7017,"uously":7018,"Ġsteamer":7019,"orig":7020,"ben":7021,"pos":7022,"Ġadventures":7023,"ooped":7024,"isl":7025,"Ġreasonable":7026,"Ġaccompany":7027,"Ġparish":7028,"Ġthread":7029,"Ġcris":7030,"Ġbarn":7031,"Ġcrossing":7032,"Ġnewspaper":7033,"Ġkeeps":7034,"evening":7035,"Ġsunk":7036,"Ġdarling":7037,"fere":7038,"def":7039,"fif":7040,"Ġtriump":7041,"Ġstuck":7042,"Ġpossibility":7043,"grace":7044,"meet":7045,"probably":7046,"Ġpant":7047,"decl":7048,"Ġdecide":7049,"Ġfount":7050,"rified":7051,"Ġfund":7052,"Ġimpr":7053,"Ġreaders":7054,"Ġlandlord":7055,"Ġlikes":7056,"Ġarrive":7057,"Ġmedic":7058,"bene":7059,"Ġbeaten":7060,"Ġpuzzled":7061,"Ġamused":7062,"Ġmant":7063,"Ġsensation":7064,"Ġagony":7065,"heaven":7066,"xic":7067,"Ġacquired":7068,"Ġeuropean":7069,"Ġjumped":7070,"Ġsilently":7071,"Ġroads":7072,"Ġindignation":7073,"Ġgrowth":7074,"Ġexhausted":7075,"Ġshield":7076,"Ġfinish":7077,"Ġselection":7078,"Ġerror":7079,"earth":7080,"Ġstor":7081,"circumstances":7082,"Ġmoonlight":7083,"Ġdre":7084,"Ġneighbor":7085,"hu":7086,"Ġfisher":7087,"Ġbrings":7088,"Ġpermit":7089,"sac":7090,"yl":7091,"Ġfet":7092,"Ġrival":7093,"\";":7094,"Ġmos":7095,"Ġfasc":7096,"Ġgas":7097,"atherine":7098,"continued":7099,"Ġruined":7100,"uming":7101,"Ġdesk":7102,"party":7103,"Ġdirections":7104,"Ġraising":7105,"luck":7106,"Ġimmort":7107,"Ġwandered":7108,"igation":7109,"Ġforever":7110,"Ġapril":7111,"family":7112,"Ġamusement":7113,"truth":7114,"Ġnamely":7115,"Ġinsult":7116,"Ġprevented":7117,"begin":7118,"Ġporter":7119,"tre":7120,"Ġcloser":7121,"Ġdescribe":7122,"hair":7123,"Ġjoseph":7124,"stud":7125,"ĠĠĠĠĠĠĠĠĠĠĠĠĠĠĠĠĠĠĠĠĠĠ":7126,"Ġfurniture":7127,"Ġniece":7128,"Ġblew":7129,"Ġwy":7130,"pop":7131,"Ġpasses":7132,"Ġheels":7133,"Ġpropose":7134,"Ġinform":7135,"Ġtrip":7136,"Ġmessenger":7137,"Ġpatron":7138,"Ġadmin":7139,"Ġexecution":7140,"sell":7141,"Ġstrangely":7142,"Ġcommenced":7143,"achment":7144,"jac":7145,"Ġengagement":7146,"counter":7147,"Ġmillion":7148,"clear":7149,"ulties":7150,"help":7151,"please":7152,"Ġtremendous":7153,"ioned":7154,"Ġtiny":7155,"eve":7156,"sold":7157,"Ġglen":7158,"contr":7159,"Ġwarn":7160,"ittee":7161,"pray":7162,"Ġdoubtful":7163,"Ġfeeble":7164,"Ġrespects":7165,"Ġfert":7166,"Ġfanc":7167,"Ġprize":7168,"gon":7169,"oubted":7170,"Ġpositive":7171,"Ġsuperst":7172,"Ġaltern":7173,"Ġscale":7174,"ĠĠĠĠĠĠĠĠĠĠĠĠĠĠĠĠĠĠĠĠĠĠĠ":7175,"Ġaltered":7176,"Ġgracious":7177,"Ġfearful":7178,"Ġrisen":7179,"Ġvictor":7180,"Ġcarol":7181,"company":7182,"pent":7183,"aign":7184,"Ġfeels":7185,"scape":7186,"Ġteaching":7187,"inations":7188,"Ġmachine":7189,"Ġpond":7190,"Ġheed":7191,"Ġ185":7192,"Ġafrica":7193,"ipe":7194,"Ġreview":7195,"dev":7196,"Ġactions":7197,"wal":7198,"Ġincred":7199,"Ġmerit":7200,"uits":7201,"Ġreminded":7202,"Ġtales":7203,"Ġum":7204,"Ġlofty":7205,"top":7206,"cribed":7207,"crow":7208,"Ġsem":7209,"Ġhugh":7210,"Ġproc":7211,"Ġambition":7212,"Ġknights":7213,"Ġot":7214,"ilight":7215,"Ġoutward":7216,"Ġarts":7217,"Ġpains":7218,"Ġaccomplished":7219,"inf":7220,"Ġfitted":7221,"Ġholds":7222,"dam":7223,"eys":7224,"Ġintimate":7225,"Ġperman":7226,"ĠĠĠĠĠĠĠĠĠĠĠĠĠĠĠĠĠĠĠĠ":7227,"Ġhappens":7228,"Ġlust":7229,"Ġfog":7230,"Ġloc":7231,"Ġrepeat":7232,"Ġdimin":7233,"didn":7234,"Ġhundreds":7235,"comes":7236,"Ġfathers":7237,"Ġmusk":7238,"conce":7239,"Ġcloak":7240,"incl":7241,"Ġagent":7242,"iana":7243,"Ġfortunate":7244,"Ġautumn":7245,"fear":7246,"Ġlanding":7247,"Ġpenet":7248,"Ġwhereas":7249,"Ġnut":7250,"Ġstudied":7251,"Ġ179":7252,"Ġxxx":7253,"borough":7254,"Ġconceive":7255,"Ġintend":7256,"fare":7257,"Ġnephew":7258,"Ġjar":7259,"Ġgallop":7260,"Ġdisappointment":7261,"Ġadopted":7262,"Ġmarve":7263,"Ġwars":7264,"Ġsource":7265,"Ġdistinction":7266,"Ġdepth":7267,"Ġconcealed":7268,"sense":7269,"Ġvel":7270,"iner":7271,"anqu":7272,"Ġjolly":7273,"Ġcharity":7274,"sens":7275,"Ġpile":7276,"Ġupstairs":7277,"Ġcomrade":7278,"feet":7279,"Ġdivision":7280,"minded":7281,"Ġcutting":7282,"Ġwilderness":7283,"writing":7284,"Ġrav":7285,"Ġsway":7286,"Ġgoin":7287,"Ġconquer":7288,"Ġcoal":7289,"cas":7290,"Ġbrut":7291,"eenth":7292,"irmed":7293,"itty":7294,"Ġperformed":7295,"Ġornament":7296,"Ġobeyed":7297,"Ġelectric":7298,"Ġrivers":7299,"Ġfeed":7300,"seeing":7301,"Ġalf":7302,"Ġsweep":7303,"represent":7304,"Ġdashed":7305,"Ġpatter":7306,"Ġard":7307,"Ġmerc":7308,"Ġgathering":7309,"itively":7310,"Ġattacked":7311,"Ġmajority":7312,"Ġprecisely":7313,"Ġpip":7314,"Ġcru":7315,"slow":7316,"pretty":7317,"Ġruff":7318,"Ġprophe":7319,"Ġprovisions":7320,"Ġanchor":7321,"Ġrhy":7322,"Ġsoph":7323,"dick":7324,"french":7325,"Ġ:":7326,"ashes":7327,"Ġstirred":7328,"azz":7329,"Ġlatin":7330,"ado":7331,"inson":7332,"Ġcitizen":7333,"Ġscand":7334,"Ġplays":7335,"Ġissue":7336,"Ġrealized":7337,"Ġattent":7338,"Ġtrifle":7339,"Ġbelonging":7340,"mil":7341,"Ġneighbourhood":7342,"Ġpover":7343,"Ġethel":7344,"Ġbund":7345,"Ġpriests":7346,"Ġflatter":7347,"Ġscra":7348,"giving":7349,"Ġpoverty":7350,"Ġraces":7351,"quet":7352,"consequ":7353,"Ġnic":7354,"Ġamy":7355,"24":7356,"Ġaccounts":7357,"Ġmotive":7358,"Ġmaybe":7359,"Ġmoss":7360,"Ġ\"_":7361,"street":7362,"asy":7363,"command":7364,"Ġgil":7365,"Ġdeveloped":7366,"Ġoil":7367,"Ġpluck":7368,"thinking":7369,"rical":7370,"answer":7371,"Ġduchess":7372,"Ġvictim":7373,"Ġmah":7374,"mont":7375,"Ġcalmly":7376,"Ġseeking":7377,"Ġclara":7378,"whel":7379,"Ġgenuine":7380,"Ġdetect":7381,"Ġcreated":7382,"ived":7383,"allel":7384,"Ġflashed":7385,"angle":7386,"ements":7387,"Ġexisted":7388,".'\"":7389,"Ġmasses":7390,"followed":7391,"Ġfoul":7392,"alled":7393,"Ġintervals":7394,"Ġdrum":7395,"rian":7396,"Ġresting":7397,"across":7398,"Ġbeating":7399,"Ġbears":7400,"Ġleather":7401,"Ġcharacteristic":7402,"Ġhandkerchief":7403,"impse":7404,"leness":7405,"Ġcommander":7406,"Ġrat":7407,"erted":7408,"Ġtommy":7409,"ooping":7410,"rice":7411,"aments":7412,"Ġbeloved":7413,"Ġfriedrich":7414,"Ġsadly":7415,"Ġadmirable":7416,"Ġabandoned":7417,"Ġdocum":7418,"secret":7419,"Ġbrass":7420,"Ġclergyman":7421,"bot":7422,"uity":7423,"Ġjournal":7424,"neighb":7425,"Ġhonourable":7426,"Ġshan":7427,"Ġeggs":7428,"Ġnorman":7429,"Ġthir":7430,"Ġconception":7431,"Ġusing":7432,"ustace":7433,"num":7434,"Ġeaten":7435,"Ġaverage":7436,"exist":7437,"ella":7438,"Ġgroups":7439,"Ġindependent":7440,"len":7441,"ĠĠĠĠĠĠĠĠĠĠĠĠĠĠĠĠĠĠ":7442,"office":7443,"Ġvanity":7444,"eration":7445,"itudes":7446,"Ġfortnight":7447,"Ġeighteen":7448,"Ġbetray":7449,"Ġresent":7450,"Ġeste":7451,"spo":7452,"berg":7453,"regard":7454,"Ġchase":7455,"Ġblessing":7456,"Ġinferior":7457,"Ġslain":7458,"Ġminor":7459,"Ġexamine":7460,"erton":7461,"Ġtobacco":7462,"Ġenabled":7463,"Ġsimplicity":7464,"wis":7465,"reath":7466,"Ġeleg":7467,"husband":7468,"Ġwash":7469,"ka":7470,"Ġbedroom":7471,"exact":7472,"Ġfaded":7473,"conne":7474,"Ġsaturday":7475,"Ġrevenge":7476,"Ġshakespeare":7477,"Ġsaints":7478,"Ġoctober":7479,"government":7480,"Ġtomb":7481,"Ġduck":7482,"Ġgraceful":7483,"Ġtendency":7484,"rage":7485,"Ġpreserved":7486,"Ġcrest":7487,"Ġhiding":7488,"olate":7489,"icable":7490,"det":7491,"Ġbows":7492,"brown":7493,"Ġguards":7494,"Ġcuriously":7495,"Ġspell":7496,"pended":7497,"viously":7498,"Ġtrump":7499,"Ġprint":7500,"Ġcontents":7501,"Ġheir":7502,"Ġanyway":7503,"Ġavo":7504,"ga":7505,"Ġchur":7506,"Ġstaff":7507,"Ġdevotion":7508,"Ġtreas":7509,"Ġveil":7510,"Ġscotch":7511,"Ġcenturies":7512,"else":7513,"Ġmagaz":7514,"Ġstole":7515,"coloured":7516,"Â§":7517,"orus":7518,"Ġwhirl":7519,"aston":7520,"Ġwrought":7521,"Ġexamination":7522,"cked":7523,"Ġdoorway":7524,"sole":7525,"Ġproblem":7526,"Ġelements":7527,"Ġlaura":7528,"amy":7529,"geance":7530,"iency":7531,"Ġhopeless":7532,"Ġproposition":7533,"Ġrejoined":7534,"coln":7535,"grad":7536,"Ġinquire":7537,"Ġceremony":7538,"Ġscul":7539,"Ġrepent":7540,"Ġmoor":7541,"Ġextrem":7542,"ĠĠĠĠĠĠĠĠĠĠĠĠ":7543,"fts":7544,"Ġgarrison":7545,"Ġdamp":7546,"Ġparting":7547,"answered":7548,"Ġcigar":7549,"umbling":7550,"Ġconfessed":7551,"itan":7552,"Ġcease":7553,"Ġkid":7554,"colonel":7555,"Ġthreatened":7556,"princi":7557,"covered":7558,"Ġdeadly":7559,"Ġridiculous":7560,"Ġcel":7561,"glas":7562,"Ġbritain":7563,"Ġpassions":7564,"Ġarrangements":7565,"Ġseptember":7566,"Ġ188":7567,"Ġcorrupt":7568,"Ġoxford":7569,"eries":7570,"knowledge":7571,"Ġta":7572,"delight":7573,"Ġsuccession":7574,"inburgh":7575,"Ġstu":7576,"Ġpistol":7577,"Ġvii":7578,"illery":7579,"essie":7580,"deal":7581,"Ġreluct":7582,"ulations":7583,"Ġflushed":7584,"Ġclimb":7585,"iences":7586,"intellig":7587,"Ġroused":7588,"Ġwrites":7589,"Ġshepher":7590,"Ġdetail":7591,"Ġbuildings":7592,"Ġlegal":7593,"Ġinstrument":7594,"ilda":7595,"Ġexperienced":7596,"natured":7597,"anx":7598,"Ġbitterly":7599,"sle":7600,"Ġnecessarily":7601,"olutely":7602,"Ġbind":7603,"Ġnick":7604,"Ġsecurity":7605,"Ġreaching":7606,"rob":7607,"Ġsupported":7608,"iah":7609,"owl":7610,"ineas":7611,"Ġblows":7612,"Ġchances":7613,"Ġbeds":7614,"Ġmould":7615,"Ġrover":7616,"bery":7617,"Ġcorp":7618,"Ġaffectionate":7619,"arrow":7620,"Ġtradition":7621,"Ġreproach":7622,"Ġexchange":7623,"Ġtenderness":7624,"impossible":7625,"Ġsits":7626,"itled":7627,"Ġrachel":7628,"ensity":7629,"Ġdepos":7630,"angled":7631,"Ġcolumn":7632,"shot":7633,"Ġburnt":7634,"Ġmultitude":7635,"Ġconfined":7636,"Ġclimbed":7637,"Ġsolic":7638,"Ġretire":7639,"aneous":7640,"Ġcommunication":7641,"Ġpartner":7642,"mund":7643,"jah":7644,"blue":7645,"Ġpaying":7646,"treat":7647,"Ġdumb":7648,"Ġglit":7649,"Ġpolly":7650,"Ġinterior":7651,"ivering":7652,"Ġcapacity":7653,"Ġpassages":7654,"Ġmurmur":7655,"Ġinduced":7656,"Ġsally":7657,"Ġinfl":7658,"hend":7659,"relig":7660,"sn":7661,"ichol":7662,"Ġchina":7663,"Ġguy":7664,"commun":7665,"Ġcannon":7666,"Ġcompliment":7667,"Ġhospital":7668,"welt":7669,"Ġtragedy":7670,"Ġtun":7671,"Ġsink":7672,"acked":7673,"acts":7674,"grave":7675,"Ġlunch":7676,"Ġnerves":7677,"23":7678,"rive":7679,"Ġcitizens":7680,"remark":7681,"cause":7682,"Ġaristocr":7683,"Ġunpleasant":7684,"beyond":7685,"Ġcareless":7686,"igs":7687,"Ġblock":7688,"Ġapolog":7689,"Ġdisgust":7690,"march":7691,"Ġawe":7692,"Ġbeck":7693,"Ġangels":7694,"third":7695,"Ġemily":7696,"Ġcommunity":7697,"Ġsolitude":7698,"Ġsusan":7699,"Ġlege":7700,"sort":7701,"Ġthirst":7702,"pain":7703,"bill":7704,"priv":7705,"Ġhorizon":7706,"Ġweapons":7707,"Ġinvitation":7708,"Ġprem":7709,"Ġletting":7710,"Ġavail":7711,"Ġresidence":7712,"Ġstroke":7713,"Ġ\"'":7714,"Ġcham":7715,"Ġoffence":7716,"itations":7717,"uscript":7718,"ooner":7719,"returned":7720,"gthen":7721,"vet":7722,"Ġdiscipl":7723,"Ġovercome":7724,"Ġcatholic":7725,"Ġbalance":7726,"Ġuniverse":7727,"Ġnarrative":7728,"Ġmond":7729,"Ġsettlement":7730,"Ġenable":7731,"Ġbetrayed":7732,"oiselle":7733,"forms":7734,"umm":7735,"Ġbrush":7736,"Ġmeasures":7737,"frey":7738,"Ġclaims":7739,"Ġliberal":7740,"Ġcontrad":7741,"opin":7742,"Ġconsequently":7743,"Ġbasket":7744,"Ġvenice":7745,"Ġleon":7746,"free":7747,"Ġfatig":7748,"Ġeasier":7749,"Ġdepends":7750,"offrey":7751,"Ġsubsequ":7752,",_":7753,"Ġlosing":7754,"rude":7755,"Ġwot":7756,"Ġrecon":7757,"prison":7758,"Ġmorr":7759,"Ġcompleted":7760,"Ġmillions":7761,"Ġcaution":7762,"Ġreef":7763,"rael":7764,"umble":7765,"Ġreferred":7766,"elt":7767,"Ġprovidence":7768,"Ġdine":7769,"Ġtreatment":7770,"oard":7771,"arian":7772,"city":7773,"Ġformerly":7774,"Ġaust":7775,"27":7776,"danger":7777,"fold":7778,"Ġneglect":7779,"icing":7780,"Ġoliver":7781,"esy":7782,"Ġcares":7783,"Ġcryst":7784,"Ġuneasy":7785,"Ġtwilight":7786,"Ġsi":7787,"Ġalarmed":7788,"itious":7789,"Ġwaved":7790,"Ġdoubts":7791,"Ġlimited":7792,"mot":7793,"Ġpatriot":7794,"Ġridge":7795,"suggest":7796,"Ġdeeds":7797,"lou":7798,"rat":7799,"Ġdecent":7800,"era":7801,"Ġlance":7802,"Ġanton":7803,"hedral":7804,"athetic":7805,"cription":7806,"history":7807,"lines":7808,"icking":7809,"Ġputs":7810,"gging":7811,"flo":7812,"Ġcaptured":7813,"yourself":7814,"Ġsofa":7815,"Ġvice":7816,"Ġgown":7817,"prince":7818,"Ġreceiving":7819,"Ġlearnt":7820,"Ġsecured":7821,"Ġmaria":7822,"bring":7823,"public":7824,"usually":7825,"bishop":7826,"Ġaustri":7827,"Ġwearing":7828,"Ġbeer":7829,"orders":7830,"Ġportrait":7831,"Ġwalks":7832,"Ġreported":7833,"Ġanxiously":7834,"Ġdemonstr":7835,"Ġster":7836,"ribution":7837,"Ġexerc":7838,"Ġlily":7839,"Ġrestored":7840,"pson":7841,"Ġenterprise":7842,"Ġlucky":7843,"Ġgallery":7844,"Ġshooting":7845,"peter":7846,"Ġbehalf":7847,"dut":7848,"Ġwages":7849,"Ġwriters":7850,"Ġcontented":7851,"Ġclut":7852,"Ġvirtues":7853,"Ġinterfere":7854,"Ġoccasional":7855,"Ġpassengers":7856,"Ġlur":7857,"proceed":7858,"Ġscarlet":7859,"Ġimperfect":7860,"Ġanyhow":7861,"Ġgross":7862,"ĠĠĠĠĠĠĠĠĠĠĠĠĠĠĠĠĠĠĠĠĠĠĠĠĠ":7863,"Ġnotwithstanding":7864,"fish":7865,"Ġtrot":7866,"Ġmisfortune":7867,"gings":7868,"Ġsubtle":7869,"Ġstruggling":7870,"_--":7871,"olution":7872,"seven":7873,"Ġske":7874,"further":7875,"Ġskipper":7876,"Ġquestioned":7877,"idity":7878,"Ġdemocr":7879,"Ġsubl":7880,"Ġtig":7881,"Ġpressure":7882,"Ã±":7883,"Ġquit":7884,"Ġstandard":7885,"Ġisabel":7886,"aug":7887,"complete":7888,"polit":7889,"Ġwarned":7890,"Ġwilt":7891,"Ġvisitors":7892,"written":7893,"Ġfri":7894,"Ġrevel":7895,"Ġfastened":7896,"surely":7897,"Ġtwink":7898,"means":7899,"Ġpowder":7900,"Ġclimate":7901,"Ġcommittee":7902,"Ġdwelling":7903,"Ġfishing":7904,"Ġidol":7905,"Ġinterval":7906,"Ġforb":7907,"lost":7908,"mart":7909,"Ġglimpse":7910,"Ġrushing":7911,"Ġpole":7912,"Ġchapel":7913,"Ġburg":7914,"Ġsigned":7915,"Ġwashed":7916,"become":7917,"try":7918,"cel":7919,"concl":7920,"Ġhastings":7921,"Ġpersuaded":7922,"Ġplatform":7923,"Ġstring":7924,"Ġdisplay":7925,"Ġdressing":7926,"Ġsymbol":7927,"Ġgifts":7928,"phan":7929,"Ġsails":7930,"Ġweapon":7931,"Ġoperation":7932,"'--":7933,"stren":7934,"Ġresistance":7935,"oughs":7936,"Ġphot":7937,"idel":7938,"Ġcriticism":7939,"Ġboast":7940,"Ġcyn":7941,"Ġpled":7942,"Ġgorge":7943,"Ġcomparison":7944,"Ġupright":7945,"Ġmourn":7946,"Ġesc":7947,"Ġald":7948,"admir":7949,"Ġlantern":7950,"alog":7951,"conv":7952,"Ġincome":7953,"Ġapple":7954,"dale":7955,"Ġclare":7956,"Ġguilt":7957,"Ġbench":7958,"wait":7959,"Ġfant":7960,"letters":7961,"ibilities":7962,"Ġell":7963,"Ġconvention":7964,"Ġmanufact":7965,"afterwards":7966,"illings":7967,"Ġbargain":7968,"Ġinward":7969,"Ġcounted":7970,"Ġlament":7971,"famil":7972,"mort":7973,"Ġdew":7974,"Ġgam":7975,"encies":7976,"Ġpha":7977,"Ġconceived":7978,"frank":7979,"Ġcomplaint":7980,"Ġdisease":7981,"Ġpp":7982,"ida":7983,"says":7984,"Ġbrute":7985,"onstr":7986,"Ġregarding":7987,"Ġ40":7988,"lk":7989,"rol":7990,"Ġafore":7991,"Ġload":7992,"Ġadmired":7993,"Ġdiver":7994,"books":7995,"heav":7996,"Ġchairs":7997,"Ġos":7998,"Ġrebell":7999,"Ġjoan":8000,"Ġmob":8001,"Ġrescue":8002,"Ġthorn":8003,"Ġseventy":8004,"Ġprodig":8005,"married":8006,"Ġpitch":8007,"Ġfest":8008,"Ġguessed":8009,"Ġforbid":8010,"Ġtram":8011,"important":8012,"Ġroot":8013,"Ġcelebrated":8014,"Ġadvancing":8015,"Ġparl":8016,"Ġspear":8017,"Ġestablishment":8018,"Ġcurtain":8019,"Ġpac":8020,"Ġhug":8021,"glad":8022,"bruary":8023,"Ġcontaining":8024,"Ġdenied":8025,"Ġdivers":8026,"Ġtreacher":8027,"Ġtribes":8028,"Ġcampaign":8029,"quarters":8030,"Ġspaniards":8031,"Ġfrown":8032,"emoiselle":8033,"Ġverses":8034,"Ġdreamed":8035,"26":8036,"omach":8037,"vir":8038,"Ġimpressed":8039,"Ġhesitation":8040,"Ġtie":8041,"Ġslavery":8042,"====":8043,"Ġton":8044,"Ġwhar":8045,"Ġchron":8046,"Ġwitch":8047,"Ġmorn":8048,"Ġinstances":8049,"immediately":8050,"sters":8051,"Ġinquiries":8052,"dream":8053,"prep":8054,"chard":8055,"Ġpuff":8056,"Ġpockets":8057,"stock":8058,"places":8059,"Ġappet":8060,"sound":8061,"inence":8062,"Ġhob":8063,"Ġdean":8064,"Ġhoney":8065,"ceiving":8066,"Ġhalted":8067,"Ġbloss":8068,"Ġalb":8069,"Ġful":8070,"laugh":8071,"Ġobedience":8072,"Ġsongs":8073,"Ġresour":8074,"Ġhearty":8075,"Ġcollection":8076,"Ġraw":8077,"Ġlincoln":8078,"Ġprey":8079,"Ġhumor":8080,"Ġshouting":8081,"oleon":8082,"Ġfootsteps":8083,"ili":8084,"Ġtrunk":8085,"Ġbrisk":8086,"Ġratt":8087,"Ġtrembled":8088,"Ġassembled":8089,"Ġnovember":8090,"Ġmun":8091,"window":8092,"pan":8093,"ridge":8094,"Ġsale":8095,"Ġlawn":8096,"Ġcoarse":8097,"Ġopposed":8098,"Ġelev":8099,"Ġintelligent":8100,"Ġpermission":8101,"Ġstopping":8102,"rise":8103,"Ġlamb":8104,"Ġschools":8105,"Ġdiscourse":8106,"imony":8107,"Ġwhither":8108,"Ġmostly":8109,"Ġpy":8110,"Ġstolen":8111,"Ġgovern":8112,"Ġwander":8113,"Ġwont":8114,"Ġpassionate":8115,"nie":8116,"Ġfloating":8117,"Ġrevealed":8118,"anks":8119,"Ġtramp":8120,"riages":8121,"conversation":8122,"Ġrepose":8123,"isible":8124,"olent":8125,"Ġchill":8126,"Ġretorted":8127,"Ġfaintly":8128,"Ġrecommend":8129,"zing":8130,"Ġlightning":8131,"Ġhorrid":8132,"Ġhideous":8133,"enote":8134,"Ġfelix":8135,"Ġneighbours":8136,"Ġpreferred":8137,"advantage":8138,"aur":8139,"Ġimpatient":8140,"scarce":8141,"sidenote":8142,"Ġlandscape":8143,"doing":8144,"Ġproceedings":8145,"Ġwarmth":8146,"strous":8147,"Ġviv":8148,"Ġsid":8149,"40":8150,"Ġcape":8151,"received":8152,"Ġrelative":8153,"getting":8154,"carried":8155,"pros":8156,"Ġgoss":8157,"entered":8158,"Ġeldest":8159,"Ġinstructions":8160,"soever":8161,"Ġva":8162,"wels":8163,"eling":8164,"berry":8165,"Ġmonk":8166,"Ġleads":8167,"Ġdwelt":8168,"Ġshaw":8169,"Ġborder":8170,"keness":8171,"Ġfunny":8172,"Ġmaintain":8173,"ody":8174,"parent":8175,"around":8176,"Ġfifth":8177,"Ġsacrific":8178,"skin":8179,"rene":8180,"alem":8181,"liter":8182,"Ġseats":8183,"oration":8184,"Ġmyst":8185,"ĠĠĠĠĠĠĠĠĠĠĠĠĠĠĠĠĠĠĠĠĠĠĠĠĠĠ":8186,"Ã¡":8187,"Ġbrood":8188,"longed":8189,"Ġbreathing":8190,"Ġwrapped":8191,"sto":8192,"story":8193,"thren":8194,"Ġjos":8195,"._]":8196,"Ġtraveller":8197,"establ":8198,"iquity":8199,"Ġfoe":8200,"bag":8201,"Ġpersec":8202,"Ġoft":8203,"Ġglim":8204,"Ġranks":8205,"Ġrespond":8206,"determ":8207,"Ġconvenient":8208,"Ġemployment":8209,"Ġpenny":8210,"Ġarise":8211,"beat":8212,"attempt":8213,"ustry":8214,"Ġartific":8215,"Ġdorothy":8216,"path":8217,"altogether":8218,"oubtedly":8219,"28":8220,"Ġade":8221,"Ġrecognised":8222,"arts":8223,"Ġsummit":8224,"Ġshaken":8225,"orrid":8226,"Ġhoarse":8227,"show":8228,"former":8229,"eye":8230,"Ġworry":8231,"instead":8232,"Ġirregular":8233,"Ġgospel":8234,"Ġcu":8235,"Ġboldly":8236,"Ġgleam":8237,"Ġbern":8238,"Ġgrows":8239,"Ġrailroad":8240,"Ġplunged":8241,"Ġchallen":8242,"ifications":8243,"Ġdaring":8244,"sex":8245,"Ġreverence":8246,"sav":8247,"Ġfaced":8248,"Ġirr":8249,"Ġproposal":8250,"Ġgasped":8251,"Ġadvantages":8252,"Ġacknowledged":8253,"Ġsatisfy":8254,"Ġsubs":8255,"Ġprepare":8256,"oa":8257,"Ġsupplied":8258,"\"_":8259,"Ġadminist":8260,"number":8261,"roy":8262,"Ġlaun":8263,"brance":8264,"Ġreform":8265,"Ġperfection":8266,"Ġassume":8267,"influ":8268,"Ġaltar":8269,"cold":8270,"Ġhaul":8271,"Ġtotal":8272,"Ġglancing":8273,"peace":8274,"Ġfounded":8275,"fert":8276,"Ġconvent":8277,"Ġattracted":8278,"Ġhasn":8279,"move":8280,"Ġkin":8281,"Ġdismay":8282,"Ġbloody":8283,"........":8284,"Ġrand":8285,"Ġexisting":8286,"notes":8287,"Ġincluding":8288,"fallen":8289,"Ġrestless":8290,"Ġprinces":8291,"ĠĠĠĠĠĠĠĠĠĠĠĠĠĠĠĠĠĠĠĠĠĠĠĠĠĠĠ":8292,"Ġjerry":8293,"Ġcotton":8294,"Ġcards":8295,"Ġenjoyment":8296,"Ġoffering":8297,"Ġfollowers":8298,"ĠĠĠĠĠĠĠĠĠĠĠĠĠĠĠĠĠĠĠĠĠĠĠĠĠĠĠĠ":8299,"Ġmoo":8300,"Ġthoughtful":8301,"north":8302,"ĠĠĠĠĠĠĠĠĠĠĠĠĠĠĠĠĠĠĠĠĠĠĠĠĠĠĠĠĠ":8303,"29":8304,"Ġseconds":8305,"rock":8306,"ulating":8307,"rooms":8308,"Ġabandon":8309,"Ġpruss":8310,"Ġlegisl":8311,"sam":8312,"Ġlass":8313,"Ġroses":8314,"Ġdepths":8315,"Ġbond":8316,"Ġpound":8317,"Ġdict":8318,"Ġseeds":8319,"Ġruins":8320,"iations":8321,"Ġpalm":8322,"Ġbelongs":8323,"recogn":8324,"Ġawakened":8325,"Ġmotives":8326,"Ġjustified":8327,"Ġhatred":8328,"Ġhandle":8329,"Ġpretended":8330,"became":8331,"Ġstores":8332,"Ġrabbit":8333,"Ġcongrat":8334,"Ġmap":8335,"Ġcomparatively":8336,"concern":8337,"Ġcommonly":8338,"Ġecc":8339,"herent":8340,"Ġvengeance":8341,"Ġstam":8342,"Ġsugar":8343,"aux":8344,"itutions":8345,"ona":8346,"nevertheless":8347,"Ġpressing":8348,"Ġneglected":8349,"distance":8350,"Ġgrain":8351,"Ġdoubted":8352,"Ġpul":8353,"Ġfurious":8354,"Ġreserve":8355,"Ġobscure":8356,"aying":8357,"Ġstub":8358,"ications":8359,"Ġcommons":8360,"Ġmethods":8361,"Ġvest":8362,"Ġindividuals":8363,"ribute":8364,"Ġwasted":8365,"Ġembr":8366,"Ġfolded":8367,"Ġyielded":8368,"Ġparticulars":8369,"oral":8370,"Ġpush":8371,"Ġsaving":8372,"Ġindicated":8373,"Ġassurance":8374,"Ġ189":8375,"Ġjews":8376,"tur":8377,"Ġmexic":8378,"Ġdesires":8379,"Ġinduce":8380,"Ġproceeding":8381,"Ġconducted":8382,"Ġsailing":8383,",--\"":8384,"silence":8385,"Ġhunger":8386,"Ġindifference":8387,"apan":8388,"rington":8389,"consist":8390,"cre":8391,"Ġslender":8392,"Ġpractically":8393,"Ġlecture":8394,"ictions":8395,"Ġexagger":8396,"civil":8397,"Ġdriver":8398,"shop":8399,"Ġillness":8400,"Ġowned":8401,"Ġdeserve":8402,"Ġsubmit":8403,"apparent":8404,"enses":8405,"chers":8406,"agle":8407,"Ġcritical":8408,"Ġhappily":8409,"Ġshrew":8410,"Ġdrowned":8411,"struck":8412,"pock":8413,"Ġ$":8414,"Ġunjust":8415,"unken":8416,"teenth":8417,"uthors":8418,"Ġperformance":8419,"poet":8420,"gal":8421,"Ġchannel":8422,"Ġink":8423,"Ġrein":8424,"Ġcanvas":8425,"Ġentitled":8426,"Ġtorment":8427,"retion":8428,"Ġemotions":8429,"Ġfinest":8430,"Ġupward":8431,"Ġapost":8432,"Ġattempts":8433,"Ġlip":8434,"oster":8435,"Ġrefr":8436,"grown":8437,"Ġrash":8438,"ama":8439,"Ġconfession":8440,"Ġparadise":8441,"expression":8442,"Ġdad":8443,"seems":8444,"Ġmutual":8445,"Ġswords":8446,"Ġvener":8447,"Ġchecked":8448,"straight":8449,"Ġtables":8450,"Ġawoke":8451,"pest":8452,"Ġjohnson":8453,"Ġincreasing":8454,"Ġthrong":8455,"Ġresign":8456,"sister":8457,"sin":8458,"Ġmotionless":8459,"Ġrh":8460,"Ġthankful":8461,"Ġextravag":8462,"wish":8463,"Ġdifferences":8464,"Ġbone":8465,"ieu":8466,"Ġmurdered":8467,"cend":8468,"pow":8469,"avement":8470,"Ġmanuscript":8471,"gro":8472,"icholas":8473,"Ġ----":8474,"Ġpreparations":8475,"isms":8476,"river":8477,"Ġrarely":8478,"isn":8479,"Ġtip":8480,"aning":8481,"Ġspared":8482,"hung":8483,"opened":8484,"nobody":8485,"Ġvisits":8486,"Ġwoe":8487,"Ġbrick":8488,"express":8489,"Ġoverwhel":8490,"Ġbutler":8491,"Ġmichael":8492,"Ġmonday":8493,"Ġsullen":8494,"dled":8495,"Ġgenerations":8496,"Ġcant":8497,"Ġthief":8498,"Ġcoloured":8499,"Ġmadness":8500,"Ġparson":8501,"Ġplains":8502,"Ġpainter":8503,"Ġincap":8504,"Ġfence":8505,"Ġconvey":8506,"page":8507,"Ġsurv":8508,"Ġrocky":8509,"Ġtriumphant":8510,"vern":8511,"Ġtravelled":8512,"Ġprair":8513,"crit":8514,"Ġjeff":8515,"Ġmaintained":8516,"Ġwarriors":8517,"eur":8518,"Ġissued":8519,"Ġvarieties":8520,"Ġpainting":8521,"Ġvillages":8522,"pleased":8523,"ography":8524,"understood":8525,"Ġstaying":8526,"Ġselected":8527,"following":8528,"Ġinjury":8529,"pence":8530,"Ġpersuade":8531,"inge":8532,"ĠĠĠĠĠĠĠĠĠĠĠĠĠĠĠ":8533,"Ġlovers":8534,"Ġinvisible":8535,"Ġgerald":8536,"Ġholiday":8537,"cry":8538,"attention":8539,"Ġbelieving":8540,"twas":8541,"Ġsteal":8542,"Ġhud":8543,"iast":8544,"Ġmol":8545,"Ġfragments":8546,"late":8547,"Ġhomes":8548,"fool":8549,"Ġwink":8550,"ria":8551,"Ġsiege":8552,"Ġfoundation":8553,"Ġstudent":8554,"obl":8555,"Ġlug":8556,"Ġhans":8557,"fal":8558,"nearly":8559,"Ġhyp":8560,"Ġcigaret":8561,"Ġtrim":8562,"Ġanswers":8563,"zes":8564,"Ġdislike":8565,"Ġrussian":8566,"kept":8567,"service":8568,"Ġsummoned":8569,"azed":8570,"Ġmurde":8571,"Ġmail":8572,"Ġministers":8573,"Ġphilosoph":8574,"Ġcure":8575,"Ġbelt":8576,"Ġraven":8577,"gue":8578,"Ġapply":8579,"Ġsixteen":8580,"speaking":8581,"Ġcorps":8582,"Ġpreparing":8583,"Ġchristians":8584,"Ġvolumes":8585,"mac":8586,"sis":8587,"Ġviolently":8588,"gil":8589,"Ġmagist":8590,"Ġamericans":8591,"vived":8592,"gentlemen":8593,"Ġchildhood":8594,"lab":8595,"Ġdiffer":8596,"stop":8597,"Ġcathedral":8598,"Ġviii":8599,"Ġbutt":8600,"eches":8601,"Ġappropri":8602,"Ġoccupation":8603,"racted":8604,"Ġchimney":8605,"ois":8606,"Ġtravellers":8607,"fashioned":8608,"udge":8609,"Ġvon":8610,"ferred":8611,"!_":8612,"organ":8613,"Ġrebe":8614,"Ġskirt":8615,"cheon":8616,"lead":8617,"Ġcontact":8618,"offin":8619,"Ġpronounced":8620,"exactly":8621,"Ġschooner":8622,"Ġbells":8623,"christian":8624,"Ġaught":8625,"Ġaustr":8626,"Ġthereby":8627,"Ġsinking":8628,"Ġherbert":8629,"Ġdat":8630,"Ġpresents":8631,"Ġtrap":8632,"Ġbald":8633,"paper":8634,"isle":8635,"Ġendless":8636,"purpose":8637,"Ġmeek":8638,"Ġconstru":8639,"extra":8640,"Ġtheirs":8641,"Ġcertainty":8642,"early":8643,"Ġdame":8644,"doctor":8645,"Ġimpart":8646,"Ġashes":8647,"Ġisa":8648,"aration":8649,"Ġtempted":8650,"ational":8651,"Ġretain":8652,"Ġstret":8653,"nant":8654,"appre":8655,"ym":8656,"inv":8657,"iano":8658,"Ġpresume":8659,"Ġlimits":8660,"ustrious":8661,"Ġpromptly":8662,"Ġvaried":8663,"Ġyourselves":8664,"Ġshores":8665,"uttered":8666,"Ġinvolved":8667,"ilised":8668,"Ġformal":8669,"Ġgarments":8670,"Ġintroduction":8671,"Ġpositively":8672,"condition":8673,"Ġdrops":8674,"Ġoperations":8675,"Ġselect":8676,"Ġcrimson":8677,"Ġstudies":8678,"ixture":8679,"Ġwax":8680,"Ġarrested":8681,"Ġlonging":8682,"Ġexpecting":8683,"Ġcompare":8684,"ungle":8685,"Ġgladstone":8686,"Ġtumult":8687,"Ġpleasures":8688,"Ġspeaker":8689,"Ġderived":8690,"mounted":8691,"olence":8692,"Ġaboard":8693,"Ġshalt":8694,"Ġlessons":8695,"big":8696,"Ġcontinent":8697,"Ġpicturesque":8698,"Ġterrit":8699,"Ġwagon":8700,"advent":8701,"cott":8702,"laid":8703,"Ġseal":8704,"Ġactivity":8705,"Ġbapt":8706,"awn":8707,"hole":8708,"Ġclung":8709,"Ġrecently":8710,"Ġengage":8711,"Ġnaught":8712,"cop":8713,"Ġclust":8714,"Ġblown":8715,"Ġyea":8716,"Ġrod":8717,"sail":8718,"Ġape":8719,"Ġcorrespondence":8720,"direct":8721,"Ġstately":8722,"unte":8723,"Ġassembly":8724,"sufficient":8725,"Ġbars":8726,"entire":8727,"ieves":8728,"Ġdisagreeable":8729,"Ġglasses":8730,"orial":8731,"apsed":8732,"cipit":8733,"Ġwip":8734,"Ġuncommon":8735,"Ġsolemnly":8736,"cloth":8737,"Ġpersist":8738,"ggy":8739,"Ġnigh":8740,"mended":8741,"Ġinjured":8742,"Ġenvy":8743,"Ġdescent":8744,"Ġforming":8745,"mers":8746,"Ġpeaceful":8747,"Ġpilgrim":8748,"Ġ35":8749,"Ġrises":8750,"Ġwheels":8751,"Ġrighteousness":8752,"dan":8753,"Ġkent":8754,"Ġstretch":8755,"gory":8756,"pie":8757,"Ġtranqu":8758,"Ġlargely":8759,"Ġpeasant":8760,"Ġremorse":8761,"living":8762,"Ġassault":8763,"Ġresponsibility":8764,"Ġregions":8765,"Ġfourteen":8766,"Ġfortunes":8767,"Ġsets":8768,"Ġbonnet":8769,"Ġbart":8770,"Ġhastened":8771,"Ġroots":8772,"loc":8773,"inda":8774,"Ġblowing":8775,"Ġdeceived":8776,"Ġflames":8777,"Ġremove":8778,"conduct":8779,"pool":8780,"introdu":8781,"shore":8782,"Ġjanuary":8783,"horses":8784,"Ġwaving":8785,"Ġrealize":8786,"Ġchurches":8787,"Ġheroic":8788,"Ġpeep":8789,"Ġtraining":8790,"Ġgravity":8791,"Ġlodge":8792,"Ġcopper":8793,"bable":8794,"hardly":8795,"resp":8796,"Ġtrades":8797,"apart":8798,"icket":8799,"Ġprocession":8800,"Ġblanc":8801,"enery":8802,"combe":8803,"Ġchanging":8804,"Ġhistorical":8805,"Ġdropping":8806,"esar":8807,"Ġjohnny":8808,"Ġspectacle":8809,"Ġdishon":8810,"american":8811,"Ġarrow":8812,"Ġdecember":8813,"Ġfountain":8814,"cro":8815,"slight":8816,"Ġmedicine":8817,"'\"":8818,"Ġprivilege":8819,"Ġquaint":8820,"dued":8821,"Ġanswering":8822,"bby":8823,"rus":8824,"ini":8825,"Ġms":8826,"olph":8827,"brows":8828,"Ġamazement":8829,"Ġfid":8830,"Ġopenly":8831,"Ġ21":8832,"Ġhealthy":8833,"sweet":8834,"brit":8835,"imately":8836,"Ġparallel":8837,"Ġabbey":8838,"Ġladyship":8839,"Ġdefeat":8840,"Ġweep":8841,"Ġstomach":8842,"Ġteleg":8843,"Ġrobin":8844,"Ġerect":8845,"symp":8846,"Ġpoo":8847,"Ġharbour":8848,"Ġrecollection":8849,"Ġlend":8850,"Ġsurrender":8851,"Ġarguments":8852,"Ġfitz":8853,"mun":8854,"Ġromans":8855,"Ġuniversity":8856,"james":8857,"ighted":8858,"Ġsaxon":8859,"Ġplum":8860,"Ġplac":8861,"Ġappar":8862,"Ġindis":8863,"trouble":8864,"kers":8865,"whis":8866,"Ġwarrant":8867,"Ġleaders":8868,"Ġflora":8869,"Ġdouglas":8870,"Ġstreams":8871,"forgot":8872,"Ġhenri":8873,"vict":8874,"Ġdisplayed":8875,"dess":8876,"Ġdiscipline":8877,"Ġmason":8878,"Ġamusing":8879,"Ġneedn":8880,"according":8881,"uated":8882,"throp":8883,"Ġeustace":8884,"Ġnewspapers":8885,"Ġpercy":8886,"Ġmustn":8887,"sitting":8888,"Ġinex":8889,"ousers":8890,"Ġimperial":8891,"inated":8892,"aned":8893,"Ġbend":8894,"ensions":8895,"Ġaccess":8896,"idable":8897,"usalem":8898,"Ġnet":8899,"Ġreception":8900,"inine":8901,"Ġcruelty":8902,"iary":8903,"Ġoffices":8904,"Ġprophet":8905,"satisfied":8906,"Ġjealousy":8907,"Ġbrains":8908,"Ġthoughtfully":8909,"Ġmissing":8910,"Ġinspired":8911,"Ġelbow":8912,"Ġcorners":8913,"Ġsentiments":8914,"Ġinevitable":8915,"bull":8916,"fan":8917,"Ġtore":8918,"Ġincluded":8919,"Ġfaults":8920,"Ġflock":8921,"Ġconsisted":8922,"Ġamiable":8923,"Ġfools":8924,"Ġpersonally":8925,"Ġdreary":8926,"Ġweeping":8927,"Ġpurchase":8928,"ordered":8929,"Ġdeaf":8930,"ulus":8931,"Ġrays":8932,"Ġrightly":8933,"Ġsketch":8934,"ppers":8935,"Ġpulling":8936,"Ġstruggled":8937,"experience":8938,"Ġswore":8939,"22":8940,"Ġlasted":8941,"Ġtarzan":8942,"Ġintercourse":8943,"Ġjudged":8944,"Ġrecalled":8945,"perfectly":8946,"jim":8947,"Ġthet":8948,"Ġgladly":8949,"Ġresponsible":8950,"Ġyouthful":8951,"Ġcos":8952,"Ġgoth":8953,"send":8954,"illes":8955,"Ġsteward":8956,"Ġstatue":8957,"Ġfeathers":8958,"keys":8959,"Ġsever":8960,"Ġexal":8961,"Ġbackward":8962,"Ġchanced":8963,"excl":8964,"Ġmedical":8965,"Ġawhile":8966,"Ġmodel":8967,"Ġregards":8968,"Ġcreation":8969,"Ġcapture":8970,"Ġphenomena":8971,"noble":8972,"Ġadvise":8973,"Ġtap":8974,"remem":8975,"urious":8976,"turning":8977,"Ġbullet":8978,"Ġoars":8979,"Ġtool":8980,"Ġconj":8981,"!âĢĿ":8982,"Ġsher":8983,"Ġbrethren":8984,"saying":8985,"Ġmansion":8986,"Ġlic":8987,"Ġwhip":8988,"Ġprose":8989,"orter":8990,"Ġwillingly":8991,"forced":8992,"oting":8993,"Ġfrankly":8994,"Ġdangers":8995,"Ġey":8996,"Ġedinburgh":8997,"Ġdepartment":8998,"Ġcliffs":8999,"aus":9000,"isa":9001,"Ġseize":9002,"Ġcomplain":9003,"Ġfiercely":9004,"Ġtemptation":9005,"Ġwherefore":9006,"Ġeffic":9007,"dinner":9008,"Ġclosing":9009,"Ġperpetual":9010,"opport":9011,"dal":9012,"Ġboot":9013,"Ġflies":9014,"ffe":9015,"Ġprovin":9016,"Ġafforded":9017,"figure":9018,"mess":9019,"Ġvote":9020,"tim":9021,"Ġborr":9022,"Ġdiscern":9023,"Ġsatisfactory":9024,"Ġsaith":9025,"Ġdrama":9026,"uzz":9027,"Ġaged":9028,"Ġcharlie":9029,"Ġoriginally":9030,"Ġstrictly":9031,"Ġpony":9032,"ĠÂ£":9033,"Ġlem":9034,"Ġscottish":9035,"Ġpreviously":9036,"Ġwept":9037,"fred":9038,"Ġsho":9039,"Ġsupposing":9040,"Ġpursue":9041,"Ġentertained":9042,"Ġconquered":9043,"Ġshillings":9044,"Ġskull":9045,"publ":9046,"Ġearn":9047,"phant":9048,"lit":9049,"Ġ33":9050,"Ġstable":9051,"incre":9052,"Ġaccum":9053,"Ġsuitable":9054,"Ġavenue":9055,";'":9056,"Ġmonstrous":9057,"Ġarmies":9058,"Ġwounds":9059,"Ġdash":9060,"inese":9061,"Ġcrook":9062,"Ġacknowledge":9063,"east":9064,"Ġcove":9065,"iate":9066,"cker":9067,"Ġmetal":9068,"Ġladder":9069,"Ġlud":9070,"Ġhasty":9071,"uing":9072,"Ġelection":9073,"nold":9074,"reement":9075,"Ġlowered":9076,"Ġcabinet":9077,"fine":9078,"Ġhardy":9079,"major":9080,"Ġindustry":9081,"anded":9082,"Ġloaded":9083,"Ġscant":9084,"Ġvicar":9085,"inery":9086,"Ġcollar":9087,"Ġvillain":9088,"Ġfiery":9089,"gus":9090,"assad":9091,"Ġauthors":9092,"Ġguardian":9093,"stein":9094,"Ġapplication":9095,"Ġdeserved":9096,"iser":9097,"accept":9098,"Ġhearth":9099,"Ġfuneral":9100,"Ġabsorbed":9101,"cia":9102,"Ġaxe":9103,"Ġtreaty":9104,"Ġinfantry":9105,"observed":9106,"Ġ50":9107,"meant":9108,"Ġdispute":9109,"Ġauthorities":9110,"educ":9111,"Ġvary":9112,"Ġpic":9113,"Ġwheat":9114,"Ġnotions":9115,"hil":9116,"lantic":9117,"Ãł":9118,"adel":9119,"inder":9120,"Ġcolumb":9121,"Ġearthly":9122,"Ġinval":9123,"Ġupset":9124,"Ġconspic":9125,"ordon":9126,"reshold":9127,"Ġcreed":9128,"Ġnobles":9129,"Ġrespecting":9130,"Ġcandid":9131,"Ġwholes":9132,"Ġpreserve":9133,"Ġpour":9134,"Ġconflict":9135,"reading":9136,"Ġsurprising":9137,"yled":9138,"Ġ100":9139,"izes":9140,"Ġelabor":9141,"vial":9142,"wanted":9143,"Ġsuited":9144,"agues":9145,"Ġsmiles":9146,"llo":9147,"atus":9148,"Ġstare":9149,"bi":9150,"Ġfemales":9151,"Ġinsects":9152,"gence":9153,"moved":9154,"gered":9155,"Ġcontain":9156,"hable":9157,"Ġample":9158,"fling":9159,"content":9160,"Ġresemblance":9161,"Ġimpatience":9162,"added":9163,"Ġlikeness":9164,"Ġwishing":9165,"faces":9166,"ituted":9167,"Ġfug":9168,"aire":9169,"Ġinherit":9170,"Ġdiscussed":9171,"Ġmaterials":9172,"Ġ`":9173,"Ġtha":9174,"umns":9175,"Ġspoil":9176,"Ġdraught":9177,"cloud":9178,"sels":9179,"fra":9180,"main":9181,"Ġix":9182,"Ġvigorous":9183,"listen":9184,"alo":9185,"interested":9186,"lotte":9187,"Ġteam":9188,"Ġartillery":9189,"Ġmemories":9190,"riff":9191,"works":9192,"hours":9193,"tender":9194,"Ġflor":9195,"Ġvirginia":9196,"Ġprovince":9197,"Ġupwards":9198,"considerable":9199,"Ġwol":9200,"Ġoz":9201,"Ġjudges":9202,"asants":9203,"garden":9204,"icism":9205,"usal":9206,"45":9207,"Ġwoo":9208,"star":9209,"Ġsnap":9210,"voy":9211,"antial":9212,"Ġobserving":9213,"Ġprayed":9214,"search":9215,"Ġvine":9216,"Ġproduction":9217,"minster":9218,"Ġdetermination":9219,"Ġdistinguish":9220,"Ġtune":9221,"Ġflu":9222,"Ġparlour":9223,"winter":9224,"Ġterrace":9225,"Ġgraham":9226,"Ġastr":9227,"Ġpurse":9228,"Ġsanct":9229,"Ġcreek":9230,"Ġcongress":9231,"Ġbron":9232,"Ġcontract":9233,"Ġbutton":9234,"Ġloudly":9235,"pin":9236,"org":9237,"Ġdeclined":9238,"Ġjewels":9239,"Ġbills":9240,"Ġremo":9241,"Ġroared":9242,"Ġtidings":9243,"Ġding":9244,"employ":9245,"portion":9246,"fat":9247,"Ġextend":9248,"Ġunwilling":9249,"Ġwherein":9250,"Ġrenewed":9251,"';":9252,"Ġhighness":9253,"Ġgeoffrey":9254,"Ġimproved":9255,"Ġinnocence":9256,"pun":9257,"Ġthanked":9258,"Ġwilson":9259,"Ġeveryone":9260,"comb":9261,"Ġcheerfully":9262,"Ġmanly":9263,"Ġwithdrew":9264,"haired":9265,"Ġkilling":9266,"hig":9267,"mighty":9268,"Ġerrand":9269,"birds":9270,"Ġcens":9271,"Ġtrained":9272,"Ġwildly":9273,"Ġcombat":9274,"fly":9275,"shar":9276,"Ġdanced":9277,"Ġimmortal":9278,"Ġsalvation":9279,"Ġcatching":9280,"Ġjulia":9281,"Ġhaunted":9282,"Ġhoping":9283,"Ġeducated":9284,"liked":9285,"Ġchiefs":9286,"oust":9287,"Ġomn":9288,"gins":9289,"Ġtrop":9290,"Ġmorris":9291,"Ġtyr":9292,"Ġcourtesy":9293,"Ġendeavoured":9294,"philosop":9295,"Ġdefect":9296,"Ġbreed":9297,"erity":9298,"athy":9299,"Ġcarpet":9300,"Ġsmallest":9301,"gic":9302,"Ġcouch":9303,"etta":9304,"Ġcondemned":9305,"Ġtops":9306,"Ġninet":9307,"Ġcic":9308,"Ġdense":9309,"lived":9310,"fron":9311,"Ġprosperity":9312,"icians":9313,"Ġlent":9314,"Ġcreep":9315,"Ġvenet":9316,"ients":9317,"anne":9318,"finished":9319,"Ġportug":9320,"Ġpoliceman":9321,"Ġcomposition":9322,"Ġragged":9323,"Ġ36":9324,"gery":9325,"Ġgrove":9326,"Ġhalt":9327,"Ġjapan":9328,"Ġverd":9329,"soft":9330,"Ġpious":9331,"Ġsack":9332,"compar":9333,"Ġestim":9334,"slowly":9335,"rust":9336,"Ġlowest":9337,"oofs":9338,"Ġlang":9339,"Ġcontrived":9340,"Ġmanager":9341,"Ġscout":9342,"21":9343,"Ġendeavour":9344,"ciation":9345,"Ġaccused":9346,"keeping":9347,"wes":9348,"pier":9349,"Ġpatch":9350,"Ġlink":9351,"Ġexult":9352,"oebe":9353,"Ġcharley":9354,"Ġeighty":9355,"stream":9356,"Ġclasped":9357,"Ġstim":9358,"wixt":9359,"Ġoffended":9360,"Ġmagazine":9361,"Ġwoke":9362,"Ġdined":9363,"Ġmack":9364,"Ġdod":9365,"Ġadvised":9366,"Ġseeming":9367,"Ġadvoc":9368,"Ġalfred":9369,"Ġspy":9370,"Ġwhistle":9371,"Ġdried":9372,"actions":9373,"thoughts":9374,"aved":9375,"icles":9376,"nine":9377,"thirty":9378,"aude":9379,"trust":9380,"Ġfrozen":9381,"oops":9382,"later":9383,"reve":9384,"Ġpear":9385,"Ġjanet":9386,"Ġpas":9387,"Ġsecrets":9388,"Ġalexander":9389,"langu":9390,"acre":9391,"Ġencouraged":9392,"_.\"":9393,"Ġost":9394,"Ġgulf":9395,"Ġaffl":9396,"spoken":9397,"mic":9398,"Ġwiser":9399,"Ġmales":9400,"Ġdownstairs":9401,"Ġbrows":9402,"Ġfiction":9403,"Ġsul":9404,"Ġfavourable":9405,"Ġgap":9406,"utor":9407,"Ġdeemed":9408,"possession":9409,"Ġwire":9410,"Ġhaught":9411,"Ġreturns":9412,"Ġsurrounding":9413,"Ġwits":9414,"Ġbacks":9415,"Ġpropriet":9416,"Ġbewildered":9417,"Ġfiring":9418,"ills":9419,"Ġlonged":9420,"Ġcrushed":9421,"erick":9422,"pul":9423,"sou":9424,"reached":9425,"Ġhired":9426,"aternal":9427,"Ġpurely":9428,"Ġbending":9429,"Ġperf":9430,"Ġearliest":9431,"Ġfortunately":9432,"Ġbax":9433,"Ġisrael":9434,"Ġbitterness":9435,"Ġhood":9436,"Ġperse":9437,"chamber":9438,"Ġluxury":9439,"Ġheroes":9440,"Ġdisguise":9441,"Ġconsiderably":9442,"Ġappetite":9443,"Ġmarian":9444,"pole":9445,"Ġcivilization":9446,"Ġpermanent":9447,"Ġinfinitely":9448,"Ġelderly":9449,"san":9450,"Ġnapoleon":9451,"Ġscent":9452,"Ġsnake":9453,"Ġlimit":9454,"Ġgossip":9455,"Ġchildish":9456,"Ġsunlight":9457,"Ġsimpl":9458,"eh":9459,"Ġsection":9460,"Ġfruits":9461,"depart":9462,"Ġtemporary":9463,"Ġprofessional":9464,"Ġaffections":9465,"Ġarrows":9466,"rod":9467,"Ġadding":9468,"Ġbreathed":9469,"Ġseverely":9470,"Ġolive":9471,"Ġspeedily":9472,"Ġobservations":9473,"Ġprevailed":9474,"Ġhog":9475,"length":9476,"emb":9477,"Ġglowing":9478,"happened":9479,"Ġtast":9480,"Ġwarrior":9481,"Ġadorn":9482,"Ġspecially":9483,"beginning":9484,"Ġcourts":9485,"stro":9486,"borne":9487,"Ġencounter":9488,"Ġhappier":9489,"asping":9490,"nin":9491,"Ġplanted":9492,"Ġtestimony":9493,"Ġreadiness":9494,"via":9495,"entially":9496,"Ġdesirable":9497,"orts":9498,"Ġbundle":9499,"health":9500,"igate":9501,"Ġinspir":9502,"inkled":9503,"Ġannounce":9504,"Ġchristianity":9505,"Ġisle":9506,"Ġwretch":9507,"Ġblast":9508,"anging":9509,"Ġtalent":9510,"Ġchambers":9511,"Ġthor":9512,"uting":9513,"Ġbarr":9514,"meanwhile":9515,"generally":9516,"safe":9517,"Ġshine":9518,"Ã¢":9519,"Ġsexes":9520,"ules":9521,"Ġmeasured":9522,"Ġphotograph":9523,"Ġjustly":9524,"Ġbreathe":9525,"strength":9526,"Ġfebruary":9527,"somewhat":9528,"Ġtam":9529,"passion":9530,"Ġcub":9531,"Ġjen":9532,"Ġblunt":9533,"Ġconject":9534,"Ġobviously":9535,"buck":9536,"onies":9537,"Ġgreeted":9538,"respons":9539,"filled":9540,"handed":9541,"Ġjungle":9542,"Ġharder":9543,"Ġmerits":9544,"Ġprett":9545,"leaving":9546,"yours":9547,"Ġtowers":9548,"Ġangle":9549,"Ġavoided":9550,"Ġoutline":9551,"acht":9552,"wrong":9553,"Ġwhale":9554,"Ġrelax":9555,"Ġdost":9556,"soul":9557,"Ġdissol":9558,"Ġprotested":9559,"Ġsear":9560,"Ġembrace":9561,"Ġmirror":9562,"folk":9563,"meaning":9564,"Ġphilosopher":9565,"ai":9566,"countered":9567,"occupied":9568,"Ġforests":9569,"Ġetern":9570,"Ġnowhere":9571,"clothes":9572,"mered":9573,"Ġspin":9574,"Ġundoubtedly":9575,"longer":9576,"Ġorange":9577,"Ġchival":9578,"Ġterribly":9579,"Ġnicholas":9580,"favour":9581,"lings":9582,"Ġanaly":9583,"Ġconsented":9584,"Ġlarry":9585,"guish":9586,"Ġrecognize":9587,"Ġcultivated":9588,"erving":9589,"Ġbou":9590,"ione":9591,"Ġasks":9592,"Ġwordsworth":9593,"Ġshouts":9594,"ping":9595,"Ġunc":9596,"south":9597,"Ġglittering":9598,"Ġmonot":9599,"remained":9600,"Ġmarvell":9601,"Ġaddressing":9602,"ware":9603,"Ġveins":9604,"cock":9605,"Ġinconven":9606,"Ġcontains":9607,"Ġbriefly":9608,"Ġbaggage":9609,"aneously":9610,"minutes":9611,"Ġconclude":9612,"Ġpreacher":9613,"Ġwinding":9614,"Ġterr":9615,"Ġdickens":9616,"Ġhaunt":9617,"iforn":9618,"Ġliver":9619,"blest":9620,"ceptible":9621,"couldn":9622,"Ġmc":9623,"Ġpend":9624,"william":9625,"Ġtransport":9626,"Ġscandal":9627,"Ġsorr":9628,"olved":9629,"Ġblaze":9630,"Ġfriday":9631,"Ġjustify":9632,"cler":9633,"excell":9634,"Ġconcent":9635,"Ġlouise":9636,"Ġreports":9637,"wouldn":9638,"Ġturk":9639,"],":9640,"Ġconveyed":9641,"bab":9642,"Ġmend":9643,"Ġemphas":9644,"Ġlodgings":9645,"Ġbour":9646,"Ġguarded":9647,"unities":9648,"pra":9649,"Ġambit":9650,"Ġintoler":9651,"mate":9652,"Ġporch":9653,"everybody":9654,"Ġsermon":9655,"Ġsternly":9656,"Ġwaiter":9657,"fn":9658,"atha":9659,"Ġweigh":9660,"honour":9661,"Ġbrandy":9662,"Ġvap":9663,"idea":9664,"opinion":9665,"society":9666,"presence":9667,"Ġgab":9668,"Ġcommence":9669,"Ġleonard":9670,"Ġfab":9671,"Ġpleasing":9672,"Ġholes":9673,"harry":9674,"Ġtimber":9675,"aired":9676,"Ġdelicious":9677,"allow":9678,"plom":9679,"sidered":9680,"Ġlyd":9681,"direction":9682,"Ġpag":9683,"Ġnewly":9684,"Ġamazed":9685,"Ġescort":9686,"Ġmonster":9687,"Ġheavenly":9688,"satisfaction":9689,"moon":9690,"uk":9691,"interesting":9692,"Ġdale":9693,"queen":9694,"Ġvital":9695,"Ġfeature":9696,"afraid":9697,"Ġexpectation":9698,"happiness":9699,"Ġmiracle":9700,"familiar":9701,"obt":9702,"ocation":9703,"Ġdesolate":9704,"Ġconspir":9705,"Ġshudder":9706,"Ġbeggar":9707,"Ġvolunte":9708,"Ġinnum":9709,"Ġlinen":9710,"Ġfern":9711,"Ġdoom":9712,"Ġmademoiselle":9713,"Ġmusical":9714,"Ġcrisis":9715,"35":9716,"press":9717,"sad":9718,"alas":9719,"Ġintentions":9720,"Ġtwisted":9721,"Ġagitation":9722,"Ġsheer":9723,"Ġcompassion":9724,"Ġjury":9725,"Ġprobability":9726,"Ġtrousers":9727,"fford":9728,"Ġshrewd":9729,"Ġattain":9730,"passing":9731,"Ġsticks":9732,"burst":9733,"waiting":9734,"reasonable":9735,"Ġpoly":9736,"desp":9737,"Ġexists":9738,"Ġyell":9739,"Ġowen":9740,"ctic":9741,"Ġbetty":9742,"Ġmiller":9743,"Ġimprovement":9744,"Ġdazz":9745,"Ġsatan":9746,"aware":9747,"Ġlifting":9748,"Ġadopt":9749,"myster":9750,"drawing":9751,"Ġbred":9752,"Ġburns":9753,"Ġimpatiently":9754,"Ġpsy":9755,"yers":9756,"enjoy":9757,"imer":9758,"Ġstirring":9759,"urbed":9760,"heads":9761,"Ġpacked":9762,"Ġamidst":9763,"dinand":9764,"thew":9765,"Ġfaster":9766,"Ġsubdued":9767,"ĠĠĠĠĠĠĠĠĠĠĠĠĠĠĠĠĠĠĠĠĠĠĠĠĠĠĠĠĠĠ":9768,"lasting":9769,"Ġpreceding":9770,"sleep":9771,"Ġshaft":9772,"dress":9773,"alia":9774,"Ġadditional":9775,"lia":9776,"inating":9777,"ĠĠčĊ":9778,"scene":9779,"Ġsprings":9780,"pay":9781,"Ġpines":9782,"Ġhart":9783,"Ġhorns":9784,"Ġimprison":9785,"Ġinnumerable":9786,"sen":9787,"Ġpromises":9788,"poral":9789,"Ġlots":9790,"Ġdelicacy":9791,"xter":9792,"inton":9793,"Ġcriminal":9794,"gments":9795,"Ġcash":9796,"Ġthereof":9797,"affection":9798,"Ġprairie":9799,"Ġshallow":9800,"Ġcoldly":9801,"Ġarchitecture":9802,"_.--":9803,"ernal":9804,"outside":9805,"cile":9806,"Ġtermin":9807,"Ġdemands":9808,"empl":9809,"Ġwidely":9810,"Ġdestiny":9811,"Ġunworthy":9812,"Ġmarvel":9813,"Ġez":9814,"Ġserene":9815,"Ġalan":9816,"Ġability":9817,"asso":9818,"phys":9819,"Ġawfully":9820,"Ġpenn":9821,"Ġsensitive":9822,"Ġras":9823,"Ġassented":9824,"Ġdismal":9825,"Ġsearching":9826,"Ġbodily":9827,"36":9828,"ripp":9829,"considered":9830,"Ġarmour":9831,"Ġcarl":9832,"Ġ37":9833,"dor":9834,"Ġundertake":9835,"Ġrecognition":9836,"Ġaccommod":9837,"Ġoccupy":9838,"Ġdirt":9839,"Ġfavorite":9840,"pens":9841,"vertis":9842,"pha":9843,"unks":9844,"Ġshocked":9845,"Ġnois":9846,"Ġhereafter":9847,"Ġdares":9848,"Ġprecaut":9849,"inement":9850,"Ġdramatic":9851,"Ġroaring":9852,"Ġtomorrow":9853,"Ġcustoms":9854,"Ġshepherd":9855,"cab":9856,"Ġunfortunately":9857,"urable":9858,"cular":9859,"rum":9860,"Ġmyth":9861,"Ġmilton":9862,"Ġechoed":9863,"hastly":9864,"scarcely":9865,"greek":9866,"Ġaren":9867,"neath":9868,"Ġment":9869,"Ġappointment":9870,"Ġscenery":9871,"ios":9872,"Ġprovision":9873,"Ġremembrance":9874,"Ġprovide":9875,"Ġrequires":9876,"save":9877,"Ġsteven":9878,"Ġenglishmen":9879,"Ġunseen":9880,"Ġperish":9881,"equal":9882,"Ġjuan":9883,"Ġdismissed":9884,"Ġhet":9885,"Ġexternal":9886,"Ġremainder":9887,"Ġfoam":9888,"horn":9889,"Ġsurgeon":9890,"boats":9891,"Ġfrontier":9892,"Ġpierre":9893,"Ġtact":9894,"Ġflee":9895,"Ġmit":9896,"neys":9897,"Ġwonderfully":9898,"Ġnovels":9899,"Ġvacant":9900,"icating":9901,"marriage":9902,"Ġsupplies":9903,"mass":9904,"Ġmarie":9905,"Ġdru":9906,"Ġreserved":9907,"Ġcostume":9908,"Ġced":9909,"Ġdamned":9910,"Ġmothers":9911,"Ġformidable":9912,"miles":9913,"Ġremonstr":9914,"Ġsyl":9915,"Ġrobbed":9916,"Ġcharms":9917,"Ġrobes":9918,"Ġsublime":9919,"Ġmanagement":9920,"dened":9921,"Ġneighborhood":9922,"Ġ=":9923,"quer":9924,"Ġassisted":9925,"Ġprotestant":9926,"Ġmaud":9927,"Ġfie":9928,"Ġsomeone":9929,"Ġcovering":9930,"Ġimagin":9931,"Ġshrill":9932,"Ġcorrid":9933,"Ġgrasped":9934,"Ġtread":9935,"Ġfloated":9936,"Ġchinese":9937,"Ġvelvet":9938,"Ġec":9939,"agu":9940,"Ġtravers":9941,"nib":9942,"uttering":9943,"Ġcommands":9944,"Ġcolumns":9945,"companion":9946,"Ġbits":9947,"Ġflush":9948,"Ġhelping":9949,"Ġcombined":9950,"Ġbehaved":9951,"Ġlegend":9952,"tingu":9953,"Ġblush":9954,"agers":9955,"Ġcursed":9956,"Ġ38":9957,"lam":9958,"tor":9959,"asty":9960,"Ġeagle":9961,"henry":9962,"Ġsire":9963,"onse":9964,"Ġgreatness":9965,"Ġdilig":9966,"Ġelegant":9967,"Ġpavement":9968,"Ġnerve":9969,"Ġimpressions":9970,"sick":9971,"smo":9972,"warf":9973,"hetic":9974,"lton":9975,"Ġconfirmed":9976,"Ġdealt":9977,"Ġthreshold":9978,"iron":9979,"icy":9980,"Ġfilling":9981,"Ġsunny":9982,"jan":9983,"chants":9984,"Ġlamps":9985,"Ġfist":9986,"Ġfacing":9987,"Ġscre":9988,"cession":9989,"Ġmorrow":9990,"._)":9991,"pocket":9992,"rane":9993,"Ġmull":9994,"jam":9995,"Ġphant":9996,"naturally":9997,"Ġmainly":9998,"Ġtossed":9999,"Ġseaman":10000,"Ġconsists":10001,"Ġreckless":10002,"Ġancestors":10003,"Ġnom":10004,"richard":10005,"Ġfaculty":10006,"urre":10007,"Ġretained":10008,"Ġassociation":10009,"Ġslumber":10010,"Ġrelieve":10011,"ivable":10012,"Ġtimid":10013,"habited":10014,"tru":10015,"Ġnob":10016,"follow":10017,"eat":10018,"enched":10019,"Ġencamp":10020,"Ġstillness":10021,"log":10022,"Ġbug":10023,"Ġshells":10024,"version":10025,"ferences":10026,"Ġmoderate":10027,"Ġsecretly":10028,"Ġincapable":10029,"reet":10030,"Ġpillow":10031,"Ġclearing":10032,"Ġrebellion":10033,"Ġhedge":10034,"othesis":10035,"deck":10036,"Ġmoist":10037,"Ġdispos":10038,"Ġuncomfortable":10039,"Ġshared":10040,"Ġallan":10041,"Ġangrily":10042,"bas":10043,"Ġmak":10044,"Ġfret":10045,"Ġeffected":10046,"Ġstrikes":10047,"Ġintroduce":10048,"Ġprimitive":10049,"Ġbarren":10050,"Ġcomplexion":10051,"Ġcolony":10052,"Ġtraitor":10053,"fright":10054,"Ġlodging":10055,"Ġdeliberately":10056,"wich":10057,"Ġworldly":10058,"ursday":10059,"Ġpang":10060,"Ġjam":10061,"Ġalongside":10062,"charles":10063,"Ġheathen":10064,"Ġindignant":10065,"Ġinsens":10066,"Ġdusk":10067,"stones":10068,"Ġdrunken":10069,"eled":10070,"Ġboxes":10071,"Ġindependence":10072,"difficulty":10073,"Ġrings":10074,"Ġsickness":10075,"Ġeconomy":10076,"event":10077,"Ġunnecessary":10078,"Ġheights":10079,"summer":10080,"rad":10081,"arers":10082,"Ġcaps":10083,"Ġestablish":10084,"Ġvaguely":10085,"furn":10086,"ĠcÃ¦":10087,"Ġacad":10088,"Ġgib":10089,"aye":10090,"Ġscram":10091,"Ġ34":10092,"Ġcrazy":10093,"Ġdiss":10094,"cart":10095,"Ġpreparation":10096,"inj":10097,"verend":10098,"Ġcrash":10099,"Ġapprehension":10100,"Ġbru":10101,"separ":10102,"Ġfaculties":10103,"Ġdivide":10104,"Ġcapit":10105,"Ġcatherine":10106,"Ġinjustice":10107,"Ġhighland":10108,"distingu":10109,"zel":10110,"Ġaroused":10111,"iage":10112,"Ġ39":10113,"prepared":10114,"Ġholmes":10115,"!)":10116,"Ġtempest":10117,"Ġrue":10118,"dozen":10119,"Ġwiz":10120,"Ġabstract":10121,"Ġgust":10122,"Ġmomentary":10123,"spoke":10124,"Ġfurnish":10125,"Ġcalculated":10126,"Ġreasoning":10127,"Ġmeadow":10128,"Ġbelle":10129,"Ġlil":10130,"Ġabode":10131,"Ġtroop":10132,"Ġcommercial":10133,"Ġresponded":10134,"ethe":10135,"Ġclothing":10136,"Ġsuspicious":10137,"ilton":10138,"Ġedgar":10139,"Ġfrightful":10140,"Ġharmony":10141,"Ġbee":10142,"stay":10143,"Ġgrip":10144,"Ġattractive":10145,"Ġtru":10146,"Ġswam":10147,"Ġminist":10148,"Ġstrongest":10149,"revol":10150,"Ġmuff":10151,"Ġeyebrows":10152,"Ġplacing":10153,"Ġachieve":10154,"lorn":10155,"Ġoverhead":10156,"Ġdora":10157,"Ġgy":10158,"Ġcordial":10159,"Ġ190":10160,"Ãª":10161,"Ġsandy":10162,"Ġwist":10163,"Ġwig":10164,"peculiar":10165,"Ġimages":10166,"Ġspeeches":10167,"Ġwarmly":10168,"situ":10169,"Ġeagerness":10170,"Ġjerusalem":10171,"Ġdischarge":10172,"Ġcaroline":10173,"ato":10174,"idences":10175,"Ġworsh":10176,"Ġghosts":10177,"sie":10178,"riel":10179,"Ġlargest":10180,"Ġpleaded":10181,"worn":10182,"Ġranch":10183,"servant":10184,"Ġrugged":10185,"bread":10186,"Ġcargo":10187,"Ġchoo":10188,"Ġesmond":10189,"Ġhypo":10190,"Ġvile":10191,"Ġplates":10192,"untary":10193,"Ġnig":10194,"grow":10195,"Ġhurriedly":10196,"Ġmoses":10197,"Ġxi":10198,"engaged":10199,"Ġrou":10200,"Ġcommod":10201,"Ġorg":10202,"bred":10203,"kee":10204,"Ġclar":10205,"Ġmix":10206,"Ġphysician":10207,"cong":10208,"ques":10209,"Ġprudence":10210,"Ġkick":10211,"hero":10212,"Ġanna":10213,"Ġbidding":10214,"Ġrupert":10215,"Ġegyptian":10216,"Ġrussia":10217,"Ġconsolation":10218,"ladies":10219,"influence":10220,"uation":10221,"Ġrepair":10222,"Ġirresist":10223,"Ġpayment":10224,"Ġcautiously":10225,"Ġfancies":10226,"wealth":10227,"Ġgn":10228,"Ġbestowed":10229,"prec":10230,"ettle":10231,"repe":10232,"Ġmarching":10233,"Ġartificial":10234,"Ġwitnesses":10235,"compre":10236,"Ġpencil":10237,"Ġlimb":10238,"iastic":10239,"Ġexamples":10240,"apparently":10241,"Ġfoes":10242,"thony":10243,"Ġstaircase":10244,"Ġconspicuous":10245,"Ġfir":10246,"Ġdug":10247,"ico":10248,"Ġhats":10249,"Ġjackson":10250,"Ġsoci":10251,"Ġstrengthen":10252,"Ġmirth":10253,"Ġscare":10254,"Ġcontest":10255,"Ġcambridge":10256,"Ġluke":10257,"Ġrans":10258,"Ġrows":10259,"individual":10260,"pull":10261,"Ġtheod":10262,"Ġremembering":10263,"Ġvigil":10264,"Ġgroaned":10265,"Ġunnatural":10266,"Ġbliss":10267,"overing":10268,"sor":10269,"Ġathen":10270,"Ġclad":10271,"Ġliterally":10272,"Ġregularly":10273,"Ġnavy":10274,"paul":10275,"ingle":10276,"qual":10277,"afternoon":10278,"Ġkins":10279,"Ġsham":10280,"Ġmargin":10281,"Ġmarrying":10282,"Ġcurtains":10283,"Ġmaggie":10284,"greater":10285,"distinct":10286,"plend":10287,"Ġcommanding":10288,"Ġrestore":10289,"Ġscared":10290,"Ġlazy":10291,"Ġante":10292,"Ġbeautifully":10293,"Ġcigarette":10294,"esc":10295,"Ġtraces":10296,"eridge":10297,"Ġcoin":10298,"Ġbulk":10299,"devil":10300,"Ġclothed":10301,"Ġprecipit":10302,"Ġedmund":10303,"ernest":10304,"Ġexpressions":10305,"Ġmeadows":10306,"stan":10307,"temper":10308,"Ġpacific":10309,"text":10310,"Ġdestined":10311,"Ġtorrent":10312,"Ġringing":10313,"Ġfitting":10314,"Ġwool":10315,"Ġrebu":10316,"Ġhonestly":10317,"Ġshrugged":10318,"Ġhears":10319,"species":10320,"Ġenjoying":10321,"idelity":10322,"stretched":10323,"Ġshapes":10324,"Ġglare":10325,"Ġsworn":10326,"Ġcaptive":10327,"37":10328,"Ġmedium":10329,"Ġmoore":10330,"Ġdreaming":10331,"Ġmachinery":10332,"joice":10333,"Ġmouths":10334,"Ġprudent":10335,"ani":10336,"Ġkat":10337,"Ġtaver":10338,"ervation":10339,"Ġsprung":10340,"Ġsubsequent":10341,"broad":10342,"Ġbacon":10343,"Ġdoings":10344,"ggs":10345,"Ġtotally":10346,"mam":10347,"jer":10348,"Ġgor":10349,"Ġchorus":10350,"Ġcecil":10351,"holding":10352,"entirely":10353,"Ġyawn":10354,"Ġquoted":10355,"Ġquarre":10356,"drawn":10357,"Ġlace":10358,"Ġcircul":10359,"subst":10360,"Ġmask":10361,"elia":10362,"jul":10363,"rot":10364,"Ġjacket":10365,"Ġpunish":10366,"Ġnu":10367,"Ġdusty":10368,"Ġconsol":10369,"Ġcarp":10370,"Ġcoral":10371,"ooke":10372,"pling":10373,"Ġpractised":10374,"Ġhunters":10375,"brew":10376,"Ġlingered":10377,"tried":10378,"hey":10379,"Ġpiano":10380,"omy":10381,"Ġjoint":10382,"Ġdocument":10383,"Ġenqu":10384,"Ġextensive":10385,"intend":10386,"Ġrecorded":10387,"Ġpomp":10388,"fles":10389,"Ġcongreg":10390,"Ġspur":10391,"ouching":10392,"Ġuses":10393,"Ġrational":10394,"Ġstake":10395,"surpr":10396,"claim":10397,"Ġexclamation":10398,"sit":10399,"beauty":10400,"Ġtoday":10401,"Ġvalleys":10402,"Ġhospitality":10403,"Ġesteem":10404,"itimate":10405,"Ġmixture":10406,"Ġalar":10407,"Ġhanged":10408,"national":10409,"Ġhunted":10410,"tin":10411,"Ġflowing":10412,"shaw":10413,"Ġtorture":10414,"Ġsult":10415,"usively":10416,"result":10417,"Ġexhibited":10418,"forgotten":10419,"Ġrend":10420,"Ġford":10421,"Ġ178":10422,"talking":10423,"Ġtiger":10424,"Ġaz":10425,"Ġdies":10426,"Ġrespected":10427,"meas":10428,"grateful":10429,"Ġinterpret":10430,"prove":10431,"Ġfrenchman":10432,"quarter":10433,"Ġowed":10434,"Ġellen":10435,"Ġanguish":10436,"woods":10437,"Âł.":10438,"Ġgrowled":10439,"Ġessay":10440,"Ġliquor":10441,"Ġinvention":10442,"Ġcountrymen":10443,"Ġdarwin":10444,"Ġ0":10445,"disappoint":10446,"uesday":10447,"Ġliable":10448,"Ġmuscles":10449,"Ġfrancisco":10450,"Ġvenerable":10451,"broke":10452,"Ġspecimen":10453,"tone":10454,"Ġnun":10455,"Ġrous":10456,"Ġbreach":10457,"develop":10458,"Ġinstitution":10459,"Ġvigor":10460,"rising":10461,"Ġvit":10462,"ficial":10463,"________":10464,"eg":10465,"Ġcul":10466,"Ġassent":10467,"ulsion":10468,"Ġangl":10469,"ials":10470,"hom":10471,"omon":10472,"ceptions":10473,"Ġbarely":10474,"Ġdragon":10475,"Ġboughs":10476,"Ġfelic":10477,"ĠĠĠĠĠĠĠĠĠĠĠĠĠĠĠĠĠĠĠĠĠĠĠĠĠĠĠĠĠĠĠ":10478,"interrupt":10479,"stat":10480,"Ġtelegraph":10481,"Ġdevils":10482,"Ġpenal":10483,"Ġdecidedly":10484,"Ġquoth":10485,"Ġrobe":10486,"wonderful":10487,"Ġpartial":10488,"Ġcourte":10489,"Ġattained":10490,"understanding":10491,"confidence":10492,"Ġeloquence":10493,"Ġtack":10494,"Ġsung":10495,"unction":10496,"determined":10497,"gree":10498,"yne":10499,"aside":10500,"Ġpleasantly":10501,"lson":10502,"Ġtrifling":10503,"assured":10504,"Ġlag":10505,"plan":10506,"Ġdrown":10507,"60":10508,"bin":10509,"cad":10510,"Ġarnold":10511,"ignant":10512,"Ġdiamond":10513,"quate":10514,"Ġfeud":10515,"Ġbackground":10516,"Ġtenderly":10517,"Ġbehaviour":10518,"imply":10519,"Ġpushing":10520,"Ġginger":10521,"Ġspots":10522,"Ġshops":10523,"Ġcommerce":10524,"Ġroute":10525,"Ġgothic":10526,"Ġclaimed":10527,"Ġsque":10528,"Ġpersisted":10529,"Ġmute":10530,"bless":10531,"nam":10532,"mates":10533,"Ġpolished":10534,"ricult":10535,"Ġdespite":10536,"Ġbasis":10537,"inch":10538,"Ġstove":10539,"Ġnell":10540,"eves":10541,"geons":10542,"discovered":10543,"Ġtod":10544,"Ġsuspicions":10545,"Ġanalog":10546,"Ġbigger":10547,"Ġlaure":10548,"ouncing":10549,"arrange":10550,"Ġformation":10551,"Ġascended":10552,"Ġisaac":10553,"Ġmall":10554,"Ġsports":10555,"Ġcows":10556,"Ġassociated":10557,"Ġguided":10558,"acquaint":10559,"Ġxii":10560,"Ġplead":10561,"Ġartistic":10562,"Ġfeminine":10563,"Ġmusket":10564,"Ġbetwixt":10565,"Ġsweetness":10566,"suspect":10567,"Ġplague":10568,"Ġconfirm":10569,"Ġdealing":10570,"Ġmorality":10571,"?âĢĻ":10572,"inth":10573,"Ġmorton":10574,"Ġcorpse":10575,"Ġfoster":10576,"Ġbees":10577,"ifies":10578,"Ġslack":10579,"Ġcrystal":10580,"ila":10581,"Ġsket":10582,"Ġrosy":10583,"hi":10584,"oping":10585,"Ġfunction":10586,"Ġghastly":10587,",\"--":10588,"Ġproducing":10589,"Ġlatest":10590,"Ġswallowed":10591,"Ġbrace":10592,"atching":10593,"Ġgames":10594,"swift":10595,"Ġsucc":10596,"Ġsympathetic":10597,"Ġappreciate":10598,"Ġfatigue":10599,"Ġbother":10600,"isons":10601,"Ġrider":10602,"Ġhonesty":10603,"raised":10604,"Ġbenevol":10605,"robert":10606,"Ġcarved":10607,"Ġhammer":10608,"Ġcardinal":10609,"proof":10610,"flowers":10611,"Ġtribut":10612,"Ġawaken":10613,"fortunes":10614,"Ġdiamonds":10615,"Ġcanada":10616,"Ġcrus":10617,"Ġpaths":10618,"Ġdimly":10619,"Ġrubbed":10620,"Ġinspiration":10621,"Ġduly":10622,"Ġarchie":10623,"Ġsituated":10624,"Ġgloves":10625,"Ġstudents":10626,"silver":10627,"Ġbot":10628,"Ġchains":10629,"Ġhare":10630,"Ġfrog":10631,"Ġpeculiarly":10632,"dav":10633,"Ġsolution":10634,"Ġlawrence":10635,"Ġbaxter":10636,"Ġinterpre":10637,"Ġtongues":10638,"Ġgilbert":10639,"Ġasserted":10640,"oles":10641,"Ġexchanged":10642,"Ġaccus":10643,"Ġoffers":10644,"joined":10645,"Ġfantastic":10646,"dar":10647,"yan":10648,"battle":10649,"Ġdwarf":10650,"Ġpadd":10651,"frequ":10652,"och":10653,"Ġgordon":10654,"Ġshift":10655,"Ġengra":10656,"dles":10657,"Ġambassad":10658,"Ġgreeting":10659,"Ġaffirm":10660,"Ġswallow":10661,"Ġsheets":10662,"Ġneighbors":10663,"bation":10664,"Ġatlantic":10665,"Ġguid":10666,"Ġemerged":10667,"Ġshadowy":10668,"untarily":10669,"Ġhermit":10670,"istics":10671,"Ġenchan":10672,"Ġtwist":10673,"Ġdisd":10674,"Ġsimon":10675,"Ġhounds":10676,"rah":10677,"Ġcousins":10678,"Ġbattles":10679,"picture":10680,"Ġprovo":10681,"imper":10682,"Ġsands":10683,"Ġbernard":10684,"remembered":10685,"ounding":10686,"breakfast":10687,"Ġmiriam":10688,"icker":10689,"Ġexperiments":10690,"Ġaccomplish":10691,"pine":10692,"wond":10693,"ithe":10694,"oped":10695,"fortunately":10696,"itably":10697,"Ġinstitutions":10698,"kno":10699,"maker":10700,"Ġol":10701,"Ġglobe":10702,"Ġfors":10703,"Ġabundance":10704,"bul":10705,"Ġscreamed":10706,"europe":10707,"Ġaccent":10708,"Ġhymn":10709,"Ġgreeks":10710,"chet":10711,"Ġrepresentative":10712,"Ġpert":10713,"cheer":10714,"opportunity":10715,"Ġmare":10716,"liber":10717,"Ġdecay":10718,"Ġholland":10719,"Ġexplos":10720,"meth":10721,"Ġstooped":10722,"Ġallies":10723,"Ġexcurs":10724,"Ġsquee":10725,"absolutely":10726,"cam":10727,"anor":10728,"leaves":10729,"utive":10730,"Ġyoungest":10731,"succeed":10732,"Ġneighbouring":10733,"lfare":10734,"Ġdignified":10735,"Ġseventeen":10736,"island":10737,"Ġrigid":10738,"Ġscholar":10739,"chal":10740,"Ġhesitate":10741,"Ġpsych":10742,"Ġyacht":10743,"gues":10744,"Ġgrandmother":10745,"Ġcrimes":10746,"Ġbreathless":10747,"Ġwad":10748,"Ġhail":10749,"neg":10750,"Ġcarelessly":10751,"Ġferv":10752,"Ġinterposed":10753,"Ġdepended":10754,"Ġencountered":10755,"ishly":10756,"Ġsculpt":10757,"Ġleve":10758,"Ġfaithfully":10759,"Ġwritings":10760,"Ġrejected":10761,"cus":10762,"Ġrede":10763,"Ġunkind":10764,"extreme":10765,"song":10766,"Ġowners":10767,"magn":10768,"ittered":10769,"amental":10770,"toward":10771,"Ġpattern":10772,"cous":10773,"attering":10774,"Ġinvari":10775,"Ġcreeping":10776,"Ġsingularly":10777,"Ġwitnessed":10778,"Ġculture":10779,"Ġannoy":10780,"weather":10781,"Ġsphere":10782,"Ġmatt":10783,"Ġpam":10784,"udent":10785,"Ġgigantic":10786,"heavy":10787,"Ġbast":10788,"Ġjail":10789,"Ġprotected":10790,"write":10791,"pardon":10792,"Ġdisorder":10793,"Ġtruths":10794,"....\"":10795,"Ġthrill":10796,"Ġcaliforn":10797,"dread":10798,"Ġmes":10799,"Ġhurrying":10800,"bbing":10801,"Ġabuse":10802,"joining":10803,"Ġillustrated":10804,"Ġpupil":10805,"existence":10806,"istle":10807,"Ġboers":10808,"poch":10809,"nesday":10810,"lucky":10811,"Ġcents":10812,"Ġscots":10813,"Ġinvented":10814,"Ġgoddess":10815,"Ġhostile":10816,"Ġenlight":10817,"beneath":10818,"fut":10819,"Ġxiv":10820,"difference":10821,".;":10822,"accustomed":10823,"Ġextremity":10824,"Ġmouse":10825,"Ġprior":10826,"Ġbreaks":10827,"ulsive":10828,"Ġwolves":10829,"vall":10830,"arrived":10831,"Ġinvariably":10832,"Ġappearing":10833,"Ġtenn":10834,"Ġarter":10835,"charge":10836,"abouts":10837,"ux":10838,"walked":10839,"ilian":10840,"Ġdecline":10841,"Ġestates":10842,"Ġbomb":10843,"udence":10844,"kiss":10845,"Ġhab":10846,"Ġleague":10847,"Ġserpent":10848,"wreck":10849,"welcome":10850,"Ġdistrust":10851,"Ġprejudice":10852,"private":10853,"Ġcommit":10854,"running":10855,"Ġejac":10856,"otherwise":10857,"Ġdeepest":10858,"Ġcharlotte":10859,"Ġswed":10860,"Ġmarvellous":10861,"tie":10862,"Ġbounds":10863,"weed":10864,"Ġcomprom":10865,"igel":10866,"Ġherd":10867,"Ġpeer":10868,"Ġdoctors":10869,"Ġrestraint":10870,"munition":10871,"nove":10872,"surprise":10873,"Ġdum":10874,"Ġtalks":10875,"ppy":10876,"Ġbrad":10877,"Ġchalk":10878,"Ġmuseum":10879,"fixed":10880,"Ġfen":10881,"Ġwonders":10882,"noticed":10883,"Ġstartling":10884,"Ġbattery":10885,"Ġspecimens":10886,"Ġincredible":10887,"tit":10888,"ciences":10889,"supposed":10890,"hurst":10891,"Ġrepl":10892,"Ġconstable":10893,"Ġsuspe":10894,"Ġ45":10895,"Ġdiplom":10896,"assist":10897,"Ġdefin":10898,"Ġreleased":10899,"Ġscept":10900,"chie":10901,"Ġmayor":10902,"Ġinclination":10903,"agraph":10904,"Ġbelieves":10905,"Ġballs":10906,"ras":10907,"Ġsinner":10908,"Ġbreadth":10909,"unting":10910,"Ġterritory":10911,"Ġpeop":10912,"Ġthyself":10913,"Ġdeclaration":10914,"Ġswing":10915,"Ġrefresh":10916,"Ġfiner":10917,"Ġdrifted":10918,"merely":10919,"Ġoldest":10920,"Ġmonkey":10921,"Ġveh":10922,"stopped":10923,"fronted":10924,"Ġblade":10925,"Ġleaping":10926,"Ġlouder":10927,"Ġsuperiority":10928,"!âĢĻ":10929,"Ġcush":10930,"forget":10931,"Ġsentimental":10932,"Ġallen":10933,"fertilised":10934,"Ġath":10935,"youth":10936,"Ġexecuted":10937,"ja":10938,"Ġloo":10939,"Ġpaces":10940,"smile":10941,"Ġstamped":10942,"di":10943,"dim":10944,"ourselves":10945,"Ġtraced":10946,"Ġmonument":10947,"Ġsnuff":10948,"34":10949,"Ġcaesar":10950,"Ġriv":10951,"cting":10952,"Ġconquest":10953,"rons":10954,"Ġsel":10955,"Ġsag":10956,"otesque":10957,"Ġstevenson":10958,"dressed":10959,"zie":10960,"Ġbaff":10961,"undered":10962,"Ġdiscretion":10963,"velope":10964,"Ġencouragement":10965,"Ġgild":10966,"Ġepoch":10967,"Ġvind":10968,"Ġcolonies":10969,"Ġfaire":10970,"bows":10971,"Ġfragment":10972,"tail":10973,"knowing":10974,"Ġpirate":10975,"ifice":10976,"Ġknelt":10977,"village":10978,"Ġincidents":10979,"Ġpathetic":10980,"Ġexamining":10981,"Ġcampbell":10982,"inarily":10983,"Ġdow":10984,"uese":10985,"Ġforgetting":10986,"Ġascend":10987,"Ġperplexed":10988,"Ġloyalty":10989,"'-":10990,"Ġswinging":10991,"Ġexpenses":10992,"building":10993,"Ġwhoever":10994,"lod":10995,"thrown":10996,"Ġmartha":10997,"Ġattendant":10998,"mits":10999,"Ġincess":11000,"craft":11001,"Ġliking":11002,"Ġagitated":11003,"mast":11004,"Ġtents":11005,"Ġexpressing":11006,"Ġpirates":11007,"Ġcasting":11008,"oeuv":11009,"madame":11010,"rand":11011,"ĠĠĠĠĠĠĠĠĠĠĠĠĠĠĠĠĠĠĠĠĠĠĠĠĠĠĠĠĠĠĠĠĠ":11012,"Ġwholesome":11013,"Ġsympt":11014,"Ġhelm":11015,"Ġdefiance":11016,"Ġpetty":11017,"ranny":11018,"Ġsincer":11019,"Ġinit":11020,"Ġviz":11021,"Ġwarren":11022,"throw":11023,"cou":11024,"Ġexh":11025,"cru":11026,"belief":11027,"urrection":11028,"Ġalert":11029,"Ġane":11030,"persons":11031,"Ġfalsehood":11032,"piration":11033,"enet":11034,"Ġtoken":11035,"Ġsurvey":11036,"Ġexciting":11037,"Ġclimbing":11038,"Ġsant":11039,"Ġlect":11040,"Ġgrind":11041,"Ġprecip":11042,"settled":11043,"Ġorgans":11044,"doll":11045,"raction":11046,"._,":11047,"amount":11048,"cible":11049,"grass":11050,"courage":11051,"Ġdub":11052,"Ġepit":11053,"Ġdollar":11054,"Ġrector":11055,"Ġsweeping":11056,"inged":11057,"station":11058,"Ġquer":11059,"Ġseamen":11060,"Ġfow":11061,"Ġagreement":11062,"isen":11063,"Ġaloft":11064,"Ġfailing":11065,"august":11066,"rail":11067,"Ġroughly":11068,"Ġsuspended":11069,"Ġtremble":11070,"athan":11071,"Ġbland":11072,"Ġsincerity":11073,"Ġshower":11074,"carry":11075,"Ġscrew":11076,"Ġintensity":11077,"Ġoppress":11078,"Ġsoftened":11079,"Ġgriff":11080,"creature":11081,"Ġpouring":11082,"gerald":11083,"Ġfoliage":11084,"Ġgrimly":11085,"Ġgreece":11086,"Ġcautious":11087,"Ġforbidden":11088,"Ġblake":11089,"Ġevolution":11090,"Ġburke":11091,"Ġstrip":11092,"Ġspectacles":11093,"Ġcontinual":11094,"Ġfulfil":11095,"Ġwan":11096,"Ġthumb":11097,"Ġirre":11098,"difficult":11099,"warm":11100,"Ġtelegram":11101,"Ġresources":11102,"Ġbite":11103,"Ġgermans":11104,"Ġafrican":11105,"rates":11106,"working":11107,"Ġargued":11108,"Ġmathe":11109,"Ġsummons":11110,"Ġharmless":11111,"Ġassuredly":11112,"corner":11113,"Ġscold":11114,"Ġrect":11115,"Ġknot":11116,"Ġtrumpet":11117,"Ġoppon":11118,"believed":11119,"Ġblazing":11120,"concerned":11121,"Ġreverend":11122,"Ġessentially":11123,"Ġintimacy":11124,"wide":11125,"Ġproofs":11126,"ĠĠĠĠĠĠĠĠĠĠĠĠĠĠĠĠĠĠĠĠĠĠĠĠĠĠĠĠĠĠĠĠĠĠ":11127,"Ġstalk":11128,"Ġclinging":11129,"Ġmurray":11130,"Ġadvers":11131,"Ġpoll":11132,"Ġremedy":11133,"Ġsends":11134,"Ġferdinand":11135,"Ġresentment":11136,"Ġdisaster":11137,"Ġign":11138,"ifting":11139,"Ġacute":11140,"bitter":11141,"fing":11142,"Ġflowed":11143,"Ġgenial":11144,"caught":11145,"Ġstur":11146,"Ġvisiting":11147,"popular":11148,"dling":11149,"Ġfres":11150,"Ġscrap":11151,"Ġpunished":11152,"Ġnegroes":11153,"snow":11154,"Ġperception":11155,"Ġsteer":11156,"Ġtragic":11157,"Ġbrutal":11158,"Ġjove":11159,"Ġartists":11160,"ua":11161,"Ġbaker":11162,"Ġdegr":11163,"Ġregiments":11164,"Ġexperiences":11165,"Ġceiling":11166,"leby":11167,"Ġeth":11168,"Ġcasual":11169,"Ġrecess":11170,"Ġconserv":11171,"Ġapology":11172,"Ġpilot":11173,"Ġconsulted":11174,"Ġremarkably":11175,"Ġtracks":11176,"Ġexhaust":11177,"Ġtastes":11178,"trem":11179,"Ġbarbara":11180,"ĠcÃ¦sar":11181,"arn":11182,"Ġropes":11183,"rift":11184,"_)":11185,"Ġdaw":11186,"Ġlocks":11187,"thee":11188,"Ġtricks":11189,"Ġoffspring":11190,"Ġportions":11191,"Ġsmoked":11192,"earnest":11193,"Ġjasper":11194,"journey":11195,"haven":11196,"Ġcalam":11197,"Ġattempting":11198,"encer":11199,"Ġvow":11200,"Ġhandful":11201,"Ġscound":11202,"shut":11203,"Ġthirteen":11204,"ĠÃ¦":11205,"Ġheath":11206,"Ġpunct":11207,"terrible":11208,"Ġcomfortably":11209,"comed":11210,"yon":11211,"Ġkenn":11212,"Ġdespise":11213,"Ġdresses":11214,"Ġrifles":11215,"Ġreflections":11216,"Ġjonas":11217,"ulously":11218,"Ġspears":11219,"terior":11220,"Ġsage":11221,"brook":11222,"spread":11223,"evidently":11224,"replied":11225,"Ġgit":11226,"Ġdesigns":11227,"Ġsearched":11228,"latter":11229,"Ġbin":11230,"forest":11231,"erer":11232,"Ġglances":11233,"Ġsquad":11234,"Ġdebts":11235,"Ġidentity":11236,"athed":11237,"Ġinstruction":11238,"Ġdreaded":11239,"Ġshelley":11240,"nic":11241,"Ġrefined":11242,"Ġtug":11243,"Ġripp":11244,"rolled":11245,"Ġdeceive":11246,"Ġjaw":11247,"Ġingenious":11248,"Ġhypothesis":11249,"ees":11250,"Ġtan":11251,"below":11252,"Ġopera":11253,"riv":11254,"Ġcanal":11255,".--_":11256,"Ġdamn":11257,"mentioned":11258,"Ġbub":11259,"Ġturf":11260,"Ġargue":11261,"fields":11262,"ieving":11263,"Ġmonks":11264,"Ġterrified":11265,"fru":11266,"lat":11267,"Ġshat":11268,"Ġshove":11269,"akers":11270,"week":11271,".\"--":11272,"Ġedith":11273,"cried":11274,"Ġcanoes":11275,"Ġshrank":11276,"Ġpitt":11277,"Ġcharges":11278,"Ġtemperament":11279,"philip":11280,"weak":11281,"Ġfashionable":11282,"Ġapplause":11283,"Ġcandles":11284,"Ġumbre":11285,"Ġtub":11286,"Ġneedful":11287,"Ġcommunicated":11288,"iantly":11289,"Ġskies":11290,"jected":11291,"Ġwealthy":11292,"rain":11293,"Ġheel":11294,"Ġbeef":11295,"Ġwaking":11296,"atra":11297,"allowed":11298,"Ġcolors":11299,"33":11300,"ano":11301,"Ġantagon":11302,"bone":11303,"Ġcarries":11304,"Ġlions":11305,"storm":11306,"Ġapartments":11307,"oria":11308,"_:":11309,"Ġpel":11310,"darkness":11311,"Ġandy":11312,"Ġslim":11313,"Ġmelted":11314,"honest":11315,"Ġtavern":11316,"cca":11317,"Ġcombination":11318,"Ġsplit":11319,"cases":11320,"wil":11321,"Ġeminent":11322,"successful":11323,"Ġvigour":11324,"Ġinstruments":11325,"Ġreprodu":11326,"Ġvisions":11327,"atches":11328,"Ġfrail":11329,"Ġseparation":11330,"Ġautom":11331,"Ġsorrows":11332,"Ġgene":11333,"Ġonward":11334,"alling":11335,"Ġpeasants":11336,"Ġfrederick":11337,"mach":11338,"Ġbonds":11339,"feelings":11340,"Ġsixth":11341,"mountain":11342,"Ġborrowed":11343,"Ġallusion":11344,"Ġharding":11345,"Ġtyrant":11346,"Ġbands":11347,"Ġdefic":11348,"Ġwisely":11349,"Ġfarmers":11350,"months":11351,"dust":11352,"Ġcircum":11353,"prevent":11354,"Ġallied":11355,"Ġmysteries":11356,"Ġthreatening":11357,"--------------------------------":11358,"Ġmurderer":11359,"Ġharvest":11360,"Ġparlor":11361,"Ġrejoice":11362,"Ġshilling":11363,"Ġmanhood":11364,"Ġpicking":11365,"Ġvolcan":11366,"Ġerected":11367,"Ġpump":11368,"Ġdespised":11369,"orney":11370,"Ġhue":11371,"Ġpatiently":11372,"Ġperiods":11373,"consciousness":11374,"Ġpreach":11375,"Ġobjected":11376,"Ġallowance":11377,"Ġgoose":11378,"Ġpurity":11379,"Ġgraves":11380,"iffe":11381,"Ġvin":11382,"Ġbluff":11383,"Ġconstruction":11384,"Ġcustomary":11385,"affected":11386,"cand":11387,"idious":11388,"._--":11389,"Ġdetermine":11390,"Ġunconsciously":11391,"Ġsincerely":11392,"bie":11393,"thro":11394,"likely":11395,"Ġpurchased":11396,"arthur":11397,"Ġinstincts":11398,"avering":11399,"Ġtuck":11400,"_).":11401,"Ġdante":11402,"Ġ60":11403,"Ġnurs":11404,"Ġsuccessive":11405,"Ġslopes":11406,"Ġtemples":11407,"Ġcrowned":11408,"finger":11409,"Ġsubscri":11410,"Ġillustrations":11411,"Ġmaxim":11412,"oct":11413,"cended":11414,"ira":11415,"uthbert":11416,"Ġstem":11417,"Ġprosec":11418,"contents":11419,"built":11420,"ranean":11421,"[_":11422,"Ġmoust":11423,"Ġgravel":11424,"fresh":11425,"eliz":11426,"Ġflank":11427,"ainty":11428,"property":11429,"Ġsustained":11430,"Ġdeter":11431,"Ġhered":11432,"Ġvilla":11433,"Ġbursting":11434,"ushes":11435,"ignor":11436,"Ġstrained":11437,"thanks":11438,"vering":11439,"Ġunusually":11440,"ilet":11441,"Ġcrab":11442,"easy":11443,"Ġtreasures":11444,"Ġstudying":11445,"Ġgaunt":11446,"Ġtab":11447,"Ġfawn":11448,"Ġdesirous":11449,"learned":11450,"Ġhinted":11451,"Ġinheritance":11452,"roar":11453,"Ġkirk":11454,"Ġprolonged":11455,"Ġchic":11456,"Ġarriving":11457,"Ġtranslation":11458,"Ġsly":11459,"acies":11460,"Ġrecords":11461,"Ġattendants":11462,"various":11463,"breed":11464,"ki":11465,"loved":11466,"single":11467,"Ġreckoned":11468,"Ġker":11469,"Ġstaggered":11470,"lys":11471,"Ġwhir":11472,"Ġresolute":11473,"Ġsufferings":11474,"Ġecst":11475,"Ġimitation":11476,"Ġcoinc":11477,"lan":11478,"Ġprospects":11479,"nday":11480,"Ġwestward":11481,"makes":11482,"Ġplunder":11483,"Ġadjust":11484,"Ġkeys":11485,"Ġconvince":11486,"Ġeffective":11487,"Ġsquir":11488,"Ġembro":11489,"floor":11490,"Ġriot":11491,"lips":11492,"cow":11493,"Ġquad":11494,"particularly":11495,"ench":11496,"Ġelephant":11497,"Ġhae":11498,"Ġresolve":11499,"bun":11500,"Ġmig":11501,"Ġbunch":11502,"showed":11503,"looks":11504,"Ġcritics":11505,"Ġabundant":11506,"Ġrelease":11507,"riment":11508,"enemy":11509,"Ġforlorn":11510,"Ġseizing":11511,"Ġendured":11512,"Ġwinning":11513,"Ġfrig":11514,"Ġgregory":11515,"carriage":11516,"Ġstrove":11517,"Ġmerchants":11518,"Ġlogic":11519,"Ġrevelation":11520,"Ġhetty":11521,"Ġbeam":11522,"period":11523,"proved":11524,"Ġmassive":11525,"Ġidiot":11526,"zar":11527,"Ġgodfrey":11528,"personal":11529,"Ġknocking":11530,"fancy":11531,"Ġpropriety":11532,"pictures":11533,"remain":11534,"Ġanimated":11535,"Ġshades":11536,"tong":11537,"Ġrip":11538,"ders":11539,"Ġdexter":11540,"umsy":11541,"Ġtame":11542,"aren":11543,"Ġcicero":11544,"dry":11545,"Ġappealed":11546,"girls":11547,"Ġinherited":11548,"Ġadapted":11549,"Ġhem":11550,"Ġsoothing":11551,"Ġprow":11552,"Ġbeatrice":11553,"Ġsubmitted":11554,"Ġcaptains":11555,".),":11556,"pap":11557,"Ġapproval":11558,"Ġdryden":11559,"Ġlid":11560,"lem":11561,"Ġeverlasting":11562,"Ġconfounded":11563,"Ġscholars":11564,"Ġnobility":11565,"Ġoutrage":11566,"Ġspreading":11567,"Ġyon":11568,"chn":11569,"ibus":11570,"Ġneedle":11571,"support":11572,"Ġalluded":11573,"witness":11574,"Ġstealing":11575,"ito":11576,"Ġelevation":11577,"Ġmodified":11578,"iders":11579,"Ġlighter":11580,"laws":11581,"Ġmoves":11582,"profess":11583,"Ġwithdraw":11584,"Ġthieves":11585,"Ġgoverness":11586,"beside":11587,"Ġarchbishop":11588,"Ġencourage":11589,"Ġtherein":11590,"blind":11591,"finally":11592,"Ġtreason":11593,"Ġrever":11594,"Ġalien":11595,"Ġsuperstition":11596,"depend":11597,"Ġrecognise":11598,"Ġpickwick":11599,"Ġhazard":11600,"Ġdock":11601,"Ġdesigned":11602,"Ġmaur":11603,"Ġdarkened":11604,"Ġdefeated":11605,"pieces":11606,"wine":11607,"weight":11608,"Ġquitted":11609,"bearing":11610,"Ġwickedness":11611,"Ġintolerable":11612,"Ġgill":11613,"desire":11614,"fathers":11615,"Ġdamage":11616,"fro":11617,"Ġnab":11618,"Ġserving":11619,"Ġvirtuous":11620,"Ġhomer":11621,"promise":11622,"breath":11623,"Ġreverse":11624,"thia":11625,"Ġworried":11626,"mann":11627,"Ġsuppressed":11628,"Ġessence":11629,"Ġestimate":11630,"regarded":11631,"Ġcrawley":11632,"Ġelaborate":11633,"Ġpiled":11634,"Ġfraud":11635,"Ġlastly":11636,"Ġdependent":11637,"hush":11638,"mars":11639,"Ġphoebe":11640,"Ġbrightness":11641,"Ġprevail":11642,"Ġvexed":11643,"Ġhey":11644,"Ġanticipated":11645,"religion":11646,"_,\"":11647,"Ġconverted":11648,"Ġcoven":11649,"phone":11650,"Ġresponse":11651,"Ġsombre":11652,"Ġwizard":11653,"social":11654,"Ġexertion":11655,"language":11656,"Ġbolt":11657,"Ġcoleridge":11658,"stick":11659,"Ġslay":11660,"intended":11661,"Ġblankets":11662,"Ġeloquent":11663,"Ġabbot":11664,"ptions":11665,"bourne":11666,"Ġtreachery":11667,"Ġtools":11668,"Ġattending":11669,"Ġenerget":11670,"Ġgorgeous":11671,"kim":11672,"Ġlung":11673,"correspond":11674,"matters":11675,"inently":11676,"ignific":11677,"duty":11678,"Ġgenerosity":11679,"Ġentertainment":11680,"Ġarea":11681,"Ġflav":11682,"Ġlabours":11683,"Ġwelfare":11684,"hanging":11685,"blems":11686,"ordinate":11687,"mountains":11688,"inous":11689,"Ġgram":11690,"ieth":11691,"Ġsnatched":11692,"Ġherr":11693,"hart":11694,"harine":11695,"Ġtumbled":11696,"uminous":11697,"Ġtraff":11698,"soldiers":11699,"70":11700,"sand":11701,"iors":11702,"visit":11703,"british":11704,"crim":11705,"Ġassistant":11706,"olated":11707,"Ġcompens":11708,"Ġconfer":11709,"endeav":11710,"Ġcats":11711,"Ġweighed":11712,"Ġstool":11713,"shoulder":11714,"thor":11715,"(_":11716,"kne":11717,"Ġank":11718,"Ġpipes":11719,"Ġdownward":11720,"ggling":11721,"Ġlimp":11722,"Ġvag":11723,"Ġboom":11724,"Ġconsiderations":11725,"Ġcoolly":11726,"Ġmike":11727,"ggle":11728,"acit":11729,"Ġmotor":11730,"Ġluncheon":11731,"Ġabys":11732,"Ġyelled":11733,"Ġbackwards":11734,"knows":11735,"Ġcorridor":11736,"Ġhurled":11737,"Ġbowl":11738,"ishers":11739,"Ġblanket":11740,"stable":11741,"Ġpeters":11742,"Ġexhibition":11743,"Ġfath":11744,"Ġadvertis":11745,"arg":11746,"sery":11747,"Ġinternal":11748,"instant":11749,"silent":11750,"Ġpollen":11751,"unders":11752,"ride":11753,"Ã´":11754,"Ġgau":11755,"othered":11756,"Ġwider":11757,"Ġconsul":11758,"Ġvicinity":11759,"Ġsic":11760,"eded":11761,"officers":11762,"Ġalbert":11763,"Ġdescending":11764,"Ġbravely":11765,"Ġbully":11766,"Ġrevolver":11767,"Ġaccurate":11768,"phy":11769,"obed":11770,"Ġwhatsoever":11771,"Ġdistressed":11772,"Ġbaronet":11773,"Ġgird":11774,"Ġopens":11775,"Ġrefres":11776,"Ġhorseback":11777,"splend":11778,"oning":11779,"Ġbehave":11780,"urous":11781,"unned":11782,"Ġstretching":11783,"Ġswimming":11784,"Ġhoofs":11785,"Ġtyranny":11786,"Ġannoyed":11787,"Ġbachel":11788,"Ġflashing":11789,"psy":11790,"Ġquivering":11791,"Ġswamp":11792,"Ġpromising":11793,"simple":11794,"xton":11795,"Ġridden":11796,"Ġconstr":11797,"Ġpublication":11798,"Ġpoetical":11799,"Ġsarah":11800,"Ġgriev":11801,"Ġmines":11802,"mitting":11803,"entertain":11804,"univers":11805,"Ġassertion":11806,"Ġmechanical":11807,"agne":11808,"shoot":11809,"Ġsuspense":11810,"Ġvane":11811,"Ġimpass":11812,"Ġhostess":11813,"diss":11814,"Ġsenior":11815,"Ġgert":11816,"france":11817,"flies":11818,"Ġerrors":11819,"Ġchoked":11820,"Ġmule":11821,"Ġvault":11822,"franc":11823,"Ġninety":11824,"Ġcomprehend":11825,"inno":11826,"seau":11827,"Ġsheriff":11828,"Ġcounting":11829,"Ġsecl":11830,"Ġmissionary":11831,"Ġpretence":11832,"Ġrotten":11833,"Ġlawyers":11834,"Ġscripture":11835,"Ġtalents":11836,"Ġawaiting":11837,"Ġcompliments":11838,"Ġabol":11839,"suit":11840,"dism":11841,"lies":11842,"exec":11843,"Ġultimate":11844,"Ġcircles":11845,"Ġvolta":11846,"Ġcompanies":11847,"Ġrajah":11848,"Ġinfect":11849,"origin":11850,"Ġearnestness":11851,"Ġgratified":11852,"Ġtough":11853,"Ġdial":11854,"icide":11855,"washing":11856,"Ġforemost":11857,"Ġcontrovers":11858,"Ġelevated":11859,"Ġresigned":11860,"Ġdraws":11861,"virt":11862,"Ġcage":11863,"shed":11864,"Ġtrunks":11865,"Ġwithered":11866,"Ġwhispering":11867,"mical":11868,"yards":11869,"Ġimpet":11870,"Ġkeenly":11871,"Ġawaited":11872,"Ġappropriate":11873,"adays":11874,"Ġintently":11875,"Ġquart":11876,"Ġscal":11877,"Ġsleepy":11878,"ipps":11879,"connected":11880,"renched":11881,"Ġheaded":11882,"Ġattachment":11883,"Ġforgiven":11884,"Ġstrife":11885,"38":11886,"erset":11887,"antine":11888,"Ġagents":11889,"Ġbesie":11890,"crown":11891,"Ġlogs":11892,"Ġrecommended":11893,"Ġwaistcoat":11894,"hospit":11895,"Ġnoisy":11896,"assed":11897,"ensed":11898,"Ġdetected":11899,"Ġcarriages":11900,"Ġtightly":11901,"abol":11902,"forty":11903,"Ġmorals":11904,"Ġchallenge":11905,"Ġindicate":11906,"Ġapprove":11907,"Ġpoetic":11908,"Ġthursday":11909,"Ġjug":11910,"olis":11911,"Ġacquies":11912,"Ġtranslated":11913,"Ġpersonage":11914,"Ġtouches":11915,"simply":11916,"Ġkicked":11917,"Ġobstinate":11918,"kit":11919,"Ġparagraph":11920,"Ġcommunicate":11921,"Ġlingering":11922,"bold":11923,"Ġcake":11924,"Ġchil":11925,"iless":11926,"Ġlandlady":11927,"rophe":11928,"Ġpacket":11929,"Ġruled":11930,"Ġeternity":11931,"Ġpatrick":11932,"Ġaccounted":11933,"instinct":11934,"Ġcob":11935,"Ġspringing":11936,"Ġinconsist":11937,"Ġbeth":11938,"Ġoverboard":11939,"Ġstrang":11940,"Ġrounded":11941,"Ġspray":11942,"accordingly":11943,"Ġfuss":11944,"Ġhousekeeper":11945,"Ġhorsemen":11946,"political":11947,"Ġsnug":11948,"Ġplanned":11949,"Ġdaniel":11950,"Ġornaments":11951,"Ġpartners":11952,"Ġinterven":11953,"shaped":11954,"Ġtravels":11955,"Ġnegot":11956,"Ġmartyr":11957,"situation":11958,"Ġlain":11959,"Ġobjections":11960,"Ġrelatives":11961,"boot":11962,"escape":11963,"thin":11964,"Ġdischarged":11965,"Ġpledge":11966,"Ġaft":11967,"Ġconcerns":11968,"Ġdesperately":11969,"Ġbower":11970,"Ġhonoured":11971,"Ġnegative":11972,"Ġembarrassment":11973,"finite":11974,"trying":11975,"stained":11976,"Ġprominent":11977,"cass":11978,"grey":11979,"Ġlind":11980,"fifty":11981,"excellent":11982,"hended":11983,"Ġpud":11984,"Ġhack":11985,"yellow":11986,"Ġbrigade":11987,"Ġron":11988,"aciously":11989,"thick":11990,"Ġstepping":11991,"Ġprofessed":11992,"extraordinary":11993,"lifted":11994,"yson":11995,"Ġriches":11996,"Ġcrooked":11997,"Ġstif":11998,"royal":11999,"ograp":12000,"Ġsensations":12001,"produced":12002,"emp":12003,"Ġmagnet":12004,"Ġfuriously":12005,"Ġrim":12006,"Ġshots":12007,"Ġthrice":12008,"Ġpanic":12009,"Ġuneasiness":12010,"Ġpanting":12011,"mens":12012,"hent":12013,"shout":12014,"duke":12015,"crossed":12016,"Ġdetective":12017,"Ġcass":12018,"Ġsecre":12019,"Ġattendance":12020,"Ġbuffalo":12021,"Ġmagistrate":12022,"nels":12023,"uction":12024,"maybe":12025,"Ġbuzz":12026,"Ġappearances":12027,"knife":12028,"Ġadministration":12029,"Ġfeeding":12030,"questions":12031,"Ġcooking":12032,"started":12033,"Ġpupils":12034,"Ġgrate":12035,"Ġhopeful":12036,"Ġlark":12037,"Ġblushed":12038,"Ġflint":12039,"Ġhumility":12040,"Ġevils":12041,"Ġexcite":12042,"zzie":12043,"verb":12044,"judge":12045,"Ġlump":12046,"brid":12047,"Ġmalice":12048,"knight":12049,"ancient":12050,"Ġextingu":12051,"yesterday":12052,"Ġunderneath":12053,"Ġbacked":12054,"Ġacquire":12055,"Ġrascal":12056,"atoes":12057,"Ġshoe":12058,"Ġagricult":12059,"Ġstealth":12060,"Ġcenter":12061,"quickly":12062,"Ġeyel":12063,"eld":12064,"Ġpartially":12065,"Ġkeeper":12066,"Ġengineer":12067,"Ġplough":12068,"Ġhonorable":12069,"xxx":12070,"Ġdeliberate":12071,"rup":12072,"Ġopportunities":12073,"Ġbeet":12074,"Ġdispers":12075,"Ġeric":12076,"Ġkneeling":12077,"Ġcoron":12078,"Ġspeculation":12079,"Ġhumbly":12080,"Ġstrolled":12081,"discuss":12082,"Ġborrow":12083,"Ġfits":12084,"pleas":12085,"Ġadds":12086,"Ġasia":12087,"Ġprosperous":12088,"material":12089,"aters":12090,"Ġrattle":12091,"Ġearned":12092,"meeting":12093,"Ġascertained":12094,"39":12095,"Ġphysi":12096,"Ġmourning":12097,"Ġemphasis":12098,"Ġmow":12099,"Ġcable":12100,"sevent":12101,"Ġsamuel":12102,"Ġsexual":12103,"possibly":12104,"Ġjulian":12105,"leigh":12106,"Ġul":12107,"Ġannie":12108,"Ġbrew":12109,"Ġpsal":12110,"Ġweb":12111,".\"--_":12112,"Ġambitious":12113,"Ġberlin":12114,"Ġaye":12115,"Ġsealed":12116,"future":12117,"wo":12118,"una":12119,"Ġsyll":12120,"Ġgrandeur":12121,"Ġassigned":12122,"Ġtyp":12123,"somebody":12124,"fortunate":12125,"lower":12126,"Ġgrieved":12127,"isive":12128,"enon":12129,"Ġexile":12130,"Ġprostr":12131,"Ġirresistible":12132,"defe":12133,"Ġxv":12134,"Ġdol":12135,"prim":12136,"contented":12137,"Ġrequested":12138,"Ġsplendour":12139,"Ġsignificance":12140,"louis":12141,"Ġwiped":12142,"died":12143,"seat":12144,"Ġammunition":12145,"tyard":12146,"Ġcivilized":12147,"aron":12148,"./":12149,"Ġbeams":12150,"Ġfulfilled":12151,"Ġwales":12152,"Ġapproved":12153,"Ġbottles":12154,"worse":12155,"intellect":12156,"Ġboss":12157,"Ġbarrel":12158,"Ġbury":12159,"Ġprincip":12160,"Ġurge":12161,"anthrop":12162,"adle":12163,"thom":12164,"Ġstrat":12165,"month":12166,"Ġenvelope":12167,"Ġgrotesque":12168,"opposite":12169,"mistress":12170,"Ġconverse":12171,"Ġ175":12172,"modern":12173,"thorough":12174,"Ġphineas":12175,"Ġpersonality":12176,"Ġhush":12177,"Ġmoors":12178,"goes":12179,"Ġcrawled":12180,"Ġbrim":12181,"Ġcavern":12182,"bir":12183,"elect":12184,"oblig":12185,"Ġencl":12186,"published":12187,"wyn":12188,"Ġnaval":12189,"Ġinterference":12190,"Ġblossom":12191,"speech":12192,"Ġsinners":12193,"Ġschemes":12194,"Ġlakes":12195,"Ġdove":12196,"izz":12197,"Ġwhereupon":12198,"Ġlame":12199,"Ġallowing":12200,"Ġacres":12201,"nings":12202,"sept":12203,"Ġstab":12204,"Ġdemean":12205,"shr":12206,"Ġsimult":12207,"Ġstrode":12208,"rud":12209,"mans":12210,"Ġcolored":12211,"stranger":12212,"walking":12213,"Ġhuts":12214,"authority":12215,"Ġhypocr":12216,"wand":12217,"acknow":12218,"Ġjoys":12219,"Ġconcert":12220,"Ġcane":12221,"odes":12222,"Ġimaginary":12223,"imagination":12224,"test":12225,"oneliness":12226,"Ġreceipt":12227,"shadow":12228,"Ġpainfully":12229,"possessed":12230,"Ġroy":12231,"Ġwatson":12232,"Ġinfluences":12233,"Ġoccurs":12234,"Ġsolely":12235,"iller":12236,"Ġxiii":12237,"Ġpigs":12238,"chin":12239,"Ġhighway":12240,"middle":12241,"Ġnoiseless":12242,"bug":12243,"Ġnigel":12244,"Ġardent":12245,"Ġsignificant":12246,"Ġdoomed":12247,"Ġwrist":12248,"ocity":12249,"Ġrobinson":12250,"nibal":12251,"eager":12252,"Ġdeclaring":12253,"curious":12254,"lon":12255,"Ġtart":12256,"entric":12257,"Ġevenings":12258,"Ġskins":12259,"minute":12260,"saf":12261,"Ġdyn":12262,"Ġmeals":12263,"Ġsadness":12264,"aphys":12265,"Ġharbor":12266,"Ġtuesday":12267,"Ġsweat":12268,"Ġcreate":12269,"Ġexercised":12270,"Ġagatha":12271,"Ġdevote":12272,"Ġjoyous":12273,"similar":12274,"Ġportuguese":12275,"Ġeffectually":12276,"Ġrepeating":12277,"Ġconclusions":12278,"nonsense":12279,"Ġhire":12280,"Ġoccurrence":12281,"Ġcoats":12282,"tos":12283,"Ġunw":12284,"Ġherald":12285,"Ġplunge":12286,"Ġassail":12287,"Ġdaybreak":12288,"Ġrelate":12289,"Ġdragging":12290,"paid":12291,"custom":12292,"Ġamend":12293,"Ġunity":12294,"Ġsolomon":12295,"colm":12296,"Ġhesitating":12297,"Ġivory":12298,"Ġpillars":12299,"Ġcrum":12300,"Ġroofs":12301,"ĠseÃ±":12302,"Ġslid":12303,"Ġreplaced":12304,"Ġabomin":12305,"Ġharness":12306,"Ġshawl":12307,"Ġclumsy":12308,"Ġantiqu":12309,"drink":12310,"cup":12311,"fun":12312,"Ġbrowning":12313,"holy":12314,"Ġwrest":12315,"Ġsaloon":12316,"\",":12317,"attend":12318,"Ġladen":12319,"Ġsnapped":12320,"recoll":12321,"Ġwithdrawn":12322,"Ġseasons":12323,"Ġalt":12324,"Ġpleases":12325,"Ġdeem":12326,"Ġemma":12327,"Ġacid":12328,"Ġbarrier":12329,"Ġrichmond":12330,"Ġdishes":12331,"Ġexplaining":12332,"Ġvainly":12333,"Ġpest":12334,"servants":12335,"creatures":12336,"Ġalliance":12337,"Ġspending":12338,"Ġglac":12339,"importance":12340,"bottom":12341,"acquaintance":12342,"ributes":12343,"Ġshorter":12344,"Ġagin":12345,"Ġprodigious":12346,"Ġseverity":12347,"Ġeg":12348,"Ġdusky":12349,"iry":12350,"Ġrack":12351,"bottle":12352,"Ġpraised":12353,"bent":12354,"Ġstain":12355,"Ġknox":12356,"colour":12357,"Ġconfidential":12358,"Ġfren":12359,"oper":12360,"evidence":12361,"monsieur":12362,"itative":12363,"ptuous":12364,"Ġpoles":12365,"Ġtypes":12366,"Ġachieved":12367,"Ġwither":12368,"Ġhagg":12369,"Ġchick":12370,"Ġdefended":12371,"cot":12372,"risto":12373,"Ġtus":12374,"Ġspectators":12375,"Ġadvocate":12376,"hement":12377,"Ġaided":12378,"Ġattacks":12379,"original":12380,"mock":12381,"irect":12382,"Ġcarr":12383,"Ġextending":12384,"Ġresemble":12385,"anxious":12386,"Ġglor":12387,"Ġprivately":12388,"Ġbertram":12389,"cook":12390,"Ġcoffin":12391,"Ġnothin":12392,"Ġobtaining":12393,"Ġscrut":12394,"Ġtoast":12395,"gown":12396,"Ġanthony":12397,"Ġfooting":12398,"belong":12399,"appears":12400,"adventure":12401,"Ġditch":12402,"Ġcarn":12403,")--":12404,"Ġembarrassed":12405,"parliament":12406,"Ġmcc":12407,"Ġperished":12408,"Ġdarted":12409,"ihil":12410,"sli":12411,"wear":12412,"Ġintensely":12413,"nets":12414,"vid":12415,"aby":12416,"Ġbestow":12417,"Ġcopies":12418,"appl":12419,"Ġversion":12420,"Ġdagger":12421,"Ġdisappro":12422,"Ġmiser":12423,"ographical":12424,"Ġaustralia":12425,"accompl":12426,"Ġkitty":12427,"declared":12428,"Ġsez":12429,"Ġamazing":12430,"Ġdolly":12431,"draw":12432,"Ġacquaintances":12433,"Ġsparkling":12434,"due":12435,"ishable":12436,"neck":12437,"flag":12438,"Ġcripp":12439,"Ġcorresponding":12440,"Ġissu":12441,"trad":12442,"holl":12443,"Ġcough":12444,"Ġsuffice":12445,"Ġvariation":12446,"Ġexcellency":12447,"Ġhamilton":12448,"Ġdainty":12449,"century":12450,"lesiast":12451,"Ġhorace":12452,"Ġultimately":12453,"Ġmodes":12454,"Ġimpressive":12455,"Ġnelson":12456,"evil":12457,"leans":12458,"Ġending":12459,"Ġenters":12460,"killed":12461,"Ġarbit":12462,"Ġcheese":12463,"Ġutterance":12464,"Ġloung":12465,"Ġinvalid":12466,"Ġpetition":12467,"Ġproves":12468,"lives":12469,"Ġmodesty":12470,"officer":12471,"Ġpitched":12472,"Ġcream":12473,"army":12474,"Ġvoc":12475,"eline":12476,"Ġoppressed":12477,"iliation":12478,"alls":12479,"hills":12480,"31":12481,"idays":12482,"instantly":12483,"Ġbridle":12484,"Ġanec":12485,"thorne":12486,"ops":12487,"ishness":12488,"Ġdeserves":12489,"Ġ31":12490,"Ġchancell":12491,"Ġrejoiced":12492,"Ġclarence":12493,"Ġattorney":12494,"Ġsenate":12495,"Ġwharf":12496,"telling":12497,"Ġlawful":12498,"Ġreddy":12499,"Ġvictims":12500,"Ġrubb":12501,"oric":12502,"serious":12503,"changing":12504,"barked":12505,"hunting":12506,"Ġanecd":12507,"lace":12508,"Ġtink":12509,"Ġomin":12510,"Ġripe":12511,"composed":12512,"Ġcomplicated":12513,"Ġpistols":12514,"marked":12515,"Ġbalcon":12516,"Ġregretted":12517,"tery":12518,"zo":12519,"inea":12520,"Ġworkman":12521,"system":12522,"Ġballad":12523,"Ġbisc":12524,"Ġuntr":12525,"bare":12526,"Ġleo":12527,"Ġposts":12528,"Ġ+":12529,"Ġinquis":12530,"beth":12531,"cult":12532,"Ġglist":12533,"intention":12534,"Ġspoiled":12535,"Ġspecific":12536,"possess":12537,"uke":12538,"Ġrags":12539,"Ġloos":12540,"penny":12541,"Ġchampion":12542,"75":12543,"Ġernest":12544,"Ġil":12545,"Ġkindred":12546,"proportion":12547,"Ġresembled":12548,"Ġcanst":12549,"Ġappend":12550,"Ġcars":12551,"Ġinhabited":12552,"Ġrebel":12553,"Ġorphan":12554,"fton":12555,"cester":12556,"Ġarabs":12557,"Ġshabby":12558,"scot":12559,"Ġmeetings":12560,"Ġdreadfully":12561,"surprised":12562,"Ġlumber":12563,"Ġedges":12564,"Ġtermed":12565,"margaret":12566,"Ġweariness":12567,"Ġhenceforth":12568,"Ġdebate":12569,"Ġperilous":12570,"Ġcurve":12571,"Ġbanner":12572,"Ġscreen":12573,"lev":12574,"ometer":12575,"Ġtearing":12576,"Ġinterruption":12577,"easily":12578,"onous":12579,"uther":12580,"Ġcomedy":12581,"Ġrevenue":12582,"threat":12583,"iard":12584,"Ġnour":12585,"Ġtheme":12586,"Ġposted":12587,"Ġfranklin":12588,"independ":12589,"Ġlined":12590,"Ġsubmission":12591,"Ġdeprived":12592,"Ġadmiring":12593,"Ġjaws":12594,"Ġattributed":12595,"Ġeb":12596,"Ġdrows":12597,"passage":12598,"Ġnursery":12599,"fits":12600,"Ġmanufacture":12601,"Ġrestaur":12602,"hampton":12603,"relation":12604,"mediate":12605,"Ġblanche":12606,"Ġhaughty":12607,"Ġtribute":12608,"Ġmethinks":12609,"raw":12610,"mering":12611,"Ġphrases":12612,"Ġcalifornia":12613,"Ġnan":12614,"Ġshew":12615,"Ġpatri":12616,"Ġorganic":12617,"Ġmulti":12618,"clim":12619,"flower":12620,"Ġannual":12621,"Ġexpressive":12622,"čččč":12623,"Ġtailor":12624,"Ġembraced":12625,"emen":12626,"Ġswan":12627,"Ġshrink":12628,"Ġtint":12629,"Ġworkmen":12630,"Ġexclaim":12631,"pending":12632,"Ġrepublican":12633,"veying":12634,"verley":12635,"Ġwears":12636,"osa":12637,"aze":12638,"Ġinfirm":12639,"80":12640,"pill":12641,"Ġobserver":12642,"Ġcommonplace":12643,"\".":12644,"Ġdal":12645,"Ġexpensive":12646,"Ġrecovery":12647,"Ġsubstantial":12648,"Ġscanty":12649,"Ġoppose":12650,"Ġbrightly":12651,"countenance":12652,"gill":12653,"Ġsoup":12654,"Ġxxiii":12655,"Ġhereditary":12656,"Ġbounded":12657,"Ġcert":12658,"raham":12659,"Ġbrighter":12660,"Ġpossessions":12661,"Ġlewis":12662,"Ġinvite":12663,"Ġnobleman":12664,"Ġaudible":12665,"inia":12666,"Ġcompact":12667,"Ġtrivial":12668,"Ġwallace":12669,"Ġarchitect":12670,"Ġuna":12671,"Ġemphat":12672,"Ġhebrew":12673,"ulu":12674,"powder":12675,"Ġsturdy":12676,"bri":12677,"gency":12678,"Ġdot":12679,"vered":12680,"nedy":12681,"locked":12682,"Ġharris":12683,"Ġdearly":12684,"Ġcivilisation":12685,"Ġcontemplation":12686,"odox":12687,"Ġillumin":12688,"Ġpierced":12689,"Ġexalted":12690,"32":12691,"rect":12692,"Ġloft":12693,"Ġaccordance":12694,"Ġwelcomed":12695,"raged":12696,"shoulders":12697,"instru":12698,"finding":12699,"yll":12700,"Ġbased":12701,"enzie":12702,"Ġagnes":12703,"Ġstatues":12704,"Ġdaresay":12705,"ptures":12706,"Ġfortress":12707,"Ġseventh":12708,"Ġprocured":12709,"Ġpeak":12710,"ignity":12711,"istol":12712,"Ġinvestigation":12713,"Ġchivalry":12714,"cousin":12715,"opatra":12716,"Ġproprietor":12717,"citiz":12718,"Ġtoes":12719,"Ġtopic":12720,"lane":12721,"Ġpatent":12722,"Ġwalker":12723,"Ġpursuing":12724,"Ġbasin":12725,"Ġenthusiastic":12726,"Ġministry":12727,"Ġrequis":12728,"Ġsteadfast":12729,"constitution":12730,"Ġsuits":12731,"Ġdeposited":12732,"iac":12733,"Ġafar":12734,"dun":12735,"moral":12736,"Ġdoctrines":12737,"aum":12738,"rating":12739,"Ġdistribution":12740,"Ġskil":12741,"Ġbasil":12742,"styled":12743,"tops":12744,"Ġexplo":12745,"Ġbreeding":12746,"Ġshriek":12747,"Ġtooth":12748,"Ġmeg":12749,"Ġcausing":12750,"barbar":12751,"Ġgleaming":12752,"Ġpinch":12753,"Ġtonight":12754,"eron":12755,"Ġanon":12756,"Ġhamlet":12757,"Ġeastward":12758,"Ġapprehens":12759,"eau":12760,"Ġprelim":12761,"Ġwells":12762,"ucer":12763,"Ġdetached":12764,"bob":12765,"Ġmim":12766,"apse":12767,"Ġpearl":12768,"printed":12769,"Ġastonishing":12770,"arri":12771,"Ġresort":12772,"ernation":12773,"handsome":12774,"hire":12775,"acting":12776,"Ġpeb":12777,"Ġinstructed":12778,"Ġali":12779,"Ġfearing":12780,"dish":12781,"icting":12782,"utt":12783,".\"[":12784,"Ġambassador":12785,"Ġmelt":12786,"windows":12787,"Ġhawk":12788,"Ġprivileges":12789,"Ġumbrella":12790,"Ġreco":12791,"anton":12792,"Ġgenerals":12793,"ubb":12794,"moreover":12795,"Ġappreciation":12796,"Ġrecovering":12797,"Ġalternative":12798,"excuse":12799,"Ġheadlong":12800,"restr":12801,"Ġsleeve":12802,"paris":12803,"notice":12804,"Ġapples":12805,"Ġfloat":12806,"Ġtacit":12807,"kered":12808,"shell":12809,"progress":12810,"Ġdifferently":12811,"dney":12812,"Ġxvi":12813,"Ġoccasioned":12814,"marry":12815,"fighting":12816,"Ġfertile":12817,"Ġmerciful":12818,"Ġdidst":12819,"syl":12820,"pensable":12821,"explained":12822,"Ġrepentance":12823,"Ġthicket":12824,"Ġrubbing":12825,"Ġfinan":12826,"Ġcivilised":12827,"Ġinland":12828,"lee":12829,"Ġadmission":12830,"greatest":12831,"profession":12832,"Ġsemi":12833,"Ġshares":12834,"Ġcondes":12835,"itia":12836,"Ġdiana":12837,"otto":12838,"Ġsabb":12839,"Ġrealised":12840,"Ġwestminster":12841,"Ġlanc":12842,"Ġchau":12843,"Ġfavoured":12844,"Ġbeau":12845,"Ġcomposure":12846,"itually":12847,"Ġlanguages":12848,"watching":12849,"Ġexceeding":12850,"square":12851,"Ġextravagant":12852,"Ġlav":12853,"sax":12854,"Ġforbear":12855,"astrophe":12856,"Ġdisposal":12857,"states":12858,"Ġbronze":12859,"fem":12860,"afford":12861,"matical":12862,"bones":12863,"Ġcum":12864,"Ġrepet":12865,"Ġransom":12866,"Ġbored":12867,"Ġboards":12868,"Ġdelayed":12869,"Ġrefusal":12870,"Ġundertaking":12871,"zza":12872,"Ġfaltered":12873,"Ġdiscussing":12874,"Ġaqu":12875,"information":12876,".\"]":12877,"Ġpere":12878,"Ġjudging":12879,"Ġrescued":12880,"Ġdisdain":12881,"Ġfidelity":12882,"Ġvale":12883,"jamin":12884,"nigh":12885,"section":12886,"Ġenlar":12887,"Ġhinder":12888,"Ġslaughter":12889,"Ġstewart":12890,"Ġcurled":12891,"Ġassass":12892,"Ġthickly":12893,"matic":12894,"uled":12895,"Ġpenit":12896,"Ġpalaces":12897,"Ġrepresentation":12898,"expressed":12899,"consideration":12900,"Ġawait":12901,"forgive":12902,"gray":12903,"train":12904,"Ġwednesday":12905,"sword":12906,"Ġspencer":12907,"Ġgenus":12908,"Ġorchard":12909,"Ġja":12910,"Ġnormal":12911,"Ġwondrous":12912,"Ġsecondly":12913,"Ġverge":12914,"Ġshattered":12915,"Ġimplied":12916,"control":12917,"Ġodious":12918,"Ġodds":12919,"indif":12920,"affairs":12921,"Ġshaped":12922,"Ġseemingly":12923,"Ġturner":12924,"doors":12925,"Ġvenus":12926,"Ġll":12927,"Ġlull":12928,"Ġsheltered":12929,"Ġemig":12930,"Ġhumorous":12931,"Ġextinct":12932,"mamma":12933,"dep":12934,"Ġdarker":12935,"lights":12936,"Ġrespectful":12937,"Ġpraying":12938,"Ġprocure":12939,"Ġchancellor":12940,"Ġequality":12941,"smoke":12942,"Ġobstin":12943,"Ġresignation":12944,"bos":12945,"fier":12946,"Ġblushing":12947,"Ġactor":12948,"Ġticket":12949,"gow":12950,"Ġbail":12951,"Ġpreface":12952,"Ġparcel":12953,"hence":12954,"spirits":12955,"fellows":12956,"plant":12957,"avoid":12958,"Ġfrock":12959,"instance":12960,"Ġprices":12961,"Ġparaly":12962,"Ġhudson":12963,"Ġretreated":12964,"etime":12965,"Ġrealise":12966,"xion":12967,"cival":12968,"Ġpreaching":12969,"Ġentry":12970,"ethro":12971,"Ġvibr":12972,"Ġselling":12973,"Ġstarve":12974,"hither":12975,"Ġreads":12976,"Ġsunrise":12977,"doubtless":12978,"Ġauld":12979,"Ġblunder":12980,"Ġpositions":12981,"Ġcuthbert":12982,"ete":12983,"plate":12984,"Ġglided":12985,"Ġsenator":12986,"vain":12987,"itory":12988,"unciation":12989,"Ġproclaimed":12990,"Ġhull":12991,"Ġnowadays":12992,"Ġaccidents":12993,"Ġmonte":12994,"Ġconvenience":12995,"decided":12996,"Ġtren":12997,"Ġoffensive":12998,"consequence":12999,"ollen":13000,"Ġrecru":13001,"Ġhabitual":13002,"Ġwalt":13003,"Ġrecl":13004,"ateur":13005,"Ġcontinuous":13006,"Ġirrit":13007,"Ġjewel":13008,"Ġskirts":13009,":--\"":13010,"Ġgaily":13011,"Ġindulge":13012,"motion":13013,"Ġbass":13014,"offer":13015,"fo":13016,"aman":13017,"Ġtransp":13018,"Ġhusbands":13019,"Ġbustle":13020,"Ġmoustache":13021,"Ġstumbled":13022,"anders":13023,"Ġspurs":13024,"enser":13025,"Ġtorch":13026,"Ġmelod":13027,"Ġsources":13028,"chat":13029,"Ġtasted":13030,"Ġhil":13031,"pecial":13032,"Ġjake":13033,"Ġurgent":13034,"Ġinstinctively":13035,"Ġunexpectedly":13036,"Ġmum":13037,"Ġaccuracy":13038,"Ġprejudices":13039,"Ġmaids":13040,"animals":13041,"Ġsneer":13042,"niff":13043,"named":13044,"tall":13045,"Ġhound":13046,"Ġascent":13047,"Ġperchance":13048,"shel":13049,"Ġstriving":13050,"Ġcrop":13051,"Ġexcepting":13052,"Ġther":13053,"Ġtheories":13054,"Ġconform":13055,"Ġnewman":13056,"Ġhend":13057,"48":13058,"49":13059,"Ġpots":13060,"maduke":13061,"mud":13062,"rough":13063,"Ġrowed":13064,"happily":13065,"Ġcolumbus":13066,"Ġsums":13067,"abella":13068,"Ġcharmed":13069,"Ġelapsed":13070,"Ġbuying":13071,"Ġbeauties":13072,"Ġramp":13073,"indian":13074,"Ġmemorable":13075,"46":13076,"Ġknives":13077,"Ġconscient":13078,"Ġmeets":13079,"Ġcourtyard":13080,"Ġgoat":13081,"grims":13082,"excitement":13083,"Ġpassionately":13084,"Ġkissing":13085,"Ġfiend":13086,"Ġlyn":13087,"alice":13088,"Ġgaining":13089,"lyle":13090,"Ġsahib":13091,"Ġloaf":13092,"Ġrogue":13093,"Ġentr":13094,"Ġsentine":13095,"Ġbabe":13096,"Ġabide":13097,"Ġtay":13098,"ali":13099,"Ġcommend":13100,"handkerchief":13101,"Ġkisses":13102,"Ġberth":13103,"Ġharp":13104,"Ġhonours":13105,"archy":13106,"Ġlogical":13107,"Ġsped":13108,"Ġsme":13109,"hames":13110,"Ġnodding":13111,"Ġdemocracy":13112,"Ġcourteous":13113,"Ġtraffic":13114,"cost":13115,"Ġfag":13116,"onia":13117,"Ġcracked":13118,"Ġpars":13119,"chus":13120,"Ġairs":13121,"companions":13122,"Ġgabriel":13123,"Ġstanley":13124,"Ġpausing":13125,"Ġcoco":13126,"Ġtries":13127,"parts":13128,"Ġwearied":13129,"Ġsall":13130,"Ġworm":13131,"Ġexertions":13132,"wid":13133,"wished":13134,"Ġtemperature":13135,"Ġgloss":13136,"Ġdiscreet":13137,"Ġfergus":13138,"itives":13139,"riers":13140,"nell":13141,"Ġlodged":13142,"bath":13143,"Ġhints":13144,"Ġdisappear":13145,"Ġpreference":13146,"Ġ(\"":13147,"uate":13148,"Ġhailed":13149,"leading":13150,"Ġpamph":13151,"Ġcounc":13152,"aband":13153,"icester":13154,"settle":13155,"colored":13156,"Ġgardener":13157,"Ġteddy":13158,"Ġgir":13159,"ican":13160,"Ġinfernal":13161,"Ġgalley":13162,"occasionally":13163,"sacrifice":13164,"cred":13165,"Ġwreath":13166,"Ġfrighten":13167,"established":13168,"Ġtas":13169,"celot":13170,"Ġpatches":13171,"touch":13172,"ialect":13173,"Ġworlds":13174,"Ġvein":13175,"Ġpropositions":13176,"Ġmournful":13177,"Ġelected":13178,"Ġbrink":13179,"Ġbutcher":13180,"hensible":13181,"walls":13182,"oman":13183,"pective":13184,"legs":13185,"grandfather":13186,"Ġfelicity":13187,"las":13188,"Ġponder":13189,"adm":13190,"Ġsaviour":13191,"Ġspake":13192,"Ġrefusing":13193,"Ġobligation":13194,"Ġchatter":13195,"loo":13196,"tan":13197,"Ġhappening":13198,"Ġhorribly":13199,"Ġrapidity":13200,"Ġbags":13201,"conditions":13202,"Ġheaps":13203,"Ġoffend":13204,"Ġpearls":13205,"fed":13206,"Ġprophecy":13207,"Ġdit":13208,"Ġyan":13209,"Ġquarrels":13210,"Ġdrifting":13211,"Ġdocuments":13212,"Ġcomparative":13213,"Ġtraditions":13214,"Ġattentive":13215,"========":13216,"false":13217,"vice":13218,"Ġcit":13219,"Ġpreached":13220,"Ġslug":13221,"exer":13222,"Ġmotions":13223,"onson":13224,"valent":13225,"Ġgarment":13226,"Ġbor":13227,"exped":13228,"Ġclement":13229,"Ġcomplained":13230,"Ġhauled":13231,"Ġdefined":13232,"Ġsweetest":13233,"Ġrichly":13234,"Ġrevolt":13235,"Ġsympathies":13236,"Ġphilosophers":13237,"ĠÂ§":13238,"david":13239,"jar":13240,"rev":13241,"omwell":13242,"Ġsettling":13243,"Ġpreceded":13244,"Ġverdict":13245,"resem":13246,"Ġforgiveness":13247,"Ġantiquity":13248,"Ġflattered":13249,"Ġpiety":13250,"Ġrevived":13251,"Ġrice":13252,"desper":13253,"carefully":13254,"Ġfolds":13255,"Ġsurroundings":13256,"Ġliquid":13257,"Ġconspiracy":13258,"Ġpav":13259,"foreign":13260,"Ġburton":13261,"gars":13262,"sear":13263,"Ġsculpture":13264,"Ġfrances":13265,"Ġarisen":13266,"Ġtrials":13267,"news":13268,"Ġcellar":13269,"Ġbeforehand":13270,"angs":13271,"fted":13272,"Ġpuritan":13273,"Ġsentences":13274,"Ġproudly":13275,"Ġshroud":13276,"truly":13277,"Ġacademy":13278,"Ġhyster":13279,"putting":13280,"Ġtolerably":13281,"Ġnabob":13282,"Ġbrushed":13283,"Ġinsignific":13284,"pointed":13285,"Ġsabbath":13286,"icit":13287,"Ġeman":13288,"Ġfrowned":13289,"Ġintending":13290,"accident":13291,"Ġravine":13292,"Ġmu":13293,"Ġlizzie":13294,"Ġbegging":13295,"Ġwarfare":13296,"Ġware":13297,"Ġleagues":13298,"Ġconfed":13299,"elizabeth":13300,"wright":13301,"Ġexasper":13302,"Ġarches":13303,"Ġcongregation":13304,"Ġenergetic":13305,"Ġharr":13306,"beast":13307,"Ġillustrious":13308,"Ġsights":13309,"Ġreveal":13310,"june":13311,"twelve":13312,"Ġhomeward":13313,"Ġwelsh":13314,"Ġhorrors":13315,"animity":13316,"Ġnasty":13317,"Ġadjoining":13318,"Ġperv":13319,"Ġsanction":13320,"Ġpotent":13321,"Ġbirthday":13322,"Ġshuddered":13323,"Ġsacrificed":13324,"chievous":13325,"Ġhillside":13326,"Ġimpert":13327,"Ġejaculated":13328,"Ġtedious":13329,"Ã¼":13330,"persu":13331,"Ġproportions":13332,"sorry":13333,"Ġbrist":13334,"Ġhelmet":13335,"Ġoblige":13336,"sky":13337,"Ġomitted":13338,"Ġensued":13339,"Ġtenants":13340,"Ġstubborn":13341,"Ġgul":13342,"Ġdesolation":13343,"stricken":13344,"laughing":13345,"som":13346,"impression":13347,"calm":13348,"Ġfinn":13349,"Ġeleanor":13350,"Ġmirac":13351,"namely":13352,"Ġgrinned":13353,"Ġantony":13354,"Ġvehicle":13355,"Ġreins":13356,"Ġweren":13357,"attack":13358,"Ġequip":13359,"Ġbishops":13360,"Ġroberts":13361,"Ġbard":13362,"enna":13363,"Ġlime":13364,"pels":13365,"Ġlev":13366,"ooks":13367,"coast":13368,"Ġproperties":13369,"Ġwithal":13370,"Ġexhibit":13371,"Ġfetched":13372,"offered":13373,"Ġwhereof":13374,"Ġliverpool":13375,"Ġsultan":13376,"obe":13377,"Ġgroom":13378,"Ġangles":13379,"Ġwhisky":13380,"luc":13381,"Ġbould":13382,"Ġsequ":13383,"deacon":13384,"Ġclient":13385,"Ġblocks":13386,"Ġsurf":13387,"curt":13388,"Ġbanquet":13389,"Ġgrieve":13390,"cabin":13391,"Ġinspector":13392,"Ġbachelor":13393,"Ġhilda":13394,"Ġwrongs":13395,"compet":13396,"Ġsouthward":13397,"Ġnovelty":13398,"Ġrusty":13399,"ilion":13400,"feather":13401,"Ġterence":13402,"preced":13403,"Ġcontradict":13404,"isse":13405,"Ġconfronted":13406,"Ġundertaken":13407,"Ġqueried":13408,"sides":13409,"Ġpard":13410,"Ġcarpenter":13411,"igne":13412,"Ġoxen":13413,"Ġsymptoms":13414,"olds":13415,"Ġattraction":13416,"gam":13417,"gies":13418,"Ġloneliness":13419,"accur":13420,"uelly":13421,"Ġvariations":13422,"Ġradiant":13423,"Ġdiminished":13424,"Ġdubl":13425,"Ġdepl":13426,"proud":13427,"Ġindulged":13428,"Ġprussian":13429,"Ġconstructed":13430,"Ġvices":13431,"icely":13432,"Ġsuccessfully":13433,"Ġcrowds":13434,"pure":13435,"Ġgur":13436,"Ġbuoy":13437,"mina":13438,"minister":13439,"Ġpoliteness":13440,"Ġphilosophical":13441,"adelph":13442,"thorn":13443,"Ġtrader":13444,"Ġpretending":13445,"Ġsubur":13446,"suspic":13447,"Ġbowing":13448,"Ġmabel":13449,"iro":13450,"trade":13451,"!...":13452,"Ġfamine":13453,"Ġledge":13454,"Ġplanet":13455,"tears":13456,"Ġclenched":13457,"Ġtended":13458,"Ġdistracted":13459,"Ġprofits":13460,"Ġsubjected":13461,"Ġruler":13462,"Ġneatly":13463,"america":13464,"Ġvegetation":13465,"Ġneut":13466,"Ġconference":13467,"Ġminded":13468,"Ġgait":13469,"Ġaustrian":13470,"Ġnas":13471,"Ġalmighty":13472,"Ġresume":13473,"Ġpossibilities":13474,"chest":13475,"Ġenchanted":13476,"Ġcust":13477,"Ġabhor":13478,"cled":13479,"cliff":13480,"Ġscor":13481,"Ġaffecting":13482,"xim":13483,"Ġlungs":13484,"pick":13485,"Ġmantle":13486,"inisc":13487,"outer":13488,"Ġleop":13489,"Ġshelf":13490,"Ġharvey":13491,"Ġmistakes":13492,"guess":13493,"Ġdomest":13494,"aiser":13495,"directly":13496,"Ġlectures":13497,"Ġgrub":13498,"Ġsucceeding":13499,"quietly":13500,"):":13501,"65":13502,"vings":13503,"wark":13504,"anna":13505,"Ġxxiv":13506,"pale":13507,"Ġimposed":13508,"Ġguar":13509,"Ġpolish":13510,"itzer":13511,"ecess":13512,"loss":13513,"Ġorth":13514,"bee":13515,"Ġbleeding":13516,"Ġwade":13517,"Ġreass":13518,"Ġenclosed":13519,"Ġveter":13520,"ropri":13521,"Ġrestrain":13522,"Ġteachers":13523,"Ġexaggerated":13524,"Ġstripped":13525,"Ġvalued":13526,"Ġlabou":13527,"Ġepis":13528,"urt":13529,"Ġvicious":13530,"Ġcontinues":13531,"Ġcircus":13532,"Ġprovinces":13533,"Ġdublin":13534,"stir":13535,"Ġ48":13536,"Ġsniff":13537,"Ġnorthward":13538,"Ġindulgence":13539,"Ġlac":13540,"Ġshaggy":13541,"Ġchicago":13542,"reput":13543,"hap":13544,"Ġkettle":13545,"Ġtruck":13546,"Ġincor":13547,"Ġindies":13548,"Ġvehement":13549,"Ġrosam":13550,"Ġrustic":13551,"Ġstages":13552,"Ġunreasonable":13553,"clad":13554,"steady":13555,"Ġprofoundly":13556,"Ġidleness":13557,"Ġturkey":13558,"mistak":13559,"Ġnostri":13560,"spot":13561,"Ġpitiful":13562,"Ġmarsh":13563,"cos":13564,"faint":13565,"utable":13566,"Ġrely":13567,"Ġexcellence":13568,"Ġconventional":13569,"Ġfoss":13570,"season":13571,"Ġforfe":13572,"Ġadvert":13573,"Ġlighting":13574,"Ġrests":13575,"Ġhangs":13576,"legged":13577,"Ġassociations":13578,"acquainted":13579,"lucy":13580,"Ġech":13581,"Ġfork":13582,"Ġunlucky":13583,"Ġkend":13584,"surface":13585,"Ġfabric":13586,"tical":13587,"eties":13588,"Ġvoid":13589,"Ġpotatoes":13590,"Ġaugustus":13591,"enthus":13592,"growing":13593,"breaking":13594,"Ġdefinition":13595,"Ġbabies":13596,"Ġtroublesome":13597,"90":13598,"Ġfewer":13599,"arranged":13600,"explan":13601,"remarkable":13602,"Ġowl":13603,"Ġconsisting":13604,"Ġperplexity":13605,"Ġalley":13606,"Ġjem":13607,"Ġsatire":13608,"Ġfireplace":13609,"footnotes":13610,"friendly":13611,"Ġhenrietta":13612,"Ġfrantic":13613,"Ġoverfl":13614,"Ġpepper":13615,"rub":13616,"Ġgenera":13617,"clean":13618,"Ġcells":13619,"Ġtelephone":13620,"Ġdated":13621,"staff":13622,"Ġconsumed":13623,"Ġinvasion":13624,"Ġgoverned":13625,"Ġpostp":13626,"Ġcompetition":13627,"sentiment":13628,"Ġraging":13629,"Ġgasp":13630,"Ġstockings":13631,"Ġclerks":13632,"Ġmaurice":13633,"47":13634,"elf":13635,"Ġmand":13636,"Ġstained":13637,"Ġspont":13638,"Ġfling":13639,"Ġsalary":13640,"Ġdeput":13641,"Ġstops":13642,"ivalent":13643,"Ġsomerset":13644,"principles":13645,"Ġtib":13646,"raoh":13647,"Ġapron":13648,"Ġviewed":13649,"visible":13650,"papa":13651,"Ġreigned":13652,"Ġunbroken":13653,"Ġcamels":13654,"Ġillustration":13655,"cribe":13656,"Ġphenomenon":13657,"Ġstorms":13658,"Ġrebels":13659,"Ġjoining":13660,"Ġbatteries":13661,"Ġcynthia":13662,"Ġturkish":13663,"pipe":13664,"Ġnails":13665,"Ġskeleton":13666,"igan":13667,"Ġamen":13668,"anybody":13669,"limited":13670,"Ġadapt":13671,"gering":13672,"Ġstump":13673,"Ġclaude":13674,"Ġwhistling":13675,"sharp":13676,"Ġindefinite":13677,"Ġassumption":13678,"Ġdissip":13679,"takes":13680,"Ġfishes":13681,"washed":13682,"Ġscreaming":13683,"dangerous":13684,"pierre":13685,"egypt":13686,"Ġhowling":13687,"Ġurs":13688,"Ġessays":13689,"Ġcircuit":13690,"Ġhod":13691,"...\"":13692,"Ġvalent":13693,"religious":13694,"kill":13695,"oons":13696,"bray":13697,"Ġadvis":13698,"Ġspaniard":13699,"soldier":13700,"whenever":13701,"moving":13702,"Ġstormy":13703,"Ġgains":13704,"Ġsuperintend":13705,"Ġendeavouring":13706,"Ġluggage":13707,"pack":13708,"onic":13709,"Ġstooping":13710,"ivities":13711,"Ġhomely":13712,"Ġarray":13713,"lass":13714,"Ġsta":13715,"amen":13716,"Ġsurm":13717,"Ġbarbarous":13718,"Ġdevout":13719,"Â·":13720,"Ġdome":13721,"Ġstony":13722,"Ġesqu":13723,"Ġrealm":13724,"special":13725,"Ġstreaming":13726,"Ġstruggles":13727,"Ġconsistent":13728,"Ġrushes":13729,"pound":13730,"Ġblasp":13731,"actually":13732,"Ġparas":13733,"Ġairy":13734,"Ġbiggest":13735,"Ġdetest":13736,"Ġchaplain":13737,"Ġpassenger":13738,"Ġadmirably":13739,"Ġsobbing":13740,"Ġvegetable":13741,"Ġtenth":13742,"Ġcontemporary":13743,"Ġtony":13744,"Ġbessie":13745,"Ġgraces":13746,"Ġproduces":13747,"calcul":13748,"music":13749,"ended":13750,"Ġclavering":13751,"brand":13752,"Ġpays":13753,"Ġvanish":13754,"mare":13755,"ima":13756,"Ġasp":13757,"Ġnoblest":13758,"mented":13759,"iley":13760,"Ġcurate":13761,"somewhere":13762,"Ġ177":13763,"suffering":13764,"Ġribs":13765,"suggested":13766,"Ġnoises":13767,"Ġunfit":13768,"rett":13769,"Ġgradual":13770,"Ġtropical":13771,"distinguished":13772,"Ġtract":13773,"worked":13774,"Ġleapt":13775,"Ġprecaution":13776,"assem":13777,"Ġclive":13778,"Ġinquiring":13779,"Ġmatthew":13780,"oirs":13781,"wend":13782,"Ġwatches":13783,"Ġsupernatural":13784,"distant":13785,"lieutenant":13786,"Ġnostrils":13787,"cun":13788,"thest":13789,"uben":13790,"rome":13791,"inn":13792,"Ġsuck":13793,"Ġapoll":13794,"Ġlaunch":13795,"Ġcomplac":13796,"stephen":13797,"Ġrousseau":13798,"Ġindirect":13799,"Ġorderly":13800,"Ġdivisions":13801,"impat":13802,"Ġeyed":13803,"Ġmisfortunes":13804,"conscience":13805,"Ġmalcolm":13806,"Ġimmensely":13807,"gor":13808,"Ġbount":13809,"Ġsting":13810,"commission":13811,"Ġrepresenting":13812,"grew":13813,"range":13814,"Ġfile":13815,"Ġrewarded":13816,"behold":13817,"wasn":13818,"Ġtranquil":13819,"oult":13820,"Ġcontribut":13821,"Ã©e":13822,"Ġnineteen":13823,"isance":13824,"Ġdiet":13825,"Ġweeds":13826,"Ġenvelop":13827,"Ġbrooke":13828,"prit":13829,"Ġpunch":13830,"Ġbattal":13831,"Ġconjecture":13832,"Ġinfluenced":13833,"governor":13834,"Ġkennedy":13835,"ĠseÃ±or":13836,"Ġhector":13837,"secr":13838,"Ġnewcome":13839,"Ġcurls":13840,"Ġbullets":13841,"Ġyielding":13842,"Ġcovenant":13843,"science":13844,"istinct":13845,"Ġshrine":13846,"Ġindignantly":13847,"Ġdominion":13848,"Ġjumping":13849,"gradually":13850,"Ġcalamity":13851,"_{":13852,"Ġvoll":13853,"Ġtrains":13854,"ogene":13855,"german":13856,"Ġinsin":13857,"Ġtrusting":13858,"Ġgrasping":13859,"iche":13860,"Ġrouse":13861,"cling":13862,"capable":13863,"vig":13864,"Ġmug":13865,"Ġsmote":13866,"Ġlegitimate":13867,"judgment":13868,"Ġdescendants":13869,"Ġvoltaire":13870,"degree":13871,"Ġmiracles":13872,"Ġinvestig":13873,"superior":13874,"Ġprecipice":13875,"Ġoar":13876,"riet":13877,"Ġpeac":13878,"Ġchurchyard":13879,"Ġaccepting":13880,"Ġjonathan":13881,"height":13882,"Ġeug":13883,"ulses":13884,"Ġshivered":13885,"Ġnobler":13886,"Ġtechn":13887,"sunday":13888,"Ġboyhood":13889,"Ġacceptance":13890,"Ġheroine":13891,"Ġsorely":13892,"Ġfisherman":13893,"Ġcorruption":13894,"Ġvarying":13895,"groom":13896,"Ġrural":13897,"Ġstarving":13898,"Ġannouncement":13899,"Ġgiles":13900,"Ġreaction":13901,"Ġarc":13902,"Ġplank":13903,"Ġdrawer":13904,"Ġmarshal":13905,"aria":13906,"Ġpainters":13907,"Ġtransferred":13908,"promised":13909,"Ġdeceit":13910,"dropped":13911,"Ġsobbed":13912,"Ġreverent":13913,"Ġimaginative":13914,"Ġmoll":13915,"Ġpulse":13916,"opening":13917,"Ġsmug":13918,"myth":13919,"Ġsweetly":13920,"Ġstatements":13921,"Ġcanad":13922,"Ġchaff":13923,"Ġcorporal":13924,"Ġmuddy":13925,"Ġblot":13926,"Ġswar":13927,"Ġcyril":13928,"Ġmau":13929,"Ġfib":13930,"otent":13931,"altern":13932,"Ġweird":13933,"mult":13934,"wrote":13935,"Ġmules":13936,"Ġapprent":13937,"ifer":13938,"gently":13939,"Ġgull":13940,"Ġbese":13941,"Ġexclusively":13942,"Ġida":13943,"Ġhomage":13944,"illustr":13945,"Ġsof":13946,"Ġclue":13947,"Ġespecial":13948,"Ġneedless":13949,"contempt":13950,"Ġforthwith":13951,"Ġotter":13952,"hearing":13953,"Ġmerton":13954,"Ġhoward":13955,"Ġ170":13956,"Ġfavorable":13957,"market":13958,"Ġrestrained":13959,"Ġpagan":13960,"Ġsanta":13961,"Ġdey":13962,"Ġtwit":13963,"notwithstanding":13964,"irling":13965,"Ġsteed":13966,"Ġresembling":13967,"adelphia":13968,"Ġboyish":13969,"Ġrecur":13970,"greatly":13971,"grav":13972,"lesiastical":13973,"fail":13974,"vision":13975,"abilities":13976,"becoming":13977,"Ġricher":13978,"animal":13979,"mut":13980,"!\"--":13981,"odd":13982,"Ġmused":13983,"Ġapes":13984,"Ġbreeds":13985,"Ġmetaphys":13986,"Ġperpetually":13987,"rd":13988,"scott":13989,"Ġraft":13990,"ĠĠĠĠĠĠĠĠĠĠĠĠĠĠĠĠĠĠĠĠĠĠĠĠĠĠĠĠĠĠĠĠĠĠĠ":13991,"Ġspectator":13992,"inhabit":13993,"Ġplent":13994,"Ġlays":13995,"twice":13996,"Ġdivor":13997,"bree":13998,"Ġcheered":13999,"Ġdelights":14000,"Ġcircular":14001,"anter":14002,"Ġdissent":14003,"Ġearthqu":14004,"Ġtransparent":14005,"auld":14006,"Ġparade":14007,"Ġxxv":14008,"Ġsolemnity":14009,"Ġdashing":14010,"andah":14011,"throughout":14012,"Ġguidance":14013,"breat":14014,"otic":14015,"Ġproceeds":14016,"Ġthreats":14017,"narrow":14018,"Ġborders":14019,"Ġstables":14020,"Ġresisted":14021,"Ġassuming":14022,"Ġrobber":14023,"Ġalexand":14024,"sop":14025,"Ġbash":14026,"Ġproverb":14027,"Ġxvii":14028,"Ġmagdal":14029,"Ġpeculiarities":14030,"Ġexposure":14031,
[...]
